<pad>	0
<s>	0
</s>	0
<unk>	0
	0
	0
	0
	0
<0x00>	0
<0x01>	0
<0x02>	0
<0x03>	0
<0x04>	0
<0x05>	0
<0x06>	0
<0x07>	0
<0x08>	0
<0x09>	0
<0x0A>	0
<0x0B>	0
<0x0C>	0
<0x0D>	0
<0x0E>	0
<0x0F>	0
<0x10>	0
<0x11>	0
<0x12>	0
<0x13>	0
<0x14>	0
<0x15>	0
<0x16>	0
<0x17>	0
<0x18>	0
<0x19>	0
<0x1A>	0
<0x1B>	0
<0x1C>	0
<0x1D>	0
<0x1E>	0
<0x1F>	0
<0x20>	0
<0x21>	0
<0x22>	0
<0x23>	0
<0x24>	0
<0x25>	0
<0x26>	0
<0x27>	0
<0x28>	0
<0x29>	0
<0x2A>	0
<0x2B>	0
<0x2C>	0
<0x2D>	0
<0x2E>	0
<0x2F>	0
<0x30>	0
<0x31>	0
<0x32>	0
<0x33>	0
<0x34>	0
<0x35>	0
<0x36>	0
<0x37>	0
<0x38>	0
<0x39>	0
<0x3A>	0
<0x3B>	0
<0x3C>	0
<0x3D>	0
<0x3E>	0
<0x3F>	0
<0x40>	0
<0x41>	0
<0x42>	0
<0x43>	0
<0x44>	0
<0x45>	0
<0x46>	0
<0x47>	0
<0x48>	0
<0x49>	0
<0x4A>	0
<0x4B>	0
<0x4C>	0
<0x4D>	0
<0x4E>	0
<0x4F>	0
<0x50>	0
<0x51>	0
<0x52>	0
<0x53>	0
<0x54>	0
<0x55>	0
<0x56>	0
<0x57>	0
<0x58>	0
<0x59>	0
<0x5A>	0
<0x5B>	0
<0x5C>	0
<0x5D>	0
<0x5E>	0
<0x5F>	0
<0x60>	0
<0x61>	0
<0x62>	0
<0x63>	0
<0x64>	0
<0x65>	0
<0x66>	0
<0x67>	0
<0x68>	0
<0x69>	0
<0x6A>	0
<0x6B>	0
<0x6C>	0
<0x6D>	0
<0x6E>	0
<0x6F>	0
<0x70>	0
<0x71>	0
<0x72>	0
<0x73>	0
<0x74>	0
<0x75>	0
<0x76>	0
<0x77>	0
<0x78>	0
<0x79>	0
<0x7A>	0
<0x7B>	0
<0x7C>	0
<0x7D>	0
<0x7E>	0
<0x7F>	0
<0x80>	0
<0x81>	0
<0x82>	0
<0x83>	0
<0x84>	0
<0x85>	0
<0x86>	0
<0x87>	0
<0x88>	0
<0x89>	0
<0x8A>	0
<0x8B>	0
<0x8C>	0
<0x8D>	0
<0x8E>	0
<0x8F>	0
<0x90>	0
<0x91>	0
<0x92>	0
<0x93>	0
<0x94>	0
<0x95>	0
<0x96>	0
<0x97>	0
<0x98>	0
<0x99>	0
<0x9A>	0
<0x9B>	0
<0x9C>	0
<0x9D>	0
<0x9E>	0
<0x9F>	0
<0xA0>	0
<0xA1>	0
<0xA2>	0
<0xA3>	0
<0xA4>	0
<0xA5>	0
<0xA6>	0
<0xA7>	0
<0xA8>	0
<0xA9>	0
<0xAA>	0
<0xAB>	0
<0xAC>	0
<0xAD>	0
<0xAE>	0
<0xAF>	0
<0xB0>	0
<0xB1>	0
<0xB2>	0
<0xB3>	0
<0xB4>	0
<0xB5>	0
<0xB6>	0
<0xB7>	0
<0xB8>	0
<0xB9>	0
<0xBA>	0
<0xBB>	0
<0xBC>	0
<0xBD>	0
<0xBE>	0
<0xBF>	0
<0xC0>	0
<0xC1>	0
<0xC2>	0
<0xC3>	0
<0xC4>	0
<0xC5>	0
<0xC6>	0
<0xC7>	0
<0xC8>	0
<0xC9>	0
<0xCA>	0
<0xCB>	0
<0xCC>	0
<0xCD>	0
<0xCE>	0
<0xCF>	0
<0xD0>	0
<0xD1>	0
<0xD2>	0
<0xD3>	0
<0xD4>	0
<0xD5>	0
<0xD6>	0
<0xD7>	0
<0xD8>	0
<0xD9>	0
<0xDA>	0
<0xDB>	0
<0xDC>	0
<0xDD>	0
<0xDE>	0
<0xDF>	0
<0xE0>	0
<0xE1>	0
<0xE2>	0
<0xE3>	0
<0xE4>	0
<0xE5>	0
<0xE6>	0
<0xE7>	0
<0xE8>	0
<0xE9>	0
<0xEA>	0
<0xEB>	0
<0xEC>	0
<0xED>	0
<0xEE>	0
<0xEF>	0
<0xF0>	0
<0xF1>	0
<0xF2>	0
<0xF3>	0
<0xF4>	0
<0xF5>	0
<0xF6>	0
<0xF7>	0
<0xF8>	0
<0xF9>	0
<0xFA>	0
<0xFB>	0
<0xFC>	0
<0xFD>	0
<0xFE>	0
<0xFF>	0
▁t	-0
▁a	-1
in	-2
he	-3
re	-4
on	-5
er	-6
▁the	-7
▁s	-8
▁w	-9
or	-10
at	-11
nd	-12
it	-13
ou	-14
▁c	-15
is	-16
es	-17
en	-18
▁f	-19
▁b	-20
ing	-21
▁p	-22
▁o	-23
an	-24
ed	-25
al	-26
ar	-27
▁to	-28
▁m	-29
▁and	-30
▁in	-31
▁of	-32
le	-33
as	-34
ic	-35
▁d	-36
om	-37
▁h	-38
ion	-39
▁th	-40
il	-41
st	-42
ent	-43
▁l	-44
ro	-45
ve	-46
▁re	-47
▁g	-48
▁e	-49
▁n	-50
▁y	-51
et	-52
ac	-53
the	-54
ay	-55
▁on	-56
id	-57
am	-58
el	-59
▁for	-60
▁is	-61
▁you	-62
ot	-63
ol	-64
ow	-65
ad	-66
▁be	-67
ly	-68
ig	-69
us	-70
im	-71
ch	-72
ct	-73
ver	-74
ut	-75
ith	-76
▁st	-77
ation	-78
th	-79
un	-80
▁that	-81
ir	-82
▁with	-83
se	-84
ur	-85
▁it	-86
ce	-87
ill	-88
ter	-89
▁he	-90
if	-91
ul	-92
▁al	-93
ke	-94
▁an	-95
▁as	-96
oo	-97
▁wh	-98
ag	-99
ers	-100
▁are	-101
▁pro	-102
our	-103
▁at	-104
ra	-105
out	-106
▁we	-107
em	-108
▁or	-109
ore	-110
ri	-111
▁ha	-112
op	-113
est	-114
▁con	-115
ew	-116
▁com	-117
up	-118
igh	-119
ess	-120
▁(	-121
ate	-122
▁se	-123
ab	-124
rom	-125
ld	-126
ts	-127
▁-	-128
pe	-129
all	-130
um	-131
▁r	-132
and	-133
ure	-134
▁this	-135
▁was	-136
qu	-137
ist	-138
▁ex	-139
ity	-140
ive	-141
ment	-142
oc	-143
▁by	-144
▁v	-145
▁from	-146
art	-147
▁de	-148
os	-149
ust	-150
▁sh	-151
▁will	-152
▁your	-153
▁have	-154
ies	-155
ant	-156
ort	-157
ain	-158
..	-159
ud	-160
▁ch	-161
▁us	-162
pp	-163
▁not	-164
res	-165
iv	-166
com	-167
▁can	-168
te	-169
ard	-170
▁le	-171
ost	-172
for	-173
ell	-174
ack	-175
▁j	-176
ther	-177
ould	-178
ight	-179
ge	-180
we	-181
red	-182
gh	-183
ast	-184
od	-185
ine	-186
ear	-187
ide	-188
▁wor	-189
▁ab	-190
rou	-191
fe	-192
▁pl	-193
ap	-194
ial	-195
nt	-196
ice	-197
ook	-198
▁has	-199
ind	-200
cl	-201
pl	-202
▁all	-203
▁do	-204
ub	-205
ome	-206
ak	-207
so	-208
▁me	-209
▁"	-210
one	-211
ry	-212
▁ne	-213
ame	-214
▁k	-215
▁ad	-216
▁up	-217
▁sa	-218
▁but	-219
ber	-220
og	-221
ake	-222
▁whe	-223
are	-224
▁more	-225
ip	-226
ite	-227
to	-228
act	-229
▁out	-230
ia	-231
her	-232
ime	-233
ally	-234
ions	-235
per	-236
age	-237
ie	-238
ated	-239
▁comp	-240
ail	-241
▁one	-242
ks	-243
▁so	-244
very	-245
▁cl	-246
able	-247
▁en	-248
▁their	-249
iz	-250
ong	-251
▁li	-252
▁te	-253
ood	-254
▁they	-255
port	-256
ich	-257
ary	-258
▁his	-259
ase	-260
ace	-261
▁about	-262
▁cont	-263
und	-264
ass	-265
▁off	-266
▁our	-267
av	-268
ick	-269
con	-270
uc	-271
ree	-272
▁who	-273
▁ac	-274
ans	-275
day	-276
▁my	-277
ue	-278
ire	-279
ign	-280
ph	-281
pt	-282
ous	-283
erv	-284
ib	-285
▁year	-286
ents	-287
ff	-288
▁new	-289
any	-290
▁un	-291
de	-292
▁go	-293
▁im	-294
ne	-295
ance	-296
▁“	-297
▁res	-298
ach	-299
▁said	-300
ction	-301
vel	-302
▁per	-303
own	-304
form	-305
ark	-306
▁time	-307
▁any	-308
sh	-309
ile	-310
▁ag	-311
▁qu	-312
reat	-313
▁other	-314
▁tr	-315
this	-316
ven	-317
▁also	-318
▁like	-319
▁get	-320
ays	-321
ount	-322
▁some	-323
che	-324
ings	-325
▁dis	-326
▁over	-327
...	-328
ob	-329
ical	-330
ations	-331
ough	-332
ple	-333
ult	-334
▁when	-335
▁ar	-336
ord	-337
▁sp	-338
pro	-339
wh	-340
ors	-341
▁them	-342
▁would	-343
▁which	-344
vers	-345
▁just	-346
gr	-347
▁what	-348
▁work	-349
irst	-350
▁pe	-351
▁part	-352
vi	-353
ren	-354
ence	-355
ound	-356
▁app	-357
▁pre	-358
ove	-359
▁its	-360
ru	-361
du	-362
ress	-363
ang	-364
▁if	-365
▁fe	-366
ition	-367
▁than	-368
now	-369
cent	-370
be	-371
ose	-372
▁been	-373
cess	-374
row	-375
ting	-376
▁were	-377
▁spe	-378
ll	-379
ish	-380
oin	-381
▁tw	-382
ild	-383
old	-384
▁sc	-385
ens	-386
▁had	-387
uch	-388
clud	-389
fter	-390
▁first	-391
ink	-392
ft	-393
ory	-394
▁ro	-395
▁her	-396
▁there	-397
▁am	-398
ople	-399
▁into	-400
but	-401
▁pr	-402
new	-403
lic	-404
ep	-405
ov	-406
▁need	-407
use	-408
oll	-409
you	-410
ex	-411
▁how	-412
▁no	-413
iss	-414
oy	-415
ade	-416
ning	-417
mon	-418
ool	-419
ater	-420
end	-421
sc	-422
ian	-423
▁add	-424
under	-425
rough	-426
▁only	-427
▁des	-428
▁look	-429
▁people	-430
itt	-431
als	-432
▁two	-433
ely	-434
ful	-435
▁play	-436
▁includ	-437
ca	-438
man	-439
▁make	-440
ons	-441
arch	-442
ates	-443
lp	-444
▁ph	-445
▁bl	-446
▁sup	-447
▁see	-448
hing	-449
▁she	-450
ities	-451
br	-452
▁$	-453
▁back	-454
▁prov	-455
tern	-456
ict	-457
▁man	-458
▁em	-459
aw	-460
▁|	-461
anc	-462
ug	-463
sp	-464
get	-465
▁every	-466
bl	-467
▁after	-468
▁may	-469
▁fl	-470
ices	-471
round	-472
▁comm	-473
▁under	-474
ck	-475
▁help	-476
je	-477
co	-478
enc	-479
▁use	-480
xt	-481
cts	-482
▁bet	-483
▁col	-484
▁stud	-485
▁gu	-486
▁serv	-487
▁well	-488
urn	-489
wn	-490
formation	-491
ual	-492
▁reg	-493
rent	-494
ife	-495
fr	-496
▁act	-497
▁most	-498
ock	-499
ating	-500
ty	-501
ok	-502
▁know	-503
▁through	-504
ments	-505
ax	-506
▁years	-507
view	-508
fore	-509
▁sm	-510
▁rec	-511
oun	-512
▁br	-513
lect	-514
ures	-515
ily	-516
▁bu	-517
tr	-518
les	-519
▁co	-520
iness	-521
cial	-522
hed	-523
read	-524
▁could	-525
air	-526
olog	-527
).	-528
ason	-529
ix	-530
▁don	-531
▁these	-532
ational	-533
ics	-534
▁want	-535
yst	-536
▁ass	-537
▁inv	-538
▁now	-539
▁&	-540
atch	-541
comm	-542
▁show	-543
▁ev	-544
ased	-545
▁loc	-546
fl	-547
ise	-548
▁down	-549
ms	-550
▁ke	-551
line	-552
▁wee	-553
ork	-554
▁even	-555
▁information	-556
▁–	-557
amp	-558
ets	-559
ited	-560
erson	-561
velop	-562
amer	-563
ys	-564
ton	-565
ific	-566
chool	-567
usiness	-568
whe	-569
ible	-570
▁pos	-571
▁rem	-572
count	-573
pr	-574
ath	-575
▁here	-576
der	-577
▁fin	-578
ident	-579
▁game	-580
ert	-581
uring	-582
▁cons	-583
cre	-584
other	-585
▁many	-586
ble	-587
▁does	-588
ps	-589
ular	-590
rain	-591
▁dif	-592
▁min	-593
ied	-594
gram	-595
▁mem	-596
▁did	-597
▁good	-598
▁very	-599
its	-600
▁great	-601
▁should	-602
oth	-603
▁ent	-604
ience	-605
ystem	-606
io	-607
▁find	-608
▁bel	-609
rest	-610
▁way	-611
."	-612
bs	-613
elf	-614
not	-615
▁day	-616
▁read	-617
▁call	-618
no	-619
▁pub	-620
▁where	-621
med	-622
aking	-623
ange	-624
cause	-625
▁last	-626
▁produ	-627
▁high	-628
),	-629
way	-630
omet	-631
▁ind	-632
▁again	-633
let	-634
land	-635
▁car	-636
▁him	-637
▁rel	-638
my	-639
col	-640
▁exper	-641
fect	-642
part	-643
▁start	-644
▁cr	-645
▁inst	-646
me	-647
▁bo	-648
alth	-649
▁own	-650
ility	-651
ues	-652
ious	-653
▁made	-654
▁take	-655
ner	-656
▁wr	-657
▁mon	-658
ave	-659
eng	-660
por	-661
▁che	-662
▁hand	-663
||	-664
min	-665
▁long	-666
▁then	-667
▁med	-668
▁before	-669
oh	-670
pect	-671
pen	-672
▁fam	-673
ages	-674
ward	-675
▁each	-676
▁business	-677
▁book	-678
ollow	-679
▁think	-680
ights	-681
ah	-682
ener	-683
▁sub	-684
riend	-685
▁while	-686
ron	-687
ww	-688
gan	-689
ull	-690
ince	-691
ss	-692
ters	-693
▁team	-694
ness	-695
▁sur	-696
ivers	-697
▁char	-698
how	-699
▁gr	-700
ient	-701
▁pres	-702
▁those	-703
pos	-704
feren	-705
▁free	-706
▁because	-707
ower	-708
▁design	-709
▁set	-710
▁win	-711
▁develop	-712
▁fun	-713
▁sim	-714
ative	-715
▁program	-716
▁ed	-717
bers	-718
▁mark	-719
▁pol	-720
▁still	-721
▁end	-722
▁mod	-723
▁much	-724
ier	-725
they	-726
ement	-727
▁inte	-728
▁world	-729
cur	-730
▁run	-731
americ	-732
ale	-733
riv	-734
ives	-735
oint	-736
▁person	-737
▁provid	-738
ank	-739
ger	-740
▁somet	-741
▁system	-742
ars	-743
▁sk	-744
▁life	-745
ames	-746
▁art	-747
au	-748
bo	-749
els	-750
▁av	-751
cond	-752
unity	-753
▁being	-754
▁i	-755
fin	-756
irect	-757
mar	-758
▁right	-759
▁used	-760
ash	-761
▁vis	-762
▁though	-763
,"	-764
▁dec	-765
▁ser	-766
▁home	-767
chn	-768
ond	-769
▁found	-770
arn	-771
eting	-772
ittle	-773
app	-774
alk	-775
ouse	-776
▁requ	-777
▁really	-778
▁sl	-779
▁feat	-780
ants	-781
az	-782
aut	-783
▁ra	-784
arm	-785
▁lead	-786
▁such	-787
▁cre	-788
▁ret	-789
lease	-790
come	-791
ology	-792
▁post	-793
▁gl	-794
▁best	-795
ene	-796
iel	-797
roup	-798
▁adv	-799
ins	-800
may	-801
ject	-802
▁got	-803
▁three	-804
she	-805
ality	-806
▁same	-807
▁too	-808
there	-809
▁support	-810
ann	-811
uck	-812
akes	-813
▁sign	-814
▁going	-815
att	-816
ize	-817
▁top	-818
▁month	-819
▁around	-820
▁num	-821
▁love	-822
ailable	-823
▁att	-824
▁little	-825
.”	-826
that	-827
▁det	-828
ather	-829
▁open	-830
int	-831
▁follow	-832
what	-833
▁season	-834
off	-835
▁vi	-836
ross	-837
▁cur	-838
▁eas	-839
▁pur	-840
ional	-841
▁week	-842
▁trans	-843
oot	-844
istr	-845
iving	-846
search	-847
▁company	-848
book	-849
▁put	-850
rand	-851
reen	-852
▁form	-853
by	-854
ours	-855
do	-856
▁—	-857
car	-858
ety	-859
▁str	-860
ital	-861
▁phot	-862
▁few	-863
ember	-864
▁rece	-865
▁say	-866
▁site	-867
▁inter	-868
of	-869
ces	-870
ems	-871
ield	-872
▁cap	-873
press	-874
ually	-875
ferent	-876
▁count	-877
ference	-878
ists	-879
▁care	-880
▁happ	-881
ves	-882
▁fil	-883
▁prof	-884
pm	-885
ior	-886
▁big	-887
▁report	-888
imes	-889
▁using	-890
▁second	-891
▁during	-892
▁school	-893
ley	-894
ody	-895
ished	-896
▁disc	-897
▁friend	-898
▁available	-899
▁including	-900
▁.	-901
self	-902
ving	-903
ustom	-904
▁next	-905
▁rest	-906
▁different	-907
▁something	-908
when	-909
▁since	-910
▁better	-911
▁online	-912
go	-913
less	-914
serv	-915
with	-916
work	-917
▁resp	-918
▁offer	-919
vir	-920
ways	-921
▁'	-922
gin	-923
nor	-924
ized	-925
ween	-926
▁let	-927
▁public	-928
ats	-929
uss	-930
▁tri	-931
iting	-932
thing	-933
▁real	-934
iversity	-935
,”	-936
cer	-937
ever	-938
pres	-939
▁ext	-940
▁lar	-941
▁tra	-942
▁won	-943
▁head	-944
aj	-945
▁*	-946
atur	-947
raph	-948
▁come	-949
▁list	-950
▁family	-951
▁students	-952
ten	-953
cept	-954
▁old	-955
gl	-956
▁keep	-957
▁techn	-958
oci	-959
▁cle	-960
▁ins	-961
▁both	-962
▁give	-963
▁pass	-964
▁build	-965
▁today	-966
here	-967
most	-968
oad	-969
▁four	-970
▁small	-971
▁things	-972
tt	-973
▁cor	-974
illion	-975
▁between	-976
▁ef	-977
ines	-978
ired	-979
▁poss	-980
▁partic	-981
stand	-982
▁interest	-983
duc	-984
more	-985
ounc	-986
▁state	-987
ved	-988
▁ap	-989
ship	-990
▁acc	-991
▁sit	-992
que	-993
vent	-994
▁allow	-995
▁manag	-996
▁quest	-997
leg	-998
outh	-999
▁line	-1000
▁review	-1001
▁another	-1002
ym	-1003
▁--	-1004
▁ann	-1005
▁aut	-1006
▁direct	-1007
▁import	-1008
▁perform	-1009
aff	-1010
son	-1011
spe	-1012
olut	-1013
uman	-1014
▁iss	-1015
▁cent	-1016
ball	-1017
ideo	-1018
▁might	-1019
▁invest	-1020
▁lot	-1021
▁child	-1022
▁record	-1023
!!	-1024
dr	-1025
ata	-1026
pre	-1027
til	-1028
ploy	-1029
▁met	-1030
▁opp	-1031
▁sure	-1032
ird	-1033
▁pop	-1034
▁cour	-1035
▁special	-1036
gu	-1037
par	-1038
▁del	-1039
▁try	-1040
▁access	-1041
pub	-1042
rap	-1043
▁days	-1044
▁grow	-1045
ission	-1046
▁contin	-1047
ott	-1048
ric	-1049
▁ty	-1050
back	-1051
fort	-1052
▁ask	-1053
▁men	-1054
▁full	-1055
▁gener	-1056
hes	-1057
▁el	-1058
state	-1059
▁area	-1060
▁main	-1061
ertain	-1062
oney	-1063
ored	-1064
▁cost	-1065
▁news	-1066
▁local	-1067
▁organ	-1068
▁custom	-1069
fer	-1070
uff	-1071
ards	-1072
ched	-1073
tend	-1074
▁...	-1075
▁cut	-1076
▁ear	-1077
▁process	-1078
▁experience	-1079
tw	-1080
alf	-1081
cor	-1082
ike	-1083
▁job	-1084
▁must	-1085
▁test	-1086
▁appro	-1087
▁place	-1088
ode	-1089
ared	-1090
comp	-1091
iday	-1092
▁health	-1093
▁against	-1094
▁members	-1095
ipp	-1096
led	-1097
ruct	-1098
▁hard	-1099
ium	-1100
▁always	-1101
ids	-1102
ample	-1103
ision	-1104
▁spec	-1105
▁view	-1106
▁stand	-1107
university	-1108
ware	-1109
ift	-1110
jan	-1111
ney	-1112
ator	-1113
▁less	-1114
▁proble	-1115
▁provide	-1116
ari	-1117
ains	-1118
ency	-1119
ense	-1120
itor	-1121
play	-1122
▁wom	-1123
▁vers	-1124
add	-1125
ope	-1126
face	-1127
just	-1128
lection	-1129
sw	-1130
ider	-1131
ults	-1132
year	-1133
▁tax	-1134
▁minut	-1135
▁never	-1136
▁proper	-1137
gest	-1138
ills	-1139
▁bro	-1140
▁int	-1141
▁mov	-1142
▁par	-1143
aster	-1144
ribut	-1145
▁feel	-1146
▁level	-1147
▁order	-1148
inal	-1149
▁cou	-1150
▁sal	-1151
▁appe	-1152
▁incre	-1153
▁please	-1154
▁services	-1155
cri	-1156
hip	-1157
hor	-1158
ised	-1159
joy	-1160
mark	-1161
▁ide	-1162
▁pay	-1163
ically	-1164
intern	-1165
▁chang	-1166
▁night	-1167
▁number	-1168
▁looking	-1169
gy	-1170
net	-1171
ches	-1172
▁word	-1173
▁until	-1174
inc	-1175
reg	-1176
time	-1177
ature	-1178
partment	-1179
la	-1180
mer	-1181
ohn	-1182
▁kn	-1183
augh	-1184
▁bre	-1185
ately	-1186
please	-1187
▁activ	-1188
▁>	-1189
cal	-1190
lin	-1191
uture	-1192
▁conf	-1193
mc	-1194
ral	-1195
ste	-1196
mber	-1197
▁exc	-1198
▁group	-1199
▁recent	-1200
▁percent	-1201
▁service	-1202
post	-1203
▁dri	-1204
▁contact	-1205
sm	-1206
ged	-1207
opy	-1208
ajor	-1209
vern	-1210
▁fac	-1211
▁mus	-1212
▁val	-1213
▁plan	-1214
itions	-1215
▁enough	-1216
sy	-1217
can	-1218
▁ob	-1219
▁eng	-1220
▁says	-1221
ograph	-1222
▁addition	-1223
af	-1224
ivid	-1225
▁ago	-1226
▁away	-1227
▁stat	-1228
school	-1229
▁comple	-1230
city	-1231
cont	-1232
bsite	-1233
ption	-1234
▁kind	-1235
▁near	-1236
▁rele	-1237
▁turn	-1238
ability	-1239
▁products	-1240
ee	-1241
ask	-1242
chr	-1243
ocial	-1244
▁food	-1245
▁water	-1246
▁current	-1247
▁present	-1248
▁without	-1249
nes	-1250
ered	-1251
john	-1252
lege	-1253
▁expl	-1254
▁below	-1255
▁include	-1256
ots	-1257
date	-1258
ners	-1259
▁leg	-1260
▁ter	-1261
▁light	-1262
▁visit	-1263
▁making	-1264
american	-1265
jun	-1266
rol	-1267
ush	-1268
stud	-1269
veral	-1270
▁class	-1271
▁event	-1272
▁train	-1273
dis	-1274
iam	-1275
orn	-1276
icle	-1277
ieve	-1278
ling	-1279
ready	-1280
▁able	-1281
▁fund	-1282
▁doesn	-1283
▁opport	-1284
▁working	-1285
org	-1286
pol	-1287
▁ve	-1288
iter	-1289
ries	-1290
▁page	-1291
▁prom	-1292
ik	-1293
bru	-1294
avor	-1295
ured	-1296
▁name	-1297
ential	-1298
aterial	-1299
ina	-1300
gether	-1301
ording	-1302
▁const	-1303
▁needs	-1304
▁intern	-1305
▁important	-1306
ng	-1307
irl	-1308
wor	-1309
unch	-1310
▁pat	-1311
aring	-1312
atter	-1313
itive	-1314
▁data	-1315
▁didn	-1316
▁dist	-1317
▁money	-1318
▁within	-1319
▁together	-1320
ny	-1321
val	-1322
▁hot	-1323
▁games	-1324
▁getting	-1325
//	-1326
ec	-1327
▁sw	-1328
▁came	-1329
▁future	-1330
▁minutes	-1331
.,	-1332
cle	-1333
ote	-1334
ttp	-1335
▁ce	-1336
ived	-1337
unic	-1338
▁mar	-1339
ients	-1340
ither	-1341
▁left	-1342
▁pack	-1343
▁past	-1344
▁community	-1345
bar	-1346
den	-1347
uro	-1348
▁fr	-1349
load	-1350
ister	-1351
▁tell	-1352
▁point	-1353
://	-1354
raw	-1355
str	-1356
high	-1357
▁buy	-1358
▁est	-1359
illed	-1360
▁check	-1361
▁power	-1362
▁prote	-1363
mal	-1364
ser	-1365
ases	-1366
ival	-1367
news	-1368
west	-1369
▁beh	-1370
▁equ	-1371
oints	-1372
▁thing	-1373
▁several	-1374
don	-1375
har	-1376
ison	-1377
▁pie	-1378
▁case	-1379
▁five	-1380
▁told	-1381
▁applic	-1382
▁features	-1383
mit	-1384
ply	-1385
sup	-1386
last	-1387
lish	-1388
pend	-1389
▁exp	-1390
▁yet	-1391
▁fact	-1392
▁half	-1393
▁stre	-1394
▁large	-1395
▁major	-1396
▁story	-1397
▁following	-1398
dav	-1399
was	-1400
will	-1401
▁ref	-1402
▁web	-1403
ified	-1404
these	-1405
▁cred	-1406
▁pain	-1407
lished	-1408
▁short	-1409
▁video	-1410
▁already	-1411
aug	-1412
des	-1413
▁dr	-1414
ides	-1415
ocus	-1416
york	-1417
▁far	-1418
▁law	-1419
▁easy	-1420
▁hist	-1421
▁side	-1422
▁beaut	-1423
▁website	-1424
bu	-1425
sk	-1426
bur	-1427
mat	-1428
▁six	-1429
▁hold	-1430
▁media	-1431
ization	-1432
▁expect	-1433
▁material	-1434
cour	-1435
eral	-1436
raft	-1437
ising	-1438
▁camp	-1439
county	-1440
▁enjoy	-1441
▁works	-1442
▁assist	-1443
oss	-1444
▁ca	-1445
ster	-1446
▁why	-1447
▁bene	-1448
▁ever	-1449
▁orig	-1450
▁pict	-1451
▁sing	-1452
▁soft	-1453
ensive	-1454
friday	-1455
▁based	-1456
▁creat	-1457
▁impro	-1458
▁having	-1459
aps	-1460
ify	-1461
nov	-1462
wed	-1463
yle	-1464
ails	-1465
sept	-1466
▁air	-1467
ument	-1468
▁oper	-1469
▁trad	-1470
▁doing	-1471
▁learn	-1472
▁makes	-1473
met	-1474
osp	-1475
▁wa	-1476
anks	-1477
oose	-1478
▁city	-1479
▁educ	-1480
united	-1481
▁employ	-1482
▁million	-1483
▁project	-1484
sa	-1485
su	-1486
ray	-1487
aper	-1488
ford	-1489
free	-1490
word	-1491
▁low	-1492
vious	-1493
monday	-1494
▁treat	-1495
▁charac	-1496
▁quality	-1497
rem	-1498
itut	-1499
ones	-1500
room	-1501
after	-1502
ering	-1503
north	-1504
▁offic	-1505
▁return	-1506
▁individ	-1507
name	-1508
ories	-1509
right	-1510
▁once	-1511
public	-1512
▁along	-1513
▁invol	-1514
▁least	-1515
▁watch	-1516
▁offers	-1517
▁series	-1518
▁understand	-1519
icy	-1520
ism	-1521
char	-1522
from	-1523
your	-1524
▁suc	-1525
conom	-1526
▁http	-1527
▁live	-1528
christ	-1529
▁pract	-1530
▁across	-1531
▁indust	-1532
▁research	-1533
uk	-1534
hen	-1535
put	-1536
▁di	-1537
ably	-1538
king	-1539
oice	-1540
▁mil	-1541
▁sex	-1542
▁mess	-1543
▁conne	-1544
▁house	-1545
▁share	-1546
▁staff	-1547
▁profess	-1548
▁la	-1549
▁meet	-1550
▁sent	-1551
▁store	-1552
▁study	-1553
▁account	-1554
▁personal	-1555
▁possible	-1556
bre	-1557
side	-1558
wood	-1559
▁bit	-1560
▁def	-1561
ences	-1562
▁tool	-1563
ouncil	-1564
▁elect	-1565
▁items	-1566
national	-1567
ze	-1568
ators	-1569
viron	-1570
▁mind	-1571
▁mult	-1572
▁priv	-1573
▁email	-1574
▁music	-1575
vernment	-1576
▁respons	-1577
ju	-1578
ams	-1579
bro	-1580
ery	-1581
nam	-1582
ique	-1583
orts	-1584
rown	-1585
▁dro	-1586
▁key	-1587
▁benef	-1588
▁office	-1589
▁discuss	-1590
▁perfect	-1591
▁version	-1592
ci	-1593
fo	-1594
pa	-1595
ims	-1596
www	-1597
duct	-1598
ring	-1599
roll	-1600
▁dem	-1601
itted	-1602
jects	-1603
march	-1604
▁clos	-1605
▁fire	-1606
▁star	-1607
▁took	-1608
▁means	-1609
▁effect	-1610
▁points	-1611
▁meeting	-1612
▁children	-1613
bed	-1614
imate	-1615
satur	-1616
▁fore	-1617
center	-1618
▁comes	-1619
▁hours	-1620
▁human	-1621
▁building	-1622
sel	-1623
tty	-1624
ump	-1625
ung	-1626
some	-1627
well	-1628
▁net	-1629
▁tem	-1630
ained	-1631
house	-1632
▁focus	-1633
▁range	-1634
ilities	-1635
▁change	-1636
saturday	-1637
▁everything	-1638
ma	-1639
oct	-1640
oor	-1641
see	-1642
top	-1643
urs	-1644
vis	-1645
▁af	-1646
euro	-1647
head	-1648
lebr	-1649
park	-1650
stre	-1651
sund	-1652
▁nor	-1653
▁sol	-1654
ource	-1655
while	-1656
▁ball	-1657
▁fron	-1658
bruary	-1659
ention	-1660
▁either	-1661
▁market	-1662
▁started	-1663
ux	-1664
ham	-1665
ips	-1666
fact	-1667
▁hit	-1668
fully	-1669
▁bring	-1670
▁color	-1671
▁death	-1672
▁women	-1673
▁course	-1674
▁others	-1675
▁simple	-1676
vironment	-1677
cy	-1678
▁es	-1679
ites	-1680
▁dev	-1681
▁opt	-1682
▁sug	-1683
▁tot	-1684
board	-1685
every	-1686
▁blog	-1687
▁face	-1688
▁room	-1689
▁seen	-1690
▁favor	-1691
▁final	-1692
▁front	-1693
commend	-1694
▁called	-1695
february	-1696
cr	-1697
idd	-1698
ilt	-1699
uary	-1700
▁lik	-1701
▁mom	-1702
ances	-1703
▁deal	-1704
▁pick	-1705
▁shop	-1706
▁click	-1707
▁purch	-1708
service	-1709
unities	-1710
▁comput	-1711
▁member	-1712
▁months	-1713
▁social	-1714
▁friends	-1715
--	-1716
▁:	-1717
bow	-1718
pet	-1719
web	-1720
▁ey	-1721
aken	-1722
ands	-1723
▁bas	-1724
▁tre	-1725
ening	-1726
inter	-1727
place	-1728
▁field	-1729
▁ident	-1730
▁quick	-1731
▁young	-1732
however	-1733
september	-1734
ctor	-1735
▁fall	-1736
▁hope	-1737
▁stop	-1738
office	-1739
▁sound	-1740
olution	-1741
present	-1742
▁rights	-1743
▁country	-1744
▁product	-1745
▁development	-1746
po	-1747
▁/	-1748
ane	-1749
ibr	-1750
home	-1751
iven	-1752
ming	-1753
▁bar	-1754
▁non	-1755
itten	-1756
▁vari	-1757
▁areas	-1758
▁results	-1759
▁thought	-1760
na	-1761
cher	-1762
▁sum	-1763
▁cook	-1764
▁text	-1765
▁tour	-1766
itical	-1767
▁added	-1768
▁later	-1769
▁often	-1770
▁become	-1771
▁performance	-1772
gn	-1773
ced	-1774
gle	-1775
pri	-1776
aces	-1777
ilar	-1778
▁ant	-1779
▁box	-1780
▁lim	-1781
▁cond	-1782
▁third	-1783
tv	-1784
aur	-1785
bor	-1786
down	-1787
▁doc	-1788
▁mot	-1789
▁ste	-1790
▁held	-1791
sunday	-1792
▁clean	-1793
ulation	-1794
▁pretty	-1795
department	-1796
▁particular	-1797
ief	-1798
ken	-1799
mor	-1800
ted	-1801
gree	-1802
prof	-1803
▁pri	-1804
▁vol	-1805
david	-1806
tract	-1807
▁comb	-1808
▁port	-1809
▁talk	-1810
▁cover	-1811
▁heart	-1812
▁times	-1813
▁econom	-1814
▁events	-1815
▁comment	-1816
▁control	-1817
▁success	-1818
▁provided	-1819
▁z	-1820
ama	-1821
apr	-1822
eth	-1823
ges	-1824
pat	-1825
ury	-1826
iful	-1827
ried	-1828
▁aud	-1829
▁fig	-1830
▁ris	-1831
aging	-1832
anies	-1833
field	-1834
group	-1835
light	-1836
ports	-1837
▁body	-1838
▁done	-1839
▁link	-1840
▁miss	-1841
▁went	-1842
europe	-1843
ruction	-1844
washing	-1845
▁almost	-1846
▁complet	-1847
▁content	-1848
▁industry	-1849
.)	-1850
iod	-1851
rug	-1852
▁oc	-1853
over	-1854
▁tick	-1855
▁vict	-1856
nesday	-1857
▁begin	-1858
college	-1859
▁travel	-1860
▁address	-1861
▁install	-1862
▁designed	-1863
hot	-1864
irc	-1865
ler	-1866
rel	-1867
ocol	-1868
▁hig	-1869
▁lin	-1870
▁anal	-1871
cially	-1872
ination	-1873
▁compet	-1874
▁engine	-1875
▁certain	-1876
▁problem	-1877
▁request	-1878
wednesday	-1879
▁particip	-1880
wr	-1881
oph	-1882
care	-1883
▁ens	-1884
▁hon	-1885
▁log	-1886
south	-1887
▁else	-1888
▁mean	-1889
ources	-1890
states	-1891
▁black	-1892
▁celebr	-1893
▁played	-1894
▁result	-1895
▁complete	-1896
▁consider	-1897
▁specific	-1898
▁questions	-1899
▁recommend	-1900
alt	-1901
june	-1902
▁bad	-1903
▁mag	-1904
▁tit	-1905
aving	-1906
obile	-1907
▁kids	-1908
▁town	-1909
▁compl	-1910
▁whole	-1911
▁anyone	-1912
facebook	-1913
▁popular	-1914
▁continue	-1915
tod	-1916
aust	-1917
ding	-1918
kend	-1919
sing	-1920
▁hun	-1921
▁red	-1922
duced	-1923
▁cell	-1924
▁stay	-1925
selves	-1926
▁chall	-1927
▁close	-1928
▁party	-1929
january	-1930
▁descri	-1931
▁period	-1932
▁search	-1933
▁everyone	-1934
▁reported	-1935
acy	-1936
his	-1937
hol	-1938
war	-1939
also	-1940
ffic	-1941
like	-1942
▁age	-1943
click	-1944
▁fast	-1945
▁foot	-1946
▁join	-1947
▁size	-1948
uation	-1949
urther	-1950
▁match	-1951
▁model	-1952
▁price	-1953
▁credit	-1954
▁training	-1955
washington	-1956
ii	-1957
fil	-1958
mic	-1959
tra	-1960
aker	-1961
body	-1962
road	-1963
weet	-1964
▁cla	-1965
▁hom	-1966
▁oil	-1967
anced	-1968
asing	-1969
erved	-1970
▁girl	-1971
▁role	-1972
ctions	-1973
curity	-1974
▁defin	-1975
▁super	-1976
▁taken	-1977
▁users	-1978
▁living	-1979
▁strong	-1980
▁according	-1981
▁beautiful	-1982
▁marketing	-1983
▁environment	-1984
ev	-1985
mo	-1986
call	-1987
cast	-1988
ened	-1989
phot	-1990
tues	-1991
▁fit	-1992
▁film	-1993
▁prob	-1994
friend	-1995
▁shows	-1996
ocolate	-1997
tuesday	-1998
pecially	-1999
▁changes	-2000
▁official	-2001
▁original	-2002
ek	-2003
ky	-2004
tc	-2005
irt	-2006
men	-2007
....	-2008
abor	-2009
amed	-2010
many	-2011
ouch	-2012
used	-2013
▁fre	-2014
▁imp	-2015
▁ple	-2016
where	-2017
▁sell	-2018
coming	-2019
▁given	-2020
▁known	-2021
▁phone	-2022
▁table	-2023
▁white	-2024
istrict	-2025
▁behind	-2026
▁chance	-2027
▁single	-2028
▁property	-2029
▁provides	-2030
▁question	-2031
▁received	-2032
▁recently	-2033
▁character	-2034
▁technology	-2035
ef	-2036
aby	-2037
elt	-2038
ateg	-2039
ires	-2040
itch	-2041
▁cup	-2042
▁pot	-2043
atest	-2044
mitted	-2045
posted	-2046
▁among	-2047
▁brand	-2048
▁contr	-2049
▁early	-2050
▁sales	-2051
▁track	-2052
▁issues	-2053
▁police	-2054
▁systems	-2055
▁actually	-2056
▁includes	-2057
▁government	-2058
iver	-2059
▁gra	-2060
▁mix	-2061
▁typ	-2062
ables	-2063
white	-2064
▁books	-2065
▁press	-2066
▁coming	-2067
▁believe	-2068
▁collect	-2069
▁private	-2070
▁whether	-2071
big	-2072
bum	-2073
ern	-2074
irm	-2075
loc	-2076
mag	-2077
pin	-2078
sub	-2079
▁ep	-2080
▁su	-2081
bert	-2082
find	-2083
oved	-2084
april	-2085
phone	-2086
▁diff	-2087
▁inde	-2088
▁soon	-2089
▁attend	-2090
▁couple	-2091
▁policy	-2092
bel	-2093
key	-2094
ogn	-2095
ows	-2096
san	-2097
ians	-2098
libr	-2099
look	-2100
vert	-2101
▁dou	-2102
▁mor	-2103
arter	-2104
▁send	-2105
▁step	-2106
▁type	-2107
associ	-2108
overed	-2109
ovember	-2110
▁entire	-2111
▁photos	-2112
▁however	-2113
▁management	-2114
umb	-2115
brit	-2116
grad	-2117
ided	-2118
obal	-2119
phil	-2120
scri	-2121
icult	-2122
trans	-2123
▁gift	-2124
▁late	-2125
▁rate	-2126
▁song	-2127
ederal	-2128
health	-2129
ursday	-2130
▁asked	-2131
▁stock	-2132
america	-2133
november	-2134
▁release	-2135
▁running	-2136
▁programs	-2137
▁represent	-2138
bt	-2139
▁x	-2140
ape	-2141
god	-2142
ole	-2143
july	-2144
leag	-2145
tain	-2146
black	-2147
first	-2148
green	-2149
▁coll	-2150
▁goal	-2151
▁road	-2152
▁seem	-2153
▁famil	-2154
▁guest	-2155
▁space	-2156
▁wanted	-2157
thursday	-2158
▁comfort	-2159
▁example	-2160
▁improve	-2161
▁nothing	-2162
avy	-2163
hod	-2164
win	-2165
life	-2166
mich	-2167
ples	-2168
pose	-2169
soft	-2170
then	-2171
▁rad	-2172
▁via	-2173
▁answ	-2174
▁cool	-2175
direct	-2176
▁paper	-2177
▁photo	-2178
▁total	-2179
ministr	-2180
▁author	-2181
▁choose	-2182
services	-2183
▁network	-2184
▁anything	-2185
▁companies	-2186
▁difficult	-2187
▁especially	-2188
mod	-2189
tri	-2190
chan	-2191
resh	-2192
ules	-2193
▁bed	-2194
▁pan	-2195
astic	-2196
gener	-2197
istic	-2198
▁anim	-2199
▁feed	-2200
▁walk	-2201
idents	-2202
▁board	-2203
▁clear	-2204
▁leave	-2205
▁quite	-2206
▁ready	-2207
▁value	-2208
▁trying	-2209
opyright	-2210
▁article	-2211
▁further	-2212
▁communic	-2213
rs	-2214
ees	-2215
ont	-2216
tre	-2217
clus	-2218
dece	-2219
game	-2220
ging	-2221
izes	-2222
miss	-2223
urch	-2224
▁war	-2225
azing	-2226
human	-2227
itary	-2228
▁draw	-2229
▁meas	-2230
▁nice	-2231
▁race	-2232
atural	-2233
august	-2234
idence	-2235
▁award	-2236
▁weeks	-2237
▁action	-2238
▁appear	-2239
▁create	-2240
▁taking	-2241
december	-2242
▁computer	-2243
▁opportunity	-2244
ba	-2245
raz	-2246
aced	-2247
aily	-2248
aren	-2249
idge	-2250
lake	-2251
onse	-2252
▁dig	-2253
▁due	-2254
▁etc	-2255
▁sat	-2256
▁saw	-2257
▁www	-2258
iddle	-2259
itter	-2260
ively	-2261
oring	-2262
▁save	-2263
ground	-2264
illing	-2265
thanks	-2266
▁happy	-2267
▁looks	-2268
▁pages	-2269
estival	-2270
example	-2271
▁concer	-2272
▁matter	-2273
▁screen	-2274
▁written	-2275
▁previous	-2276
▁relation	-2277
▁released	-2278
hib	-2279
rew	-2280
aged	-2281
ancy	-2282
ecut	-2283
inst	-2284
ivil	-2285
ailed	-2286
cover	-2287
posed	-2288
today	-2289
▁file	-2290
▁idea	-2291
▁init	-2292
▁move	-2293
▁issue	-2294
▁movie	-2295
▁takes	-2296
▁latest	-2297
▁reason	-2298
▁picture	-2299
▁similar	-2300
▁investig	-2301
▁position	-2302
▁probably	-2303
▁problems	-2304
▁yourself	-2305
▁contribut	-2306
▁customers	-2307
▁additional	-2308
gs	-2309
acc	-2310
ett	-2311
cons	-2312
medi	-2313
▁ele	-2314
oogle	-2315
▁hear	-2316
▁phys	-2317
▁sold	-2318
▁user	-2319
ipping	-2320
ounced	-2321
though	-2322
▁eight	-2323
▁hands	-2324
▁worth	-2325
▁consum	-2326
▁ground	-2327
▁inside	-2328
▁wonder	-2329
▁history	-2330
▁medical	-2331
▁players	-2332
▁regular	-2333
▁someone	-2334
▁student	-2335
▁increase	-2336
▁software	-2337
▁professional	-2338
hop	-2339
mas	-2340
oke	-2341
best	-2342
star	-2343
▁ess	-2344
▁isn	-2345
▁saf	-2346
check	-2347
▁bott	-2348
▁offe	-2349
street	-2350
▁break	-2351
▁intro	-2352
▁seems	-2353
council	-2354
develop	-2355
ibility	-2356
▁allows	-2357
▁longer	-2358
▁needed	-2359
▁forward	-2360
▁variety	-2361
▁published	-2362
ios	-2363
sal	-2364
sim	-2365
urt	-2366
wil	-2367
east	-2368
▁ful	-2369
▁jud	-2370
▁tal	-2371
acher	-2372
angel	-2373
thern	-2374
▁date	-2375
▁ener	-2376
▁mass	-2377
▁sche	-2378
elcome	-2379
verage	-2380
▁extra	-2381
▁spend	-2382
▁words	-2383
william	-2384
▁likely	-2385
▁posted	-2386
▁comments	-2387
▁individual	-2388
▁opportunities	-2389
ida	-2390
law	-2391
two	-2392
vil	-2393
atic	-2394
ises	-2395
turn	-2396
wind	-2397
▁har	-2398
▁lay	-2399
▁vot	-2400
child	-2401
▁code	-2402
▁lost	-2403
▁park	-2404
▁stri	-2405
▁wind	-2406
ancial	-2407
google	-2408
virgin	-2409
▁fresh	-2410
library	-2411
▁amount	-2412
▁simply	-2413
▁clients	-2414
▁details	-2415
▁playing	-2416
▁require	-2417
president	-2418
▁function	-2419
▁signific	-2420
▁currently	-2421
▁providing	-2422
▁themselves	-2423
cas	-2424
mus	-2425
ued	-2426
who	-2427
aign	-2428
ined	-2429
pack	-2430
▁bud	-2431
▁dam	-2432
▁hol	-2433
about	-2434
ached	-2435
based	-2436
gress	-2437
ought	-2438
world	-2439
▁base	-2440
ipment	-2441
▁sites	-2442
▁choice	-2443
▁growth	-2444
▁master	-2445
▁toward	-2446
▁leading	-2447
▁involved	-2448
▁activities	-2449
▁interesting	-2450
bb	-2451
kn	-2452
bal	-2453
wes	-2454
hall	-2455
ober	-2456
▁abs	-2457
▁mat	-2458
arget	-2459
icles	-2460
ounds	-2461
ufact	-2462
▁capt	-2463
▁circ	-2464
▁host	-2465
▁exist	-2466
▁prior	-2467
▁style	-2468
special	-2469
▁cancer	-2470
internet	-2471
▁located	-2472
▁protect	-2473
▁receive	-2474
▁related	-2475
▁weekend	-2476
▁projects	-2477
▁chocolate	-2478
▁education	-2479
▁applications	-2480
▁relationship	-2481
fa	-2482
lim	-2483
mem	-2484
▁ri	-2485
angu	-2486
good	-2487
itte	-2488
mary	-2489
ping	-2490
▁guy	-2491
▁hop	-2492
▁inc	-2493
▁var	-2494
color	-2495
ellow	-2496
ently	-2497
india	-2498
▁note	-2499
online	-2500
▁court	-2501
▁cream	-2502
▁dress	-2503
▁lower	-2504
istered	-2505
mission	-2506
october	-2507
▁regard	-2508
▁summer	-2509
▁unique	-2510
▁created	-2511
▁general	-2512
▁quickly	-2513
▁reviews	-2514
▁suggest	-2515
▁director	-2516
▁download	-2517
▁effective	-2518
py	-2519
got	-2520
ica	-2521
ipe	-2522
roy	-2523
ume	-2524
duce	-2525
list	-2526
pped	-2527
stat	-2528
tech	-2529
ural	-2530
▁fab	-2531
▁hor	-2532
▁lic	-2533
▁sun	-2534
james	-2535
since	-2536
super	-2537
▁club	-2538
▁heat	-2539
▁mail	-2540
▁risk	-2541
▁wasn	-2542
▁wide	-2543
corpor	-2544
design	-2545
review	-2546
▁deter	-2547
▁parts	-2548
itation	-2549
itional	-2550
▁accept	-2551
▁energy	-2552
▁method	-2553
▁mobile	-2554
▁recogn	-2555
▁select	-2556
▁skills	-2557
business	-2558
▁amazing	-2559
▁prevent	-2560
▁writing	-2561
▁included	-2562
▁remember	-2563
▁security	-2564
international	-2565
bay	-2566
ead	-2567
erg	-2568
ped	-2569
ram	-2570
unt	-2571
urb	-2572
rees	-2573
reng	-2574
rock	-2575
istry	-2576
▁card	-2577
▁grad	-2578
aining	-2579
icated	-2580
iences	-2581
▁album	-2582
▁coach	-2583
▁shoot	-2584
▁woman	-2585
plement	-2586
▁career	-2587
▁feature	-2588
ification	-2589
▁military	-2590
▁starting	-2591
▁administr	-2592
▁conference	-2593
▁significant	-2594
cs	-2595
ha	-2596
aid	-2597
cut	-2598
fam	-2599
iple	-2600
paul	-2601
resp	-2602
rian	-2603
site	-2604
vest	-2605
▁ach	-2606
▁dry	-2607
aches	-2608
class	-2609
craft	-2610
ength	-2611
iding	-2612
media	-2613
ounts	-2614
▁died	-2615
▁exam	-2616
▁infl	-2617
▁skin	-2618
▁true	-2619
aurant	-2620
rought	-2621
▁apply	-2622
▁camer	-2623
▁grant	-2624
▁lives	-2625
▁piece	-2626
▁serve	-2627
▁touch	-2628
▁impact	-2629
virginia	-2630
▁morning	-2631
▁outside	-2632
▁document	-2633
▁favorite	-2634
▁required	-2635
▁announced	-2636
▁collection	-2637
hd	-2638
mm	-2639
bul	-2640
cam	-2641
gen	-2642
iff	-2643
sch	-2644
sen	-2645
set	-2646
sur	-2647
airs	-2648
band	-2649
bell	-2650
hood	-2651
rote	-2652
▁wed	-2653
arent	-2654
calif	-2655
ental	-2656
hotel	-2657
ville	-2658
▁arch	-2659
▁wait	-2660
author	-2661
ociety	-2662
▁pregn	-2663
▁integr	-2664
▁natural	-2665
▁quarter	-2666
▁reading	-2667
▁respect	-2668
association	-2669
▁throughout	-2670
ago	-2671
box	-2672
iar	-2673
lar	-2674
lis	-2675
sem	-2676
uel	-2677
vey	-2678
yes	-2679
▁er	-2680
▁ir	-2681
▁ut	-2682
cret	-2683
fire	-2684
hold	-2685
iant	-2686
irth	-2687
oper	-2688
sign	-2689
take	-2690
▁bur	-2691
▁sym	-2692
azine	-2693
great	-2694
lands	-2695
ledge	-2696
roups	-2697
▁dest	-2698
▁gets	-2699
▁prem	-2700
▁above	-2701
▁cause	-2702
▁estab	-2703
▁image	-2704
▁speak	-2705
▁stuff	-2706
▁surpr	-2707
▁sweet	-2708
▁budget	-2709
▁cannot	-2710
▁common	-2711
▁encour	-2712
▁thanks	-2713
▁connect	-2714
▁partners	-2715
▁positive	-2716
▁equipment	-2717
▁responsible	-2718
tm	-2719
gar	-2720
pal	-2721
rad	-2722
why	-2723
enge	-2724
food	-2725
full	-2726
hill	-2727
mart	-2728
ocks	-2729
uate	-2730
▁ill	-2731
annel	-2732
attle	-2733
force	-2734
izing	-2735
rated	-2736
train	-2737
using	-2738
video	-2739
▁dead	-2740
▁fish	-2741
▁loss	-2742
▁prep	-2743
▁rock	-2744
ession	-2745
▁began	-2746
▁satis	-2747
▁sense	-2748
▁wrong	-2749
▁wrote	-2750
austral	-2751
ospital	-2752
▁annual	-2753
▁ensure	-2754
▁images	-2755
▁mechan	-2756
▁myself	-2757
▁streng	-2758
▁brother	-2759
▁schools	-2760
▁science	-2761
copyright	-2762
▁expected	-2763
▁national	-2764
▁standard	-2765
▁distribut	-2766
▁potential	-2767
▁residents	-2768
▁application	-2769
hp	-2770
iqu	-2771
olf	-2772
oma	-2773
rec	-2774
ror	-2775
tom	-2776
▁sn	-2777
adem	-2778
fair	-2779
have	-2780
omin	-2781
once	-2782
ties	-2783
vant	-2784
wise	-2785
acing	-2786
micha	-2787
smith	-2788
▁brow	-2789
▁fans	-2790
▁guys	-2791
aching	-2792
action	-2793
iation	-2794
police	-2795
program	-2796
▁easily	-2797
▁figure	-2798
▁higher	-2799
▁moment	-2800
▁turned	-2801
▁instead	-2802
▁conditions	-2803
▁construction	-2804
ns	-2805
dor	-2806
fun	-2807
adel	-2808
ruit	-2809
ysis	-2810
▁inj	-2811
power	-2812
water	-2813
▁insp	-2814
▁load	-2815
▁self	-2816
▁slow	-2817
arning	-2818
ercial	-2819
rights	-2820
ulture	-2821
▁built	-2822
▁enter	-2823
▁groups	-2824
▁itself	-2825
▁produc	-2826
▁temper	-2827
▁worked	-2828
european	-2829
research	-2830
▁conduct	-2831
▁consult	-2832
▁decided	-2833
▁usually	-2834
community	-2835
▁decision	-2836
▁purchase	-2837
▁entertain	-2838
▁treatment	-2839
ai	-2840
bit	-2841
det	-2842
ffe	-2843
uge	-2844
wal	-2845
aste	-2846
berg	-2847
even	-2848
haps	-2849
iber	-2850
lond	-2851
long	-2852
rich	-2853
▁boy	-2854
▁gen	-2855
▁mid	-2856
▁sou	-2857
anger	-2858
dated	-2859
iment	-2860
order	-2861
orney	-2862
▁deep	-2863
▁earn	-2864
▁epis	-2865
▁felt	-2866
▁goes	-2867
system	-2868
urance	-2869
▁broad	-2870
▁floor	-2871
▁gives	-2872
▁green	-2873
▁guide	-2874
▁ideas	-2875
▁mouth	-2876
▁neigh	-2877
▁print	-2878
▁wants	-2879
ructure	-2880
▁answer	-2881
▁assess	-2882
▁attack	-2883
▁except	-2884
▁execut	-2885
▁rather	-2886
district	-2887
ological	-2888
▁billion	-2889
▁convers	-2890
▁display	-2891
▁excited	-2892
▁finally	-2893
▁numbers	-2894
▁offered	-2895
▁tickets	-2896
▁location	-2897
▁countries	-2898
▁developed	-2899
▁photograph	-2900
ado	-2901
div	-2902
fre	-2903
mot	-2904
pay	-2905
anch	-2906
andy	-2907
anta	-2908
chic	-2909
educ	-2910
erve	-2911
make	-2912
pite	-2913
show	-2914
uals	-2915
▁cit	-2916
▁gun	-2917
▁rev	-2918
earth	-2919
orial	-2920
quest	-2921
speed	-2922
techn	-2923
thank	-2924
▁drug	-2925
▁firm	-2926
▁gold	-2927
▁libr	-2928
▁ones	-2929
▁prin	-2930
▁roll	-2931
▁safe	-2932
▁viol	-2933
▁wish	-2934
arents	-2935
encies	-2936
iction	-2937
london	-2938
season	-2939
▁fully	-2940
▁helps	-2941
agement	-2942
▁center	-2943
▁extend	-2944
▁average	-2945
▁devices	-2946
▁manager	-2947
▁respond	-2948
according	-2949
▁essential	-2950
▁materials	-2951
▁sometimes	-2952
▁interested	-2953
ds	-2954
erc	-2955
ese	-2956
jes	-2957
ned	-2958
oon	-2959
pac	-2960
ris	-2961
sun	-2962
wis	-2963
ceed	-2964
flor	-2965
iles	-2966
leep	-2967
main	-2968
note	-2969
team	-2970
uled	-2971
▁din	-2972
▁eye	-2973
▁kit	-2974
▁sil	-2975
▁yes	-2976
arant	-2977
fects	-2978
forts	-2979
infin	-2980
ittee	-2981
point	-2982
▁appl	-2983
▁baby	-2984
▁cars	-2985
▁fail	-2986
▁item	-2987
▁tend	-2988
▁ways	-2989
ellent	-2990
follow	-2991
report	-2992
riving	-2993
uments	-2994
▁autom	-2995
▁claim	-2996
▁drive	-2997
▁files	-2998
▁rules	-2999
▁score	-3000
▁separ	-3001
▁title	-3002
▁whose	-3003
aughter	-3004
cessary	-3005
general	-3006
▁expert	-3007
▁giving	-3008
▁happen	-3009
▁nation	-3010
▁region	-3011
▁safety	-3012
▁update	-3013
californ	-3014
children	-3015
olutions	-3016
▁biggest	-3017
▁efforts	-3018
▁reports	-3019
americans	-3020
▁campaign	-3021
▁manufact	-3022
▁financial	-3023
▁statement	-3024
▁organization	-3025
dv	-3026
gg	-3027
mr	-3028
sl	-3029
▁,	-3030
!!!	-3031
ada	-3032
dan	-3033
jer	-3034
mad	-3035
oes	-3036
omb	-3037
sum	-3038
tim	-3039
▁lo	-3040
camp	-3041
clos	-3042
lead	-3043
test	-3044
▁bag	-3045
▁bus	-3046
▁cat	-3047
build	-3048
found	-3049
itely	-3050
itute	-3051
photo	-3052
rying	-3053
▁bill	-3054
▁copy	-3055
▁imag	-3056
▁repl	-3057
▁sens	-3058
▁weap	-3059
atives	-3060
employ	-3061
iology	-3062
league	-3063
▁langu	-3064
▁seven	-3065
▁models	-3066
▁nearly	-3067
▁limited	-3068
▁records	-3069
▁serious	-3070
▁contains	-3071
▁internet	-3072
▁offering	-3073
california	-3074
▁submitted	-3075
▁background	-3076
▁difference	-3077
ka	-3078
ben	-3079
ien	-3080
log	-3081
▁ge	-3082
each	-3083
gold	-3084
mont	-3085
real	-3086
reci	-3087
unte	-3088
▁sty	-3089
▁sus	-3090
▁veh	-3091
aming	-3092
arden	-3093
brown	-3094
compl	-3095
micro	-3096
riage	-3097
▁bank	-3098
▁menu	-3099
▁sale	-3100
▁stra	-3101
▁wild	-3102
fortun	-3103
people	-3104
▁occur	-3105
▁teams	-3106
▁tried	-3107
▁camera	-3108
▁depend	-3109
▁player	-3110
▁sports	-3111
▁winner	-3112
▁winter	-3113
▁contain	-3114
▁federal	-3115
▁teacher	-3116
▁production	-3117
aud	-3118
bob	-3119
enn	-3120
fol	-3121
hel	-3122
isl	-3123
ona	-3124
rup	-3125
ube	-3126
uce	-3127
wom	-3128
zer	-3129
ault	-3130
empt	-3131
iano	-3132
icks	-3133
lier	-3134
▁cal	-3135
▁fan	-3136
▁jun	-3137
▁sem	-3138
▁son	-3139
asket	-3140
aught	-3141
ipped	-3142
quare	-3143
▁blue	-3144
▁cold	-3145
▁dark	-3146
▁jour	-3147
▁pers	-3148
▁plus	-3149
▁surv	-3150
market	-3151
ounter	-3152
▁daily	-3153
▁heard	-3154
▁owner	-3155
▁round	-3156
▁tools	-3157
company	-3158
duction	-3159
michael	-3160
▁charge	-3161
▁compon	-3162
▁fabric	-3163
▁passed	-3164
▁states	-3165
▁target	-3166
▁benefit	-3167
▁brought	-3168
▁various	-3169
▁benefits	-3170
▁challeng	-3171
▁contract	-3172
▁pictures	-3173
▁reserved	-3174
▁president	-3175
information	-3176
▁businesses	-3177
".	-3178
ius	-3179
oop	-3180
rob	-3181
sex	-3182
vin	-3183
aint	-3184
alex	-3185
aven	-3186
cert	-3187
hist	-3188
join	-3189
oute	-3190
page	-3191
rect	-3192
week	-3193
▁bal	-3194
▁eff	-3195
▁led	-3196
▁tur	-3197
atory	-3198
franc	-3199
iring	-3200
obama	-3201
▁agre	-3202
▁aren	-3203
▁cash	-3204
▁decl	-3205
▁luck	-3206
▁sort	-3207
▁tele	-3208
▁uses	-3209
ership	-3210
isions	-3211
▁blood	-3212
▁champ	-3213
▁fight	-3214
▁paint	-3215
▁thous	-3216
▁throw	-3217
british	-3218
network	-3219
▁corpor	-3220
▁double	-3221
▁retail	-3222
▁served	-3223
infinity	-3224
republic	-3225
students	-3226
▁college	-3227
▁message	-3228
▁mission	-3229
▁opening	-3230
▁options	-3231
▁parents	-3232
▁stories	-3233
▁multiple	-3234
▁practice	-3235
▁attention	-3236
▁knowledge	-3237
▁selection	-3238
▁registered	-3239
''	-3240
**	-3241
aa	-3242
ga	-3243
pd	-3244
cap	-3245
ils	-3246
max	-3247
pad	-3248
sam	-3249
▁hy	-3250
agon	-3251
bill	-3252
card	-3253
dule	-3254
fall	-3255
hest	-3256
jack	-3257
need	-3258
phys	-3259
ston	-3260
▁ded	-3261
▁sen	-3262
▁ult	-3263
anned	-3264
court	-3265
enced	-3266
▁pull	-3267
▁runs	-3268
▁sets	-3269
columb	-3270
elling	-3271
scient	-3272
▁agree	-3273
▁costs	-3274
▁lines	-3275
▁named	-3276
▁princ	-3277
▁sched	-3278
▁speed	-3279
florida	-3280
twitter	-3281
▁affect	-3282
▁associ	-3283
▁client	-3284
▁colors	-3285
▁damage	-3286
▁former	-3287
▁immedi	-3288
▁propos	-3289
▁threat	-3290
▁attract	-3291
▁express	-3292
▁guarant	-3293
▁strength	-3294
▁beginning	-3295
▁implement	-3296
▁political	-3297
▁commercial	-3298
▁completely	-3299
):	-3300
hy	-3301
ana	-3302
dec	-3303
dri	-3304
ino	-3305
jay	-3306
los	-3307
mil	-3308
pop	-3309
pts	-3310
rop	-3311
ude	-3312
▁bi	-3313
▁cy	-3314
blog	-3315
bost	-3316
cure	-3317
foot	-3318
ifts	-3319
love	-3320
▁ble	-3321
▁enh	-3322
▁fol	-3323
▁ing	-3324
▁max	-3325
▁mer	-3326
▁ord	-3327
▁pen	-3328
chair	-3329
mount	-3330
ocket	-3331
ounce	-3332
watch	-3333
words	-3334
▁chap	-3335
▁crim	-3336
▁farm	-3337
▁gave	-3338
▁snow	-3339
▁upon	-3340
▁warm	-3341
boston	-3342
change	-3343
engine	-3344
▁citiz	-3345
▁exerc	-3346
▁glass	-3347
▁innov	-3348
▁liter	-3349
ergency	-3350
▁advice	-3351
▁effort	-3352
▁global	-3353
▁highly	-3354
▁letter	-3355
▁levels	-3356
▁ability	-3357
▁council	-3358
▁growing	-3359
▁package	-3360
▁purpose	-3361
▁analysis	-3362
▁instruct	-3363
▁excellent	-3364
▁connection	-3365
▁definitely	-3366
▁investment	-3367
▁understanding	-3368
bi	-3369
dy	-3370
ko	-3371
bon	-3372
lou	-3373
num	-3374
opt	-3375
sey	-3376
ute	-3377
ager	-3378
chap	-3379
imum	-3380
isra	-3381
mond	-3382
open	-3383
plan	-3384
rapy	-3385
russ	-3386
ulty	-3387
whit	-3388
wide	-3389
▁aim	-3390
▁bac	-3391
▁fix	-3392
▁imm	-3393
▁nar	-3394
▁obs	-3395
▁pup	-3396
ellig	-3397
medic	-3398
space	-3399
▁gone	-3400
▁hour	-3401
▁hous	-3402
▁prim	-3403
▁spot	-3404
▁thin	-3405
▁tree	-3406
israel	-3407
priate	-3408
remely	-3409
▁birth	-3410
▁calls	-3411
▁links	-3412
▁spent	-3413
chicago	-3414
english	-3415
francis	-3416
science	-3417
▁fourth	-3418
▁guests	-3419
director	-3420
▁pattern	-3421
▁subject	-3422
▁subscri	-3423
education	-3424
▁families	-3425
▁insurance	-3426
▁performed	-3427
▁particularly	-3428
md	-3429
pc	-3430
ye	-3431
zz	-3432
die	-3433
lyn	-3434
oms	-3435
pok	-3436
pon	-3437
rie	-3438
une	-3439
vol	-3440
burn	-3441
chen	-3442
cing	-3443
cook	-3444
irit	-3445
live	-3446
olar	-3447
ooth	-3448
orge	-3449
rant	-3450
text	-3451
umin	-3452
walk	-3453
▁ice	-3454
▁jew	-3455
▁tim	-3456
aries	-3457
inary	-3458
onstr	-3459
print	-3460
ushed	-3461
which	-3462
▁band	-3463
▁cand	-3464
▁clin	-3465
▁info	-3466
▁land	-3467
▁trip	-3468
▁vote	-3469
ension	-3470
ifying	-3471
social	-3472
▁aware	-3473
▁civil	-3474
▁goals	-3475
▁homes	-3476
▁legal	-3477
▁maybe	-3478
▁reach	-3479
▁smart	-3480
profess	-3481
▁adults	-3482
▁altern	-3483
▁expand	-3484
▁histor	-3485
▁killed	-3486
▁launch	-3487
▁modern	-3488
▁prices	-3489
▁remove	-3490
▁source	-3491
▁stores	-3492
communic	-3493
ographic	-3494
▁achieve	-3495
▁cooking	-3496
▁station	-3497
▁wedding	-3498
▁workers	-3499
christmas	-3500
▁advanced	-3501
▁demonstr	-3502
▁marriage	-3503
▁neighbor	-3504
▁planning	-3505
▁surround	-3506
▁thinking	-3507
▁visitors	-3508
▁necessary	-3509
▁developing	-3510
▁individuals	-3511
ni	-3512
wy	-3513
cos	-3514
cup	-3515
dou	-3516
ita	-3517
nal	-3518
oid	-3519
orm	-3520
pic	-3521
tex	-3522
acts	-3523
bass	-3524
brad	-3525
burg	-3526
dale	-3527
next	-3528
omew	-3529
prov	-3530
shop	-3531
thom	-3532
town	-3533
▁gar	-3534
▁pow	-3535
const	-3536
front	-3537
grand	-3538
iance	-3539
legal	-3540
ooper	-3541
works	-3542
▁beat	-3543
▁cert	-3544
▁flow	-3545
▁hook	-3546
▁reve	-3547
▁wall	-3548
▁wear	-3549
family	-3550
istics	-3551
robert	-3552
series	-3553
▁arriv	-3554
▁cross	-3555
▁effic	-3556
▁forum	-3557
▁heavy	-3558
▁influ	-3559
▁sugar	-3560
▁terms	-3561
▁types	-3562
▁advant	-3563
▁advert	-3564
▁degree	-3565
▁easier	-3566
▁ingred	-3567
▁saying	-3568
▁weight	-3569
lastname	-3570
▁charged	-3571
▁classic	-3572
▁defense	-3573
▁driving	-3574
▁evening	-3575
▁healthy	-3576
▁initial	-3577
▁football	-3578
▁friendly	-3579
▁relevant	-3580
▁response	-3581
▁challenge	-3582
▁completed	-3583
▁employees	-3584
▁interview	-3585
▁scheduled	-3586
development	-3587
▁department	-3588
▁protection	-3589
▁international	-3590
oe	-3591
asc	-3592
del	-3593
gas	-3594
inn	-3595
nic	-3596
tor	-3597
▁($	-3598
apan	-3599
ares	-3600
club	-3601
four	-3602
gian	-3603
ibly	-3604
iced	-3605
mass	-3606
noon	-3607
ohio	-3608
pass	-3609
vict	-3610
▁rep	-3611
ander	-3612
grees	-3613
▁dise	-3614
▁doll	-3615
▁feet	-3616
▁fing	-3617
▁huge	-3618
▁prec	-3619
▁pred	-3620
▁qual	-3621
▁shot	-3622
▁trou	-3623
indian	-3624
ration	-3625
▁ahead	-3626
▁alleg	-3627
▁alone	-3628
▁audio	-3629
▁block	-3630
▁exact	-3631
▁grand	-3632
▁indic	-3633
▁regul	-3634
▁thank	-3635
because	-3636
contact	-3637
imately	-3638
whether	-3639
▁arrest	-3640
▁finish	-3641
▁length	-3642
▁middle	-3643
▁mother	-3644
▁option	-3645
▁remind	-3646
▁senior	-3647
ferences	-3648
▁earlier	-3649
▁impress	-3650
▁section	-3651
australia	-3652
▁customer	-3653
▁discount	-3654
▁economic	-3655
▁finished	-3656
▁progress	-3657
▁resources	-3658
wa	-3659
cat	-3660
has	-3661
hun	-3662
iet	-3663
jul	-3664
lee	-3665
lex	-3666
mac	-3667
nds	-3668
ony	-3669
ule	-3670
blue	-3671
cong	-3672
enty	-3673
girl	-3674
irts	-3675
mail	-3676
mine	-3677
ownt	-3678
urer	-3679
▁beg	-3680
▁eat	-3681
▁gas	-3682
▁ton	-3683
antly	-3684
appro	-3685
arily	-3686
gment	-3687
ivity	-3688
japan	-3689
model	-3690
never	-3691
night	-3692
osoph	-3693
ously	-3694
pects	-3695
river	-3696
stone	-3697
union	-3698
▁dire	-3699
▁drop	-3700
▁eyes	-3701
▁fine	-3702
▁jobs	-3703
▁knew	-3704
▁meat	-3705
▁term	-3706
▁wire	-3707
atever	-3708
comple	-3709
during	-3710
ements	-3711
idered	-3712
invest	-3713
porary	-3714
sports	-3715
▁exhib	-3716
▁funds	-3717
▁haven	-3718
▁plans	-3719
▁shape	-3720
▁shown	-3721
▁stage	-3722
▁write	-3723
vention	-3724
▁bottom	-3725
▁bought	-3726
▁editor	-3727
▁looked	-3728
▁prefer	-3729
▁slight	-3730
▁animals	-3731
▁appreci	-3732
▁charges	-3733
▁complex	-3734
▁mention	-3735
▁perhaps	-3736
▁profile	-3737
▁volunte	-3738
▁weapons	-3739
microsoft	-3740
▁activity	-3741
▁collabor	-3742
▁creating	-3743
▁festival	-3744
▁institut	-3745
▁majority	-3746
▁pressure	-3747
▁resident	-3748
▁schedule	-3749
▁straight	-3750
▁watching	-3751
conference	-3752
▁extremely	-3753
▁situation	-3754
▁increasing	-3755
bc	-3756
agn	-3757
bag	-3758
ded	-3759
gra	-3760
jud	-3761
low	-3762
pan	-3763
run	-3764
ula	-3765
ups	-3766
acks	-3767
aled	-3768
both	-3769
pons	-3770
ream	-3771
roid	-3772
step	-3773
▁mis	-3774
▁ten	-3775
adium	-3776
antic	-3777
asons	-3778
berry	-3779
carol	-3780
chers	-3781
dates	-3782
elect	-3783
enses	-3784
grade	-3785
pping	-3786
ronic	-3787
story	-3788
times	-3789
▁acqu	-3790
▁crow	-3791
▁fant	-3792
▁hair	-3793
▁mach	-3794
▁neck	-3795
▁paid	-3796
▁pair	-3797
▁rare	-3798
▁sust	-3799
ashion	-3800
▁ended	-3801
▁knows	-3802
▁loved	-3803
▁tough	-3804
reading	-3805
related	-3806
▁beauty	-3807
▁button	-3808
▁doctor	-3809
▁driver	-3810
▁honest	-3811
▁normal	-3812
▁pieces	-3813
▁placed	-3814
▁reduce	-3815
▁transl	-3816
although	-3817
▁archite	-3818
▁covered	-3819
▁funding	-3820
▁overall	-3821
▁although	-3822
▁articles	-3823
▁daughter	-3824
▁existing	-3825
▁learning	-3826
▁magazine	-3827
▁shipping	-3828
commission	-3829
▁assistant	-3830
▁comfortable	-3831
▁traditional	-3832
lo	-3833
za	-3834
bat	-3835
cow	-3836
dvd	-3837
hon	-3838
iny	-3839
ira	-3840
ros	-3841
sar	-3842
sou	-3843
tot	-3844
van	-3845
▁fa	-3846
▁po	-3847
▁sy	-3848
bear	-3849
fast	-3850
gers	-3851
hens	-3852
ican	-3853
iler	-3854
mike	-3855
nder	-3856
rick	-3857
rome	-3858
▁aff	-3859
▁dog	-3860
▁fat	-3861
▁lov	-3862
award	-3863
comes	-3864
dered	-3865
organ	-3866
visit	-3867
women	-3868
▁born	-3869
▁door	-3870
▁laun	-3871
▁phil	-3872
▁rich	-3873
▁sett	-3874
▁tips	-3875
▁wife	-3876
church	-3877
degree	-3878
includ	-3879
island	-3880
nament	-3881
ourses	-3882
undred	-3883
▁cells	-3884
▁guess	-3885
▁older	-3886
▁tests	-3887
▁topic	-3888
▁voice	-3889
clusive	-3890
mentary	-3891
through	-3892
▁commit	-3893
▁income	-3894
▁opened	-3895
▁promot	-3896
▁scient	-3897
▁scored	-3898
▁street	-3899
▁submit	-3900
ervation	-3901
▁changed	-3902
▁channel	-3903
▁degrees	-3904
▁deliver	-3905
▁highest	-3906
▁holiday	-3907
▁payment	-3908
▁putting	-3909
▁smaller	-3910
▁surface	-3911
▁welcome	-3912
▁winning	-3913
▁agencies	-3914
▁critical	-3915
▁messages	-3916
▁presence	-3917
▁locations	-3918
▁characters	-3919
▁successful	-3920
▁competition	-3921
??	-3922
cd	-3923
fc	-3924
hi	-3925
nh	-3926
dig	-3927
dom	-3928
equ	-3929
gal	-3930
ixt	-3931
jet	-3932
job	-3933
kes	-3934
ocr	-3935
ota	-3936
sol	-3937
amin	-3938
army	-3939
asia	-3940
aves	-3941
bing	-3942
gery	-3943
help	-3944
inte	-3945
lind	-3946
olym	-3947
▁hum	-3948
▁lab	-3949
▁lap	-3950
▁thr	-3951
▁vac	-3952
▁ver	-3953
anted	-3954
brook	-3955
guide	-3956
iques	-3957
louis	-3958
prote	-3959
rench	-3960
scott	-3961
those	-3962
▁bird	-3963
▁gain	-3964
▁opin	-3965
▁poll	-3966
▁ring	-3967
▁spok	-3968
▁suit	-3969
▁tiss	-3970
▁wood	-3971
centre	-3972
covery	-3973
custom	-3974
person	-3975
spring	-3976
travel	-3977
▁accur	-3978
▁capac	-3979
▁frequ	-3980
▁hotel	-3981
▁piano	-3982
▁refer	-3983
▁sleep	-3984
▁spect	-3985
▁units	-3986
central	-3987
pacific	-3988
▁adjust	-3989
▁brings	-3990
▁candid	-3991
▁claims	-3992
▁closed	-3993
▁forget	-3994
▁medium	-3995
▁places	-3996
▁seeing	-3997
▁sounds	-3998
▁survey	-3999
colorado	-4000
division	-4001
▁applied	-4002
▁contest	-4003
▁courses	-4004
▁effects	-4005
▁meaning	-4006
▁species	-4007
▁strateg	-4008
▁talking	-4009
▁traffic	-4010
▁weather	-4011
▁compared	-4012
▁directly	-4013
▁hospital	-4014
▁independ	-4015
▁advantage	-4016
▁establish	-4017
▁firstname	-4018
▁operating	-4019
▁pregnancy	-4020
▁considered	-4021
li	-4022
rd	-4023
uv	-4024
apt	-4025
ara	-4026
asy	-4027
cla	-4028
dem	-4029
edy	-4030
han	-4031
lor	-4032
nik	-4033
oud	-4034
rim	-4035
sky	-4036
▁il	-4037
aked	-4038
bank	-4039
bour	-4040
buff	-4041
came	-4042
case	-4043
cell	-4044
core	-4045
does	-4046
edom	-4047
ffee	-4048
illa	-4049
jeff	-4050
keep	-4051
nell	-4052
nick	-4053
odes	-4054
oore	-4055
orry	-4056
razy	-4057
rupt	-4058
sear	-4059
ucle	-4060
yond	-4061
▁arm	-4062
▁div	-4063
▁tow	-4064
▁van	-4065
asure	-4066
brand	-4067
chief	-4068
forum	-4069
icing	-4070
ivery	-4071
linux	-4072
maybe	-4073
music	-4074
nding	-4075
otton	-4076
their	-4077
▁defe	-4078
▁golf	-4079
▁kick	-4080
▁lock	-4081
▁logo	-4082
▁shut	-4083
▁tack	-4084
▁teen	-4085
encing	-4086
global	-4087
second	-4088
vision	-4089
▁basic	-4090
▁basis	-4091
▁belie	-4092
▁breat	-4093
▁catch	-4094
▁categ	-4095
▁entry	-4096
▁girls	-4097
▁rates	-4098
▁shall	-4099
▁stars	-4100
▁taste	-4101
charles	-4102
johnson	-4103
pective	-4104
▁active	-4105
▁agency	-4106
▁campus	-4107
▁confir	-4108
▁device	-4109
▁inches	-4110
▁leader	-4111
▁proced	-4112
▁smooth	-4113
▁spread	-4114
▁switch	-4115
▁visual	-4116
festival	-4117
▁advance	-4118
▁alleged	-4119
▁attempt	-4120
▁central	-4121
▁correct	-4122
▁designs	-4123
▁economy	-4124
▁episode	-4125
▁foreign	-4126
▁helpful	-4127
▁himself	-4128
▁hundred	-4129
▁keeping	-4130
▁library	-4131
▁partner	-4132
▁produce	-4133
▁seconds	-4134
▁victims	-4135
christian	-4136
committee	-4137
▁approach	-4138
▁changing	-4139
▁controll	-4140
▁determin	-4141
▁exercise	-4142
▁familiar	-4143
▁physical	-4144
▁workshop	-4145
▁certainly	-4146
▁consumers	-4147
▁direction	-4148
▁increased	-4149
▁presented	-4150
fortunately	-4151
▁appropriate	-4152
▁educational	-4153
",	-4154
di	-4155
lu	-4156
ws	-4157
:||	-4158
afr	-4159
anz	-4160
bet	-4161
cou	-4162
did	-4163
doc	-4164
eag	-4165
fax	-4166
hom	-4167
jew	-4168
mes	-4169
pdf	-4170
pir	-4171
sat	-4172
uit	-4173
▁pm	-4174
ades	-4175
hard	-4176
host	-4177
iers	-4178
iger	-4179
inch	-4180
ipal	-4181
know	-4182
lets	-4183
phia	-4184
rang	-4185
stan	-4186
tool	-4187
▁arg	-4188
▁bra	-4189
▁map	-4190
▁und	-4191
ansas	-4192
enger	-4193
enter	-4194
games	-4195
ining	-4196
lewis	-4197
lines	-4198
peter	-4199
style	-4200
uters	-4201
▁cast	-4202
▁dish	-4203
▁emot	-4204
▁lots	-4205
▁virt	-4206
ademic	-4207
ancing	-4208
assist	-4209
atform	-4210
disney	-4211
giving	-4212
itness	-4213
uclear	-4214
valley	-4215
▁debut	-4216
▁diagn	-4217
▁medic	-4218
▁moved	-4219
▁novel	-4220
▁optim	-4221
▁relig	-4222
▁solid	-4223
▁spons	-4224
▁trust	-4225
angeles	-4226
chester	-4227
product	-4228
tenance	-4229
▁actual	-4230
▁became	-4231
▁demand	-4232
▁dinner	-4233
▁experi	-4234
▁junior	-4235
▁prison	-4236
▁satisf	-4237
▁wouldn	-4238
adelphia	-4239
columbia	-4240
cription	-4241
remember	-4242
▁allowed	-4243
▁appoint	-4244
▁century	-4245
▁consist	-4246
▁largest	-4247
▁leaving	-4248
▁selling	-4249
▁sources	-4250
▁wearing	-4251
published	-4252
▁announce	-4253
▁creative	-4254
▁criminal	-4255
▁elements	-4256
▁meetings	-4257
▁printing	-4258
▁produced	-4259
▁thoughts	-4260
▁upcoming	-4261
▁decisions	-4262
▁extensive	-4263
▁functions	-4264
▁regarding	-4265
▁solutions	-4266
▁technical	-4267
▁wonderful	-4268
▁assistance	-4269
philadelphia	-4270
▁ingredients	-4271
!)	-4272
da	-4273
dd	-4274
def	-4275
ele	-4276
ena	-4277
haw	-4278
ico	-4279
irs	-4280
nab	-4281
nav	-4282
obe	-4283
pot	-4284
ria	-4285
arab	-4286
coll	-4287
dora	-4288
hand	-4289
iami	-4290
inct	-4291
itar	-4292
made	-4293
rate	-4294
wars	-4295
▁fav	-4296
▁mic	-4297
▁pig	-4298
▁rap	-4299
▁rat	-4300
▁twe	-4301
akers	-4302
apple	-4303
charl	-4304
eline	-4305
etime	-4306
iling	-4307
jesus	-4308
miami	-4309
odies	-4310
offic	-4311
party	-4312
price	-4313
share	-4314
table	-4315
▁cake	-4316
▁debt	-4317
▁jack	-4318
▁mini	-4319
▁path	-4320
▁pros	-4321
▁rout	-4322
▁shel	-4323
▁teas	-4324
active	-4325
arters	-4326
before	-4327
common	-4328
george	-4329
giants	-4330
ighter	-4331
inking	-4332
osophy	-4333
usband	-4334
weight	-4335
▁estim	-4336
▁gifts	-4337
▁meant	-4338
▁miles	-4339
▁mount	-4340
▁peace	-4341
▁plays	-4342
▁scale	-4343
▁somew	-4344
▁strug	-4345
▁views	-4346
▁voted	-4347
another	-4348
country	-4349
express	-4350
germany	-4351
igation	-4352
medical	-4353
welcome	-4354
▁animal	-4355
▁breast	-4356
▁coffee	-4357
▁danger	-4358
▁filled	-4359
▁owners	-4360
▁plenty	-4361
▁remain	-4362
▁secret	-4363
▁talent	-4364
▁appears	-4365
▁capital	-4366
▁concent	-4367
▁dollars	-4368
▁happens	-4369
▁measure	-4370
▁organiz	-4371
▁parties	-4372
▁reached	-4373
▁reality	-4374
▁remains	-4375
▁serving	-4376
▁vehicle	-4377
▁waiting	-4378
asketball	-4379
institute	-4380
▁feedback	-4381
▁language	-4382
▁powerful	-4383
▁requires	-4384
▁solution	-4385
employment	-4386
management	-4387
▁afternoon	-4388
▁corporate	-4389
▁documents	-4390
▁structure	-4391
▁discussion	-4392
▁facilities	-4393
▁profession	-4394
▁temperature	-4395
▁neighborhood	-4396
▁administration	-4397
ox	-4398
rh	-4399
ta	-4400
td	-4401
va	-4402
adv	-4403
bol	-4404
boy	-4405
buy	-4406
exp	-4407
mel	-4408
oom	-4409
phe	-4410
rac	-4411
ret	-4412
rey	-4413
sil	-4414
tch	-4415
▁dy	-4416
appe	-4417
expl	-4418
gift	-4419
igan	-4420
igue	-4421
iser	-4422
nded	-4423
only	-4424
plus	-4425
raid	-4426
ryan	-4427
sent	-4428
suit	-4429
teen	-4430
▁ban	-4431
▁bow	-4432
▁dur	-4433
▁joy	-4434
▁lif	-4435
▁neg	-4436
block	-4437
china	-4438
email	-4439
erous	-4440
icken	-4441
inese	-4442
inson	-4443
month	-4444
moore	-4445
ordin	-4446
smart	-4447
stock	-4448
urban	-4449
▁emer	-4450
▁fair	-4451
▁fees	-4452
▁fell	-4453
▁lose	-4454
▁lung	-4455
▁maps	-4456
▁rain	-4457
▁ship	-4458
▁situ	-4459
▁unit	-4460
▁util	-4461
commod	-4462
eagles	-4463
record	-4464
terday	-4465
▁amend	-4466
▁brush	-4467
▁carry	-4468
▁cases	-4469
▁graph	-4470
▁index	-4471
▁notes	-4472
▁signs	-4473
▁teeth	-4474
▁twice	-4475
android	-4476
hensive	-4477
ography	-4478
owntown	-4479
perform	-4480
▁county	-4481
▁helped	-4482
▁larger	-4483
▁origin	-4484
▁starts	-4485
▁thread	-4486
congress	-4487
▁artists	-4488
▁calling	-4489
▁concept	-4490
▁edition	-4491
▁exactly	-4492
▁explore	-4493
▁faculty	-4494
▁feeling	-4495
▁holding	-4496
▁passion	-4497
▁planned	-4498
▁promote	-4499
▁readers	-4500
▁removed	-4501
▁sharing	-4502
▁society	-4503
▁victory	-4504
istration	-4505
▁combined	-4506
▁delivery	-4507
▁district	-4508
▁followed	-4509
▁happened	-4510
▁interior	-4511
▁selected	-4512
▁installed	-4513
▁reference	-4514
▁restaurant	-4515
▁participate	-4516
▁requirements	-4517
▁communication	-4518
dj	-4519
ya	-4520
dog	-4521
fox	-4522
gon	-4523
hab	-4524
htm	-4525
nis	-4526
rit	-4527
syl	-4528
tur	-4529
uly	-4530
usa	-4531
via	-4532
▁mo	-4533
▁vs	-4534
anal	-4535
anke	-4536
ariz	-4537
away	-4538
bowl	-4539
brow	-4540
cost	-4541
door	-4542
fund	-4543
iate	-4544
mill	-4545
orig	-4546
reme	-4547
roud	-4548
shel	-4549
stop	-4550
thes	-4551
tour	-4552
umps	-4553
wall	-4554
zone	-4555
▁der	-4556
▁enc	-4557
▁gri	-4558
▁los	-4559
▁pit	-4560
▁reb	-4561
▁wat	-4562
bling	-4563
chris	-4564
civil	-4565
conne	-4566
ctors	-4567
frank	-4568
georg	-4569
holly	-4570
itics	-4571
orage	-4572
ptoms	-4573
ships	-4574
start	-4575
steve	-4576
study	-4577
verse	-4578
▁eval	-4579
▁flat	-4580
▁jump	-4581
▁lack	-4582
▁laws	-4583
▁nine	-4584
▁pray	-4585
▁ride	-4586
morrow	-4587
source	-4588
uminum	-4589
valent	-4590
▁banks	-4591
▁behav	-4592
▁cards	-4593
▁delic	-4594
▁force	-4595
▁forms	-4596
▁funny	-4597
▁joint	-4598
▁lunch	-4599
▁motor	-4600
▁multi	-4601
▁sauce	-4602
▁scene	-4603
▁stick	-4604
▁tells	-4605
▁trees	-4606
federal	-4607
ionship	-4608
western	-4609
▁beyond	-4610
▁boards	-4611
▁bottle	-4612
▁bright	-4613
▁father	-4614
▁gather	-4615
▁handle	-4616
▁hotels	-4617
▁mostly	-4618
▁moving	-4619
▁resear	-4620
▁stress	-4621
▁writer	-4622
attorney	-4623
building	-4624
standing	-4625
training	-4626
williams	-4627
▁despite	-4628
▁digital	-4629
▁experts	-4630
▁fashion	-4631
▁finding	-4632
▁greater	-4633
▁helping	-4634
▁kitchen	-4635
▁managed	-4636
▁monitor	-4637
▁parking	-4638
▁studies	-4639
▁surgery	-4640
▁theater	-4641
available	-4642
▁arrested	-4643
▁exciting	-4644
▁prepared	-4645
▁slightly	-4646
government	-4647
restaurant	-4648
▁condition	-4649
▁executive	-4650
▁officials	-4651
▁remaining	-4652
▁thousands	-4653
▁transport	-4654
scientology	-4655
▁population	-4656
▁properties	-4657
mi	-4658
”.	-4659
ags	-4660
ani	-4661
bus	-4662
cks	-4663
cul	-4664
kay	-4665
mex	-4666
nas	-4667
rid	-4668
try	-4669
▁>>	-4670
eric	-4671
greg	-4672
happ	-4673
hers	-4674
jour	-4675
kind	-4676
oner	-4677
raud	-4678
rett	-4679
roke	-4680
true	-4681
type	-4682
umes	-4683
uses	-4684
▁boo	-4685
▁bul	-4686
▁cop	-4687
▁pun	-4688
▁sav	-4689
▁sky	-4690
aling	-4691
beach	-4692
decor	-4693
ideos	-4694
ilton	-4695
irish	-4696
laure	-4697
occer	-4698
small	-4699
tered	-4700
texas	-4701
three	-4702
▁anti	-4703
▁clim	-4704
▁core	-4705
▁dete	-4706
▁onto	-4707
▁pool	-4708
▁poor	-4709
▁salt	-4710
▁suff	-4711
▁west	-4712
▁wine	-4713
access	-4714
alling	-4715
french	-4716
lights	-4717
martin	-4718
▁adult	-4719
▁chest	-4720
▁clubs	-4721
▁dates	-4722
▁distr	-4723
▁folks	-4724
▁fruit	-4725
▁ideal	-4726
▁metal	-4727
▁oppos	-4728
▁seats	-4729
▁sizes	-4730
▁spots	-4731
▁suppl	-4732
▁truly	-4733
chinese	-4734
current	-4735
georgia	-4736
history	-4737
limited	-4738
reuters	-4739
russell	-4740
society	-4741
viously	-4742
▁artist	-4743
▁batter	-4744
▁church	-4745
▁compre	-4746
▁decide	-4747
▁detail	-4748
▁estate	-4749
▁issued	-4750
▁legisl	-4751
▁listed	-4752
▁minute	-4753
▁nature	-4754
▁object	-4755
▁spring	-4756
▁tables	-4757
anderson	-4758
atically	-4759
▁continu	-4760
▁destroy	-4761
▁disease	-4762
▁failure	-4763
▁figures	-4764
▁husband	-4765
▁plastic	-4766
▁reflect	-4767
▁showing	-4768
▁towards	-4769
abilities	-4770
forcement	-4771
ibilities	-4772
marketing	-4773
▁citizens	-4774
▁launched	-4775
▁maintain	-4776
▁platform	-4777
▁spending	-4778
▁symptoms	-4779
▁tomorrow	-4780
▁whatever	-4781
▁continues	-4782
▁dedicated	-4783
▁depending	-4784
▁described	-4785
▁practices	-4786
▁reporting	-4787
▁assessment	-4788
▁maintenance	-4789
▁recommended	-4790
▁entertainment	-4791
▁environmental	-4792
ij	-4793
ls	-4794
sn	-4795
vy	-4796
ady	-4797
alb	-4798
arp	-4799
bra	-4800
fed	-4801
fig	-4802
ker	-4803
kit	-4804
lah	-4805
las	-4806
luc	-4807
mur	-4808
nth	-4809
ola	-4810
pur	-4811
sit	-4812
uth	-4813
▁ju	-4814
anda	-4815
area	-4816
arts	-4817
braz	-4818
bury	-4819
eman	-4820
hart	-4821
hire	-4822
icon	-4823
iled	-4824
kiss	-4825
lock	-4826
mean	-4827
olic	-4828
oren	-4829
outs	-4830
pled	-4831
sequ	-4832
spec	-4833
trad	-4834
vens	-4835
wing	-4836
▁bon	-4837
▁fee	-4838
▁fem	-4839
▁sad	-4840
again	-4841
brian	-4842
champ	-4843
drive	-4844
fried	-4845
harry	-4846
olymp	-4847
queen	-4848
terms	-4849
track	-4850
▁bond	-4851
▁chat	-4852
▁cris	-4853
▁cute	-4854
▁gall	-4855
▁grab	-4856
▁harm	-4857
▁infr	-4858
▁mist	-4859
▁recy	-4860
▁sole	-4861
atures	-4862
brazil	-4863
master	-4864
thomas	-4865
▁chair	-4866
▁deals	-4867
▁decor	-4868
▁earth	-4869
▁expos	-4870
▁initi	-4871
▁laugh	-4872
▁limit	-4873
▁occas	-4874
▁subst	-4875
▁trade	-4876
▁youth	-4877
arently	-4878
arizona	-4879
england	-4880
members	-4881
▁advent	-4882
▁afford	-4883
▁bodies	-4884
▁caught	-4885
▁cheese	-4886
▁format	-4887
▁lights	-4888
▁prepar	-4889
▁secure	-4890
▁sexual	-4891
▁shares	-4892
▁stored	-4893
▁supply	-4894
▁tablet	-4895
graduate	-4896
▁absolut	-4897
▁accompl	-4898
▁browser	-4899
▁climate	-4900
▁justice	-4901
▁methods	-4902
▁realize	-4903
▁sustain	-4904
francisco	-4905
▁academic	-4906
▁accommod	-4907
▁allowing	-4908
▁approved	-4909
▁baseball	-4910
▁birthday	-4911
▁detailed	-4912
▁identify	-4913
▁returned	-4914
▁teaching	-4915
technology	-4916
▁construct	-4917
▁highlight	-4918
▁standards	-4919
▁challenges	-4920
▁commission	-4921
▁confidence	-4922
▁identified	-4923
▁importance	-4924
▁competitive	-4925
▁distribution	-4926
!"	-4927
xx	-4928
zy	-4929
▁)	-4930
ads	-4931
alo	-4932
boo	-4933
csi	-4934
fal	-4935
ias	-4936
iva	-4937
lay	-4938
neo	-4939
non	-4940
rev	-4941
ales	-4942
anne	-4943
athe	-4944
bled	-4945
cean	-4946
film	-4947
hors	-4948
ifth	-4949
otic	-4950
pers	-4951
sean	-4952
send	-4953
tick	-4954
▁ang	-4955
▁cro	-4956
▁deb	-4957
▁fly	-4958
▁gay	-4959
▁ign	-4960
▁inf	-4961
▁kid	-4962
▁las	-4963
▁que	-4964
books	-4965
going	-4966
igned	-4967
ingly	-4968
inity	-4969
learn	-4970
money	-4971
oklah	-4972
rance	-4973
rooms	-4974
santa	-4975
ulate	-4976
useum	-4977
▁awes	-4978
▁beef	-4979
▁belt	-4980
▁cart	-4981
▁conv	-4982
▁cult	-4983
▁fill	-4984
▁kill	-4985
▁plug	-4986
▁vary	-4987
andrew	-4988
applic	-4989
avenue	-4990
jersey	-4991
member	-4992
middle	-4993
porter	-4994
select	-4995
tained	-4996
▁admit	-4997
▁brain	-4998
▁brown	-4999
▁craft	-5000
▁crowd	-5001
▁domin	-5002
▁dynam	-5003
▁faith	-5004
▁frame	-5005
▁instr	-5006
▁moist	-5007
▁quiet	-5008
▁relax	-5009
▁smile	-5010
▁south	-5011
▁talks	-5012
acement	-5013
actions	-5014
explore	-5015
friends	-5016
ishment	-5017
support	-5018
▁begins	-5019
▁cities	-5020
▁couldn	-5021
▁incred	-5022
▁listen	-5023
▁missed	-5024
▁recipe	-5025
▁signed	-5026
▁status	-5027
▁ticket	-5028
▁useful	-5029
oklahoma	-5030
sciences	-5031
▁assault	-5032
▁awesome	-5033
▁counter	-5034
▁enhance	-5035
▁hunting	-5036
▁machine	-5037
▁nuclear	-5038
▁restaur	-5039
▁setting	-5040
▁streets	-5041
reference	-5042
▁accident	-5043
▁employee	-5044
▁evidence	-5045
▁featured	-5046
▁inspired	-5047
▁judgment	-5048
▁measures	-5049
▁resource	-5050
▁versions	-5051
foundation	-5052
republican	-5053
▁connected	-5054
▁efficient	-5055
▁expensive	-5056
▁fantastic	-5057
▁generally	-5058
▁positions	-5059
▁processes	-5060
▁receiving	-5061
▁therefore	-5062
▁yesterday	-5063
▁tournament	-5064
▁combination	-5065
▁comprehensive	-5066
?”	-5067
mb	-5068
bad	-5069
bas	-5070
feb	-5071
fly	-5072
ibn	-5073
imp	-5074
lif	-5075
pow	-5076
rat	-5077
rub	-5078
rum	-5079
saf	-5080
zen	-5081
▁au	-5082
▁ur	-5083
ague	-5084
bian	-5085
cred	-5086
ibit	-5087
jose	-5088
link	-5089
marc	-5090
osis	-5091
penn	-5092
poon	-5093
rief	-5094
trib	-5095
wich	-5096
wild	-5097
▁cir	-5098
▁egg	-5099
▁fro	-5100
▁mel	-5101
▁tum	-5102
▁ven	-5103
▁wid	-5104
anzan	-5105
apore	-5106
canon	-5107
cling	-5108
daily	-5109
davis	-5110
exper	-5111
imens	-5112
inste	-5113
istan	-5114
labor	-5115
local	-5116
mates	-5117
mical	-5118
secut	-5119
store	-5120
uable	-5121
▁apps	-5122
▁bath	-5123
▁fuel	-5124
▁pure	-5125
agency	-5126
bridge	-5127
bsites	-5128
canada	-5129
elines	-5130
icians	-5131
making	-5132
ptions	-5133
safety	-5134
screen	-5135
should	-5136
▁apart	-5137
▁cheap	-5138
▁crust	-5139
▁flour	-5140
▁mixed	-5141
▁proud	-5142
▁shelf	-5143
▁thick	-5144
▁tomat	-5145
▁usual	-5146
▁veter	-5147
▁waste	-5148
article	-5149
finally	-5150
monitor	-5151
▁adding	-5152
▁approx	-5153
▁asking	-5154
▁centre	-5155
▁corner	-5156
▁garden	-5157
▁memory	-5158
▁nearby	-5159
▁obtain	-5160
▁raised	-5161
▁shared	-5162
▁sister	-5163
▁styles	-5164
▁theory	-5165
▁tradem	-5166
everyone	-5167
hamilton	-5168
memorial	-5169
partners	-5170
▁chapter	-5171
▁compare	-5172
▁culture	-5173
▁cutting	-5174
▁explain	-5175
▁imagine	-5176
▁involve	-5177
▁learned	-5178
▁leather	-5179
▁markets	-5180
▁objects	-5181
▁offices	-5182
▁ordered	-5183
▁publish	-5184
▁seating	-5185
singapore	-5186
▁behavior	-5187
▁numerous	-5188
▁patients	-5189
▁regional	-5190
▁register	-5191
▁shooting	-5192
▁celebrate	-5193
▁concerned	-5194
▁emergency	-5195
▁featuring	-5196
▁guarantee	-5197
▁perfectly	-5198
▁purchased	-5199
▁accessible	-5200
▁appearance	-5201
▁commitment	-5202
▁components	-5203
▁discovered	-5204
▁healthcare	-5205
▁techniques	-5206
▁immediately	-5207
▁conversation	-5208
?"	-5209
ez	-5210
fu	-5211
——	-5212
abc	-5213
abs	-5214
aks	-5215
atl	-5216
fac	-5217
hal	-5218
hus	-5219
kim	-5220
map	-5221
mid	-5222
mos	-5223
oga	-5224
raf	-5225
tro	-5226
▁aw	-5227
▁du	-5228
acle	-5229
bles	-5230
cape	-5231
dist	-5232
gent	-5233
hope	-5234
inem	-5235
ndom	-5236
path	-5237
rodr	-5238
rush	-5239
ryst	-5240
sher	-5241
talk	-5242
tell	-5243
unge	-5244
wipe	-5245
▁bub	-5246
▁pet	-5247
▁swe	-5248
ategy	-5249
cross	-5250
enjoy	-5251
iguez	-5252
innov	-5253
iters	-5254
orrow	-5255
poses	-5256
rings	-5257
sarah	-5258
trust	-5259
ushes	-5260
vegas	-5261
would	-5262
▁ages	-5263
▁arms	-5264
▁bear	-5265
▁frag	-5266
▁ment	-5267
▁mode	-5268
▁narr	-5269
▁push	-5270
▁rent	-5271
▁repe	-5272
▁sand	-5273
▁seed	-5274
▁shap	-5275
▁tech	-5276
▁toys	-5277
▁wash	-5278
choose	-5279
compet	-5280
crease	-5281
iamond	-5282
kansas	-5283
lauren	-5284
letter	-5285
minute	-5286
mobile	-5287
orough	-5288
return	-5289
single	-5290
ushing	-5291
▁draft	-5292
▁feels	-5293
▁holds	-5294
▁label	-5295
▁motiv	-5296
▁plate	-5297
▁raise	-5298
▁rapid	-5299
▁reven	-5300
▁shots	-5301
▁songs	-5302
▁steps	-5303
▁taxes	-5304
▁tight	-5305
▁worry	-5306
climate	-5307
collect	-5308
comfort	-5309
faction	-5310
ologies	-5311
station	-5312
studies	-5313
subscri	-5314
updated	-5315
windows	-5316
working	-5317
written	-5318
▁anyway	-5319
▁arrang	-5320
▁breath	-5321
▁caused	-5322
▁disapp	-5323
▁exceed	-5324
▁hoping	-5325
▁houses	-5326
▁jacket	-5327
▁leaves	-5328
▁notice	-5329
▁random	-5330
▁sector	-5331
▁spirit	-5332
▁square	-5333
▁stream	-5334
▁topics	-5335
▁tweets	-5336
▁victim	-5337
▁volume	-5338
▁weekly	-5339
carolina	-5340
ideswipe	-5341
iversary	-5342
minister	-5343
quarters	-5344
security	-5345
▁dropped	-5346
▁extract	-5347
▁herself	-5348
▁illegal	-5349
▁journey	-5350
▁leaders	-5351
▁prepare	-5352
▁primary	-5353
▁replace	-5354
▁sitting	-5355
▁storage	-5356
▁trailer	-5357
▁updated	-5358
▁updates	-5359
ferencing	-5360
hollywood	-5361
rodriguez	-5362
▁anywhere	-5363
▁attorney	-5364
▁distinct	-5365
▁facility	-5366
▁proposed	-5367
▁purposes	-5368
▁teachers	-5369
▁transfer	-5370
▁vacation	-5371
▁broadcast	-5372
▁confirmed	-5373
▁determine	-5374
▁encourage	-5375
▁exclusive	-5376
▁expertise	-5377
▁procedure	-5378
▁radiation	-5379
corporation	-5380
▁associated	-5381
▁enforcement	-5382
▁investigation	-5383
.|	-5384
uz	-5385
ano	-5386
asp	-5387
ban	-5388
bug	-5389
far	-5390
gie	-5391
hoo	-5392
nfl	-5393
oil	-5394
omy	-5395
tay	-5396
tit	-5397
asks	-5398
beck	-5399
cath	-5400
ctic	-5401
edia	-5402
ette	-5403
flat	-5404
hatt	-5405
ifan	-5406
lace	-5407
leon	-5408
lord	-5409
nels	-5410
oles	-5411
onym	-5412
osen	-5413
pens	-5414
pier	-5415
plit	-5416
prom	-5417
rink	-5418
sony	-5419
stay	-5420
trom	-5421
yard	-5422
▁bat	-5423
▁ben	-5424
▁phr	-5425
▁pil	-5426
▁rom	-5427
▁squ	-5428
▁tap	-5429
ashed	-5430
being	-5431
clean	-5432
could	-5433
crete	-5434
cynth	-5435
diego	-5436
eless	-5437
estin	-5438
happy	-5439
hemat	-5440
italy	-5441
known	-5442
leges	-5443
level	-5444
major	-5445
mayor	-5446
ograp	-5447
oices	-5448
opera	-5449
prise	-5450
radio	-5451
ridge	-5452
route	-5453
still	-5454
total	-5455
udden	-5456
upper	-5457
uries	-5458
yanke	-5459
▁boys	-5460
▁cups	-5461
▁desk	-5462
▁glow	-5463
▁hang	-5464
▁inch	-5465
▁none	-5466
▁oven	-5467
▁rose	-5468
▁scen	-5469
▁scre	-5470
▁soph	-5471
▁spin	-5472
▁tail	-5473
▁tast	-5474
▁ware	-5475
advent	-5476
democr	-5477
energy	-5478
hattan	-5479
having	-5480
normal	-5481
taylor	-5482
update	-5483
wilson	-5484
▁analy	-5485
▁avail	-5486
▁blend	-5487
▁crazy	-5488
▁grown	-5489
▁honor	-5490
▁keeps	-5491
▁minor	-5492
▁names	-5493
▁panel	-5494
▁proof	-5495
▁radio	-5496
▁rings	-5497
▁swing	-5498
▁theme	-5499
▁trial	-5500
▁valid	-5501
▁wheel	-5502
▁worst	-5503
▁yards	-5504
athered	-5505
closure	-5506
cynthia	-5507
despite	-5508
fection	-5509
hanifan	-5510
isation	-5511
looking	-5512
project	-5513
quality	-5514
respond	-5515
▁agreed	-5516
▁blocks	-5517
▁cooper	-5518
▁driven	-5519
▁favour	-5520
▁fellow	-5521
▁govern	-5522
▁inform	-5523
▁injury	-5524
▁losing	-5525
▁mental	-5526
▁motion	-5527
▁pocket	-5528
▁seemed	-5529
▁spokes	-5530
▁statue	-5531
▁strike	-5532
▁tissue	-5533
▁upgrad	-5534
▁values	-5535
complete	-5536
football	-5537
intellig	-5538
position	-5539
standard	-5540
▁becomes	-5541
▁capture	-5542
▁clearly	-5543
▁confirm	-5544
▁flights	-5545
▁massage	-5546
▁maximum	-5547
▁playoff	-5548
▁premium	-5549
▁session	-5550
▁totally	-5551
▁turning	-5552
▁accounts	-5553
▁becoming	-5554
▁bringing	-5555
▁capacity	-5556
▁coverage	-5557
▁greatest	-5558
▁negative	-5559
▁recorded	-5560
▁sentence	-5561
▁separate	-5562
▁wildlife	-5563
elementary	-5564
physiology	-5565
▁collected	-5566
▁component	-5567
▁defensive	-5568
▁delicious	-5569
▁recognize	-5570
▁strategic	-5571
▁introduced	-5572
▁leadership	-5573
▁networking	-5574
▁previously	-5575
▁alternative	-5576
▁description	-5577
▁instructions	-5578
▁organizations	-5579
▁professionals	-5580
▁responsibility	-5581
cm	-5582
dc	-5583
ki	-5584
kr	-5585
azz	-5586
cop	-5587
eed	-5588
fay	-5589
jac	-5590
kat	-5591
pha	-5592
sab	-5593
sep	-5594
tes	-5595
uts	-5596
▁ly	-5597
..."	-5598
ampa	-5599
atab	-5600
balt	-5601
bean	-5602
beat	-5603
bird	-5604
chat	-5605
clin	-5606
data	-5607
heat	-5608
html	-5609
icit	-5610
inks	-5611
kent	-5612
mult	-5613
odge	-5614
oted	-5615
otes	-5616
pict	-5617
pper	-5618
rial	-5619
rics	-5620
song	-5621
tien	-5622
tube	-5623
utch	-5624
▁den	-5625
▁fis	-5626
▁flu	-5627
▁hip	-5628
▁kne	-5629
▁mur	-5630
▁odd	-5631
▁pal	-5632
▁pin	-5633
▁wra	-5634
adult	-5635
apers	-5636
cohol	-5637
eries	-5638
estic	-5639
ether	-5640
files	-5641
glass	-5642
iable	-5643
iders	-5644
imore	-5645
iples	-5646
marsh	-5647
oking	-5648
ospit	-5649
patch	-5650
rants	-5651
staff	-5652
sters	-5653
tampa	-5654
ulous	-5655
wards	-5656
worth	-5657
young	-5658
▁arts	-5659
▁buck	-5660
▁deer	-5661
▁dogs	-5662
▁edge	-5663
▁eleg	-5664
▁fear	-5665
▁hero	-5666
▁iron	-5667
▁kept	-5668
▁rank	-5669
▁rise	-5670
▁task	-5671
▁youn	-5672
ducing	-5673
econom	-5674
events	-5675
integr	-5676
ivered	-5677
iverse	-5678
ixture	-5679
mexico	-5680
orient	-5681
pected	-5682
profit	-5683
spaper	-5684
square	-5685
sylvan	-5686
wanted	-5687
▁agent	-5688
▁boxes	-5689
▁dream	-5690
▁drink	-5691
▁fraud	-5692
▁pitch	-5693
▁plant	-5694
▁recip	-5695
▁skill	-5696
▁teach	-5697
▁truck	-5698
account	-5699
african	-5700
britain	-5701
fairfax	-5702
italian	-5703
therapy	-5704
tribune	-5705
website	-5706
▁afraid	-5707
▁awards	-5708
▁battle	-5709
▁circum	-5710
▁conven	-5711
▁cotton	-5712
▁dating	-5713
▁earned	-5714
▁excess	-5715
▁forgot	-5716
▁freeze	-5717
▁illust	-5718
▁joined	-5719
▁league	-5720
▁licens	-5721
▁manage	-5722
▁perman	-5723
▁powder	-5724
▁racing	-5725
anzanite	-5726
download	-5727
hospital	-5728
medicine	-5729
response	-5730
▁arrived	-5731
▁classes	-5732
▁enjoyed	-5733
▁factors	-5734
▁fingers	-5735
▁focused	-5736
▁journal	-5737
▁license	-5738
▁offense	-5739
▁opinion	-5740
▁pleased	-5741
▁possess	-5742
▁seeking	-5743
▁therapy	-5744
▁treated	-5745
▁upgrade	-5746
▁virtual	-5747
▁willing	-5748
baltimore	-5749
manhattan	-5750
valentine	-5751
▁accepted	-5752
▁aircraft	-5753
▁aluminum	-5754
▁appeared	-5755
▁incident	-5756
▁managing	-5757
▁password	-5758
▁possibly	-5759
▁pregnant	-5760
▁properly	-5761
▁retailers	-5762
▁seriously	-5763
▁surprised	-5764
▁basketball	-5765
▁innovation	-5766
▁permission	-5767
▁philosophy	-5768
▁processing	-5769
▁television	-5770
▁university	-5771
professional	-5772
thanksgiving	-5773
▁advertising	-5774
▁celebration	-5775
▁engineering	-5776
▁established	-5777
▁experienced	-5778
▁independent	-5779
▁integration	-5780
▁photographs	-5781
▁publication	-5782
▁researchers	-5783
▁unemployment	-5784
communications	-5785
▁approximately	-5786
▁automatically	-5787
gb	-5788
gi	-5789
ja	-5790
sv	-5791
vp	-5792
wi	-5793
amm	-5794
awn	-5795
bes	-5796
cod	-5797
dam	-5798
ero	-5799
fla	-5800
gov	-5801
ini	-5802
jim	-5803
kar	-5804
llc	-5805
mov	-5806
pth	-5807
sym	-5808
tax	-5809
tic	-5810
ura	-5811
abet	-5812
aide	-5813
alty	-5814
aron	-5815
circ	-5816
disc	-5817
draw	-5818
ella	-5819
erce	-5820
erts	-5821
flet	-5822
fold	-5823
gall	-5824
hour	-5825
hous	-5826
ilty	-5827
imin	-5828
jenn	-5829
jess	-5830
mate	-5831
mith	-5832
ntic	-5833
obby	-5834
pool	-5835
prem	-5836
rict	-5837
rust	-5838
sche	-5839
such	-5840
term	-5841
tony	-5842
wrap	-5843
▁ast	-5844
▁ath	-5845
▁avi	-5846
▁bug	-5847
▁dom	-5848
▁dut	-5849
▁eth	-5850
▁ink	-5851
▁les	-5852
▁lit	-5853
▁nur	-5854
▁ske	-5855
▁tab	-5856
▁tut	-5857
▁wel	-5858
aints	-5859
ament	-5860
athon	-5861
coast	-5862
gling	-5863
heart	-5864
icher	-5865
image	-5866
ishes	-5867
kevin	-5868
liter	-5869
olved	-5870
oming	-5871
poker	-5872
quick	-5873
sands	-5874
sandy	-5875
scale	-5876
sorry	-5877
troms	-5878
▁bare	-5879
▁bowl	-5880
▁burn	-5881
▁ends	-5882
▁fest	-5883
▁guid	-5884
▁keys	-5885
▁legs	-5886
▁mine	-5887
▁rule	-5888
▁scri	-5889
compan	-5890
father	-5891
igible	-5892
indust	-5893
intage	-5894
little	-5895
oregon	-5896
phones	-5897
stract	-5898
thread	-5899
▁brief	-5900
▁chief	-5901
▁conce	-5902
▁crack	-5903
▁fifth	-5904
▁filed	-5905
▁gradu	-5906
▁grass	-5907
▁hopes	-5908
▁judge	-5909
▁knock	-5910
▁locks	-5911
▁negot	-5912
▁puppy	-5913
▁repro	-5914
▁simpl	-5915
▁spark	-5916
▁trick	-5917
buffalo	-5918
control	-5919
edition	-5920
funeral	-5921
illiant	-5922
jackson	-5923
madison	-5924
oration	-5925
section	-5926
thentic	-5927
without	-5928
▁bacter	-5929
▁baking	-5930
▁bigger	-5931
▁chosen	-5932
▁closer	-5933
▁compar	-5934
▁repair	-5935
▁scheme	-5936
▁shirts	-5937
▁showed	-5938
▁struck	-5939
▁sudden	-5940
▁taxpay	-5941
▁unless	-5942
adelaide	-5943
explorer	-5944
location	-5945
magazine	-5946
medicare	-5947
register	-5948
robinson	-5949
▁actions	-5950
▁answers	-5951
▁command	-5952
▁coordin	-5953
▁couples	-5954
▁discrim	-5955
▁diverse	-5956
▁examine	-5957
▁falling	-5958
▁illness	-5959
▁reduced	-5960
▁testing	-5961
▁walking	-5962
alexander	-5963
chocolate	-5964
sideswipe	-5965
▁affected	-5966
▁civilian	-5967
▁designer	-5968
▁downtown	-5969
▁electric	-5970
▁intellig	-5971
▁memories	-5972
▁revealed	-5973
▁shopping	-5974
▁thorough	-5975
▁tomatoes	-5976
▁websites	-5977
▁apartment	-5978
▁architect	-5979
▁buildings	-5980
▁carefully	-5981
▁computers	-5982
▁immediate	-5983
▁mentioned	-5984
▁organized	-5985
▁tradition	-5986
▁absolutely	-5987
▁correspond	-5988
▁eventually	-5989
▁generation	-5990
▁operations	-5991
▁situations	-5992
▁communities	-5993
▁partnership	-5994
▁restaurants	-5995
▁participants	-5996
▁satisfaction	-5997
▁contributions	-5998
'.	-5999
);	-6000
mp	-6001
nc	-6002
nr	-6003
xz	-6004
arc	-6005
aro	-6006
ato	-6007
axy	-6008
bly	-6009
cel	-6010
coy	-6011
cue	-6012
dar	-6013
dur	-6014
hay	-6015
iat	-6016
ili	-6017
izz	-6018
jon	-6019
kal	-6020
lan	-6021
lat	-6022
ltd	-6023
mah	-6024
nda	-6025
pes	-6026
phi	-6027
pit	-6028
rab	-6029
ref	-6030
rot	-6031
sea	-6032
sue	-6033
swe	-6034
tem	-6035
url	-6036
wer	-6037
▁id	-6038
adhd	-6039
anim	-6040
bali	-6041
base	-6042
cain	-6043
chef	-6044
cles	-6045
code	-6046
conf	-6047
dark	-6048
farm	-6049
feed	-6050
gend	-6051
half	-6052
hell	-6053
icip	-6054
illy	-6055
ilst	-6056
isms	-6057
mers	-6058
navy	-6059
olec	-6060
owed	-6061
pret	-6062
priv	-6063
rena	-6064
sand	-6065
▁bid	-6066
▁cos	-6067
▁die	-6068
▁god	-6069
▁ran	-6070
▁raw	-6071
▁rob	-6072
▁sch	-6073
▁tie	-6074
▁zip	-6075
annie	-6076
break	-6077
camer	-6078
endar	-6079
focus	-6080
ideas	-6081
itude	-6082
jones	-6083
lying	-6084
shoot	-6085
sized	-6086
tours	-6087
ucial	-6088
until	-6089
usion	-6090
uster	-6091
write	-6092
yours	-6093
▁cere	-6094
▁emph	-6095
▁evac	-6096
▁flag	-6097
▁flex	-6098
▁glad	-6099
▁grew	-6100
▁hasn	-6101
▁hunt	-6102
▁lift	-6103
▁meal	-6104
▁pist	-6105
▁plot	-6106
▁rang	-6107
▁rear	-6108
▁scan	-6109
▁solo	-6110
▁soul	-6111
▁vent	-6112
▁vill	-6113
academ	-6114
around	-6115
astern	-6116
austin	-6117
finder	-6118
future	-6119
iously	-6120
living	-6121
mother	-6122
museum	-6123
nelson	-6124
othing	-6125
photos	-6126
romney	-6127
ronics	-6128
winter	-6129
xzibit	-6130
▁abuse	-6131
▁assem	-6132
▁avoid	-6133
▁balls	-6134
▁bunch	-6135
▁doubt	-6136
▁films	-6137
▁jewel	-6138
▁liber	-6139
▁liked	-6140
▁loves	-6141
▁meals	-6142
▁merch	-6143
▁molec	-6144
▁noted	-6145
▁risks	-6146
▁river	-6147
▁sides	-6148
▁spoke	-6149
▁tasks	-6150
affairs	-6151
atively	-6152
avenger	-6153
charlie	-6154
clusion	-6155
content	-6156
details	-6157
enities	-6158
itative	-6159
justice	-6160
ointing	-6161
perfect	-6162
ulating	-6163
winning	-6164
▁buying	-6165
▁contem	-6166
▁fields	-6167
▁forces	-6168
▁guilty	-6169
▁hospit	-6170
▁laptop	-6171
▁legend	-6172
▁linked	-6173
▁marked	-6174
▁output	-6175
▁paying	-6176
▁plugin	-6177
▁rating	-6178
▁riding	-6179
▁thinks	-6180
▁titles	-6181
▁united	-6182
▁videos	-6183
▁window	-6184
advanced	-6185
catholic	-6186
michigan	-6187
reserved	-6188
software	-6189
sylvania	-6190
▁alcohol	-6191
▁balance	-6192
▁brushes	-6193
▁capable	-6194
▁coaches	-6195
▁conclud	-6196
▁engaged	-6197
▁flowers	-6198
▁founder	-6199
▁hearing	-6200
▁lessons	-6201
▁matters	-6202
▁missing	-6203
▁musical	-6204
▁noticed	-6205
▁ongoing	-6206
▁patient	-6207
▁privacy	-6208
▁stadium	-6209
▁trouble	-6210
▁younger	-6211
assistant	-6212
corporate	-6213
emergency	-6214
professor	-6215
riculture	-6216
▁admitted	-6217
▁audience	-6218
▁believes	-6219
▁carrying	-6220
▁directed	-6221
▁explains	-6222
▁improved	-6223
▁matching	-6224
▁moisture	-6225
▁occasion	-6226
▁releases	-6227
▁requests	-6228
▁speakers	-6229
▁strategy	-6230
▁supports	-6231
▁valuable	-6232
astructure	-6233
collection	-6234
innovation	-6235
▁committed	-6236
▁continued	-6237
▁delivered	-6238
▁developer	-6239
▁displayed	-6240
▁extension	-6241
▁happening	-6242
▁otherwise	-6243
▁supported	-6244
▁technique	-6245
▁temporary	-6246
▁volunteer	-6247
▁workshops	-6248
environment	-6249
▁electronic	-6250
▁employment	-6251
▁resolution	-6252
▁scientific	-6253
▁appointment	-6254
▁experiences	-6255
▁perspective	-6256
▁photography	-6257
▁regulations	-6258
▁capabilities	-6259
▁improvements	-6260
▁installation	-6261
▁institutions	-6262
▁manufacturer	-6263
▁presentation	-6264
▁registration	-6265
▁communications	-6266
bn	-6267
cc	-6268
fs	-6269
jr	-6270
xy	-6271
yl	-6272
,''	-6273
apj	-6274
dge	-6275
dll	-6276
eve	-6277
fan	-6278
fat	-6279
gun	-6280
guy	-6281
had	-6282
hou	-6283
ila	-6284
iot	-6285
iti	-6286
jav	-6287
lib	-6288
pas	-6289
phy	-6290
pie	-6291
tel	-6292
yer	-6293
▁:)	-6294
alog	-6295
anna	-6296
anya	-6297
aret	-6298
arms	-6299
avia	-6300
bull	-6301
flow	-6302
fred	-6303
iere	-6304
iest	-6305
ifer	-6306
info	-6307
ippi	-6308
ivan	-6309
izon	-6310
mand	-6311
matt	-6312
mony	-6313
okay	-6314
poss	-6315
rait	-6316
roit	-6317
rosc	-6318
shot	-6319
shut	-6320
size	-6321
sold	-6322
spot	-6323
ucci	-6324
user	-6325
utah	-6326
vere	-6327
wash	-6328
wear	-6329
▁hat	-6330
▁nav	-6331
▁ped	-6332
▁sam	-6333
▁sea	-6334
▁tou	-6335
▁tun	-6336
▁voc	-6337
allen	-6338
among	-6339
ateur	-6340
bound	-6341
bruce	-6342
chall	-6343
folio	-6344
grant	-6345
guard	-6346
ician	-6347
idays	-6348
inals	-6349
index	-6350
jason	-6351
lando	-6352
lects	-6353
locks	-6354
motor	-6355
myers	-6356
somet	-6357
sport	-6358
stars	-6359
▁arth	-6360
▁bars	-6361
▁busy	-6362
▁coun	-6363
▁cuts	-6364
▁ease	-6365
▁hits	-6366
▁mill	-6367
▁nerv	-6368
▁pump	-6369
▁till	-6370
▁whom	-6371
arabic	-6372
charge	-6373
comput	-6374
contin	-6375
course	-6376
credit	-6377
eicher	-6378
execut	-6379
garden	-6380
hoover	-6381
ilting	-6382
intend	-6383
motion	-6384
number	-6385
pierre	-6386
pocket	-6387
proper	-6388
ternal	-6389
▁achie	-6390
▁beach	-6391
▁bills	-6392
▁coast	-6393
▁crash	-6394
▁deput	-6395
▁elbow	-6396
▁finds	-6397
▁flood	-6398
▁hedge	-6399
▁kills	-6400
▁lungs	-6401
▁owned	-6402
▁param	-6403
▁parks	-6404
▁posts	-6405
▁quilt	-6406
▁rated	-6407
▁smoke	-6408
▁sport	-6409
▁stuck	-6410
▁theft	-6411
▁ultra	-6412
▁upper	-6413
atabase	-6414
ception	-6415
certain	-6416
contest	-6417
highway	-6418
instead	-6419
iration	-6420
issippi	-6421
mediate	-6422
orlando	-6423
process	-6424
stances	-6425
weather	-6426
▁appeal	-6427
▁brands	-6428
▁bridge	-6429
▁butter	-6430
▁comedy	-6431
▁compos	-6432
▁covers	-6433
▁deaths	-6434
▁decade	-6435
▁emphas	-6436
▁enthus	-6437
▁faster	-6438
▁flavor	-6439
▁formed	-6440
▁height	-6441
▁lovely	-6442
▁murder	-6443
▁orders	-6444
▁rising	-6445
▁sevent	-6446
▁tested	-6447
mountain	-6448
official	-6449
presents	-6450
specific	-6451
▁accused	-6452
▁analyst	-6453
▁awarded	-6454
▁bedroom	-6455
▁chicken	-6456
▁curious	-6457
▁drawing	-6458
▁dynamic	-6459
▁follows	-6460
▁forever	-6461
▁formula	-6462
▁instant	-6463
▁joining	-6464
▁killing	-6465
▁mailing	-6466
▁mixture	-6467
▁organic	-6468
▁outdoor	-6469
▁posting	-6470
▁profits	-6471
▁returns	-6472
▁skilled	-6473
▁summary	-6474
▁tonight	-6475
▁trained	-6476
▁typical	-6477
currently	-6478
executive	-6479
including	-6480
questions	-6481
subscribe	-6482
▁accompan	-6483
▁champion	-6484
▁cleaning	-6485
▁concerns	-6486
▁eligible	-6487
▁entering	-6488
▁exposure	-6489
▁extended	-6490
▁fighting	-6491
▁identity	-6492
▁lifetime	-6493
▁narrator	-6494
▁painting	-6495
▁proposal	-6496
▁standing	-6497
▁teaspoon	-6498
protection	-6499
▁adventure	-6500
▁agreement	-6501
▁conducted	-6502
▁confident	-6503
▁copyright	-6504
▁expressed	-6505
▁favourite	-6506
▁hopefully	-6507
▁improving	-6508
▁influence	-6509
▁interests	-6510
▁newspaper	-6511
▁operation	-6512
▁producing	-6513
▁regularly	-6514
▁religious	-6515
▁somewhere	-6516
▁spokesman	-6517
▁touchdown	-6518
▁transform	-6519
▁worldwide	-6520
engineering	-6521
mississippi	-6522
▁apparently	-6523
▁candidates	-6524
▁constantly	-6525
▁mechanical	-6526
▁reportedly	-6527
▁possibility	-6528
▁surrounding	-6529
unfortunately	-6530
▁headquarters	-6531
▁circumstances	-6532
aza	-6533
bah	-6534
ceo	-6535
cru	-6536
eat	-6537
eds	-6538
esh	-6539
esy	-6540
hat	-6541
hiv	-6542
ipl	-6543
ktm	-6544
kyo	-6545
lik	-6546
nel	-6547
nob	-6548
ops	-6549
pci	-6550
rix	-6551
tag	-6552
tle	-6553
tog	-6554
uzz	-6555
won	-6556
yah	-6557
zip	-6558
abin	-6559
amic	-6560
anes	-6561
ardi	-6562
arth	-6563
atre	-6564
baby	-6565
bene	-6566
bern	-6567
bits	-6568
cash	-6569
cass	-6570
dall	-6571
days	-6572
easy	-6573
eliz	-6574
ells	-6575
elly	-6576
eter	-6577
etry	-6578
five	-6579
gard	-6580
gord	-6581
http	-6582
irty	-6583
jake	-6584
kids	-6585
kins	-6586
lane	-6587
mini	-6588
must	-6589
oria	-6590
prep	-6591
race	-6592
rams	-6593
rell	-6594
shaw	-6595
todd	-6596
tree	-6597
wine	-6598
▁cum	-6599
▁flo	-6600
▁gro	-6601
▁lie	-6602
▁lux	-6603
▁msa	-6604
▁pic	-6605
▁rac	-6606
▁rot	-6607
▁row	-6608
▁rub	-6609
▁sed	-6610
▁sew	-6611
▁tag	-6612
▁uns	-6613
asian	-6614
below	-6615
bible	-6616
chang	-6617
cycle	-6618
gross	-6619
guest	-6620
icate	-6621
idden	-6622
intel	-6623
intro	-6624
larry	-6625
magic	-6626
mally	-6627
mouth	-6628
owned	-6629
pages	-6630
poons	-6631
rible	-6632
rical	-6633
rison	-6634
roots	-6635
shore	-6636
short	-6637
steel	-6638
touch	-6639
▁adds	-6640
▁batt	-6641
▁blow	-6642
▁boss	-6643
▁bust	-6644
▁butt	-6645
▁dont	-6646
▁dram	-6647
▁dual	-6648
▁fits	-6649
▁furn	-6650
▁hall	-6651
▁hurt	-6652
▁loan	-6653
▁pigs	-6654
▁poly	-6655
▁pork	-6656
▁rend	-6657
▁seat	-6658
▁sequ	-6659
▁sexy	-6660
▁soil	-6661
▁spee	-6662
▁stim	-6663
▁surf	-6664
▁thus	-6665
advert	-6666
alanya	-6667
anyone	-6668
bedded	-6669
behold	-6670
browse	-6671
chrome	-6672
create	-6673
dallas	-6674
doctor	-6675
editor	-6676
edward	-6677
ellant	-6678
golden	-6679
imming	-6680
itable	-6681
junior	-6682
ockets	-6683
player	-6684
rating	-6685
secret	-6686
senior	-6687
spirit	-6688
stroke	-6689
studio	-6690
target	-6691
ulated	-6692
▁aside	-6693
▁bread	-6694
▁cable	-6695
▁chain	-6696
▁crime	-6697
▁humor	-6698
▁input	-6699
▁lived	-6700
▁lucky	-6701
▁north	-6702
▁prove	-6703
▁remov	-6704
▁stamp	-6705
▁veget	-6706
▁venue	-6707
alities	-6708
atlanta	-6709
batavia	-6710
coupons	-6711
detroit	-6712
diamond	-6713
emption	-6714
freedom	-6715
houston	-6716
iversal	-6717
journal	-6718
meeting	-6719
missour	-6720
patrick	-6721
profile	-6722
stadium	-6723
verizon	-6724
wyoming	-6725
yankees	-6726
▁aspect	-6727
▁assets	-6728
▁crisis	-6729
▁depart	-6730
▁drinks	-6731
▁eating	-6732
▁exclud	-6733
▁golden	-6734
▁guitar	-6735
▁latter	-6736
▁lesson	-6737
▁manner	-6738
▁msaexp	-6739
▁orient	-6740
▁picked	-6741
▁plants	-6742
▁purple	-6743
▁serves	-6744
▁shower	-6745
▁signal	-6746
▁struct	-6747
▁superv	-6748
▁taught	-6749
▁volunt	-6750
▁yellow	-6751
archives	-6752
comments	-6753
commerce	-6754
fletcher	-6755
learning	-6756
northern	-6757
olympics	-6758
southern	-6759
▁amounts	-6760
▁authors	-6761
▁battery	-6762
▁desired	-6763
▁doctors	-6764
▁elected	-6765
▁elegant	-6766
▁enables	-6767
▁filling	-6768
▁freedom	-6769
▁hitting	-6770
▁housing	-6771
▁invited	-6772
▁minimum	-6773
▁moments	-6774
▁printed	-6775
▁proceed	-6776
▁reasons	-6777
▁recruit	-6778
▁texture	-6779
▁tourism	-6780
▁viewing	-6781
▁watched	-6782
▁writers	-6783
companies	-6784
▁argument	-6785
▁attached	-6786
▁aviation	-6787
▁bacteria	-6788
▁category	-6789
▁certific	-6790
▁clinical	-6791
▁consumer	-6792
▁election	-6793
▁episodes	-6794
▁generous	-6795
▁graduate	-6796
▁historic	-6797
▁hundreds	-6798
▁intended	-6799
▁ministry	-6800
▁necklace	-6801
▁northern	-6802
▁officers	-6803
▁packages	-6804
▁patterns	-6805
▁presents	-6806
▁profiles	-6807
▁recovery	-6808
▁restrict	-6809
▁reviewed	-6810
▁southern	-6811
▁supposed	-6812
▁surprise	-6813
▁survival	-6814
▁thousand	-6815
▁tutorial	-6816
australian	-6817
unintellig	-6818
▁allegedly	-6819
▁authentic	-6820
▁brilliant	-6821
▁committee	-6822
▁directory	-6823
▁everybody	-6824
▁increases	-6825
▁investors	-6826
▁ourselves	-6827
▁practical	-6828
▁proposals	-6829
▁architects	-6830
▁frequently	-6831
▁impressive	-6832
▁incredible	-6833
▁membership	-6834
▁represents	-6835
championship	-6836
construction	-6837
pennsylvania	-6838
▁discussions	-6839
▁interactive	-6840
▁entertaining	-6841
▁expectations	-6842
▁specifically	-6843
▁technologies	-6844
▁temperatures	-6845
unintelligible	-6846
▁relationships	-6847
hh	-6848
hz	-6849
mt	-6850
oa	-6851
pi	-6852
ami	-6853
avi	-6854
blu	-6855
doo	-6856
dry	-6857
era	-6858
few	-6859
fis	-6860
fit	-6861
hey	-6862
hig	-6863
hub	-6864
loo	-6865
mix	-6866
mun	-6867
oft	-6868
oks	-6869
spa	-6870
tha	-6871
tol	-6872
uis	-6873
umn	-6874
una	-6875
unk	-6876
utr	-6877
wee	-6878
▁na	-6879
▁||	-6880
amaz	-6881
aska	-6882
asts	-6883
aved	-6884
avil	-6885
bott	-6886
bron	-6887
bush	-6888
carm	-6889
dave	-6890
dead	-6891
emet	-6892
eper	-6893
gate	-6894
golf	-6895
iran	-6896
izer	-6897
jere	-6898
kong	-6899
lete	-6900
lomb	-6901
lons	-6902
meet	-6903
mess	-6904
oked	-6905
onna	-6906
ores	-6907
orth	-6908
rawn	-6909
sams	-6910
save	-6911
ucks	-6912
viet	-6913
▁anx	-6914
▁cas	-6915
▁gal	-6916
▁hal	-6917
▁hur	-6918
▁obl	-6919
▁pix	-6920
▁pod	-6921
▁psy	-6922
▁riv	-6923
▁sac	-6924
▁tea	-6925
▁tex	-6926
▁tip	-6927
▁vag	-6928
▁vir	-6929
▁wal	-6930
abeth	-6931
alpha	-6932
anton	-6933
arian	-6934
attoo	-6935
bassy	-6936
brace	-6937
cemet	-6938
claim	-6939
creat	-6940
duces	-6941
ester	-6942
favor	-6943
girls	-6944
grass	-6945
gucci	-6946
iency	-6947
itage	-6948
judge	-6949
koner	-6950
krist	-6951
lined	-6952
maine	-6953
notes	-6954
ongue	-6955
plant	-6956
plays	-6957
posit	-6958
posts	-6959
prene	-6960
ution	-6961
▁argu	-6962
▁bail	-6963
▁bike	-6964
▁boat	-6965
▁cats	-6966
▁clip	-6967
▁dent	-6968
▁dess	-6969
▁heav	-6970
▁peak	-6971
▁tall	-6972
▁tear	-6973
▁tied	-6974
▁tons	-6975
▁whit	-6976
albion	-6977
angers	-6978
asting	-6979
bourne	-6980
celebr	-6981
clevel	-6982
cooper	-6983
denver	-6984
double	-6985
former	-6986
friger	-6987
histor	-6988
icking	-6989
inance	-6990
itched	-6991
kshire	-6992
lisher	-6993
marine	-6994
minnes	-6995
mistry	-6996
orders	-6997
points	-6998
policy	-6999
rovers	-7000
strong	-7001
tennes	-7002
terfly	-7003
thetic	-7004
ucking	-7005
walker	-7006
▁adapt	-7007
▁advoc	-7008
▁alive	-7009
▁appet	-7010
▁bench	-7011
▁blogs	-7012
▁cemet	-7013
▁cloud	-7014
▁cryst	-7015
▁drops	-7016
▁faces	-7017
▁giant	-7018
▁guard	-7019
▁hyper	-7020
▁iscsi	-7021
▁knife	-7022
▁leads	-7023
▁lists	-7024
▁minim	-7025
▁patch	-7026
▁plain	-7027
▁pleas	-7028
▁quant	-7029
▁reput	-7030
▁rough	-7031
▁shock	-7032
▁stone	-7033
▁turns	-7034
▁wings	-7035
academy	-7036
brandon	-7037
channel	-7038
collins	-7039
comment	-7040
discuss	-7041
donnell	-7042
ighters	-7043
kingdom	-7044
konerko	-7045
leagues	-7046
powered	-7047
rations	-7048
records	-7049
reprene	-7050
samsung	-7051
scholar	-7052
schools	-7053
seattle	-7054
stephen	-7055
▁astron	-7056
▁athlet	-7057
▁belong	-7058
▁borrow	-7059
▁broken	-7060
▁browse	-7061
▁caring	-7062
▁checks	-7063
▁config	-7064
▁debate	-7065
▁decent	-7066
▁desire	-7067
▁detect	-7068
▁enable	-7069
▁extent	-7070
▁factor	-7071
▁famous	-7072
▁fiscal	-7073
▁geomet	-7074
▁gotten	-7075
▁narrow	-7076
▁native	-7077
▁packed	-7078
▁panels	-7079
▁phrase	-7080
▁planet	-7081
▁refund	-7082
▁script	-7083
▁soccer	-7084
▁spaces	-7085
▁speech	-7086
▁tattoo	-7087
▁trends	-7088
▁upload	-7089
▁wealth	-7090
▁writes	-7091
brooklyn	-7092
cemetery	-7093
lonsdale	-7094
ministry	-7095
missouri	-7096
ologists	-7097
shipping	-7098
whitaker	-7099
▁anybody	-7100
▁aspects	-7101
▁citizen	-7102
▁convent	-7103
▁coupled	-7104
▁entered	-7105
▁fitness	-7106
▁injured	-7107
▁islands	-7108
▁picking	-7109
▁raising	-7110
▁recover	-7111
▁retired	-7112
▁scholar	-7113
▁seasons	-7114
▁somehow	-7115
▁strange	-7116
▁stretch	-7117
▁vintage	-7118
▁warrant	-7119
▁washing	-7120
▁winners	-7121
▁witness	-7122
▁worried	-7123
adventure	-7124
cleveland	-7125
elizabeth	-7126
financial	-7127
following	-7128
friedberg	-7129
meanwhile	-7130
minnesota	-7131
resources	-7132
transport	-7133
▁attended	-7134
▁chapters	-7135
▁chemical	-7136
▁colleges	-7137
▁creation	-7138
▁disaster	-7139
▁discover	-7140
▁distance	-7141
▁ensuring	-7142
▁expenses	-7143
▁hardware	-7144
▁imported	-7145
▁medicine	-7146
▁occurred	-7147
▁pleasure	-7148
▁vehicles	-7149
▁visiting	-7150
▁wherever	-7151
convention	-7152
everything	-7153
▁addresses	-7154
▁admission	-7155
▁attending	-7156
▁breakfast	-7157
▁discovery	-7158
▁estimated	-7159
▁interface	-7160
▁languages	-7161
▁messaging	-7162
▁obviously	-7163
▁ordinance	-7164
▁photograp	-7165
▁providers	-7166
▁satisfied	-7167
▁searching	-7168
▁trademark	-7169
description	-7170
▁colleagues	-7171
▁contribute	-7172
▁determined	-7173
▁disappoint	-7174
▁guaranteed	-7175
▁historical	-7176
▁instrument	-7177
▁originally	-7178
▁respective	-7179
▁smartphone	-7180
▁supporting	-7181
▁surprising	-7182
▁thoroughly	-7183
▁volunteers	-7184
▁appreciated	-7185
▁considering	-7186
▁distributed	-7187
▁outstanding	-7188
▁availability	-7189
▁contemporary	-7190
▁intelligence	-7191
▁collaboration	-7192
▁significantly	-7193
▁infrastructure	-7194
▁transportation	-7195
lb	-7196
mg	-7197
pn	-7198
sg	-7199
vo	-7200
vs	-7201
▁?	-7202
alm	-7203
amb	-7204
aub	-7205
beh	-7206
blr	-7207
bud	-7208
cho	-7209
dol	-7210
dre	-7211
fri	-7212
gre	-7213
gsa	-7214
jam	-7215
lab	-7216
mir	-7217
mom	-7218
nap	-7219
nba	-7220
nbc	-7221
ora	-7222
owe	-7223
pak	-7224
pam	-7225
pul	-7226
shi	-7227
six	-7228
ski	-7229
uct	-7230
usb	-7231
wid	-7232
wow	-7233
zes	-7234
▁(“	-7235
aded	-7236
anor	-7237
bang	-7238
bart	-7239
beth	-7240
born	-7241
brew	-7242
ciss	-7243
drop	-7244
enth	-7245
fish	-7246
gust	-7247
hong	-7248
icts	-7249
imag	-7250
java	-7251
jord	-7252
kath	-7253
lini	-7254
mann	-7255
mort	-7256
much	-7257
nabb	-7258
nice	-7259
onda	-7260
oral	-7261
osph	-7262
prin	-7263
rors	-7264
safe	-7265
sole	-7266
tang	-7267
tery	-7268
tter	-7269
uous	-7270
walt	-7271
whel	-7272
wire	-7273
yeah	-7274
▁gem	-7275
▁gre	-7276
▁hub	-7277
▁jer	-7278
▁lip	-7279
▁mal	-7280
▁mig	-7281
▁oxy	-7282
▁syn	-7283
aaron	-7284
acter	-7285
added	-7286
advis	-7287
agers	-7288
arena	-7289
astro	-7290
athan	-7291
baker	-7292
barry	-7293
billy	-7294
blood	-7295
defin	-7296
early	-7297
ender	-7298
fined	-7299
hills	-7300
icals	-7301
iesel	-7302
iture	-7303
large	-7304
lisle	-7305
maria	-7306
mouse	-7307
ortex	-7308
otted	-7309
paper	-7310
prior	-7311
prize	-7312
rates	-7313
rence	-7314
rolls	-7315
saint	-7316
scape	-7317
stern	-7318
terry	-7319
think	-7320
tokyo	-7321
treat	-7322
value	-7323
▁auto	-7324
▁bran	-7325
▁caut	-7326
▁coat	-7327
▁edit	-7328
▁fort	-7329
▁gang	-7330
▁glut	-7331
▁hack	-7332
▁hate	-7333
▁impl	-7334
▁milk	-7335
▁outs	-7336
▁peer	-7337
▁tiny	-7338
amazon	-7339
anyway	-7340
arctic	-7341
awards	-7342
cience	-7343
consin	-7344
easter	-7345
estate	-7346
galaxy	-7347
gments	-7348
gordon	-7349
images	-7350
jeremy	-7351
nascar	-7352
native	-7353
oosing	-7354
orable	-7355
orange	-7356
stream	-7357
summer	-7358
swered	-7359
unning	-7360
within	-7361
▁absor	-7362
▁advis	-7363
▁assum	-7364
▁bonus	-7365
▁boots	-7366
▁bound	-7367
▁broke	-7368
▁chart	-7369
▁crown	-7370
▁dance	-7371
▁divid	-7372
▁error	-7373
▁falls	-7374
▁fewer	-7375
▁firef	-7376
▁forth	-7377
▁globe	-7378
▁grade	-7379
▁horse	-7380
▁layer	-7381
▁mouse	-7382
▁nurse	-7383
▁ocean	-7384
▁opens	-7385
▁ratio	-7386
▁renew	-7387
▁retur	-7388
▁rider	-7389
▁rooms	-7390
▁ships	-7391
▁sight	-7392
▁sixth	-7393
▁split	-7394
▁tired	-7395
▁tours	-7396
▁trend	-7397
▁truth	-7398
▁votes	-7399
bradley	-7400
cooking	-7401
eichert	-7402
essions	-7403
itution	-7404
jection	-7405
leading	-7406
lington	-7407
natural	-7408
ocation	-7409
porters	-7410
supreme	-7411
version	-7412
▁acting	-7413
▁belief	-7414
▁circle	-7415
▁colour	-7416
▁dining	-7417
▁dishes	-7418
▁festiv	-7419
▁filter	-7420
▁finest	-7421
▁gained	-7422
▁garlic	-7423
▁grants	-7424
▁hearts	-7425
▁infect	-7426
▁loaded	-7427
▁mainly	-7428
▁margin	-7429
▁oxygen	-7430
▁pepper	-7431
▁phones	-7432
▁pounds	-7433
▁prayer	-7434
▁reform	-7435
▁relief	-7436
▁studio	-7437
▁symbol	-7438
▁tackle	-7439
carlisle	-7440
computer	-7441
consider	-7442
friendly	-7443
harrison	-7444
ications	-7445
jennifer	-7446
material	-7447
unicipal	-7448
waterloo	-7449
▁anticip	-7450
▁approve	-7451
▁cancell	-7452
▁circuit	-7453
▁claimed	-7454
▁consequ	-7455
▁conserv	-7456
▁context	-7457
▁convinc	-7458
▁creates	-7459
▁crucial	-7460
▁defined	-7461
▁disappe	-7462
▁discipl	-7463
▁dresses	-7464
▁drivers	-7465
▁exposed	-7466
▁fishing	-7467
▁funeral	-7468
▁gallery	-7469
▁glasses	-7470
▁greatly	-7471
▁harness	-7472
▁holders	-7473
▁lesbian	-7474
▁letters	-7475
▁massive	-7476
▁nervous	-7477
▁passing	-7478
▁penalty	-7479
▁promise	-7480
▁pushing	-7481
▁ratings	-7482
▁regions	-7483
▁routine	-7484
▁satisfy	-7485
▁speaker	-7486
▁stopped	-7487
▁threats	-7488
▁twitter	-7489
▁visited	-7490
▁warning	-7491
▁wrapped	-7492
administr	-7493
authority	-7494
essential	-7495
highlands	-7496
wisconsin	-7497
▁accurate	-7498
▁answered	-7499
▁approval	-7500
▁cemetery	-7501
▁clicking	-7502
▁climbing	-7503
▁consists	-7504
▁division	-7505
▁examples	-7506
▁internal	-7507
▁keywords	-7508
▁minister	-7509
▁priority	-7510
▁refriger	-7511
▁remained	-7512
▁stations	-7513
▁suitable	-7514
▁universe	-7515
▁violence	-7516
registered	-7517
▁appellant	-7518
▁awareness	-7519
▁candidate	-7520
▁container	-7521
▁dangerous	-7522
▁destroyed	-7523
▁diagnosis	-7524
▁encounter	-7525
▁enjoyable	-7526
▁favorites	-7527
▁generated	-7528
▁hospitals	-7529
▁household	-7530
▁introduce	-7531
▁listening	-7532
▁offensive	-7533
▁permanent	-7534
▁realistic	-7535
▁recording	-7536
▁recycling	-7537
▁sensitive	-7538
▁suggested	-7539
▁tanzanite	-7540
▁traveling	-7541
▁whitening	-7542
▁wondering	-7543
partnership	-7544
performance	-7545
▁accomplish	-7546
▁appreciate	-7547
▁compliment	-7548
▁consistent	-7549
▁controlled	-7550
▁controvers	-7551
▁evacuation	-7552
▁innovative	-7553
▁possession	-7554
▁prevention	-7555
▁scientists	-7556
organization	-7557
▁authorities	-7558
▁challenging	-7559
▁cooperation	-7560
▁investments	-7561
▁preparation	-7562
▁represented	-7563
▁residential	-7564
▁conferencing	-7565
,'	-7566
.’	-7567
eo	-7568
eu	-7569
ho	-7570
hr	-7571
jo	-7572
kl	-7573
lg	-7574
lr	-7575
ua	-7576
aer	-7577
aft	-7578
aka	-7579
alg	-7580
ati	-7581
bac	-7582
bea	-7583
bio	-7584
cro	-7585
dak	-7586
dev	-7587
due	-7588
gem	-7589
gib	-7590
het	-7591
hil	-7592
iii	-7593
ima	-7594
iow	-7595
itz	-7596
joe	-7597
kid	-7598
lol	-7599
lus	-7600
moh	-7601
mrs	-7602
mvp	-7603
oul	-7604
php	-7605
pil	-7606
psy	-7607
rys	-7608
saw	-7609
say	-7610
ses	-7611
som	-7612
sus	-7613
ugg	-7614
uma	-7615
vor	-7616
▁eg	-7617
▁fo	-7618
▁tu	-7619
▁ye	-7620
adam	-7621
aria	-7622
arks	-7623
bach	-7624
boys	-7625
coln	-7626
crow	-7627
diff	-7628
etic	-7629
glas	-7630
gled	-7631
hawa	-7632
ilit	-7633
inar	-7634
iors	-7635
iowa	-7636
iraq	-7637
iron	-7638
izza	-7639
juan	-7640
kore	-7641
left	-7642
mant	-7643
mind	-7644
mitt	-7645
nhof	-7646
oche	-7647
ogen	-7648
onts	-7649
orle	-7650
orus	-7651
pson	-7652
qual	-7653
quer	-7654
requ	-7655
rots	-7656
salt	-7657
same	-7658
scot	-7659
shad	-7660
stra	-7661
swed	-7662
tele	-7663
ucky	-7664
udes	-7665
vard	-7666
vity	-7667
zeal	-7668
▁ads	-7669
▁aid	-7670
▁ber	-7671
▁clo	-7672
▁emb	-7673
▁fal	-7674
▁fir	-7675
▁inn	-7676
▁lad	-7677
▁lod	-7678
▁maj	-7679
▁mut	-7680
▁nic	-7681
▁nin	-7682
▁rhy	-7683
▁rig	-7684
▁rum	-7685
▁scr	-7686
▁tro	-7687
aceut	-7688
afood	-7689
alarm	-7690
amber	-7691
angle	-7692
audio	-7693
bears	-7694
birth	-7695
brugg	-7696
ducts	-7697
eland	-7698
eller	-7699
eness	-7700
essed	-7701
exhib	-7702
falls	-7703
gator	-7704
glatt	-7705
helor	-7706
henry	-7707
iform	-7708
inema	-7709
inger	-7710
ipals	-7711
jerry	-7712
links	-7713
lower	-7714
lusso	-7715
maker	-7716
metal	-7717
miths	-7718
movie	-7719
nific	-7720
novel	-7721
ockey	-7722
ounge	-7723
oured	-7724
paint	-7725
rafts	-7726
retta	-7727
rhode	-7728
riley	-7729
salty	-7730
stage	-7731
stick	-7732
storm	-7733
third	-7734
title	-7735
trade	-7736
▁acts	-7737
▁army	-7738
▁bags	-7739
▁beer	-7740
▁crit	-7741
▁dial	-7742
▁diet	-7743
▁digs	-7744
▁duty	-7745
▁gear	-7746
▁gene	-7747
▁lets	-7748
▁liqu	-7749
▁medi	-7750
▁mile	-7751
▁oils	-7752
▁pics	-7753
▁puts	-7754
▁ribb	-7755
▁seek	-7756
▁tops	-7757
▁trim	-7758
▁vend	-7759
▁zero	-7760
amanda	-7761
annual	-7762
attend	-7763
battle	-7764
bullet	-7765
consum	-7766
dakota	-7767
daniel	-7768
dragon	-7769
engers	-7770
france	-7771
german	-7772
honors	-7773
houses	-7774
hunter	-7775
icient	-7776
isters	-7777
justin	-7778
lander	-7779
morgan	-7780
morris	-7781
murray	-7782
nation	-7783
origin	-7784
parent	-7785
proble	-7786
prodig	-7787
ravens	-7788
recent	-7789
sabres	-7790
scious	-7791
sheila	-7792
silver	-7793
simply	-7794
theast	-7795
urches	-7796
wiseco	-7797
writer	-7798
▁actor	-7799
▁bacon	-7800
▁carri	-7801
▁drawn	-7802
▁drugs	-7803
▁edges	-7804
▁embar	-7805
▁equal	-7806
▁genre	-7807
▁gonna	-7808
▁handy	-7809
▁heads	-7810
▁holes	-7811
▁login	-7812
▁micro	-7813
▁moves	-7814
▁neuro	-7815
▁olive	-7816
▁pilot	-7817
▁plane	-7818
▁quote	-7819
▁roads	-7820
▁route	-7821
▁sheet	-7822
▁shift	-7823
▁solar	-7824
▁sorry	-7825
▁suffe	-7826
▁traff	-7827
avilion	-7828
bahnhof	-7829
complex	-7830
digital	-7831
groupon	-7832
ivalent	-7833
lerless	-7834
lincoln	-7835
manager	-7836
onymous	-7837
options	-7838
orleans	-7839
osphere	-7840
pending	-7841
perhaps	-7842
rapbook	-7843
roscopy	-7844
systems	-7845
▁booked	-7846
▁bubble	-7847
▁builds	-7848
▁failed	-7849
▁fairly	-7850
▁flight	-7851
▁gaming	-7852
▁gender	-7853
▁graves	-7854
▁negoti	-7855
▁orange	-7856
▁patent	-7857
▁pushed	-7858
▁rarely	-7859
▁reader	-7860
▁recall	-7861
▁sample	-7862
▁sooner	-7863
▁tracks	-7864
▁unable	-7865
armaceut	-7866
campaign	-7867
chairman	-7868
interest	-7869
lombardi	-7870
manufact	-7871
marshall	-7872
nificent	-7873
perretta	-7874
richmond	-7875
together	-7876
▁absence	-7877
▁amended	-7878
▁beating	-7879
▁causing	-7880
▁choices	-7881
▁convict	-7882
▁delight	-7883
▁durable	-7884
▁editing	-7885
▁element	-7886
▁extreme	-7887
▁granted	-7888
▁heading	-7889
▁jewelry	-7890
▁lasting	-7891
▁reveals	-7892
▁shouldn	-7893
▁signing	-7894
▁statist	-7895
▁trading	-7896
▁veteran	-7897
allingham	-7898
directory	-7899
entertain	-7900
itionally	-7901
recommend	-7902
rochester	-7903
▁branches	-7904
▁commonly	-7905
▁concepts	-7906
▁concrete	-7907
▁cultural	-7908
▁declined	-7909
▁displays	-7910
▁equipped	-7911
▁everyday	-7912
▁exchange	-7913
▁expanded	-7914
▁findings	-7915
▁forecast	-7916
▁involves	-7917
▁licensed	-7918
▁mistakes	-7919
▁modeling	-7920
▁normally	-7921
▁operated	-7922
▁opinions	-7923
▁ordering	-7924
▁overwhel	-7925
▁premiere	-7926
▁provider	-7927
▁realized	-7928
▁romantic	-7929
▁soldiers	-7930
▁somewhat	-7931
▁superior	-7932
▁supplies	-7933
▁ultimate	-7934
▁wireless	-7935
ationalist	-7936
experience	-7937
glattbrugg	-7938
humanities	-7939
ifications	-7940
internship	-7941
▁amenities	-7942
▁complaint	-7943
▁contained	-7944
▁donations	-7945
▁interpret	-7946
▁investing	-7947
▁involving	-7948
▁literally	-7949
▁packaging	-7950
▁primarily	-7951
▁principal	-7952
▁protected	-7953
▁responded	-7954
▁returning	-7955
▁antlerless	-7956
▁approaches	-7957
▁categories	-7958
▁celebrated	-7959
▁collecting	-7960
▁commentary	-7961
▁encouraged	-7962
▁enterprise	-7963
▁exhibition	-7964
▁literature	-7965
▁maintained	-7966
▁monitoring	-7967
▁newsletter	-7968
▁publishing	-7969
▁purchasing	-7970
▁specialist	-7971
▁traditions	-7972
▁transition	-7973
▁accompanied	-7974
▁anniversary	-7975
▁concentrate	-7976
▁involvement	-7977
▁potentially	-7978
▁programming	-7979
▁quarterback	-7980
▁replacement	-7981
communication	-7982
environmental	-7983
▁announcement	-7984
▁developments	-7985
▁subscription	-7986
▁participating	-7987
▁administrative	-7988
▁recommendations	-7989
!”	-7990
',	-7991
aq	-7992
gp	-7993
sr	-7994
”)	-7995
▁u	-7996
)||	-7997
---	-7998
ald	-7999
awa	-8000
bbc	-8001
bib	-8002
boe	-8003
cbs	-8004
chi	-8005
coc	-8006
cst	-8007
cub	-8008
dad	-8009
dna	-8010
enh	-8011
gro	-8012
hug	-8013
ido	-8014
iki	-8015
jen	-8016
kle	-8017
lot	-8018
lov	-8019
nie	-8020
oen	-8021
ran	-8022
rep	-8023
sec	-8024
sle	-8025
tar	-8026
tip	-8027
vag	-8028
var	-8029
wan	-8030
wat	-8031
yet	-8032
yog	-8033
zee	-8034
▁ru	-8035
****	-8036
adia	-8037
anic	-8038
ario	-8039
ashe	-8040
barn	-8041
buck	-8042
canc	-8043
cave	-8044
chev	-8045
clam	-8046
clip	-8047
cole	-8048
cool	-8049
deck	-8050
delt	-8051
docs	-8052
eled	-8053
eler	-8054
epis	-8055
feel	-8056
give	-8057
glen	-8058
grow	-8059
hole	-8060
holl	-8061
inel	-8062
iner	-8063
inge	-8064
itan	-8065
item	-8066
itis	-8067
kick	-8068
lang	-8069
lers	-8070
luke	-8071
maps	-8072
math	-8073
mons	-8074
odor	-8075
past	-8076
pick	-8077
poly	-8078
puff	-8079
pure	-8080
rank	-8081
rise	-8082
shan	-8083
skin	-8084
soul	-8085
spir	-8086
zing	-8087
▁>>>	-8088
▁awk	-8089
▁caf	-8090
▁cow	-8091
▁gam	-8092
▁lun	-8093
▁mir	-8094
▁nut	-8095
▁por	-8096
▁rid	-8097
▁rul	-8098
▁sec	-8099
▁sod	-8100
▁tan	-8101
.....	-8102
accur	-8103
activ	-8104
adobe	-8105
andal	-8106
andre	-8107
arbit	-8108
arest	-8109
arist	-8110
ashes	-8111
asion	-8112
asted	-8113
avier	-8114
berto	-8115
clear	-8116
delta	-8117
deput	-8118
dried	-8119
empts	-8120
estab	-8121
eties	-8122
event	-8123
hours	-8124
icide	-8125
icies	-8126
inent	-8127
items	-8128
juana	-8129
kenpo	-8130
leave	-8131
oenix	-8132
otive	-8133
phill	-8134
piece	-8135
plans	-8136
pract	-8137
range	-8138
redsk	-8139
rogen	-8140
roger	-8141
roman	-8142
royal	-8143
saver	-8144
thers	-8145
ugene	-8146
ulner	-8147
urers	-8148
users	-8149
woods	-8150
▁aims	-8151
▁boot	-8152
▁coin	-8153
▁cozy	-8154
▁crew	-8155
▁disk	-8156
▁eggs	-8157
▁enem	-8158
▁flav	-8159
▁fulf	-8160
▁genu	-8161
▁hire	-8162
▁hung	-8163
▁intr	-8164
▁jail	-8165
▁knee	-8166
▁mere	-8167
▁okay	-8168
▁orth	-8169
▁pill	-8170
▁pink	-8171
▁pled	-8172
▁sacr	-8173
▁soci	-8174
▁stir	-8175
▁stom	-8176
▁tent	-8177
▁tofu	-8178
▁tray	-8179
▁tube	-8180
▁unus	-8181
▁wave	-8182
▁wins	-8183
▁worn	-8184
▁wrap	-8185
▁zone	-8186
argent	-8187
asking	-8188
called	-8189
carter	-8190
client	-8191
estyle	-8192
gedcom	-8193
grants	-8194
harris	-8195
hasbro	-8196
hawaii	-8197
howard	-8198
import	-8199
inding	-8200
inteln	-8201
itting	-8202
jordan	-8203
miller	-8204
modern	-8205
nature	-8206
promot	-8207
rinkle	-8208
senate	-8209
simple	-8210
soccer	-8211
summit	-8212
terior	-8213
things	-8214
turner	-8215
yellow	-8216
▁asset	-8217
▁begun	-8218
▁boats	-8219
▁boost	-8220
▁comic	-8221
▁cycle	-8222
▁depth	-8223
▁dried	-8224
▁false	-8225
▁fiber	-8226
▁foods	-8227
▁habit	-8228
▁hilar	-8229
▁homem	-8230
▁immig	-8231
▁immun	-8232
▁likes	-8233
▁lined	-8234
▁loads	-8235
▁maxim	-8236
▁meets	-8237
▁miner	-8238
▁polit	-8239
▁prize	-8240
▁rally	-8241
▁renov	-8242
▁saves	-8243
▁shell	-8244
▁skept	-8245
▁skirt	-8246
▁slide	-8247
▁solve	-8248
▁steel	-8249
▁tries	-8250
▁urban	-8251
▁worse	-8252
▁zones	-8253
allison	-8254
anormal	-8255
chapter	-8256
douglas	-8257
eastern	-8258
evolved	-8259
flights	-8260
further	-8261
gallery	-8262
herlini	-8263
leonard	-8264
located	-8265
ologist	-8266
opening	-8267
outique	-8268
pection	-8269
phoenix	-8270
playing	-8271
popular	-8272
portion	-8273
provide	-8274
release	-8275
reviews	-8276
ributed	-8277
rinteln	-8278
session	-8279
several	-8280
springs	-8281
stevens	-8282
tickets	-8283
tretter	-8284
vermont	-8285
zealand	-8286
▁acknow	-8287
▁agents	-8288
▁backed	-8289
▁branch	-8290
▁bucket	-8291
▁collar	-8292
▁coupon	-8293
▁curric	-8294
▁deadly	-8295
▁dispos	-8296
▁engage	-8297
▁exclus	-8298
▁export	-8299
▁female	-8300
▁fundra	-8301
▁harder	-8302
▁hosted	-8303
▁hunter	-8304
▁imposs	-8305
▁intent	-8306
▁knives	-8307
▁locked	-8308
▁loving	-8309
▁manual	-8310
▁mixing	-8311
▁movies	-8312
▁myster	-8313
▁overse	-8314
▁poster	-8315
▁prompt	-8316
▁pursue	-8317
▁remote	-8318
▁resist	-8319
▁retire	-8320
▁roster	-8321
▁routes	-8322
▁scores	-8323
▁settle	-8324
▁shaped	-8325
▁solely	-8326
▁spoken	-8327
▁steaks	-8328
▁streak	-8329
▁surely	-8330
▁tempor	-8331
▁terror	-8332
▁tongue	-8333
▁whilst	-8334
aturally	-8335
columbus	-8336
curities	-8337
exchange	-8338
favorite	-8339
hartford	-8340
increase	-8341
junction	-8342
mathemat	-8343
military	-8344
personal	-8345
prodigie	-8346
products	-8347
redskins	-8348
regional	-8349
thompson	-8350
ulations	-8351
▁aggress	-8352
▁amateur	-8353
▁awkward	-8354
▁carried	-8355
▁carrots	-8356
▁chances	-8357
▁clothes	-8358
▁concert	-8359
▁counsel	-8360
▁emerged	-8361
▁ensures	-8362
▁entries	-8363
▁expects	-8364
▁fastest	-8365
▁harmful	-8366
▁hosting	-8367
▁hunters	-8368
▁lawsuit	-8369
▁listing	-8370
▁portray	-8371
▁premier	-8372
▁recipes	-8373
▁repairs	-8374
▁runners	-8375
▁sending	-8376
▁seventh	-8377
▁signals	-8378
▁suppose	-8379
▁telling	-8380
▁tissues	-8381
▁univers	-8382
▁varying	-8383
▁visible	-8384
cambridge	-8385
challenge	-8386
developed	-8387
imensions	-8388
jefferson	-8389
represent	-8390
secretary	-8391
universal	-8392
▁advances	-8393
▁attempts	-8394
▁breaking	-8395
▁brothers	-8396
▁controls	-8397
▁database	-8398
▁delivers	-8399
▁deputies	-8400
▁describe	-8401
▁domestic	-8402
▁donation	-8403
▁dropping	-8404
▁external	-8405
▁facebook	-8406
▁freshman	-8407
▁giveaway	-8408
▁injuries	-8409
▁instance	-8410
▁observed	-8411
▁organize	-8412
▁portable	-8413
▁producer	-8414
▁produces	-8415
▁rebounds	-8416
▁referred	-8417
▁reliable	-8418
▁religion	-8419
▁revenues	-8420
▁sandwich	-8421
▁sections	-8422
▁sessions	-8423
▁settings	-8424
▁sponsors	-8425
▁stronger	-8426
▁strongly	-8427
▁suddenly	-8428
▁suffered	-8429
▁suggests	-8430
▁talented	-8431
▁taxpayer	-8432
additional	-8433
associated	-8434
corporated	-8435
discussion	-8436
healthcare	-8437
shutterfly	-8438
▁activists	-8439
▁attempted	-8440
▁authority	-8441
▁basically	-8442
▁creatures	-8443
▁elsewhere	-8444
▁emotional	-8445
▁estimates	-8446
▁formation	-8447
▁indicated	-8448
▁pollution	-8449
▁portfolio	-8450
▁preferred	-8451
▁resulting	-8452
▁specialty	-8453
▁testified	-8454
▁uncertain	-8455
application	-8456
tangherlini	-8457
▁affordable	-8458
▁consultant	-8459
▁continuing	-8460
▁convenient	-8461
▁designated	-8462
▁difficulty	-8463
▁disability	-8464
▁disclosure	-8465
▁engagement	-8466
▁fatalities	-8467
▁highlights	-8468
▁industries	-8469
▁integrated	-8470
▁officially	-8471
▁principals	-8472
▁principles	-8473
▁recognized	-8474
▁regardless	-8475
▁regulation	-8476
▁revolution	-8477
▁statistics	-8478
additionally	-8479
applications	-8480
commissioner	-8481
introduction	-8482
▁achievement	-8483
▁agriculture	-8484
▁appearances	-8485
▁communicate	-8486
▁conferences	-8487
▁destination	-8488
▁electronics	-8489
▁exceptional	-8490
▁implemented	-8491
▁improvement	-8492
▁inspiration	-8493
entertainment	-8494
▁championship	-8495
▁consequences	-8496
▁conservative	-8497
▁introduction	-8498
▁organisation	-8499
administration	-8500
▁administrator	-8501
▁commissioners	-8502
▁establishment	-8503
▁participation	-8504
▁presentations	-8505
▁undergraduate	-8506
▁characteristics	-8507
ao	-8508
cn	-8509
ei	-8510
ey	-8511
ji	-8512
”,	-8513
abt	-8514
adi	-8515
aga	-8516
aha	-8517
amy	-8518
bri	-8519
bsp	-8520
cil	-8521
cit	-8522
dub	-8523
edu	-8524
fab	-8525
fel	-8526
fen	-8527
gig	-8528
gnc	-8529
ito	-8530
mis	-8531
mla	-8532
mls	-8533
nfc	-8534
nin	-8535
nrl	-8536
nux	-8537
ori	-8538
pra	-8539
qua	-8540
sav	-8541
sed	-8542
sug	-8543
tab	-8544
tal	-8545
tea	-8546
too	-8547
tow	-8548
tuc	-8549
tum	-8550
uer	-8551
uls	-8552
wet	-8553
yak	-8554
▁oh	-8555
▁ou	-8556
addy	-8557
aids	-8558
anth	-8559
atom	-8560
benj	-8561
brid	-8562
carl	-8563
cats	-8564
corp	-8565
dear	-8566
dick	-8567
dney	-8568
elle	-8569
ello	-8570
epic	-8571
etch	-8572
fame	-8573
faye	-8574
fits	-8575
gear	-8576
gely	-8577
gets	-8578
gran	-8579
gray	-8580
hair	-8581
heim	-8582
holy	-8583
iety	-8584
inas	-8585
ingu	-8586
kaya	-8587
lady	-8588
lgbt	-8589
lins	-8590
mach	-8591
mode	-8592
moon	-8593
nuxe	-8594
olly	-8595
onde	-8596
orse	-8597
osed	-8598
poll	-8599
pred	-8600
pton	-8601
pull	-8602
quir	-8603
rani	-8604
rape	-8605
rons	-8606
ruiz	-8607
sale	-8608
shap	-8609
sier	-8610
stri	-8611
sure	-8612
sust	-8613
tags	-8614
tail	-8615
tall	-8616
trip	-8617
ulum	-8618
utes	-8619
vine	-8620
virt	-8621
want	-8622
wife	-8623
zech	-8624
zens	-8625
————	-8626
▁aer	-8627
▁arc	-8628
▁atm	-8629
▁bio	-8630
▁loo	-8631
▁sms	-8632
▁tub	-8633
▁ump	-8634
album	-8635
allow	-8636
along	-8637
ammar	-8638
andem	-8639
apart	-8640
apped	-8641
ardon	-8642
arity	-8643
aspen	-8644
avios	-8645
aware	-8646
beaut	-8647
bered	-8648
canad	-8649
chant	-8650
clone	-8651
corps	-8652
crazy	-8653
dwell	-8654
eding	-8655
eters	-8656
extra	-8657
final	-8658
flore	-8659
gence	-8660
graph	-8661
habil	-8662
icial	-8663
ifies	-8664
impro	-8665
issue	-8666
itzer	-8667
ivest	-8668
julie	-8669
kings	-8670
langu	-8671
login	-8672
looks	-8673
lucas	-8674
mario	-8675
marks	-8676
navin	-8677
ntine	-8678
ocean	-8679
opher	-8680
opped	-8681
oween	-8682
pense	-8683
pride	-8684
rapes	-8685
rared	-8686
reach	-8687
rives	-8688
roush	-8689
score	-8690
semin	-8691
sharp	-8692
shire	-8693
sound	-8694
stark	-8695
stein	-8696
suing	-8697
therm	-8698
tiger	-8699
treas	-8700
uated	-8701
ultra	-8702
ureau	-8703
woman	-8704
yahoo	-8705
▁adop	-8706
▁aged	-8707
▁alum	-8708
▁atom	-8709
▁bean	-8710
▁canv	-8711
▁cher	-8712
▁cock	-8713
▁corn	-8714
▁dump	-8715
▁ecos	-8716
▁evil	-8717
▁fasc	-8718
▁fold	-8719
▁gard	-8720
▁goat	-8721
▁grip	-8722
▁hill	-8723
▁hoop	-8724
▁lane	-8725
▁loop	-8726
▁mall	-8727
▁mart	-8728
▁noon	-8729
▁nurs	-8730
▁plum	-8731
▁rats	-8732
▁rein	-8733
▁rice	-8734
▁snap	-8735
▁sour	-8736
▁stol	-8737
▁tale	-8738
▁tape	-8739
▁twin	-8740
▁vast	-8741
abetes	-8742
africa	-8743
alaska	-8744
always	-8745
arians	-8746
backer	-8747
bigley	-8748
carmel	-8749
closed	-8750
commut	-8751
cowley	-8752
either	-8753
ellect	-8754
eugene	-8755
gerber	-8756
ifting	-8757
ington	-8758
itches	-8759
iteria	-8760
joseph	-8761
latest	-8762
listed	-8763
matthe	-8764
michel	-8765
orious	-8766
ounces	-8767
planet	-8768
ponder	-8769
prises	-8770
regard	-8771
retail	-8772
ritory	-8773
serena	-8774
shangh	-8775
survey	-8776
trevor	-8777
turkey	-8778
uccess	-8779
unless	-8780
vation	-8781
walter	-8782
wealth	-8783
wonder	-8784
▁alarm	-8785
▁belly	-8786
▁blank	-8787
▁blind	-8788
▁codes	-8789
▁delay	-8790
▁dough	-8791
▁drain	-8792
▁drama	-8793
▁excit	-8794
▁faced	-8795
▁firms	-8796
▁flash	-8797
▁fried	-8798
▁grain	-8799
▁juice	-8800
▁labor	-8801
▁loose	-8802
▁pizza	-8803
▁ports	-8804
▁prime	-8805
▁racks	-8806
▁recre	-8807
▁rhyth	-8808
▁sharp	-8809
▁sheep	-8810
▁shirt	-8811
▁strip	-8812
▁twist	-8813
▁vital	-8814
▁wagon	-8815
▁walls	-8816
▁weigh	-8817
▁weird	-8818
▁wrist	-8819
▁yield	-8820
circuit	-8821
clinton	-8822
episode	-8823
eration	-8824
estrian	-8825
faculty	-8826
holiday	-8827
holland	-8828
ignment	-8829
indiana	-8830
indones	-8831
itarian	-8832
machine	-8833
million	-8834
nothing	-8835
players	-8836
private	-8837
raymond	-8838
selling	-8839
stories	-8840
student	-8841
studios	-8842
subject	-8843
teacher	-8844
thunder	-8845
trading	-8846
ultural	-8847
▁abroad	-8848
▁agenda	-8849
▁argued	-8850
▁banner	-8851
▁barrel	-8852
▁behalf	-8853
▁calcul	-8854
▁causes	-8855
▁compan	-8856
▁deodor	-8857
▁elimin	-8858
▁ending	-8859
▁errors	-8860
▁escape	-8861
▁expans	-8862
▁explos	-8863
▁facing	-8864
▁finger	-8865
▁franch	-8866
▁garage	-8867
▁habits	-8868
▁hidden	-8869
▁horror	-8870
▁insert	-8871
▁jumped	-8872
▁logged	-8873
▁lowest	-8874
▁newest	-8875
▁papers	-8876
▁pardon	-8877
▁parent	-8878
▁prohib	-8879
▁proven	-8880
▁pulled	-8881
▁retrie	-8882
▁saving	-8883
▁server	-8884
▁silver	-8885
▁singer	-8886
▁sought	-8887
▁stable	-8888
▁stands	-8889
▁stated	-8890
▁sticks	-8891
▁stroke	-8892
▁titled	-8893
▁versat	-8894
▁vision	-8895
▁weapon	-8896
▁wheels	-8897
ammation	-8898
aviation	-8899
bulletin	-8900
daughter	-8901
document	-8902
franklin	-8903
inations	-8904
ivestock	-8905
original	-8906
pavilion	-8907
portland	-8908
quilting	-8909
sentinel	-8910
thinking	-8911
timeline	-8912
torrance	-8913
velength	-8914
workshop	-8915
▁actress	-8916
▁airport	-8917
▁anxiety	-8918
▁anymore	-8919
▁assists	-8920
▁assured	-8921
▁brewing	-8922
▁cameras	-8923
▁careful	-8924
▁centers	-8925
▁charity	-8926
▁closely	-8927
▁closest	-8928
▁closing	-8929
▁combine	-8930
▁concern	-8931
▁conflic	-8932
▁consent	-8933
▁cookies	-8934
▁corrupt	-8935
▁coupons	-8936
▁dangers	-8937
▁dealing	-8938
▁decades	-8939
▁deficit	-8940
▁desktop	-8941
▁dessert	-8942
▁dismiss	-8943
▁divided	-8944
▁electro	-8945
▁emotion	-8946
▁endorse	-8947
▁exhibit	-8948
▁harvest	-8949
▁inaccur	-8950
▁locally	-8951
▁lodging	-8952
▁married	-8953
▁mistake	-8954
▁nations	-8955
▁operate	-8956
▁opposed	-8957
▁outlets	-8958
▁periods	-8959
▁pockets	-8960
▁protein	-8961
▁protest	-8962
▁qualify	-8963
▁reserve	-8964
▁revenue	-8965
▁savings	-8966
▁scoring	-8967
▁screens	-8968
▁strings	-8969
▁tablets	-8970
▁theatre	-8971
▁underst	-8972
▁unusual	-8973
▁violent	-8974
▁windows	-8975
▁workout	-8976
engineers	-8977
exclusive	-8978
hopefully	-8979
melbourne	-8980
northwest	-8981
repreneur	-8982
scavenger	-8983
solutions	-8984
technical	-8985
tennessee	-8986
truepress	-8987
westbrook	-8988
▁abstract	-8989
▁clothing	-8990
▁contrast	-8991
▁creditor	-8992
▁deadline	-8993
▁dramatic	-8994
▁embedded	-8995
▁employer	-8996
▁entirely	-8997
▁focusing	-8998
▁founding	-8999
▁generate	-9000
▁geometry	-9001
▁handling	-9002
▁honestly	-9003
▁keyboard	-9004
▁obtained	-9005
▁policies	-9006
▁politics	-9007
▁promised	-9008
▁promises	-9009
▁reaching	-9010
▁reaction	-9011
▁receiver	-9012
▁reflects	-9013
▁relative	-9014
▁reminded	-9015
▁shoulder	-9016
▁spectrum	-9017
▁stunning	-9018
▁survived	-9019
▁teenager	-9020
▁throwing	-9021
▁upgraded	-9022
collective	-9023
disneyland	-9024
florentine	-9025
integrated	-9026
prodigieux	-9027
▁activated	-9028
▁campaigns	-9029
▁contacted	-9030
▁convinced	-9031
▁discussed	-9032
▁diversity	-9033
▁ecosystem	-9034
▁engineers	-9035
▁evolution	-9036
▁expanding	-9037
▁explained	-9038
▁frequency	-9039
▁gathering	-9040
▁indicates	-9041
▁initially	-9042
▁intellect	-9043
▁libraries	-9044
▁mechanics	-9045
▁offerings	-9046
▁ownership	-9047
▁paintings	-9048
▁producers	-9049
▁professor	-9050
▁promotion	-9051
▁qualified	-9052
▁relations	-9053
▁releasing	-9054
▁requested	-9055
▁sentenced	-9056
▁sophistic	-9057
▁specified	-9058
▁subscribe	-9059
▁typically	-9060
▁voluntary	-9061
commutative	-9062
schoolcraft	-9063
springfield	-9064
▁attendance	-9065
▁complaints	-9066
▁compliance	-9067
▁conducting	-9068
▁containing	-9069
▁customized	-9070
▁durability	-9071
▁efficiency	-9072
▁equivalent	-9073
▁essentials	-9074
▁evaluation	-9075
▁excitement	-9076
▁internship	-9077
▁nationally	-9078
▁percentage	-9079
▁personally	-9080
▁popularity	-9081
▁threatened	-9082
▁treatments	-9083
commonwealth	-9084
habilitation	-9085
registration	-9086
▁conjunction	-9087
▁constructed	-9088
▁coordinator	-9089
▁demonstrate	-9090
▁documentary	-9091
▁investigate	-9092
▁personality	-9093
▁threatening	-9094
▁architecture	-9095
▁difficulties	-9096
▁experiencing	-9097
▁inflammation	-9098
▁certification	-9099
▁complimentary	-9100
▁concentration	-9101
▁consideration	-9102
▁illustrations	-9103
▁investigators	-9104
▁manufacturing	-9105
▁transcription	-9106
▁unfortunately	-9107
.-	-9108
?)	-9109
fy	-9110
pv	-9111
ql	-9112
rc	-9113
tz	-9114
vd	-9115
▁’	-9116
.''	-9117
aco	-9118
bir	-9119
bnz	-9120
cps	-9121
dra	-9122
eye	-9123
fro	-9124
gur	-9125
hex	-9126
ibe	-9127
iop	-9128
itu	-9129
jar	-9130
lec	-9131
lie	-9132
lux	-9133
mox	-9134
nhl	-9135
npr	-9136
nyc	-9137
nys	-9138
odi	-9139
ogy	-9140
oir	-9141
osh	-9142
pap	-9143
pun	-9144
rah	-9145
rig	-9146
rus	-9147
sid	-9148
sms	-9149
thu	-9150
vet	-9151
vim	-9152
vit	-9153
yme	-9154
▁mg	-9155
▁oz	-9156
!!!!	-9157
ache	-9158
acio	-9159
acre	-9160
agne	-9161
ante	-9162
apps	-9163
auge	-9164
bath	-9165
baus	-9166
caff	-9167
cake	-9168
cars	-9169
chel	-9170
cort	-9171
didd	-9172
dise	-9173
doug	-9174
earl	-9175
edit	-9176
eeee	-9177
ente	-9178
erie	-9179
esis	-9180
ests	-9181
fest	-9182
fett	-9183
file	-9184
flag	-9185
gans	-9186
gene	-9187
hend	-9188
hunt	-9189
ials	-9190
iana	-9191
icbc	-9192
ifty	-9193
ikes	-9194
inos	-9195
ione	-9196
issy	-9197
jean	-9198
jews	-9199
jobs	-9200
lara	-9201
lynd	-9202
nett	-9203
none	-9204
omed	-9205
oors	-9206
oras	-9207
poin	-9208
pope	-9209
rele	-9210
rene	-9211
reve	-9212
riad	-9213
rive	-9214
saud	-9215
seau	-9216
snow	-9217
thor	-9218
thus	-9219
tory	-9220
umph	-9221
vanc	-9222
vill	-9223
viol	-9224
xbox	-9225
yogi	-9226
▁aes	-9227
▁cig	-9228
▁cin	-9229
▁cra	-9230
▁dad	-9231
▁dot	-9232
▁dre	-9233
▁fax	-9234
▁fru	-9235
▁fur	-9236
▁ham	-9237
▁hoo	-9238
▁jug	-9239
▁mph	-9240
▁nob	-9241
▁nom	-9242
▁ren	-9243
▁shy	-9244
▁sin	-9245
▁ski	-9246
▁sne	-9247
▁vit	-9248
▁vou	-9249
▁yog	-9250
abyte	-9251
adams	-9252
ading	-9253
adise	-9254
alled	-9255
assem	-9256
atoes	-9257
autom	-9258
begin	-9259
bloom	-9260
bring	-9261
cases	-9262
chave	-9263
clark	-9264
coach	-9265
cript	-9266
dante	-9267
death	-9268
diddy	-9269
domin	-9270
dynam	-9271
elite	-9272
erves	-9273
flash	-9274
glenn	-9275
hence	-9276
homes	-9277
ideal	-9278
ighth	-9279
ilies	-9280
inois	-9281
istol	-9282
izard	-9283
karen	-9284
kelly	-9285
koren	-9286
laura	-9287
liber	-9288
lunch	-9289
marin	-9290
medix	-9291
monte	-9292
neath	-9293
nered	-9294
netic	-9295
ocent	-9296
opard	-9297
ousin	-9298
ouver	-9299
parts	-9300
peace	-9301
phony	-9302
piran	-9303
proof	-9304
pture	-9305
quant	-9306
royce	-9307
sales	-9308
salon	-9309
serie	-9310
sites	-9311
spect	-9312
spons	-9313
susan	-9314
sweet	-9315
syrac	-9316
syria	-9317
tains	-9318
tense	-9319
uates	-9320
ucker	-9321
undry	-9322
urtle	-9323
usaid	-9324
vated	-9325
views	-9326
▁asks	-9327
▁dose	-9328
▁drag	-9329
▁east	-9330
▁fert	-9331
▁flip	-9332
▁folk	-9333
▁fool	-9334
▁foul	-9335
▁fuck	-9336
▁glue	-9337
▁grat	-9338
▁grid	-9339
▁hint	-9340
▁hole	-9341
▁hood	-9342
▁icon	-9343
▁king	-9344
▁laid	-9345
▁lect	-9346
▁lies	-9347
▁male	-9348
▁masc	-9349
▁moon	-9350
▁mort	-9351
▁neat	-9352
▁pets	-9353
▁pose	-9354
▁prop	-9355
▁rail	-9356
▁rely	-9357
▁scar	-9358
▁sink	-9359
▁tags	-9360
▁tank	-9361
▁toll	-9362
▁toss	-9363
▁trem	-9364
▁trop	-9365
▁weak	-9366
▁wick	-9367
▁yeah	-9368
▁yoga	-9369
abella	-9370
acular	-9371
afiber	-9372
alties	-9373
amedei	-9374
apping	-9375
ashley	-9376
atured	-9377
browns	-9378
campus	-9379
carrie	-9380
castle	-9381
cotton	-9382
deputy	-9383
destin	-9384
erving	-9385
fellow	-9386
floren	-9387
forest	-9388
fourth	-9389
hollow	-9390
iments	-9391
irvine	-9392
ittees	-9393
leager	-9394
likely	-9395
lounge	-9396
matrix	-9397
method	-9398
muslim	-9399
opport	-9400
ortion	-9401
ospace	-9402
popeye	-9403
prices	-9404
reader	-9405
reduce	-9406
resort	-9407
rotary	-9408
rubber	-9409
seeing	-9410
shelia	-9411
shirts	-9412
sounds	-9413
spects	-9414
stevia	-9415
superv	-9416
theory	-9417
ticket	-9418
velope	-9419
waring	-9420
window	-9421
wright	-9422
xavier	-9423
▁alert	-9424
▁alter	-9425
▁angry	-9426
▁arbit	-9427
▁array	-9428
▁birds	-9429
▁brave	-9430
▁burst	-9431
▁cargo	-9432
▁cents	-9433
▁compr	-9434
▁decre	-9435
▁disag	-9436
▁drove	-9437
▁farms	-9438
▁femin	-9439
▁gains	-9440
▁gauge	-9441
▁ghost	-9442
▁grave	-9443
▁grill	-9444
▁hesit	-9445
▁irons	-9446
▁kinda	-9447
▁loans	-9448
▁magic	-9449
▁newly	-9450
▁noise	-9451
▁oblig	-9452
▁picks	-9453
▁queue	-9454
▁races	-9455
▁reply	-9456
▁revel	-9457
▁rival	-9458
▁roles	-9459
▁rural	-9460
▁setup	-9461
▁spray	-9462
▁storm	-9463
▁towns	-9464
▁union	-9465
▁walks	-9466
against	-9467
alition	-9468
assment	-9469
between	-9470
connect	-9471
connell	-9472
conserv	-9473
consult	-9474
coyotes	-9475
defense	-9476
embassy	-9477
getting	-9478
gustave	-9479
ication	-9480
ilation	-9481
issance	-9482
iveness	-9483
lessons	-9484
markets	-9485
marlins	-9486
mington	-9487
ographs	-9488
ometown	-9489
outside	-9490
publish	-9491
regular	-9492
reports	-9493
respons	-9494
results	-9495
richard	-9496
swedish	-9497
uration	-9498
volunte	-9499
▁acquis	-9500
▁almond	-9501
▁beaten	-9502
▁cancel	-9503
▁casual	-9504
▁clever	-9505
▁compat	-9506
▁conver	-9507
▁copies	-9508
▁defend	-9509
▁define	-9510
▁deploy	-9511
▁divide	-9512
▁dozens	-9513
▁evenly	-9514
▁feeder	-9515
▁filing	-9516
▁forced	-9517
▁genius	-9518
▁hockey	-9519
▁honors	-9520
▁hunger	-9521
▁indeed	-9522
▁invite	-9523
▁losses	-9524
▁lovers	-9525
▁luxury	-9526
▁majors	-9527
▁marine	-9528
▁occurs	-9529
▁organs	-9530
▁permit	-9531
▁prophe	-9532
▁proved	-9533
▁quoted	-9534
▁raises	-9535
▁reject	-9536
▁resort	-9537
▁rolled	-9538
▁senses	-9539
▁severe	-9540
▁slowly	-9541
▁stolen	-9542
▁suspic	-9543
▁testim	-9544
▁treats	-9545
▁triple	-9546
▁viewed	-9547
▁vulner	-9548
▁warmth	-9549
▁worker	-9550
▁yogurt	-9551
aminated	-9552
analysis	-9553
belladia	-9554
benjamin	-9555
breaking	-9556
caldwell	-9557
calendar	-9558
contract	-9559
designed	-9560
downtown	-9561
ensation	-9562
expected	-9563
florence	-9564
illinois	-9565
includes	-9566
japanese	-9567
marathon	-9568
meleager	-9569
pakistan	-9570
physical	-9571
planning	-9572
pression	-9573
programs	-9574
resident	-9575
ribution	-9576
shanghai	-9577
speaking	-9578
syracuse	-9579
transfer	-9580
ultimate	-9581
visitors	-9582
whatever	-9583
▁anytime	-9584
▁applies	-9585
▁archive	-9586
▁arrives	-9587
▁beneath	-9588
▁carries	-9589
▁caution	-9590
▁checked	-9591
▁chopped	-9592
▁compact	-9593
▁crystal	-9594
▁facilit	-9595
▁founded	-9596
▁gravity	-9597
▁grounds	-9598
▁handful	-9599
▁heating	-9600
▁heavily	-9601
▁honored	-9602
▁intense	-9603
▁interns	-9604
▁keyword	-9605
▁lacking	-9606
▁largely	-9607
▁letting	-9608
▁liberal	-9609
▁lightly	-9610
▁magical	-9611
▁matched	-9612
▁monthly	-9613
▁neither	-9614
▁observe	-9615
▁partial	-9616
▁portion	-9617
▁predict	-9618
▁pursuit	-9619
▁queries	-9620
▁ranging	-9621
▁rapidly	-9622
▁reduces	-9623
▁scratch	-9624
▁servers	-9625
▁shortly	-9626
▁utility	-9627
▁vanilla	-9628
clamation	-9629
halloween	-9630
indonesia	-9631
novelties	-9632
powerpuff	-9633
themarket	-9634
vancouver	-9635
▁accuracy	-9636
▁achieved	-9637
▁analysts	-9638
▁applying	-9639
▁assigned	-9640
▁bankrupt	-9641
▁bathroom	-9642
▁bearings	-9643
▁captured	-9644
▁ceremony	-9645
▁chairman	-9646
▁choosing	-9647
▁constant	-9648
▁contents	-9649
▁costumes	-9650
▁criteria	-9651
▁declared	-9652
▁decrease	-9653
▁dressing	-9654
▁drinking	-9655
▁engineer	-9656
▁enjoying	-9657
▁estimate	-9658
▁firewall	-9659
▁gathered	-9660
▁graphics	-9661
▁holidays	-9662
▁integral	-9663
▁laughing	-9664
▁mathemat	-9665
▁mountain	-9666
▁portrait	-9667
▁precious	-9668
▁prospect	-9669
▁repeated	-9670
▁reporter	-9671
▁speaking	-9672
▁troubled	-9673
▁warranty	-9674
▁whenever	-9675
▁withdraw	-9676
basketball	-9677
democratic	-9678
exhibition	-9679
locksmiths	-9680
operations	-9681
philosophy	-9682
production	-9683
statistics	-9684
tournament	-9685
wilmington	-9686
▁acknowled	-9687
▁audiences	-9688
▁celebrity	-9689
▁classroom	-9690
▁companion	-9691
▁contracts	-9692
▁convicted	-9693
▁decorated	-9694
▁decreased	-9695
▁discrimin	-9696
▁districts	-9697
▁exploring	-9698
▁festivals	-9699
▁furniture	-9700
▁hilarious	-9701
▁instantly	-9702
▁intention	-9703
▁mechanism	-9704
▁motivated	-9705
▁municipal	-9706
▁prospects	-9707
▁screening	-9708
▁sentiment	-9709
▁shoulders	-9710
▁signature	-9711
▁sponsored	-9712
▁teammates	-9713
▁telephone	-9714
▁territory	-9715
▁thrilling	-9716
▁uncomfort	-9717
▁warehouse	-9718
anniversary	-9719
thermafiber	-9720
▁accounting	-9721
▁accurately	-9722
▁attractive	-9723
▁capability	-9724
▁collective	-9725
▁containers	-9726
▁girlfriend	-9727
▁impossible	-9728
▁industrial	-9729
▁motorcycle	-9730
▁performing	-9731
▁physiology	-9732
▁procedures	-9733
▁satisfying	-9734
▁sentencing	-9735
▁statements	-9736
▁strategies	-9737
▁strengthen	-9738
▁struggling	-9739
▁supplement	-9740
▁surrounded	-9741
▁translated	-9742
▁underneath	-9743
▁warehouses	-9744
▁wavelength	-9745
intermediate	-9746
▁accessories	-9747
▁departments	-9748
▁encouraging	-9749
▁essentially	-9750
▁exclusively	-9751
▁governments	-9752
▁institution	-9753
▁instruction	-9754
▁introducing	-9755
▁legislation	-9756
▁legislators	-9757
▁positioning	-9758
▁reservation	-9759
▁specializes	-9760
▁supermarket	-9761
▁tablespoons	-9762
▁trafficking	-9763
▁alternatives	-9764
▁arrangements	-9765
▁contribution	-9766
▁increasingly	-9767
▁negotiations	-9768
▁overwhelming	-9769
▁presidential	-9770
transportation	-9771
▁uncomfortable	-9772
▁accountability	-9773
▁discrimination	-9774
▁interpretation	-9775
▁noncommutative	-9776
▁representation	-9777
,’	-9778
.:	-9779
/.	-9780
:)	-9781
?!	-9782
bm	-9783
cu	-9784
dl	-9785
hu	-9786
oz	-9787
qb	-9788
tu	-9789
vu	-9790
wl	-9791
xl	-9792
yn	-9793
yo	-9794
zo	-9795
▁!	-9796
▁;	-9797
abd	-9798
aed	-9799
arv	-9800
bek	-9801
bos	-9802
buz	-9803
dif	-9804
dit	-9805
dod	-9806
dot	-9807
dun	-9808
egy	-9809
eta	-9810
exc	-9811
gil	-9812
gor	-9813
hum	-9814
hur	-9815
iev	-9816
ika	-9817
iov	-9818
isk	-9819
kin	-9820
mam	-9821
nex	-9822
nug	-9823
oak	-9824
oli	-9825
oyd	-9826
pbs	-9827
pey	-9828
pmt	-9829
pom	-9830
pty	-9831
rek	-9832
rip	-9833
rut	-9834
seo	-9835
sir	-9836
sox	-9837
tek	-9838
ulf	-9839
usc	-9840
usd	-9841
wra	-9842
yor	-9843
▁''	-9844
▁**	-9845
▁ax	-9846
▁da	-9847
▁mp	-9848
▁ok	-9849
aber	-9850
abig	-9851
achy	-9852
afgh	-9853
aine	-9854
aire	-9855
airy	-9856
amew	-9857
argo	-9858
auer	-9859
bage	-9860
bapt	-9861
blvd	-9862
boba	-9863
bors	-9864
bted	-9865
cafe	-9866
camt	-9867
cand	-9868
carr	-9869
cart	-9870
cend	-9871
chip	-9872
cled	-9873
coat	-9874
comb	-9875
copy	-9876
eder	-9877
elij	-9878
elli	-9879
emen	-9880
esto	-9881
euch	-9882
exam	-9883
fear	-9884
fers	-9885
fine	-9886
frag	-9887
gary	-9888
gill	-9889
gins	-9890
goal	-9891
grab	-9892
guam	-9893
held	-9894
hide	-9895
hook	-9896
hort	-9897
iley	-9898
inis	-9899
ithm	-9900
kers	-9901
kiva	-9902
kiwi	-9903
laun	-9904
loot	-9905
lynn	-9906
maid	-9907
masi	-9908
menu	-9909
mott	-9910
move	-9911
nand	-9912
nasa	-9913
near	-9914
nine	-9915
ogan	-9916
▁	-9917
e	-9918
t	-9919
a	-9920
o	-9921
i	-9922
n	-9923
s	-9924
r	-9925
h	-9926
l	-9927
d	-9928
c	-9929
u	-9930
m	-9931
p	-9932
f	-9933
g	-9934
y	-9935
w	-9936
b	-9937
.	-9938
v	-9939
,	-9940
k	-9941
-	-9942
0	-9943
1	-9944
2	-9945
x	-9946
'	-9947
j	-9948
:	-9949
3	-9950
’	-9951
)	-9952
"	-9953
(	-9954
z	-9955
5	-9956
q	-9957
4	-9958
9	-9959
8	-9960
6	-9961
7	-9962
|	-9963
!	-9964
/	-9965
?	-9966
“	-9967
”	-9968
;	-9969
$	-9970
&	-9971
–	-9972
—	-9973
*	-9974
>	-9975
