<pad>	0
<s>	0
</s>	0
<unk>	0
<0x00>	0
<0x01>	0
<0x02>	0
<0x03>	0
<0x04>	0
<0x05>	0
<0x06>	0
<0x07>	0
<0x08>	0
<0x09>	0
<0x0A>	0
<0x0B>	0
<0x0C>	0
<0x0D>	0
<0x0E>	0
<0x0F>	0
<0x10>	0
<0x11>	0
<0x12>	0
<0x13>	0
<0x14>	0
<0x15>	0
<0x16>	0
<0x17>	0
<0x18>	0
<0x19>	0
<0x1A>	0
<0x1B>	0
<0x1C>	0
<0x1D>	0
<0x1E>	0
<0x1F>	0
<0x20>	0
<0x21>	0
<0x22>	0
<0x23>	0
<0x24>	0
<0x25>	0
<0x26>	0
<0x27>	0
<0x28>	0
<0x29>	0
<0x2A>	0
<0x2B>	0
<0x2C>	0
<0x2D>	0
<0x2E>	0
<0x2F>	0
<0x30>	0
<0x31>	0
<0x32>	0
<0x33>	0
<0x34>	0
<0x35>	0
<0x36>	0
<0x37>	0
<0x38>	0
<0x39>	0
<0x3A>	0
<0x3B>	0
<0x3C>	0
<0x3D>	0
<0x3E>	0
<0x3F>	0
<0x40>	0
<0x41>	0
<0x42>	0
<0x43>	0
<0x44>	0
<0x45>	0
<0x46>	0
<0x47>	0
<0x48>	0
<0x49>	0
<0x4A>	0
<0x4B>	0
<0x4C>	0
<0x4D>	0
<0x4E>	0
<0x4F>	0
<0x50>	0
<0x51>	0
<0x52>	0
<0x53>	0
<0x54>	0
<0x55>	0
<0x56>	0
<0x57>	0
<0x58>	0
<0x59>	0
<0x5A>	0
<0x5B>	0
<0x5C>	0
<0x5D>	0
<0x5E>	0
<0x5F>	0
<0x60>	0
<0x61>	0
<0x62>	0
<0x63>	0
<0x64>	0
<0x65>	0
<0x66>	0
<0x67>	0
<0x68>	0
<0x69>	0
<0x6A>	0
<0x6B>	0
<0x6C>	0
<0x6D>	0
<0x6E>	0
<0x6F>	0
<0x70>	0
<0x71>	0
<0x72>	0
<0x73>	0
<0x74>	0
<0x75>	0
<0x76>	0
<0x77>	0
<0x78>	0
<0x79>	0
<0x7A>	0
<0x7B>	0
<0x7C>	0
<0x7D>	0
<0x7E>	0
<0x7F>	0
<0x80>	0
<0x81>	0
<0x82>	0
<0x83>	0
<0x84>	0
<0x85>	0
<0x86>	0
<0x87>	0
<0x88>	0
<0x89>	0
<0x8A>	0
<0x8B>	0
<0x8C>	0
<0x8D>	0
<0x8E>	0
<0x8F>	0
<0x90>	0
<0x91>	0
<0x92>	0
<0x93>	0
<0x94>	0
<0x95>	0
<0x96>	0
<0x97>	0
<0x98>	0
<0x99>	0
<0x9A>	0
<0x9B>	0
<0x9C>	0
<0x9D>	0
<0x9E>	0
<0x9F>	0
<0xA0>	0
<0xA1>	0
<0xA2>	0
<0xA3>	0
<0xA4>	0
<0xA5>	0
<0xA6>	0
<0xA7>	0
<0xA8>	0
<0xA9>	0
<0xAA>	0
<0xAB>	0
<0xAC>	0
<0xAD>	0
<0xAE>	0
<0xAF>	0
<0xB0>	0
<0xB1>	0
<0xB2>	0
<0xB3>	0
<0xB4>	0
<0xB5>	0
<0xB6>	0
<0xB7>	0
<0xB8>	0
<0xB9>	0
<0xBA>	0
<0xBB>	0
<0xBC>	0
<0xBD>	0
<0xBE>	0
<0xBF>	0
<0xC0>	0
<0xC1>	0
<0xC2>	0
<0xC3>	0
<0xC4>	0
<0xC5>	0
<0xC6>	0
<0xC7>	0
<0xC8>	0
<0xC9>	0
<0xCA>	0
<0xCB>	0
<0xCC>	0
<0xCD>	0
<0xCE>	0
<0xCF>	0
<0xD0>	0
<0xD1>	0
<0xD2>	0
<0xD3>	0
<0xD4>	0
<0xD5>	0
<0xD6>	0
<0xD7>	0
<0xD8>	0
<0xD9>	0
<0xDA>	0
<0xDB>	0
<0xDC>	0
<0xDD>	0
<0xDE>	0
<0xDF>	0
<0xE0>	0
<0xE1>	0
<0xE2>	0
<0xE3>	0
<0xE4>	0
<0xE5>	0
<0xE6>	0
<0xE7>	0
<0xE8>	0
<0xE9>	0
<0xEA>	0
<0xEB>	0
<0xEC>	0
<0xED>	0
<0xEE>	0
<0xEF>	0
<0xF0>	0
<0xF1>	0
<0xF2>	0
<0xF3>	0
<0xF4>	0
<0xF5>	0
<0xF6>	0
<0xF7>	0
<0xF8>	0
<0xF9>	0
<0xFA>	0
<0xFB>	0
<0xFC>	0
<0xFD>	0
<0xFE>	0
<0xFF>	0
▁t	-0
▁a	-1
in	-2
he	-3
re	-4
on	-5
er	-6
▁the	-7
▁s	-8
▁w	-9
or	-10
at	-11
nd	-12
ou	-13
▁c	-14
it	-15
es	-16
▁f	-17
is	-18
en	-19
ing	-20
▁b	-21
▁p	-22
▁o	-23
an	-24
ed	-25
al	-26
▁to	-27
▁m	-28
ar	-29
▁and	-30
▁in	-31
▁of	-32
▁d	-33
le	-34
ic	-35
as	-36
om	-37
▁h	-38
ion	-39
▁th	-40
il	-41
▁T	-42
ent	-43
▁l	-44
ve	-45
▁y	-46
ro	-47
st	-48
▁I	-49
▁e	-50
▁re	-51
▁n	-52
▁S	-53
▁g	-54
et	-55
ct	-56
▁A	-57
▁you	-58
▁C	-59
ly	-60
▁for	-61
id	-62
▁is	-63
ay	-64
▁on	-65
▁be	-66
ot	-67
ow	-68
ol	-69
am	-70
ce	-71
ig	-72
us	-73
ad	-74
im	-75
▁M	-76
ch	-77
el	-78
ver	-79
ith	-80
ut	-81
▁st	-82
ation	-83
ur	-84
▁P	-85
▁with	-86
▁that	-87
ir	-88
▁B	-89
▁W	-90
▁The	-91
▁it	-92
▁he	-93
ra	-94
ill	-95
ers	-96
▁al	-97
un	-98
ul	-99
▁an	-100
▁D	-101
▁H	-102
▁F	-103
out	-104
▁pro	-105
▁as	-106
▁wh	-107
▁are	-108
ke	-109
se	-110
ter	-111
▁we	-112
if	-113
▁ha	-114
ge	-115
oo	-116
▁R	-117
our	-118
pp	-119
ck	-120
ate	-121
ess	-122
▁at	-123
▁con	-124
▁com	-125
▁or	-126
▁L	-127
est	-128
her	-129
ore	-130
ment	-131
▁fr	-132
ab	-133
igh	-134
▁-	-135
▁ne	-136
▁N	-137
ort	-138
▁se	-139
▁G	-140
▁your	-141
ld	-142
▁E	-143
ist	-144
ri	-145
op	-146
▁(	-147
▁ex	-148
ity	-149
ure	-150
▁O	-151
em	-152
▁v	-153
qu	-154
ant	-155
art	-156
ive	-157
ust	-158
um	-159
▁was	-160
▁have	-161
pe	-162
▁from	-163
▁this	-164
▁de	-165
▁r	-166
▁sh	-167
th	-168
ain	-169
ies	-170
▁can	-171
up	-172
▁will	-173
▁ch	-174
and	-175
▁by	-176
os	-177
ight	-178
nt	-179
ie	-180
▁us	-181
ome	-182
all	-183
ard	-184
▁not	-185
ud	-186
res	-187
▁le	-188
▁J	-189
ast	-190
▁pl	-191
ost	-192
▁su	-193
▁ab	-194
iv	-195
ear	-196
▁wor	-197
ide	-198
ial	-199
rou	-200
▁all	-201
gh	-202
od	-203
oc	-204
ak	-205
te	-206
ine	-207
ould	-208
▁j	-209
red	-210
ag	-211
▁has	-212
..	-213
ice	-214
▁Th	-215
ell	-216
▁U	-217
age	-218
▁do	-219
▁k	-220
ack	-221
fe	-222
ook	-223
ac	-224
▁ad	-225
per	-226
▁In	-227
ip	-228
▁comp	-229
ake	-230
▁out	-231
ions	-232
ally	-233
▁up	-234
are	-235
▁but	-236
▁me	-237
▁whe	-238
pt	-239
lo	-240
able	-241
ry	-242
▁our	-243
▁“	-244
one	-245
ind	-246
▁en	-247
▁more	-248
ail	-249
ite	-250
ther	-251
▁their	-252
▁Y	-253
ich	-254
▁so	-255
very	-256
ime	-257
cc	-258
ood	-259
ated	-260
ong	-261
▁K	-262
▁my	-263
▁sa	-264
for	-265
iz	-266
ame	-267
ber	-268
▁they	-269
▁St	-270
▁te	-271
so	-272
ous	-273
▁one	-274
ans	-275
act	-276
▁about	-277
ll	-278
ike	-279
du	-280
▁cont	-281
ase	-282
og	-283
▁V	-284
▁im	-285
ick	-286
▁cl	-287
ia	-288
ance	-289
▁work	-290
▁inc	-291
ign	-292
▁un	-293
ire	-294
ree	-295
▁off	-296
▁fe	-297
▁who	-298
▁man	-299
ue	-300
ace	-301
ach	-302
reat	-303
ub	-304
▁It	-305
ction	-306
▁go	-307
ne	-308
▁app	-309
▁year	-310
▁new	-311
ep	-312
ult	-313
ib	-314
ap	-315
▁his	-316
ays	-317
erv	-318
▁Ch	-319
▁We	-320
▁res	-321
und	-322
▁"	-323
▁sp	-324
ass	-325
ark	-326
ations	-327
ff	-328
▁qu	-329
ary	-330
▁per	-331
▁also	-332
ile	-333
▁which	-334
▁int	-335
▁time	-336
ove	-337
form	-338
ven	-339
ount	-340
▁get	-341
▁tr	-342
own	-343
▁like	-344
▁some	-345
▁other	-346
ond	-347
ents	-348
ings	-349
vel	-350
▁any	-351
ical	-352
ence	-353
▁part	-354
av	-355
▁been	-356
▁dis	-357
▁This	-358
▁over	-359
ition	-360
ress	-361
pl	-362
ors	-363
▁rec	-364
▁them	-365
▁He	-366
▁ar	-367
▁sc	-368
ild	-369
▁pe	-370
port	-371
ink	-372
low	-373
▁ag	-374
▁ro	-375
▁her	-376
▁when	-377
ound	-378
▁kn	-379
ord	-380
mer	-381
int	-382
▁need	-383
ish	-384
▁pr	-385
irst	-386
ens	-387
ough	-388
▁said	-389
ru	-390
▁pre	-391
▁spe	-392
▁just	-393
wn	-394
ren	-395
▁what	-396
▁there	-397
▁if	-398
▁acc	-399
▁than	-400
▁its	-401
ov	-402
▁Re	-403
day	-404
vers	-405
▁would	-406
ater	-407
fter	-408
▁had	-409
ade	-410
ning	-411
lud	-412
▁hel	-413
▁–	-414
▁were	-415
▁am	-416
old	-417
rough	-418
▁into	-419
▁des	-420
ory	-421
ople	-422
itt	-423
ang	-424
▁help	-425
▁tw	-426
▁how	-427
use	-428
lic	-429
ool	-430
▁bec	-431
▁add	-432
anc	-433
▁first	-434
ose	-435
▁make	-436
▁comm	-437
ons	-438
amp	-439
ob	-440
hed	-441
▁prov	-442
▁Wh	-443
▁tra	-444
...	-445
ft	-446
▁look	-447
▁You	-448
▁includ	-449
ual	-450
▁people	-451
les	-452
▁serv	-453
gr	-454
▁col	-455
ian	-456
ments	-457
ful	-458
▁know	-459
▁produ	-460
ates	-461
iew	-462
▁Ne	-463
▁em	-464
rent	-465
ious	-466
tern	-467
▁she	-468
round	-469
ek	-470
▁every	-471
▁through	-472
▁may	-473
ating	-474
▁no	-475
▁only	-476
pport	-477
▁back	-478
▁most	-479
ect	-480
▁bu	-481
▁want	-482
ict	-483
ices	-484
▁As	-485
▁If	-486
▁well	-487
ities	-488
▁ind	-489
we	-490
▁bet	-491
▁ph	-492
ise	-493
▁use	-494
▁two	-495
▁co	-496
xt	-497
ont	-498
com	-499
▁act	-500
▁und	-501
ph	-502
iness	-503
lect	-504
iss	-505
oy	-506
▁after	-507
▁Se	-508
ife	-509
ause	-510
▁play	-511
fect	-512
▁|	-513
oth	-514
▁&	-515
ily	-516
row	-517
ork	-518
enc	-519
▁exper	-520
ject	-521
▁cons	-522
hen	-523
cial	-524
urn	-525
ert	-526
▁years	-527
als	-528
▁these	-529
ank	-530
ting	-531
▁$	-532
▁Com	-533
aw	-534
▁bus	-535
▁An	-536
▁Un	-537
▁stud	-538
any	-539
bs	-540
ange	-541
▁For	-542
vent	-543
ures	-544
▁good	-545
ational	-546
aking	-547
▁see	-548
▁ke	-549
ased	-550
ific	-551
▁Pro	-552
▁now	-553
fore	-554
▁under	-555
▁very	-556
▁many	-557
▁reg	-558
▁sm	-559
ward	-560
hing	-561
▁imp	-562
get	-563
oint	-564
▁dif	-565
▁ra	-566
▁way	-567
erson	-568
ience	-569
▁start	-570
ts	-571
pect	-572
▁fin	-573
▁great	-574
▁And	-575
yst	-576
uring	-577
▁De	-578
▁rel	-579
formation	-580
▁gu	-581
ility	-582
ible	-583
▁rem	-584
▁could	-585
oss	-586
hip	-587
▁dec	-588
uch	-589
▁even	-590
▁inv	-591
).	-592
ty	-593
ics	-594
rit	-595
ract	-596
▁own	-597
▁sec	-598
cess	-599
velop	-600
▁day	-601
▁where	-602
▁show	-603
ident	-604
elf	-605
hes	-606
alth	-607
▁high	-608
its	-609
▁loc	-610
air	-611
▁find	-612
olog	-613
▁ac	-614
ull	-615
nds	-616
▁Al	-617
▁don	-618
▁ass	-619
▁home	-620
▁should	-621
line	-622
ath	-623
▁ent	-624
▁best	-625
▁here	-626
▁down	-627
lease	-628
▁then	-629
▁Sh	-630
ied	-631
ble	-632
ular	-633
||	-634
▁right	-635
The	-636
arch	-637
▁set	-638
chool	-639
ited	-640
▁car	-641
▁av	-642
▁read	-643
▁New	-644
▁mon	-645
gan	-646
▁min	-647
▁take	-648
▁business	-649
erm	-650
▁fam	-651
▁ins	-652
ner	-653
ix	-654
▁inst	-655
▁fl	-656
ys	-657
▁design	-658
▁att	-659
ystem	-660
▁br	-661
alk	-662
▁too	-663
.”	-664
▁che	-665
▁bl	-666
io	-667
▁long	-668
ative	-669
▁much	-670
▁information	-671
▁Be	-672
▁made	-673
▁last	-674
ollow	-675
ason	-676
other	-677
ues	-678
gram	-679
arket	-680
▁product	-681
omet	-682
▁because	-683
ock	-684
ax	-685
▁Fr	-686
),	-687
rib	-688
▁week	-689
▁call	-690
▁did	-691
▁before	-692
▁think	-693
▁Cl	-694
▁team	-695
▁world	-696
atch	-697
me	-698
▁cre	-699
ale	-700
pen	-701
oun	-702
▁again	-703
▁sur	-704
ower	-705
▁Ad	-706
▁vis	-707
ient	-708
▁But	-709
chn	-710
pr	-711
az	-712
ustom	-713
land	-714
▁requ	-715
▁art	-716
▁develop	-717
▁being	-718
▁diffe	-719
rest	-720
▁pres	-721
way	-722
▁person	-723
ng	-724
ener	-725
▁such	-726
▁inte	-727
▁Le	-728
▁mem	-729
▁disc	-730
▁him	-731
ces	-732
▁support	-733
▁life	-734
arn	-735
ug	-736
ving	-737
ced	-738
ouse	-739
unity	-740
ave	-741
ince	-742
irect	-743
▁med	-744
▁Ar	-745
▁does	-746
▁while	-747
▁those	-748
ins	-749
▁provid	-750
ash	-751
arm	-752
view	-753
▁sim	-754
ivers	-755
ros	-756
▁lead	-757
▁sk	-758
akes	-759
ality	-760
▁pol	-761
▁mod	-762
▁end	-763
▁used	-764
▁cur	-765
ives	-766
▁around	-767
ric	-768
led	-769
ier	-770
▁free	-771
ailable	-772
ually	-773
▁each	-774
▁care	-775
▁comple	-776
▁follow	-777
ional	-778
ublic	-779
▁det	-780
▁On	-781
ple	-782
read	-783
der	-784
▁ret	-785
ize	-786
▁trans	-787
ather	-788
▁love	-789
▁There	-790
ages	-791
▁post	-792
ines	-793
▁child	-794
▁system	-795
ars	-796
▁bo	-797
ene	-798
roup	-799
▁eas	-800
▁book	-801
▁num	-802
▁ed	-803
▁How	-804
▁ser	-805
,”	-806
imes	-807
▁Te	-808
▁really	-809
▁count	-810
ets	-811
▁gr	-812
▁str	-813
▁program	-814
▁custom	-815
ton	-816
▁top	-817
▁run	-818
▁del	-819
au	-820
▁All	-821
iet	-822
▁cour	-823
ffect	-824
▁found	-825
▁So	-826
▁place	-827
▁list	-828
ness	-829
ved	-830
iel	-831
▁form	-832
▁month	-833
▁prof	-834
▁char	-835
ah	-836
▁feel	-837
▁To	-838
ute	-839
▁available	-840
▁going	-841
▁inter	-842
ittle	-843
▁They	-844
▁sign	-845
▁sub	-846
gg	-847
▁market	-848
man	-849
ature	-850
ames	-851
▁fun	-852
▁cle	-853
▁still	-854
cept	-855
▁Pl	-856
ways	-857
▁somet	-858
▁different	-859
▁aut	-860
▁both	-861
▁three	-862
▁few	-863
orn	-864
▁health	-865
▁though	-866
▁Ex	-867
ital	-868
ired	-869
▁pur	-870
ering	-871
▁rep	-872
▁adv	-873
▁exp	-874
▁techn	-875
▁happ	-876
▁open	-877
▁lot	-878
▁report	-879
▁company	-880
ata	-881
ween	-882
▁keep	-883
meric	-884
▁Sc	-885
orth	-886
▁plan	-887
▁hand	-888
ining	-889
bers	-890
iqu	-891
▁She	-892
tt	-893
ants	-894
be	-895
▁ext	-896
▁lar	-897
▁game	-898
▁sol	-899
▁point	-900
▁Q	-901
ross	-902
ology	-903
▁say	-904
ves	-905
atur	-906
▁met	-907
▁import	-908
▁process	-909
▁fil	-910
▁frie	-911
▁including	-912
▁family	-913
▁ev	-914
▁using	-915
▁same	-916
work	-917
▁project	-918
ized	-919
uc	-920
oot	-921
▁school	-922
▁between	-923
▁What	-924
ik	-925
ling	-926
▁little	-927
ution	-928
ott	-929
att	-930
▁experience	-931
▁during	-932
."	-933
less	-934
▁state	-935
iving	-936
▁Col	-937
▁i	-938
▁next	-939
uss	-940
els	-941
▁service	-942
aint	-943
▁real	-944
ody	-945
oh	-946
▁build	-947
▁allow	-948
ms	-949
reen	-950
▁opt	-951
▁water	-952
ished	-953
▁things	-954
▁come	-955
▁contin	-956
thing	-957
▁Americ	-958
▁var	-959
▁Ph	-960
▁dri	-961
ists	-962
uck	-963
ever	-964
ern	-965
ield	-966
▁cent	-967
arly	-968
over	-969
rand	-970
▁small	-971
▁rece	-972
▁organ	-973
▁appro	-974
▁rest	-975
gy	-976
▁big	-977
self	-978
▁Ind	-979
▁ref	-980
ex	-981
▁always	-982
▁mus	-983
▁better	-984
▁sure	-985
▁With	-986
▁interest	-987
▁win	-988
aut	-989
loy	-990
▁full	-991
▁pat	-992
▁poss	-993
▁pass	-994
ery	-995
illion	-996
▁online	-997
▁pri	-998
▁iss	-999
▁ty	-1000
▁put	-1001
ined	-1002
cent	-1003
ware	-1004
▁When	-1005
▁result	-1006
▁gener	-1007
▁since	-1008
▁Bl	-1009
▁ve	-1010
ps	-1011
▁try	-1012
▁direct	-1013
▁quest	-1014
iversity	-1015
▁mov	-1016
▁stand	-1017
▁partic	-1018
▁days	-1019
▁perform	-1020
▁group	-1021
▁val	-1022
ok	-1023
▁pay	-1024
▁ide	-1025
▁head	-1026
▁special	-1027
▁bel	-1028
▁Tr	-1029
▁today	-1030
▁Chr	-1031
▁something	-1032
▁class	-1033
▁provide	-1034
ients	-1035
ours	-1036
▁tri	-1037
▁services	-1038
▁second	-1039
▁ann	-1040
▁Our	-1041
ared	-1042
▁Con	-1043
ccess	-1044
▁resp	-1045
joy	-1046
▁phot	-1047
▁Is	-1048
▁conf	-1049
ploy	-1050
▁Or	-1051
▁dist	-1052
▁hard	-1053
▁without	-1054
pping	-1055
con	-1056
▁Sp	-1057
▁number	-1058
ER	-1059
▁Z	-1060
▁bro	-1061
▁sl	-1062
▁def	-1063
▁cor	-1064
▁must	-1065
oney	-1066
▁blo	-1067
▁another	-1068
ision	-1069
▁vide	-1070
stand	-1071
eng	-1072
▁current	-1073
cl	-1074
outh	-1075
▁give	-1076
▁wom	-1077
▁old	-1078
aj	-1079
ically	-1080
▁access	-1081
▁webs	-1082
▁able	-1083
ards	-1084
▁important	-1085
ior	-1086
iver	-1087
▁cr	-1088
,"	-1089
ately	-1090
ium	-1091
▁—	-1092
▁cost	-1093
sh	-1094
▁grow	-1095
▁ask	-1096
ope	-1097
ral	-1098
▁meet	-1099
▁fact	-1100
▁invest	-1101
▁At	-1102
▁area	-1103
ruct	-1104
▁Cent	-1105
▁public	-1106
▁got	-1107
raph	-1108
▁Res	-1109
▁wr	-1110
▁bre	-1111
▁soc	-1112
ote	-1113
▁visit	-1114
▁proble	-1115
ered	-1116
▁light	-1117
▁incre	-1118
▁US	-1119
ample	-1120
▁working	-1121
ems	-1122
▁ob	-1123
ense	-1124
▁data	-1125
ann	-1126
▁unt	-1127
rence	-1128
pped	-1129
br	-1130
▁level	-1131
▁proper	-1132
▁looking	-1133
▁never	-1134
▁sal	-1135
▁might	-1136
inal	-1137
▁No	-1138
ats	-1139
ffic	-1140
▁order	-1141
ential	-1142
ember	-1143
▁effect	-1144
ley	-1145
▁event	-1146
▁fac	-1147
▁students	-1148
▁food	-1149
▁rese	-1150
▁local	-1151
▁Man	-1152
ency	-1153
▁four	-1154
▁Comm	-1155
▁eng	-1156
▁profess	-1157
ird	-1158
▁let	-1159
▁That	-1160
▁offer	-1161
ission	-1162
▁inf	-1163
▁enjoy	-1164
ww	-1165
▁site	-1166
▁Pr	-1167
▁spec	-1168
▁season	-1169
▁addition	-1170
▁check	-1171
ertain	-1172
▁within	-1173
▁children	-1174
gin	-1175
▁oper	-1176
▁pos	-1177
▁test	-1178
ording	-1179
▁making	-1180
▁My	-1181
▁view	-1182
lection	-1183
▁room	-1184
▁sit	-1185
▁prom	-1186
▁power	-1187
ories	-1188
ney	-1189
▁expl	-1190
here	-1191
▁ca	-1192
load	-1193
ently	-1194
▁products	-1195
rol	-1196
▁past	-1197
▁night	-1198
▁community	-1199
▁pop	-1200
▁Mar	-1201
▁sing	-1202
▁against	-1203
let	-1204
ream	-1205
tend	-1206
▁until	-1207
ases	-1208
▁less	-1209
▁'	-1210
utes	-1211
▁el	-1212
ains	-1213
agement	-1214
▁est	-1215
med	-1216
ids	-1217
▁email	-1218
ieve	-1219
▁job	-1220
iron	-1221
ised	-1222
ator	-1223
▁quality	-1224
ivid	-1225
ina	-1226
▁May	-1227
▁intern	-1228
▁indust	-1229
to	-1230
ills	-1231
▁gl	-1232
▁website	-1233
▁prote	-1234
▁impro	-1235
▁law	-1236
ode	-1237
ks	-1238
orm	-1239
▁equ	-1240
▁App	-1241
▁turn	-1242
ified	-1243
enn	-1244
urs	-1245
co	-1246
ged	-1247
▁Br	-1248
IN	-1249
▁away	-1250
icle	-1251
▁air	-1252
▁Fe	-1253
▁contact	-1254
▁creat	-1255
▁toget	-1256
We	-1257
▁together	-1258
bo	-1259
▁University	-1260
istr	-1261
ique	-1262
pend	-1263
aring	-1264
▁supp	-1265
▁learn	-1266
▁success	-1267
▁pract	-1268
▁Co	-1269
ury	-1270
▁dr	-1271
▁complete	-1272
▁Can	-1273
▁leg	-1274
▁applic	-1275
iday	-1276
▁expect	-1277
▁needs	-1278
▁include	-1279
por	-1280
▁Christ	-1281
iety	-1282
ocus	-1283
atter	-1284
ider	-1285
▁Cont	-1286
▁.	-1287
▁detail	-1288
▁large	-1289
▁easy	-1290
▁la	-1291
▁Car	-1292
ability	-1293
ret	-1294
▁One	-1295
▁along	-1296
oci	-1297
irl	-1298
▁course	-1299
▁says	-1300
▁change	-1301
▁news	-1302
arent	-1303
aster	-1304
room	-1305
▁present	-1306
ger	-1307
▁offic	-1308
vern	-1309
▁name	-1310
▁chang	-1311
ism	-1312
hor	-1313
▁conc	-1314
yle	-1315
ym	-1316
atures	-1317
▁beaut	-1318
▁Am	-1319
▁Do	-1320
▁activ	-1321
pos	-1322
▁cap	-1323
part	-1324
lish	-1325
ump	-1326
ising	-1327
ries	-1328
▁members	-1329
▁Me	-1330
▁money	-1331
enef	-1332
▁Ste	-1333
min	-1334
iting	-1335
▁employ	-1336
rap	-1337
▁video	-1338
▁bas	-1339
▁times	-1340
the	-1341
▁Eng	-1342
▁talk	-1343
ify	-1344
▁buy	-1345
ec	-1346
augh	-1347
▁beh	-1348
▁music	-1349
itions	-1350
▁Ro	-1351
▁These	-1352
▁fav	-1353
▁house	-1354
▁pa	-1355
une	-1356
ift	-1357
nect	-1358
▁opport	-1359
▁dem	-1360
▁sw	-1361
side	-1362
▁/	-1363
ane	-1364
▁hist	-1365
▁why	-1366
Th	-1367
▁En	-1368
▁dra	-1369
ably	-1370
▁cond	-1371
▁ce	-1372
▁case	-1373
▁please	-1374
▁treat	-1375
by	-1376
mber	-1377
ron	-1378
veral	-1379
ots	-1380
▁perfect	-1381
aff	-1382
rie	-1383
aterial	-1384
pecial	-1385
▁live	-1386
ready	-1387
fort	-1388
ten	-1389
▁govern	-1390
▁account	-1391
▁dev	-1392
▁short	-1393
ention	-1394
ization	-1395
▁thing	-1396
▁create	-1397
▁following	-1398
▁Che	-1399
▁story	-1400
▁clo	-1401
ON	-1402
book	-1403
▁left	-1404
▁const	-1405
ived	-1406
viron	-1407
▁review	-1408
▁below	-1409
▁trad	-1410
▁understand	-1411
▁hum	-1412
▁million	-1413
son	-1414
!!	-1415
▁side	-1416
itive	-1417
▁having	-1418
▁Your	-1419
alf	-1420
ored	-1421
▁After	-1422
▁hot	-1423
ohn	-1424
ows	-1425
sc	-1426
▁page	-1427
etwork	-1428
▁Med	-1429
▁based	-1430
▁Fl	-1431
▁focus	-1432
of	-1433
▁makes	-1434
▁word	-1435
AT	-1436
▁research	-1437
RE	-1438
▁move	-1439
▁across	-1440
▁writ	-1441
▁camp	-1442
▁personal	-1443
ienc	-1444
ances	-1445
▁line	-1446
▁link	-1447
▁kind	-1448
▁possible	-1449
▁cou	-1450
rop	-1451
▁ever	-1452
▁mar	-1453
▁pot	-1454
uture	-1455
ividual	-1456
▁getting	-1457
▁comes	-1458
▁already	-1459
uly	-1460
▁benef	-1461
▁elect	-1462
ajor	-1463
▁educ	-1464
vious	-1465
▁record	-1466
ured	-1467
uper	-1468
osp	-1469
▁country	-1470
▁become	-1471
▁Rep	-1472
▁soft	-1473
ination	-1474
oice	-1475
orts	-1476
▁often	-1477
▁share	-1478
▁friends	-1479
▁several	-1480
ush	-1481
▁done	-1482
▁Ass	-1483
iven	-1484
ister	-1485
▁social	-1486
▁Count	-1487
▁es	-1488
duct	-1489
▁pack	-1490
▁bit	-1491
wards	-1492
▁fund	-1493
ead	-1494
iam	-1495
▁enough	-1496
▁quick	-1497
▁mil	-1498
▁tre	-1499
ones	-1500
▁minutes	-1501
uro	-1502
▁Please	-1503
conom	-1504
fer	-1505
▁bring	-1506
▁Inst	-1507
inc	-1508
▁women	-1509
uff	-1510
▁development	-1511
▁vers	-1512
▁Serv	-1513
▁hours	-1514
▁body	-1515
▁Des	-1516
▁mult	-1517
unch	-1518
app	-1519
oose	-1520
ips	-1521
▁tell	-1522
ides	-1523
iful	-1524
▁John	-1525
vironment	-1526
▁return	-1527
▁purch	-1528
mend	-1529
aim	-1530
▁:	-1531
▁cut	-1532
▁men	-1533
ners	-1534
▁city	-1535
▁lo	-1536
arl	-1537
ape	-1538
reet	-1539
▁Intern	-1540
▁deal	-1541
▁X	-1542
oon	-1543
▁individual	-1544
AN	-1545
▁exc	-1546
▁won	-1547
ST	-1548
▁ens	-1549
▁young	-1550
ateg	-1551
ted	-1552
▁Here	-1553
▁compet	-1554
▁hold	-1555
▁material	-1556
ograph	-1557
▁sum	-1558
▁Comp	-1559
▁...	-1560
▁others	-1561
▁jo	-1562
utions	-1563
yn	-1564
▁started	-1565
▁Tw	-1566
▁industry	-1567
▁called	-1568
▁months	-1569
▁mom	-1570
▁term	-1571
▁non	-1572
▁orig	-1573
idd	-1574
ights	-1575
▁didn	-1576
ript	-1577
▁land	-1578
ai	-1579
ee	-1580
nder	-1581
▁Gu	-1582
▁walk	-1583
▁clean	-1584
▁future	-1585
▁rele	-1586
▁American	-1587
▁However	-1588
▁pie	-1589
▁City	-1590
.,	-1591
▁far	-1592
▁commun	-1593
lished	-1594
▁po	-1595
ched	-1596
▁doing	-1597
▁major	-1598
ained	-1599
▁control	-1600
▁space	-1601
fact	-1602
ource	-1603
urity	-1604
ball	-1605
arr	-1606
osed	-1607
▁wa	-1608
▁low	-1609
ges	-1610
▁cover	-1611
▁Ab	-1612
▁store	-1613
anies	-1614
lement	-1615
ference	-1616
ford	-1617
▁occ	-1618
▁games	-1619
▁means	-1620
AR	-1621
lege	-1622
▁Not	-1623
▁mind	-1624
▁offers	-1625
oring	-1626
▁Tra	-1627
▁yet	-1628
▁bra	-1629
▁Dr	-1630
▁came	-1631
▁five	-1632
▁percent	-1633
▁chall	-1634
▁comb	-1635
▁Min	-1636
▁invol	-1637
▁took	-1638
▁doesn	-1639
sel	-1640
▁lim	-1641
orld	-1642
▁fore	-1643
ilities	-1644
▁customers	-1645
▁*	-1646
▁features	-1647
bal	-1648
▁least	-1649
▁State	-1650
▁strong	-1651
▁step	-1652
▁price	-1653
ches	-1654
▁heart	-1655
▁God	-1656
▁Ke	-1657
urther	-1658
▁range	-1659
▁specific	-1660
▁main	-1661
▁More	-1662
most	-1663
▁require	-1664
▁close	-1665
▁School	-1666
▁once	-1667
▁key	-1668
▁pict	-1669
sw	-1670
err	-1671
▁upd	-1672
ler	-1673
ilt	-1674
ither	-1675
▁mean	-1676
▁Bo	-1677
▁ey	-1678
▁early	-1679
▁cra	-1680
▁Jan	-1681
▁Now	-1682
▁tool	-1683
▁stay	-1684
▁discuss	-1685
▁government	-1686
illed	-1687
aces	-1688
af	-1689
▁series	-1690
▁tem	-1691
ources	-1692
▁hig	-1693
▁priv	-1694
▁Bro	-1695
▁ste	-1696
▁technology	-1697
pro	-1698
▁install	-1699
cle	-1700
▁charact	-1701
▁Im	-1702
atural	-1703
▁typ	-1704
▁Ed	-1705
▁United	-1706
▁redu	-1707
▁beautiful	-1708
atic	-1709
▁By	-1710
▁ago	-1711
▁begin	-1712
aken	-1713
▁went	-1714
//	-1715
▁announ	-1716
org	-1717
▁thought	-1718
▁Pe	-1719
▁pick	-1720
▁told	-1721
▁hope	-1722
ancial	-1723
▁appear	-1724
isk	-1725
It	-1726
resent	-1727
▁anal	-1728
▁happen	-1729
anks	-1730
rew	-1731
▁Gr	-1732
▁Em	-1733
irm	-1734
▁break	-1735
▁wind	-1736
ille	-1737
▁questions	-1738
resh	-1739
OR	-1740
▁York	-1741
▁x	-1742
▁Qu	-1743
come	-1744
▁Pre	-1745
▁content	-1746
▁certain	-1747
▁Add	-1748
oll	-1749
▁everything	-1750
▁prep	-1751
ourn	-1752
://	-1753
hers	-1754
▁sn	-1755
ians	-1756
irt	-1757
gle	-1758
▁companies	-1759
▁field	-1760
▁travel	-1761
ony	-1762
▁Cal	-1763
▁enc	-1764
▁recom	-1765
▁single	-1766
▁known	-1767
▁added	-1768
▁favor	-1769
▁media	-1770
cell	-1771
▁--	-1772
▁building	-1773
arning	-1774
▁manag	-1775
▁Park	-1776
aps	-1777
▁search	-1778
▁environment	-1779
▁friend	-1780
▁actually	-1781
aur	-1782
▁address	-1783
ief	-1784
▁tot	-1785
▁ener	-1786
de	-1787
▁mess	-1788
▁study	-1789
eral	-1790
▁vol	-1791
▁press	-1792
▁tax	-1793
▁problem	-1794
play	-1795
isc	-1796
▁later	-1797
▁connect	-1798
ino	-1799
▁works	-1800
ests	-1801
▁Sm	-1802
▁girl	-1803
icy	-1804
▁improve	-1805
gest	-1806
acy	-1807
ibr	-1808
▁taking	-1809
ew	-1810
▁South	-1811
▁maint	-1812
▁ident	-1813
▁sound	-1814
ental	-1815
▁pub	-1816
lebr	-1817
ural	-1818
year	-1819
▁Su	-1820
ided	-1821
▁track	-1822
▁training	-1823
▁results	-1824
▁watch	-1825
ster	-1826
▁staff	-1827
▁card	-1828
abor	-1829
▁wond	-1830
▁North	-1831
▁face	-1832
▁professional	-1833
back	-1834
nes	-1835
ensive	-1836
▁Mc	-1837
ocu	-1838
▁Just	-1839
gs	-1840
ES	-1841
▁film	-1842
▁provides	-1843
wh	-1844
atest	-1845
yl	-1846
▁seen	-1847
▁While	-1848
▁issues	-1849
▁someone	-1850
▁Per	-1851
ama	-1852
▁unique	-1853
▁host	-1854
▁half	-1855
▁front	-1856
▁official	-1857
cer	-1858
▁Euro	-1859
fully	-1860
▁near	-1861
opy	-1862
▁econom	-1863
▁relations	-1864
▁web	-1865
▁sell	-1866
▁particular	-1867
▁National	-1868
▁County	-1869
▁everyone	-1870
▁miss	-1871
AL	-1872
▁port	-1873
▁dig	-1874
urch	-1875
▁due	-1876
▁Aust	-1877
▁Some	-1878
go	-1879
▁recommend	-1880
▁network	-1881
hod	-1882
▁cook	-1883
▁Center	-1884
▁Don	-1885
lex	-1886
▁cred	-1887
▁office	-1888
▁respons	-1889
ued	-1890
▁z	-1891
▁Inc	-1892
▁simple	-1893
▁Oct	-1894
▁Part	-1895
itted	-1896
▁age	-1897
▁ant	-1898
ctor	-1899
ibility	-1900
▁aud	-1901
▁management	-1902
ging	-1903
▁click	-1904
not	-1905
roll	-1906
▁oil	-1907
▁Pol	-1908
▁particip	-1909
▁Dep	-1910
time	-1911
asing	-1912
▁whole	-1913
pecially	-1914
▁mot	-1915
▁bar	-1916
obile	-1917
iod	-1918
▁Acc	-1919
▁Pres	-1920
▁performance	-1921
▁areas	-1922
▁Apr	-1923
▁mor	-1924
▁ess	-1925
pper	-1926
▁fall	-1927
▁author	-1928
cing	-1929
▁given	-1930
ply	-1931
imate	-1932
▁bed	-1933
▁World	-1934
icult	-1935
nding	-1936
▁above	-1937
▁reason	-1938
▁protect	-1939
ites	-1940
▁events	-1941
In	-1942
ators	-1943
aining	-1944
▁among	-1945
ables	-1946
▁eff	-1947
▁experienc	-1948
umb	-1949
ops	-1950
▁Will	-1951
ask	-1952
▁Sec	-1953
▁history	-1954
EN	-1955
▁select	-1956
▁Stud	-1957
omes	-1958
▁black	-1959
ogn	-1960
ED	-1961
▁assist	-1962
▁size	-1963
▁energy	-1964
▁foot	-1965
cy	-1966
ison	-1967
ili	-1968
▁High	-1969
▁details	-1970
ledge	-1971
▁htt	-1972
▁print	-1973
▁glo	-1974
▁Reg	-1975
▁believe	-1976
▁flo	-1977
▁sex	-1978
▁further	-1979
▁From	-1980
crib	-1981
▁amount	-1982
▁Post	-1983
▁six	-1984
▁log	-1985
idence	-1986
ety	-1987
ulation	-1988
▁includes	-1989
▁designed	-1990
▁prob	-1991
▁Friday	-1992
astic	-1993
▁pain	-1994
ands	-1995
vert	-1996
▁cult	-1997
ufact	-1998
▁repl	-1999
▁points	-2000
▁parent	-2001
▁mag	-2002
▁red	-2003
▁Day	-2004
▁property	-2005
AS	-2006
▁Ge	-2007
ruction	-2008
▁Bar	-2009
▁continue	-2010
▁soon	-2011
nov	-2012
urance	-2013
▁feature	-2014
▁value	-2015
▁Aug	-2016
▁et	-2017
▁Mr	-2018
▁Europe	-2019
▁anything	-2020
▁various	-2021
▁text	-2022
itch	-2023
▁coming	-2024
▁question	-2025
▁popular	-2026
▁latest	-2027
itional	-2028
▁according	-2029
aily	-2030
▁lov	-2031
▁living	-2032
rodu	-2033
▁forward	-2034
▁phys	-2035
▁type	-2036
my	-2037
▁fre	-2038
uation	-2039
▁March	-2040
▁phone	-2041
itc	-2042
ouch	-2043
▁consider	-2044
cript	-2045
▁pret	-2046
▁whether	-2047
aturday	-2048
IC	-2049
▁brand	-2050
IT	-2051
▁entire	-2052
▁idea	-2053
ze	-2054
though	-2055
▁claim	-2056
▁white	-2057
edd	-2058
aching	-2059
▁celebr	-2060
▁weeks	-2061
▁gra	-2062
▁dou	-2063
▁needed	-2064
▁Bu	-2065
▁diff	-2066
▁consum	-2067
▁potential	-2068
▁opportunity	-2069
▁deb	-2070
▁comput	-2071
▁El	-2072
▁color	-2073
elt	-2074
▁taken	-2075
▁Us	-2076
▁June	-2077
▁wide	-2078
▁required	-2079
▁receive	-2080
▁par	-2081
▁date	-2082
▁Sept	-2083
▁extra	-2084
selves	-2085
ung	-2086
▁Sund	-2087
itter	-2088
▁docu	-2089
new	-2090
▁third	-2091
▁example	-2092
AC	-2093
▁relationship	-2094
▁safe	-2095
ival	-2096
▁ensure	-2097
▁bad	-2098
▁sent	-2099
This	-2100
ises	-2101
▁ready	-2102
itor	-2103
▁inj	-2104
▁Off	-2105
▁West	-2106
▁,	-2107
▁comfort	-2108
ilar	-2109
amer	-2110
▁currently	-2111
▁meas	-2112
ees	-2113
▁financial	-2114
ires	-2115
▁common	-2116
▁almost	-2117
▁sugg	-2118
ffe	-2119
▁fire	-2120
▁ach	-2121
▁April	-2122
head	-2123
uary	-2124
val	-2125
▁ways	-2126
▁human	-2127
▁kids	-2128
▁Read	-2129
▁Art	-2130
▁period	-2131
▁pretty	-2132
▁quite	-2133
▁Jo	-2134
▁options	-2135
▁final	-2136
▁skin	-2137
▁natural	-2138
▁yourself	-2139
▁especially	-2140
▁veh	-2141
irc	-2142
▁road	-2143
▁style	-2144
▁trying	-2145
▁park	-2146
▁sho	-2147
▁box	-2148
▁Health	-2149
▁Cor	-2150
ring	-2151
▁items	-2152
▁paper	-2153
▁His	-2154
▁answ	-2155
used	-2156
▁provided	-2157
▁member	-2158
▁either	-2159
ese	-2160
ana	-2161
ively	-2162
....	-2163
▁Saturday	-2164
itting	-2165
▁engine	-2166
▁coll	-2167
onday	-2168
▁choose	-2169
▁self	-2170
▁hon	-2171
▁crit	-2172
▁held	-2173
▁throughout	-2174
▁happy	-2175
▁dam	-2176
▁fit	-2177
▁download	-2178
▁via	-2179
▁swe	-2180
▁attend	-2181
▁wanted	-2182
▁flow	-2183
▁clients	-2184
▁stra	-2185
ication	-2186
▁summer	-2187
▁Pa	-2188
▁recent	-2189
▁Fin	-2190
▁impact	-2191
▁Aut	-2192
▁users	-2193
ada	-2194
▁created	-2195
▁sales	-2196
▁Af	-2197
▁tit	-2198
icro	-2199
azing	-2200
▁July	-2201
▁blog	-2202
▁issue	-2203
▁previous	-2204
▁behind	-2205
▁takes	-2206
oogle	-2207
arter	-2208
▁recently	-2209
hel	-2210
▁TH	-2211
▁software	-2212
angu	-2213
▁Dav	-2214
gress	-2215
IS	-2216
▁init	-2217
do	-2218
cast	-2219
ams	-2220
ux	-2221
▁version	-2222
▁super	-2223
▁Get	-2224
ried	-2225
▁bott	-2226
▁Feb	-2227
▁seem	-2228
▁Up	-2229
▁couple	-2230
▁song	-2231
▁running	-2232
▁insp	-2233
verage	-2234
▁hol	-2235
ume	-2236
▁clear	-2237
ober	-2238
▁problems	-2239
▁collect	-2240
ades	-2241
apt	-2242
▁education	-2243
▁isn	-2244
▁method	-2245
▁received	-2246
oura	-2247
▁table	-2248
▁role	-2249
▁players	-2250
▁represent	-2251
▁reading	-2252
uge	-2253
▁Val	-2254
▁Direct	-2255
▁Int	-2256
eth	-2257
anced	-2258
itten	-2259
▁signific	-2260
atform	-2261
▁likely	-2262
eke	-2263
ole	-2264
earch	-2265
ification	-2266
▁Sw	-2267
par	-2268
▁shows	-2269
▁di	-2270
▁security	-2271
where	-2272
▁increase	-2273
▁accom	-2274
▁States	-2275
▁Mon	-2276
▁customer	-2277
▁favorite	-2278
▁stri	-2279
▁pan	-2280
▁party	-2281
reme	-2282
▁skills	-2283
▁action	-2284
▁regular	-2285
St	-2286
▁difficult	-2287
▁fast	-2288
▁simply	-2289
idge	-2290
OU	-2291
▁sle	-2292
▁else	-2293
▁Face	-2294
▁writing	-2295
▁ele	-2296
▁nice	-2297
aging	-2298
▁Sunday	-2299
oud	-2300
▁Monday	-2301
oid	-2302
▁position	-2303
overed	-2304
▁article	-2305
▁outside	-2306
▁original	-2307
▁Her	-2308
▁probably	-2309
▁cool	-2310
aving	-2311
icles	-2312
mit	-2313
▁cup	-2314
▁necess	-2315
▁inside	-2316
ID	-2317
▁fresh	-2318
istration	-2319
▁asked	-2320
▁wonder	-2321
▁goal	-2322
▁systems	-2323
▁manufact	-2324
.)	-2325
arth	-2326
aby	-2327
▁model	-2328
▁House	-2329
--	-2330
li	-2331
▁morning	-2332
▁ground	-2333
▁President	-2334
icated	-2335
▁application	-2336
▁leave	-2337
ham	-2338
eter	-2339
▁ful	-2340
▁learning	-2341
▁anim	-2342
uit	-2343
aker	-2344
▁Associ	-2345
▁risk	-2346
▁Act	-2347
▁Black	-2348
▁knowledge	-2349
▁located	-2350
based	-2351
▁contrib	-2352
▁UK	-2353
▁projects	-2354
▁release	-2355
▁lives	-2356
▁changes	-2357
▁tour	-2358
▁Are	-2359
▁Bus	-2360
▁however	-2361
ox	-2362
▁Free	-2363
▁treatment	-2364
▁stop	-2365
medi	-2366
face	-2367
right	-2368
▁Austral	-2369
▁exist	-2370
▁mix	-2371
▁recogn	-2372
▁additional	-2373
▁polit	-2374
adem	-2375
▁Red	-2376
▁activities	-2377
▁private	-2378
▁abs	-2379
▁sat	-2380
iple	-2381
▁career	-2382
▁board	-2383
name	-2384
▁medical	-2385
▁Work	-2386
▁total	-2387
▁cal	-2388
▁Mich	-2389
▁anyone	-2390
▁hit	-2391
▁etc	-2392
artment	-2393
▁fail	-2394
▁ple	-2395
▁TV	-2396
▁accept	-2397
urg	-2398
▁town	-2399
▁Soc	-2400
ague	-2401
▁base	-2402
arget	-2403
aign	-2404
amed	-2405
bor	-2406
OT	-2407
hib	-2408
▁mark	-2409
▁former	-2410
▁contract	-2411
▁matter	-2412
▁included	-2413
▁America	-2414
ounc	-2415
ming	-2416
▁mach	-2417
ules	-2418
ession	-2419
▁Sal	-2420
iol	-2421
▁stock	-2422
▁autom	-2423
▁match	-2424
▁significant	-2425
▁words	-2426
izing	-2427
▁hair	-2428
ipment	-2429
▁saf	-2430
ecut	-2431
▁Ser	-2432
▁meeting	-2433
wood	-2434
▁Of	-2435
▁October	-2436
▁September	-2437
▁books	-2438
▁growth	-2439
ovember	-2440
▁playing	-2441
▁Ac	-2442
▁January	-2443
aced	-2444
▁leaders	-2445
empt	-2446
▁ball	-2447
▁worth	-2448
mon	-2449
irth	-2450
▁round	-2451
▁drive	-2452
▁longer	-2453
▁hy	-2454
▁character	-2455
▁variety	-2456
ny	-2457
▁concern	-2458
▁News	-2459
▁First	-2460
▁practice	-2461
ester	-2462
▁production	-2463
che	-2464
▁Sk	-2465
▁function	-2466
▁Wed	-2467
rict	-2468
▁looks	-2469
▁squ	-2470
ground	-2471
▁exam	-2472
▁late	-2473
reg	-2474
▁San	-2475
ude	-2476
airs	-2477
▁lay	-2478
▁wall	-2479
▁Every	-2480
mercial	-2481
pm	-2482
iff	-2483
▁sun	-2484
▁defin	-2485
ursday	-2486
adu	-2487
▁determ	-2488
na	-2489
▁Ag	-2490
▁August	-2491
▁suggest	-2492
ci	-2493
▁Har	-2494
elcome	-2495
▁worked	-2496
▁fig	-2497
▁weeke	-2498
ville	-2499
▁associ	-2500
▁Google	-2501
uesday	-2502
imum	-2503
▁death	-2504
▁programs	-2505
▁chance	-2506
▁platform	-2507
▁cand	-2508
▁screen	-2509
▁international	-2510
▁Then	-2511
▁Let	-2512
iddle	-2513
ipping	-2514
cks	-2515
rect	-2516
▁deg	-2517
▁Dis	-2518
▁true	-2519
▁nothing	-2520
▁challeng	-2521
Wh	-2522
itchen	-2523
▁loss	-2524
▁general	-2525
▁clos	-2526
▁rather	-2527
▁plans	-2528
arden	-2529
▁Facebook	-2530
▁purchase	-2531
▁estab	-2532
erc	-2533
▁amazing	-2534
▁credit	-2535
▁subject	-2536
▁leading	-2537
▁Department	-2538
▁regard	-2539
▁stat	-2540
cember	-2541
▁allows	-2542
ouncil	-2543
▁seems	-2544
olution	-2545
eds	-2546
▁built	-2547
▁arri	-2548
▁police	-2549
mas	-2550
▁similar	-2551
▁Mus	-2552
▁Sim	-2553
▁student	-2554
▁usually	-2555
▁infl	-2556
▁Pat	-2557
▁rate	-2558
▁quickly	-2559
oke	-2560
▁Air	-2561
▁November	-2562
▁teac	-2563
▁Also	-2564
lin	-2565
▁Street	-2566
AM	-2567
▁draw	-2568
▁national	-2569
ashing	-2570
▁touch	-2571
ought	-2572
▁providing	-2573
▁International	-2574
▁comment	-2575
light	-2576
oph	-2577
▁excell	-2578
▁deep	-2579
▁apply	-2580
▁higher	-2581
nesday	-2582
iter	-2583
iber	-2584
▁choice	-2585
clus	-2586
▁photos	-2587
▁Group	-2588
str	-2589
gar	-2590
▁tast	-2591
ING	-2592
▁respect	-2593
▁collection	-2594
off	-2595
▁safety	-2596
▁Out	-2597
▁Cons	-2598
▁image	-2599
now	-2600
▁hands	-2601
▁marketing	-2602
▁prior	-2603
▁ideas	-2604
ondon	-2605
▁integr	-2606
▁moment	-2607
▁sil	-2608
▁movie	-2609
▁encoura	-2610
▁easily	-2611
▁decision	-2612
▁ut	-2613
example	-2614
▁Cour	-2615
▁location	-2616
▁cell	-2617
▁bal	-2618
▁inde	-2619
▁dom	-2620
hern	-2621
▁rad	-2622
▁prevent	-2623
▁af	-2624
▁court	-2625
▁bud	-2626
▁Wind	-2627
▁op	-2628
▁released	-2629
▁decided	-2630
▁mass	-2631
▁commit	-2632
▁ill	-2633
▁Thursday	-2634
ached	-2635
▁digital	-2636
▁Home	-2637
put	-2638
▁Tuesday	-2639
ournal	-2640
▁emb	-2641
ha	-2642
▁reported	-2643
▁Well	-2644
▁benefits	-2645
▁Calif	-2646
▁file	-2647
ivery	-2648
▁exact	-2649
▁seek	-2650
▁December	-2651
▁wood	-2652
▁introdu	-2653
amb	-2654
▁La	-2655
▁cannot	-2656
ma	-2657
eal	-2658
▁campaign	-2659
▁lost	-2660
reng	-2661
▁partners	-2662
▁display	-2663
▁Most	-2664
▁daily	-2665
▁parents	-2666
▁attack	-2667
▁ord	-2668
▁Business	-2669
ishing	-2670
idents	-2671
hood	-2672
▁involved	-2673
▁agree	-2674
▁announced	-2675
▁cause	-2676
▁effic	-2677
▁sche	-2678
rown	-2679
▁sens	-2680
ructure	-2681
▁Gl	-2682
unities	-2683
▁drink	-2684
▁piece	-2685
▁center	-2686
▁Ang	-2687
ray	-2688
ospital	-2689
▁neg	-2690
atory	-2691
▁user	-2692
▁dest	-2693
OM	-2694
▁related	-2695
▁saw	-2696
▁Any	-2697
▁affect	-2698
▁expected	-2699
▁vict	-2700
ipe	-2701
▁Design	-2702
▁ability	-2703
▁investig	-2704
▁club	-2705
ederal	-2706
▁patients	-2707
▁ep	-2708
▁Wednesday	-2709
▁London	-2710
EO	-2711
▁Click	-2712
ruary	-2713
avy	-2714
▁rout	-2715
▁send	-2716
illing	-2717
▁ri	-2718
▁save	-2719
ilies	-2720
▁modern	-2721
▁tick	-2722
▁norm	-2723
just	-2724
ET	-2725
▁mobile	-2726
▁weekend	-2727
▁circ	-2728
▁standard	-2729
sp	-2730
▁langu	-2731
▁Prof	-2732
▁expert	-2733
▁option	-2734
ett	-2735
▁goes	-2736
▁boy	-2737
▁ded	-2738
▁immedi	-2739
▁green	-2740
▁enter	-2741
▁restaur	-2742
▁Over	-2743
▁computer	-2744
▁fight	-2745
▁War	-2746
▁aw	-2747
▁woman	-2748
▁global	-2749
istic	-2750
▁bag	-2751
▁pers	-2752
board	-2753
lim	-2754
▁target	-2755
▁mother	-2756
ivity	-2757
▁iP	-2758
▁emer	-2759
▁sym	-2760
uel	-2761
▁College	-2762
like	-2763
iring	-2764
▁innov	-2765
▁serious	-2766
▁parts	-2767
▁helps	-2768
▁huge	-2769
▁costs	-2770
▁PM	-2771
▁English	-2772
key	-2773
asons	-2774
aves	-2775
oday	-2776
▁gen	-2777
▁Check	-2778
zz	-2779
ellow	-2780
▁surpr	-2781
▁weight	-2782
▁http	-2783
▁earn	-2784
enge	-2785
uk	-2786
erve	-2787
ara	-2788
▁bank	-2789
▁rights	-2790
▁ones	-2791
ornia	-2792
▁legal	-2793
▁code	-2794
▁solutions	-2795
▁request	-2796
▁equipment	-2797
▁Sen	-2798
▁myself	-2799
▁gives	-2800
▁Afric	-2801
▁tools	-2802
▁warm	-2803
▁arch	-2804
▁Other	-2805
▁insurance	-2806
raft	-2807
▁Del	-2808
cription	-2809
band	-2810
ram	-2811
edding	-2812
▁Hol	-2813
▁feed	-2814
EC	-2815
▁approach	-2816
ault	-2817
▁conditions	-2818
▁played	-2819
▁giving	-2820
▁Techn	-2821
▁admin	-2822
pri	-2823
▁dress	-2824
▁attention	-2825
▁Book	-2826
▁Ob	-2827
attle	-2828
OS	-2829
▁roll	-2830
▁levels	-2831
▁sett	-2832
▁sus	-2833
▁resources	-2834
▁Par	-2835
▁award	-2836
unt	-2837
▁Brit	-2838
▁prim	-2839
hold	-2840
▁deliver	-2841
ension	-2842
▁trust	-2843
iction	-2844
atives	-2845
▁note	-2846
▁Service	-2847
▁sold	-2848
▁qual	-2849
aged	-2850
bert	-2851
▁policy	-2852
▁remember	-2853
▁interested	-2854
▁February	-2855
erous	-2856
▁solution	-2857
▁Play	-2858
▁door	-2859
▁Trans	-2860
▁businesses	-2861
▁capt	-2862
▁gets	-2863
▁planning	-2864
▁subs	-2865
▁highly	-2866
▁lab	-2867
aught	-2868
▁object	-2869
iding	-2870
pose	-2871
▁starting	-2872
▁opp	-2873
▁cases	-2874
ysis	-2875
partment	-2876
▁Christmas	-2877
▁Law	-2878
akers	-2879
▁lower	-2880
▁upon	-2881
▁vac	-2882
▁instead	-2883
▁write	-2884
▁hear	-2885
▁organization	-2886
▁materials	-2887
vey	-2888
▁express	-2889
▁themselves	-2890
EL	-2891
▁published	-2892
irit	-2893
▁California	-2894
ening	-2895
▁president	-2896
▁source	-2897
ica	-2898
▁reach	-2899
▁plant	-2900
▁Gener	-2901
▁condition	-2902
ples	-2903
mission	-2904
ashion	-2905
orge	-2906
urt	-2907
▁sense	-2908
▁fine	-2909
▁streng	-2910
apan	-2911
▁effective	-2912
www	-2913
▁dry	-2914
izes	-2915
ibrary	-2916
▁firm	-2917
▁sale	-2918
bum	-2919
▁mid	-2920
▁written	-2921
▁photo	-2922
▁types	-2923
▁average	-2924
▁dise	-2925
AP	-2926
rup	-2927
▁interview	-2928
urb	-2929
rom	-2930
▁consult	-2931
▁Go	-2932
▁countries	-2933
▁AM	-2934
▁Met	-2935
▁positive	-2936
ule	-2937
▁multiple	-2938
▁remov	-2939
wide	-2940
▁Rem	-2941
▁Services	-2942
iles	-2943
gu	-2944
ida	-2945
ael	-2946
▁lif	-2947
arant	-2948
▁Great	-2949
▁join	-2950
mm	-2951
▁Je	-2952
enty	-2953
unk	-2954
▁slow	-2955
▁India	-2956
▁Spe	-2957
▁trip	-2958
ube	-2959
▁describ	-2960
aches	-2961
ato	-2962
▁began	-2963
ength	-2964
▁imm	-2965
▁interesting	-2966
▁Mod	-2967
▁images	-2968
▁answer	-2969
▁prem	-2970
▁player	-2971
▁cat	-2972
add	-2973
▁viol	-2974
▁opportunities	-2975
urer	-2976
▁message	-2977
▁employees	-2978
▁Cle	-2979
▁dream	-2980
▁healthy	-2981
ography	-2982
▁heat	-2983
ager	-2984
▁Why	-2985
▁Sch	-2986
▁sites	-2987
▁Thanks	-2988
ration	-2989
▁camer	-2990
▁directly	-2991
▁hour	-2992
▁item	-2993
rel	-2994
▁document	-2995
rought	-2996
▁fans	-2997
▁According	-2998
bit	-2999
orage	-3000
▁necessary	-3001
press	-3002
itute	-3003
▁achieve	-3004
▁picture	-3005
IL	-3006
▁David	-3007
▁essential	-3008
▁copy	-3009
▁Hot	-3010
▁completely	-3011
▁Program	-3012
▁Av	-3013
▁Sub	-3014
▁gift	-3015
▁lic	-3016
▁Once	-3017
▁tele	-3018
▁band	-3019
▁families	-3020
▁stories	-3021
▁prices	-3022
sy	-3023
▁groups	-3024
duc	-3025
▁Year	-3026
olf	-3027
▁commercial	-3028
▁Phot	-3029
▁King	-3030
arlier	-3031
▁Rec	-3032
▁Whe	-3033
▁Found	-3034
▁Since	-3035
▁reve	-3036
elling	-3037
▁offe	-3038
▁excellent	-3039
▁goals	-3040
ocol	-3041
▁div	-3042
▁East	-3043
▁cert	-3044
▁promot	-3045
▁Cr	-3046
▁Even	-3047
▁dru	-3048
▁pull	-3049
▁successful	-3050
▁Market	-3051
▁eye	-3052
▁fully	-3053
▁www	-3054
▁growing	-3055
ares	-3056
itely	-3057
▁Mag	-3058
▁hor	-3059
▁led	-3060
▁itself	-3061
itation	-3062
▁Many	-3063
▁Loc	-3064
▁creating	-3065
▁fix	-3066
▁stru	-3067
▁except	-3068
iant	-3069
▁adult	-3070
▁traditional	-3071
▁comments	-3072
▁gold	-3073
▁White	-3074
▁paint	-3075
▁separ	-3076
oul	-3077
erved	-3078
▁Good	-3079
▁fab	-3080
▁aim	-3081
coming	-3082
▁neigh	-3083
▁broad	-3084
▁Germ	-3085
▁Russ	-3086
mb	-3087
ancy	-3088
iable	-3089
▁Green	-3090
▁birth	-3091
onse	-3092
▁propos	-3093
omen	-3094
▁fair	-3095
▁cy	-3096
▁device	-3097
ooth	-3098
BC	-3099
▁reports	-3100
▁gar	-3101
uses	-3102
anch	-3103
▁Best	-3104
▁block	-3105
▁mount	-3106
▁kitchen	-3107
▁terms	-3108
▁teams	-3109
▁cross	-3110
oms	-3111
udd	-3112
tee	-3113
▁stuff	-3114
▁Spr	-3115
▁extreme	-3116
▁dark	-3117
ffee	-3118
▁vehicle	-3119
▁Last	-3120
▁Jack	-3121
▁attempt	-3122
▁Each	-3123
urning	-3124
▁glass	-3125
▁applications	-3126
▁wasn	-3127
ores	-3128
venue	-3129
▁hop	-3130
▁saying	-3131
hest	-3132
▁floor	-3133
▁wrong	-3134
ey	-3135
▁baby	-3136
imately	-3137
▁Tex	-3138
▁dead	-3139
ties	-3140
uth	-3141
▁Bra	-3142
▁China	-3143
▁thinking	-3144
▁Port	-3145
▁rev	-3146
▁depend	-3147
▁Web	-3148
▁shoot	-3149
▁Ty	-3150
inner	-3151
ipped	-3152
▁bi	-3153
▁blood	-3154
ecutive	-3155
ashington	-3156
oming	-3157
ald	-3158
OL	-3159
▁Develop	-3160
▁Twitter	-3161
istry	-3162
▁mention	-3163
▁See	-3164
”.	-3165
TM	-3166
▁gave	-3167
▁Japan	-3168
▁smart	-3169
aughter	-3170
▁System	-3171
▁Hall	-3172
▁wait	-3173
inary	-3174
▁implement	-3175
pite	-3176
▁profession	-3177
▁obs	-3178
rote	-3179
▁speed	-3180
▁aware	-3181
▁serve	-3182
▁attract	-3183
▁spend	-3184
▁director	-3185
▁organiz	-3186
▁Bel	-3187
▁offering	-3188
iced	-3189
▁section	-3190
▁sen	-3191
▁budget	-3192
▁Association	-3193
▁became	-3194
▁farm	-3195
ological	-3196
aries	-3197
▁impress	-3198
▁distrib	-3199
Ch	-3200
rows	-3201
▁Office	-3202
▁ge	-3203
▁Mor	-3204
▁pictures	-3205
▁nation	-3206
▁college	-3207
▁wish	-3208
AD	-3209
▁Sol	-3210
▁Pri	-3211
▁correct	-3212
overn	-3213
field	-3214
▁Make	-3215
▁suit	-3216
▁IN	-3217
▁effort	-3218
▁Mem	-3219
▁developed	-3220
▁moving	-3221
▁places	-3222
▁tal	-3223
▁coun	-3224
▁conduct	-3225
▁carry	-3226
▁dog	-3227
▁limited	-3228
▁individuals	-3229
ils	-3230
▁advice	-3231
▁dro	-3232
▁rent	-3233
vest	-3234
▁son	-3235
pre	-3236
▁avoid	-3237
▁spent	-3238
yond	-3239
zy	-3240
ications	-3241
▁complex	-3242
▁defe	-3243
▁Paul	-3244
▁bath	-3245
lock	-3246
▁title	-3247
▁situation	-3248
▁sleep	-3249
▁Down	-3250
▁Road	-3251
idered	-3252
▁requirements	-3253
▁album	-3254
▁progress	-3255
ceed	-3256
▁delivery	-3257
▁Today	-3258
▁jud	-3259
▁cas	-3260
▁Educ	-3261
▁Washington	-3262
▁Vis	-3263
▁Inter	-3264
rench	-3265
▁construction	-3266
▁vot	-3267
riend	-3268
▁enh	-3269
▁Public	-3270
ibly	-3271
▁About	-3272
house	-3273
haps	-3274
▁ble	-3275
word	-3276
▁Canada	-3277
▁advant	-3278
▁wants	-3279
▁Top	-3280
▁statement	-3281
▁feet	-3282
▁Use	-3283
▁schools	-3284
▁Gold	-3285
▁war	-3286
useum	-3287
down	-3288
▁race	-3289
▁heard	-3290
▁convers	-3291
▁eat	-3292
▁Find	-3293
US	-3294
▁sometimes	-3295
▁sweet	-3296
▁Director	-3297
▁stress	-3298
▁nut	-3299
▁AN	-3300
▁billion	-3301
reci	-3302
▁Lear	-3303
▁quarter	-3304
▁physical	-3305
▁felt	-3306
ancing	-3307
▁hous	-3308
▁Indian	-3309
▁hotel	-3310
PS	-3311
▁Mac	-3312
▁towards	-3313
▁consist	-3314
itary	-3315
▁stage	-3316
▁annual	-3317
▁spot	-3318
▁shop	-3319
▁strateg	-3320
▁shot	-3321
▁Flor	-3322
ports	-3323
▁wonderful	-3324
porate	-3325
▁Open	-3326
▁loved	-3327
▁region	-3328
▁ing	-3329
▁path	-3330
▁Dem	-3331
▁feeling	-3332
▁owners	-3333
▁finish	-3334
▁ver	-3335
▁Pal	-3336
▁THE	-3337
▁aff	-3338
unte	-3339
▁mat	-3340
ari	-3341
▁eyes	-3342
▁pattern	-3343
▁Council	-3344
isions	-3345
▁finally	-3346
▁lik	-3347
▁ten	-3348
ctions	-3349
ION	-3350
▁language	-3351
▁brought	-3352
▁wife	-3353
▁Care	-3354
▁pet	-3355
▁Texas	-3356
▁interact	-3357
▁partner	-3358
▁sports	-3359
▁straight	-3360
▁inform	-3361
rast	-3362
▁Dan	-3363
▁nature	-3364
ads	-3365
▁investment	-3366
roid	-3367
▁Club	-3368
▁respond	-3369
▁concept	-3370
▁nearly	-3371
dule	-3372
owl	-3373
▁Hel	-3374
▁helping	-3375
▁overall	-3376
▁Class	-3377
▁exerc	-3378
▁star	-3379
▁Bre	-3380
▁categ	-3381
▁weather	-3382
▁ult	-3383
▁Apple	-3384
▁max	-3385
▁guide	-3386
▁tried	-3387
▁blue	-3388
▁William	-3389
end	-3390
▁temper	-3391
estival	-3392
▁collabor	-3393
▁pow	-3394
▁largest	-3395
▁Court	-3396
".	-3397
ened	-3398
▁demand	-3399
▁independ	-3400
▁charge	-3401
▁client	-3402
hips	-3403
▁Board	-3404
As	-3405
▁rock	-3406
▁Time	-3407
itect	-3408
ourney	-3409
▁wear	-3410
change	-3411
▁Oh	-3412
▁pred	-3413
ament	-3414
▁advert	-3415
He	-3416
▁appoint	-3417
▁definitely	-3418
mitted	-3419
▁wrote	-3420
▁candid	-3421
▁activity	-3422
▁gas	-3423
▁Ir	-3424
rences	-3425
▁seven	-3426
▁Windows	-3427
▁cold	-3428
▁Ann	-3429
rig	-3430
aly	-3431
ago	-3432
▁benefit	-3433
▁Internet	-3434
▁offered	-3435
inger	-3436
roud	-3437
asc	-3438
▁Australia	-3439
yd	-3440
▁acqu	-3441
▁influ	-3442
▁response	-3443
▁turned	-3444
wise	-3445
▁Ant	-3446
▁miles	-3447
▁double	-3448
▁Review	-3449
▁pieces	-3450
▁uses	-3451
last	-3452
▁Tom	-3453
ounds	-3454
▁earlier	-3455
▁Fam	-3456
▁internet	-3457
▁devices	-3458
▁thous	-3459
uted	-3460
▁beginning	-3461
ned	-3462
▁considered	-3463
▁ahead	-3464
lies	-3465
▁altern	-3466
▁appreci	-3467
ails	-3468
▁grand	-3469
▁reduce	-3470
▁exactly	-3471
▁Adv	-3472
▁histor	-3473
▁prec	-3474
▁View	-3475
bon	-3476
▁Research	-3477
▁James	-3478
▁wedding	-3479
▁active	-3480
▁homes	-3481
▁entertain	-3482
▁imag	-3483
arc	-3484
ategy	-3485
▁Michael	-3486
▁paid	-3487
▁doll	-3488
ustain	-3489
▁transport	-3490
▁difference	-3491
▁belie	-3492
▁Thank	-3493
icks	-3494
olute	-3495
▁political	-3496
▁regul	-3497
▁IT	-3498
▁supply	-3499
▁served	-3500
▁cho	-3501
▁challenge	-3502
more	-3503
▁surround	-3504
ampions	-3505
▁Micro	-3506
▁Rich	-3507
▁finished	-3508
▁Have	-3509
OV	-3510
▁Big	-3511
icate	-3512
umn	-3513
ading	-3514
▁cash	-3515
You	-3516
▁Rel	-3517
▁Look	-3518
▁creative	-3519
agn	-3520
cause	-3521
▁eight	-3522
▁understanding	-3523
ston	-3524
estern	-3525
▁replace	-3526
▁retail	-3527
▁Govern	-3528
icip	-3529
▁states	-3530
LE	-3531
ying	-3532
:||	-3533
▁Cur	-3534
▁rates	-3535
▁Mark	-3536
orrow	-3537
▁Char	-3538
mod	-3539
▁culture	-3540
antly	-3541
ky	-3542
vin	-3543
oly	-3544
▁European	-3545
▁Super	-3546
▁lots	-3547
▁guarant	-3548
▁experienced	-3549
▁easier	-3550
▁afford	-3551
▁Call	-3552
▁ST	-3553
box	-3554
▁pages	-3555
▁Life	-3556
▁hus	-3557
dd	-3558
place	-3559
▁bottom	-3560
▁expand	-3561
▁truly	-3562
iny	-3563
sec	-3564
▁pressure	-3565
▁father	-3566
▁maybe	-3567
▁flav	-3568
▁economic	-3569
hens	-3570
ales	-3571
▁thank	-3572
▁reflect	-3573
inated	-3574
▁machine	-3575
ses	-3576
▁Company	-3577
error	-3578
▁analysis	-3579
rial	-3580
amic	-3581
icious	-3582
▁fat	-3583
▁IS	-3584
▁emot	-3585
▁immediately	-3586
▁named	-3587
alt	-3588
aled	-3589
▁gradu	-3590
▁numbers	-3591
het	-3592
▁tom	-3593
sych	-3594
▁Child	-3595
▁demon	-3596
▁Det	-3597
▁Angel	-3598
▁girls	-3599
rey	-3600
▁prot	-3601
▁comfortable	-3602
▁exhib	-3603
IP	-3604
erry	-3605
pa	-3606
▁assess	-3607
▁posted	-3608
▁satis	-3609
nown	-3610
▁degree	-3611
chan	-3612
▁tips	-3613
▁helped	-3614
▁damage	-3615
ivil	-3616
▁Ev	-3617
▁opening	-3618
▁dating	-3619
▁Management	-3620
▁garden	-3621
▁videos	-3622
▁Bank	-3623
▁wild	-3624
▁obt	-3625
▁contain	-3626
▁PC	-3627
ronic	-3628
care	-3629
▁storage	-3630
▁Ret	-3631
▁Bay	-3632
▁speak	-3633
▁behav	-3634
▁subst	-3635
phone	-3636
▁remain	-3637
force	-3638
anging	-3639
▁Plan	-3640
▁trade	-3641
▁launch	-3642
rem	-3643
undred	-3644
▁reviews	-3645
▁Ins	-3646
▁completed	-3647
▁II	-3648
ico	-3649
▁pool	-3650
▁Sun	-3651
amm	-3652
▁Island	-3653
▁beyond	-3654
▁lack	-3655
▁disease	-3656
asy	-3657
▁Sing	-3658
▁lock	-3659
set	-3660
▁Rock	-3661
▁threat	-3662
▁purpose	-3663
If	-3664
tion	-3665
▁Water	-3666
order	-3667
orial	-3668
▁cards	-3669
▁Contact	-3670
ado	-3671
▁Mart	-3672
▁adjust	-3673
dom	-3674
que	-3675
▁ter	-3676
▁spread	-3677
▁existing	-3678
▁fashion	-3679
▁accur	-3680
arily	-3681
▁decor	-3682
▁knew	-3683
▁fant	-3684
▁Love	-3685
▁Jes	-3686
▁highest	-3687
Re	-3688
lied	-3689
▁cancer	-3690
▁Florida	-3691
▁plus	-3692
OW	-3693
▁craft	-3694
soft	-3695
▁jobs	-3696
▁Although	-3697
met	-3698
▁conference	-3699
body	-3700
▁Rob	-3701
▁Win	-3702
▁responsible	-3703
▁increasing	-3704
▁During	-3705
▁Sur	-3706
▁allowed	-3707
aling	-3708
▁train	-3709
▁setting	-3710
▁excited	-3711
atever	-3712
rapy	-3713
▁prefer	-3714
▁driving	-3715
▁camera	-3716
▁proud	-3717
▁Sa	-3718
▁increased	-3719
door	-3720
▁sty	-3721
imal	-3722
▁welcome	-3723
▁himself	-3724
▁lines	-3725
▁initial	-3726
▁appropri	-3727
▁middle	-3728
▁Dec	-3729
▁proced	-3730
ona	-3731
aith	-3732
ences	-3733
▁fem	-3734
illa	-3735
▁Church	-3736
▁Sum	-3737
▁certainly	-3738
▁General	-3739
▁passion	-3740
▁furn	-3741
▁frame	-3742
▁coffee	-3743
cel	-3744
▁strugg	-3745
▁holiday	-3746
▁journey	-3747
▁Product	-3748
iling	-3749
▁files	-3750
▁Community	-3751
▁effects	-3752
▁Camp	-3753
▁estate	-3754
▁er	-3755
za	-3756
fl	-3757
▁husband	-3758
▁thanks	-3759
▁Back	-3760
aming	-3761
▁frequ	-3762
▁cast	-3763
▁steps	-3764
▁ingred	-3765
▁button	-3766
▁Republic	-3767
▁update	-3768
▁length	-3769
▁pen	-3770
▁People	-3771
▁Custom	-3772
▁born	-3773
ologies	-3774
▁normal	-3775
istics	-3776
▁efforts	-3777
▁Education	-3778
▁selection	-3779
▁changed	-3780
▁Two	-3781
ously	-3782
▁batter	-3783
▁Mary	-3784
▁Cong	-3785
▁secure	-3786
net	-3787
▁mission	-3788
vant	-3789
▁cru	-3790
▁spirit	-3791
anta	-3792
▁dedicated	-3793
▁bill	-3794
▁owner	-3795
▁clin	-3796
▁relax	-3797
▁surv	-3798
▁shopping	-3799
lying	-3800
▁looked	-3801
ken	-3802
icken	-3803
▁incred	-3804
▁stream	-3805
▁occas	-3806
ovel	-3807
▁moved	-3808
▁Show	-3809
ady	-3810
▁mis	-3811
▁links	-3812
omb	-3813
▁Cap	-3814
nection	-3815
▁science	-3816
ij	-3817
EM	-3818
▁aspect	-3819
▁protection	-3820
oma	-3821
):	-3822
▁haven	-3823
fit	-3824
▁wine	-3825
▁powerful	-3826
▁French	-3827
othing	-3828
▁extend	-3829
▁demonstr	-3830
▁evening	-3831
▁meaning	-3832
▁instruct	-3833
▁Take	-3834
oos	-3835
▁Like	-3836
▁background	-3837
ipp	-3838
▁occur	-3839
▁talking	-3840
▁produce	-3841
▁patient	-3842
IV	-3843
▁particularly	-3844
nded	-3845
enance	-3846
▁USA	-3847
▁aren	-3848
porary	-3849
▁guys	-3850
▁Sil	-3851
reed	-3852
friend	-3853
▁Power	-3854
▁measure	-3855
▁opin	-3856
▁basic	-3857
▁challenges	-3858
▁alone	-3859
ota	-3860
▁Under	-3861
▁Online	-3862
▁fan	-3863
DA	-3864
▁cream	-3865
▁payment	-3866
ocr	-3867
▁biggest	-3868
▁transfer	-3869
▁rules	-3870
▁Gra	-3871
▁session	-3872
itiz	-3873
CC	-3874
▁doub	-3875
▁shared	-3876
▁fill	-3877
leg	-3878
▁spring	-3879
▁fra	-3880
▁winter	-3881
▁sort	-3882
▁Project	-3883
range	-3884
▁whose	-3885
▁runs	-3886
▁letter	-3887
▁basis	-3888
▁couldn	-3889
IM	-3890
▁coach	-3891
▁Special	-3892
▁Information	-3893
▁federal	-3894
annel	-3895
azine	-3896
▁bur	-3897
▁schedule	-3898
▁liter	-3899
free	-3900
▁organizations	-3901
▁Because	-3902
▁Pet	-3903
▁manager	-3904
ios	-3905
▁leader	-3906
istrict	-3907
▁Phil	-3908
see	-3909
▁Who	-3910
▁electric	-3911
icing	-3912
▁drop	-3913
▁strength	-3914
▁models	-3915
acity	-3916
▁Music	-3917
▁artist	-3918
uing	-3919
▁church	-3920
▁peace	-3921
isl	-3922
▁reasons	-3923
uled	-3924
▁Food	-3925
▁egg	-3926
esome	-3927
iques	-3928
▁Lake	-3929
▁slight	-3930
▁capital	-3931
▁communities	-3932
▁absolute	-3933
▁sugar	-3934
▁volunte	-3935
▁extremely	-3936
▁Star	-3937
▁adding	-3938
iture	-3939
▁competition	-3940
▁exclus	-3941
▁instit	-3942
▁guests	-3943
▁views	-3944
▁onto	-3945
▁unit	-3946
▁mer	-3947
▁stick	-3948
▁British	-3949
▁shown	-3950
▁regarding	-3951
istered	-3952
▁Follow	-3953
vision	-3954
iation	-3955
▁Ve	-3956
▁Sam	-3957
▁residents	-3958
rief	-3959
▁Thom	-3960
gency	-3961
▁Profess	-3962
umber	-3963
▁conven	-3964
▁voice	-3965
▁hundred	-3966
▁Miss	-3967
▁Enter	-3968
hone	-3969
azon	-3970
la	-3971
▁seeing	-3972
▁taste	-3973
▁chem	-3974
▁River	-3975
▁strategy	-3976
▁ideal	-3977
▁Mil	-3978
apter	-3979
▁scient	-3980
▁Yes	-3981
▁followed	-3982
▁AP	-3983
▁Blue	-3984
▁Dri	-3985
ustr	-3986
▁daughter	-3987
▁Real	-3988
oyal	-3989
eria	-3990
▁colors	-3991
▁Institute	-3992
▁heavy	-3993
▁trou	-3994
▁compon	-3995
▁sched	-3996
▁cry	-3997
▁Att	-3998
osing	-3999
▁brother	-4000
▁gone	-4001
▁advantage	-4002
imb	-4003
▁notice	-4004
rian	-4005
▁Lou	-4006
▁guid	-4007
▁manage	-4008
esterday	-4009
oman	-4010
▁score	-4011
▁Matt	-4012
▁virt	-4013
▁characters	-4014
standing	-4015
ags	-4016
▁Fore	-4017
▁Fire	-4018
▁Police	-4019
iverse	-4020
▁traffic	-4021
asp	-4022
▁window	-4023
▁surface	-4024
▁ton	-4025
term	-4026
ocolate	-4027
▁Mount	-4028
▁experiences	-4029
▁Pay	-4030
▁smooth	-4031
ette	-4032
▁Mal	-4033
▁happened	-4034
▁reb	-4035
▁Ben	-4036
fast	-4037
▁graph	-4038
▁hom	-4039
▁Vol	-4040
▁names	-4041
▁identify	-4042
encies	-4043
▁shipping	-4044
▁standards	-4045
▁pair	-4046
▁senior	-4047
Sh	-4048
ech	-4049
▁Wood	-4050
acing	-4051
icine	-4052
gen	-4053
▁talent	-4054
mark	-4055
▁u	-4056
itude	-4057
▁District	-4058
▁professionals	-4059
BS	-4060
▁hospital	-4061
▁List	-4062
raw	-4063
uce	-4064
▁initi	-4065
▁breat	-4066
▁although	-4067
▁classic	-4068
▁workers	-4069
▁experts	-4070
ula	-4071
ixt	-4072
▁luck	-4073
TS	-4074
gn	-4075
▁Step	-4076
▁Hist	-4077
▁audience	-4078
▁covered	-4079
▁Est	-4080
▁laws	-4081
ero	-4082
▁Mot	-4083
▁Sign	-4084
▁passed	-4085
▁waiting	-4086
▁academ	-4087
▁guy	-4088
▁dang	-4089
rooms	-4090
▁beauty	-4091
▁fear	-4092
▁approx	-4093
▁continues	-4094
▁Development	-4095
▁finding	-4096
▁snow	-4097
▁Team	-4098
▁flex	-4099
▁efficient	-4100
▁master	-4101
orney	-4102
▁mail	-4103
▁associated	-4104
▁exciting	-4105
▁Elect	-4106
▁eval	-4107
▁Exper	-4108
inese	-4109
▁compared	-4110
inate	-4111
ga	-4112
▁larger	-4113
sequ	-4114
▁Chic	-4115
▁laun	-4116
▁critical	-4117
ss	-4118
▁cars	-4119
▁rob	-4120
▁cab	-4121
▁Color	-4122
▁technical	-4123
▁Family	-4124
▁trail	-4125
▁ice	-4126
UR	-4127
icon	-4128
▁shape	-4129
▁district	-4130
▁beg	-4131
▁keeping	-4132
▁TO	-4133
▁remind	-4134
▁solid	-4135
▁den	-4136
osh	-4137
▁Foundation	-4138
▁England	-4139
▁boo	-4140
▁Science	-4141
▁facilities	-4142
rees	-4143
▁wat	-4144
▁restaurant	-4145
▁calls	-4146
▁scene	-4147
▁maintain	-4148
▁greater	-4149
▁Engine	-4150
▁PR	-4151
▁sustain	-4152
▁sy	-4153
▁officials	-4154
mail	-4155
▁Bet	-4156
▁Alex	-4157
▁Jesus	-4158
▁Sl	-4159
▁posts	-4160
▁station	-4161
▁Str	-4162
▁friendly	-4163
▁epis	-4164
▁driver	-4165
▁sand	-4166
▁recipe	-4167
▁listed	-4168
▁bul	-4169
▁plenty	-4170
odes	-4171
▁Glo	-4172
▁fish	-4173
▁forget	-4174
▁Vir	-4175
▁older	-4176
cul	-4177
illage	-4178
▁rich	-4179
▁Start	-4180
▁continued	-4181
▁football	-4182
incip	-4183
▁developing	-4184
▁package	-4185
itors	-4186
log	-4187
▁established	-4188
iller	-4189
▁Hum	-4190
yer	-4191
▁useful	-4192
▁Brown	-4193
rowd	-4194
▁income	-4195
▁minute	-4196
▁studies	-4197
well	-4198
▁advent	-4199
▁truck	-4200
▁announce	-4201
oop	-4202
▁learned	-4203
ervation	-4204
atically	-4205
▁Press	-4206
▁tim	-4207
▁disapp	-4208
▁produced	-4209
win	-4210
▁motor	-4211
tra	-4212
▁League	-4213
▁rooms	-4214
unately	-4215
using	-4216
▁closed	-4217
▁handle	-4218
▁beat	-4219
▁appropriate	-4220
▁Whether	-4221
▁classes	-4222
unning	-4223
▁origin	-4224
ander	-4225
▁military	-4226
▁Central	-4227
▁artists	-4228
▁explore	-4229
▁died	-4230
▁sup	-4231
gal	-4232
▁Offic	-4233
▁Commission	-4234
CA	-4235
▁placed	-4236
▁economy	-4237
▁kept	-4238
night	-4239
▁thousands	-4240
▁knows	-4241
▁Franc	-4242
▁connection	-4243
▁remove	-4244
▁winning	-4245
▁Smith	-4246
▁Social	-4247
▁pros	-4248
▁primary	-4249
▁evidence	-4250
▁CEO	-4251
▁force	-4252
▁adop	-4253
▁tree	-4254
▁Media	-4255
▁repair	-4256
▁salt	-4257
▁Build	-4258
▁bright	-4259
aded	-4260
▁Download	-4261
▁novel	-4262
▁testing	-4263
▁util	-4264
▁operations	-4265
iment	-4266
IG	-4267
▁Christian	-4268
rael	-4269
▁status	-4270
▁opened	-4271
▁figure	-4272
▁requires	-4273
▁street	-4274
BA	-4275
▁discount	-4276
▁fol	-4277
▁Another	-4278
There	-4279
▁gun	-4280
▁communication	-4281
ipes	-4282
atab	-4283
▁presented	-4284
▁Grand	-4285
▁decl	-4286
rd	-4287
▁Beach	-4288
▁discover	-4289
ka	-4290
What	-4291
overy	-4292
▁ingredients	-4293
▁teaching	-4294
▁medium	-4295
▁Network	-4296
▁surg	-4297
▁Obama	-4298
▁injury	-4299
inn	-4300
▁Arch	-4301
semb	-4302
▁harm	-4303
▁starts	-4304
vention	-4305
oe	-4306
▁brain	-4307
bed	-4308
▁Carol	-4309
iled	-4310
▁catch	-4311
▁contains	-4312
▁selected	-4313
irection	-4314
▁shall	-4315
▁Mex	-4316
outhern	-4317
▁sharing	-4318
look	-4319
▁brings	-4320
action	-4321
▁butter	-4322
idential	-4323
arge	-4324
▁doctor	-4325
▁structure	-4326
▁advance	-4327
▁Disc	-4328
▁poor	-4329
rehens	-4330
▁scen	-4331
itar	-4332
ideo	-4333
men	-4334
▁famous	-4335
asure	-4336
▁pray	-4337
mp	-4338
▁dinner	-4339
apers	-4340
▁arrest	-4341
pective	-4342
▁prepared	-4343
▁Dig	-4344
▁esc	-4345
olic	-4346
▁Scott	-4347
▁Hill	-4348
▁manufacturer	-4349
▁suff	-4350
enses	-4351
▁Mad	-4352
▁Word	-4353
▁Microsoft	-4354
▁pm	-4355
▁serving	-4356
▁Card	-4357
▁jump	-4358
▁ship	-4359
▁loan	-4360
▁architect	-4361
▁Light	-4362
uries	-4363
▁Full	-4364
▁mo	-4365
▁department	-4366
▁remains	-4367
▁funds	-4368
▁Valley	-4369
▁vision	-4370
▁watching	-4371
▁rank	-4372
▁secret	-4373
atively	-4374
PA	-4375
▁victim	-4376
▁Amazon	-4377
▁resist	-4378
▁sto	-4379
▁Cup	-4380
ini	-4381
ctors	-4382
▁veget	-4383
▁gain	-4384
▁Chicago	-4385
▁Their	-4386
▁methods	-4387
noon	-4388
aven	-4389
▁balance	-4390
usion	-4391
iers	-4392
▁agency	-4393
lor	-4394
allery	-4395
▁movement	-4396
”,	-4397
▁updated	-4398
▁buying	-4399
riage	-4400
▁Keep	-4401
▁leaves	-4402
CH	-4403
▁Bill	-4404
▁drug	-4405
▁compl	-4406
▁Chinese	-4407
▁guess	-4408
▁Support	-4409
▁Net	-4410
ooper	-4411
aked	-4412
▁encourage	-4413
RA	-4414
▁Stand	-4415
▁spending	-4416
▁cloud	-4417
▁journal	-4418
▁map	-4419
▁OF	-4420
▁Week	-4421
▁reality	-4422
lands	-4423
ption	-4424
▁Award	-4425
going	-4426
ishes	-4427
▁Africa	-4428
LC	-4429
▁properties	-4430
lastname	-4431
eless	-4432
okes	-4433
▁becoming	-4434
▁beach	-4435
▁happens	-4436
ellig	-4437
▁Date	-4438
▁Ber	-4439
▁bought	-4440
top	-4441
▁sector	-4442
▁cleaning	-4443
▁Women	-4444
▁spons	-4445
▁ID	-4446
▁RE	-4447
▁Mel	-4448
▁leaving	-4449
▁sport	-4450
iency	-4451
▁relig	-4452
▁Commit	-4453
▁showing	-4454
antic	-4455
▁plants	-4456
▁maintenance	-4457
itness	-4458
life	-4459
▁https	-4460
▁metal	-4461
▁Fort	-4462
▁Tor	-4463
▁facility	-4464
ception	-4465
▁perhaps	-4466
▁dep	-4467
ki	-4468
▁Times	-4469
essions	-4470
hem	-4471
▁determine	-4472
ifts	-4473
▁leadership	-4474
▁advanced	-4475
▁Israel	-4476
▁Long	-4477
▁worksh	-4478
▁independent	-4479
▁stores	-4480
▁entry	-4481
▁Android	-4482
▁Academ	-4483
▁Rad	-4484
▁cris	-4485
▁mechan	-4486
▁fee	-4487
▁analy	-4488
▁rain	-4489
▁Where	-4490
berg	-4491
edy	-4492
▁upgr	-4493
▁rare	-4494
osure	-4495
▁unc	-4496
outs	-4497
▁cart	-4498
▁Que	-4499
abilities	-4500
▁exercise	-4501
▁committed	-4502
ror	-4503
▁wouldn	-4504
▁faith	-4505
itz	-4506
▁meant	-4507
▁NY	-4508
alls	-4509
▁Mass	-4510
▁vote	-4511
▁sem	-4512
▁iPhone	-4513
▁mist	-4514
craft	-4515
ograp	-4516
▁Both	-4517
▁bird	-4518
▁designs	-4519
▁numerous	-4520
▁Tim	-4521
▁fabric	-4522
▁ride	-4523
▁focused	-4524
▁anti	-4525
▁markets	-4526
▁Div	-4527
▁brows	-4528
▁ju	-4529
▁Nov	-4530
▁incor	-4531
▁Fil	-4532
agram	-4533
fr	-4534
▁sources	-4535
▁signed	-4536
▁Pub	-4537
**	-4538
▁records	-4539
▁funding	-4540
▁actual	-4541
aturing	-4542
▁theme	-4543
iest	-4544
▁establish	-4545
ae	-4546
▁steel	-4547
▁changing	-4548
▁chair	-4549
▁visitors	-4550
▁visual	-4551
▁multi	-4552
For	-4553
▁Next	-4554
estic	-4555
▁ir	-4556
MS	-4557
▁Los	-4558
▁forms	-4559
iences	-4560
iance	-4561
▁crowd	-4562
isation	-4563
▁joined	-4564
▁coverage	-4565
▁mill	-4566
▁elements	-4567
▁Organ	-4568
▁showed	-4569
rim	-4570
▁kick	-4571
▁selling	-4572
▁Watch	-4573
▁practices	-4574
▁animals	-4575
▁operating	-4576
▁obvious	-4577
fin	-4578
▁menu	-4579
▁capacity	-4580
▁busy	-4581
▁Nor	-4582
▁locations	-4583
▁grant	-4584
▁Medical	-4585
▁roof	-4586
▁songs	-4587
▁fell	-4588
▁Set	-4589
▁neighbor	-4590
▁Head	-4591
▁refer	-4592
isher	-4593
eared	-4594
oor	-4595
▁George	-4596
miss	-4597
▁raised	-4598
▁memory	-4599
▁Only	-4600
rics	-4601
▁ban	-4602
▁worry	-4603
▁whatever	-4604
▁corner	-4605
▁lose	-4606
▁allowing	-4607
igan	-4608
IA	-4609
▁listen	-4610
▁central	-4611
reek	-4612
▁accommod	-4613
▁society	-4614
▁plastic	-4615
gage	-4616
▁relationships	-4617
SS	-4618
vere	-4619
▁diet	-4620
▁Tri	-4621
igation	-4622
▁lux	-4623
▁thr	-4624
▁diagn	-4625
▁managed	-4626
OP	-4627
▁updates	-4628
▁Copy	-4629
▁limit	-4630
▁parking	-4631
▁caused	-4632
▁rap	-4633
▁estim	-4634
▁population	-4635
▁tables	-4636
ya	-4637
▁Before	-4638
fol	-4639
▁uns	-4640
",	-4641
▁Note	-4642
▁parties	-4643
▁decide	-4644
isco	-4645
uty	-4646
▁claims	-4647
▁articles	-4648
ano	-4649
▁core	-4650
▁survey	-4651
▁repe	-4652
ferences	-4653
▁Mer	-4654
▁assistance	-4655
▁walking	-4656
amin	-4657
▁tickets	-4658
▁Its	-4659
▁techniques	-4660
▁thoughts	-4661
rab	-4662
ection	-4663
▁CD	-4664
▁Sy	-4665
ivered	-4666
▁colour	-4667
▁afternoon	-4668
▁documents	-4669
▁wire	-4670
arrant	-4671
▁bowl	-4672
▁ended	-4673
▁transl	-4674
▁youth	-4675
▁brown	-4676
▁combination	-4677
▁vehicles	-4678
lines	-4679
▁flat	-4680
▁forum	-4681
▁yesterday	-4682
▁previously	-4683
▁landsc	-4684
▁Game	-4685
▁enjoyed	-4686
▁Society	-4687
▁profile	-4688
▁courses	-4689
iliar	-4690
▁launched	-4691
▁toward	-4692
DF	-4693
▁appears	-4694
▁sea	-4695
▁eating	-4696
point	-4697
▁Bur	-4698
▁accident	-4699
▁Cre	-4700
▁Town	-4701
▁optim	-4702
▁filled	-4703
▁awesome	-4704
▁teacher	-4705
coh	-4706
▁factors	-4707
bour	-4708
eed	-4709
▁Chris	-4710
▁Technology	-4711
▁temperature	-4712
rs	-4713
▁mort	-4714
▁micro	-4715
pan	-4716
▁psych	-4717
▁generally	-4718
while	-4719
▁putting	-4720
▁charges	-4721
▁shel	-4722
▁Learn	-4723
▁citiz	-4724
▁Trump	-4725
▁Mont	-4726
▁smaller	-4727
▁Atl	-4728
▁notes	-4729
▁Author	-4730
▁firstname	-4731
▁Pack	-4732
▁values	-4733
▁task	-4734
▁direction	-4735
rehensive	-4736
no	-4737
▁counter	-4738
▁Lord	-4739
▁Log	-4740
▁AL	-4741
▁outdoor	-4742
▁Wil	-4743
▁earth	-4744
▁CA	-4745
▁kid	-4746
▁Sand	-4747
▁teachers	-4748
▁panel	-4749
▁becomes	-4750
▁vs	-4751
orthern	-4752
▁tend	-4753
▁corporate	-4754
▁favour	-4755
▁Arts	-4756
ola	-4757
▁bon	-4758
▁Virgin	-4759
▁century	-4760
▁honest	-4761
▁separate	-4762
??	-4763
▁legisl	-4764
▁cheese	-4765
▁assign	-4766
▁Security	-4767
yan	-4768
▁Congress	-4769
▁matt	-4770
On	-4771
▁sch	-4772
▁truth	-4773
▁purs	-4774
▁concerns	-4775
OD	-4776
▁situ	-4777
▁Committee	-4778
▁Main	-4779
istan	-4780
▁Data	-4781
▁dur	-4782
▁helpful	-4783
▁Jew	-4784
▁shut	-4785
New	-4786
▁swim	-4787
▁Centre	-4788
iration	-4789
▁missing	-4790
▁fold	-4791
▁orders	-4792
▁milk	-4793
▁McC	-4794
▁Frank	-4795
rain	-4796
▁Jul	-4797
▁Government	-4798
een	-4799
▁flu	-4800
!!!	-4801
▁throw	-4802
▁Ext	-4803
po	-4804
▁adapt	-4805
▁polic	-4806
▁installation	-4807
▁innovative	-4808
ownt	-4809
▁Aud	-4810
▁ur	-4811
▁relevant	-4812
▁south	-4813
▁tow	-4814
pet	-4815
▁Lo	-4816
▁van	-4817
rical	-4818
ifying	-4819
olars	-4820
▁Robert	-4821
▁Museum	-4822
SP	-4823
▁decisions	-4824
▁environmental	-4825
ye	-4826
▁discussion	-4827
▁despite	-4828
▁waste	-4829
▁AND	-4830
▁Tur	-4831
▁fourth	-4832
orter	-4833
▁slightly	-4834
▁ang	-4835
▁inspired	-4836
oles	-4837
▁net	-4838
▁Mike	-4839
▁dance	-4840
▁Tre	-4841
▁Den	-4842
▁enhance	-4843
▁apart	-4844
▁Prov	-4845
▁Wall	-4846
▁spect	-4847
▁scr	-4848
▁mental	-4849
▁Hotel	-4850
▁fantastic	-4851
▁Jim	-4852
▁Old	-4853
▁pal	-4854
▁Land	-4855
▁sav	-4856
▁Somet	-4857
▁format	-4858
▁joint	-4859
ita	-4860
▁upcoming	-4861
▁desk	-4862
▁ath	-4863
▁AC	-4864
▁Lead	-4865
▁spl	-4866
inct	-4867
▁Dou	-4868
▁emp	-4869
rist	-4870
▁willing	-4871
▁YOU	-4872
▁hearing	-4873
▁sounds	-4874
▁fuel	-4875
▁commitment	-4876
ups	-4877
▁consumers	-4878
▁appeal	-4879
▁raise	-4880
▁Manager	-4881
?”	-4882
▁UN	-4883
kin	-4884
▁civil	-4885
osen	-4886
▁Place	-4887
umin	-4888
▁vir	-4889
ensions	-4890
SA	-4891
▁library	-4892
▁Through	-4893
▁north	-4894
▁expertise	-4895
▁Report	-4896
▁promote	-4897
▁units	-4898
▁Contin	-4899
▁asking	-4900
▁absolutely	-4901
water	-4902
▁chocolate	-4903
▁extensive	-4904
cher	-4905
▁delivered	-4906
▁movies	-4907
▁Louis	-4908
▁bask	-4909
▁Series	-4910
▁delicious	-4911
▁Ill	-4912
Pro	-4913
▁eth	-4914
▁reached	-4915
▁sets	-4916
Com	-4917
zen	-4918
▁Vict	-4919
known	-4920
uable	-4921
▁executive	-4922
▁agreement	-4923
▁plays	-4924
ternal	-4925
▁Link	-4926
nergy	-4927
▁radio	-4928
▁Ma	-4929
▁Posted	-4930
▁foreign	-4931
▁alle	-4932
▁transform	-4933
REE	-4934
▁lunch	-4935
▁datab	-4936
aser	-4937
▁register	-4938
icians	-4939
▁emergency	-4940
▁thick	-4941
▁struct	-4942
▁trees	-4943
▁Invest	-4944
▁Angeles	-4945
list	-4946
eline	-4947
▁Ham	-4948
▁Const	-4949
▁Lim	-4950
▁provider	-4951
▁Oper	-4952
▁brief	-4953
▁presence	-4954
▁NE	-4955
text	-4956
▁Upd	-4957
▁combined	-4958
▁Fund	-4959
!)	-4960
▁rid	-4961
▁achie	-4962
▁Admin	-4963
▁Gal	-4964
prise	-4965
▁furniture	-4966
▁Fun	-4967
▁seeking	-4968
▁fruit	-4969
▁Hand	-4970
▁controll	-4971
▁NOT	-4972
osition	-4973
▁connected	-4974
▁Union	-4975
▁Join	-4976
bre	-4977
▁expensive	-4978
▁adults	-4979
▁readers	-4980
▁Jun	-4981
▁Person	-4982
▁Cook	-4983
reens	-4984
▁Democr	-4985
▁seconds	-4986
▁feels	-4987
uality	-4988
▁ON	-4989
▁poll	-4990
▁rat	-4991
▁distance	-4992
▁generation	-4993
▁mentioned	-4994
▁edge	-4995
▁fees	-4996
▁recommended	-4997
▁trial	-4998
▁chat	-4999
▁calling	-5000
▁har	-5001
▁cities	-5002
▁nine	-5003
▁chicken	-5004
▁approximately	-5005
TH	-5006
atin	-5007
▁bringing	-5008
▁Plus	-5009
▁consid	-5010
▁Access	-5011
▁Journal	-5012
▁Inte	-5013
▁wel	-5014
▁married	-5015
fortunately	-5016
▁prepare	-5017
▁Peter	-5018
▁websites	-5019
▁operation	-5020
▁alternative	-5021
▁confidence	-5022
▁server	-5023
IR	-5024
▁dogs	-5025
▁stars	-5026
▁registered	-5027
LA	-5028
cean	-5029
▁educational	-5030
burg	-5031
▁Di	-5032
▁Master	-5033
appy	-5034
▁Indust	-5035
▁photograph	-5036
ruit	-5037
▁restrict	-5038
ef	-5039
▁Chief	-5040
▁Ol	-5041
▁tight	-5042
My	-5043
▁Children	-5044
▁centre	-5045
hab	-5046
emporary	-5047
▁square	-5048
othes	-5049
▁France	-5050
▁Spring	-5051
▁tun	-5052
▁returned	-5053
▁minimum	-5054
▁lovely	-5055
▁category	-5056
OC	-5057
▁Live	-5058
azz	-5059
▁exchange	-5060
▁seat	-5061
irmed	-5062
▁stret	-5063
▁Prote	-5064
ears	-5065
▁installed	-5066
▁topic	-5067
▁info	-5068
▁Rest	-5069
▁tea	-5070
rag	-5071
▁brands	-5072
▁tough	-5073
asks	-5074
▁guest	-5075
▁princip	-5076
▁Way	-5077
▁majority	-5078
bu	-5079
▁researc	-5080
atre	-5081
inations	-5082
▁wearing	-5083
▁Minister	-5084
▁female	-5085
▁appearance	-5086
how	-5087
▁colle	-5088
▁neck	-5089
estyle	-5090
▁Cy	-5091
orry	-5092
ship	-5093
IF	-5094
When	-5095
ulated	-5096
aks	-5097
▁ven	-5098
▁therefore	-5099
▁accompl	-5100
▁mostly	-5101
▁Canad	-5102
▁instru	-5103
▁Price	-5104
▁maximum	-5105
▁HD	-5106
elines	-5107
▁Ok	-5108
▁sauce	-5109
▁processes	-5110
▁academic	-5111
▁measures	-5112
van	-5113
▁winner	-5114
▁responsibility	-5115
kins	-5116
▁surgery	-5117
▁Ver	-5118
ifications	-5119
▁leads	-5120
▁impl	-5121
▁teen	-5122
▁Mo	-5123
▁Sup	-5124
▁killed	-5125
▁apps	-5126
▁approved	-5127
▁Max	-5128
▁anywhere	-5129
▁arrange	-5130
nel	-5131
▁Sports	-5132
▁Men	-5133
osis	-5134
▁Video	-5135
▁stre	-5136
▁importance	-5137
▁Hy	-5138
▁Test	-5139
▁gather	-5140
▁climate	-5141
▁ring	-5142
▁Squ	-5143
alian	-5144
▁satisf	-5145
▁detailed	-5146
▁boost	-5147
▁battery	-5148
▁signs	-5149
An	-5150
hi	-5151
▁nom	-5152
▁feedback	-5153
▁battle	-5154
▁chief	-5155
▁veter	-5156
▁Festival	-5157
▁switch	-5158
▁Creat	-5159
▁dyn	-5160
mond	-5161
▁worldwide	-5162
▁disp	-5163
▁featured	-5164
▁cooking	-5165
▁scheduled	-5166
▁highlight	-5167
▁Wild	-5168
ius	-5169
lets	-5170
▁supporting	-5171
ait	-5172
▁crim	-5173
▁rise	-5174
▁Library	-5175
▁sympt	-5176
▁cheap	-5177
cohol	-5178
▁comprehensive	-5179
ulty	-5180
▁predict	-5181
▁participants	-5182
▁Jud	-5183
▁Cat	-5184
vis	-5185
arsh	-5186
▁Walk	-5187
ker	-5188
▁affordable	-5189
▁Thomas	-5190
▁IP	-5191
▁otherwise	-5192
paper	-5193
▁Tour	-5194
▁Bob	-5195
alend	-5196
ters	-5197
▁defense	-5198
Cl	-5199
▁Conference	-5200
roy	-5201
▁bike	-5202
cious	-5203
▁Lab	-5204
otten	-5205
▁properly	-5206
ician	-5207
▁actions	-5208
▁animal	-5209
▁Using	-5210
ulate	-5211
▁clearly	-5212
▁performed	-5213
ena	-5214
▁Earth	-5215
▁Search	-5216
FL	-5217
gl	-5218
▁mur	-5219
▁Pan	-5220
itable	-5221
▁purchased	-5222
bl	-5223
▁Those	-5224
idden	-5225
▁ourselves	-5226
iner	-5227
pected	-5228
▁Bi	-5229
oston	-5230
▁conv	-5231
uts	-5232
▁joy	-5233
▁vent	-5234
▁audio	-5235
▁chemical	-5236
▁Copyright	-5237
iser	-5238
▁meal	-5239
▁competitive	-5240
verse	-5241
▁Johnson	-5242
anda	-5243
▁appeared	-5244
▁windows	-5245
▁advertising	-5246
▁Global	-5247
▁applied	-5248
▁push	-5249
bol	-5250
▁motiv	-5251
UT	-5252
▁Prem	-5253
▁ment	-5254
▁doors	-5255
▁Cam	-5256
▁Party	-5257
▁Soft	-5258
ENT	-5259
▁sister	-5260
▁pump	-5261
oga	-5262
▁policies	-5263
gment	-5264
▁Form	-5265
▁mouth	-5266
▁topics	-5267
erg	-5268
▁supported	-5269
▁valid	-5270
▁Jeff	-5271
▁Bas	-5272
▁pregn	-5273
▁flowers	-5274
▁scale	-5275
▁technologies	-5276
▁rom	-5277
▁African	-5278
▁behavior	-5279
▁arm	-5280
rastructure	-5281
▁sitting	-5282
GB	-5283
MA	-5284
▁minor	-5285
▁Jose	-5286
▁familiar	-5287
▁writer	-5288
▁holding	-5289
▁entertainment	-5290
▁featuring	-5291
▁rub	-5292
▁Germany	-5293
but	-5294
▁bond	-5295
▁coord	-5296
▁episode	-5297
ushed	-5298
▁studio	-5299
▁editor	-5300
▁Charl	-5301
▁Western	-5302
▁opinion	-5303
▁Kore	-5304
▁elim	-5305
▁Cost	-5306
▁revenue	-5307
▁Haw	-5308
alog	-5309
tr	-5310
▁plug	-5311
▁participate	-5312
▁faster	-5313
▁removed	-5314
▁Connect	-5315
▁Fair	-5316
▁Help	-5317
▁strategies	-5318
▁sides	-5319
▁Saf	-5320
inch	-5321
▁Champions	-5322
west	-5323
▁coast	-5324
erts	-5325
▁jew	-5326
▁depending	-5327
▁charged	-5328
▁totally	-5329
col	-5330
prene	-5331
oration	-5332
▁birthday	-5333
▁reliable	-5334
▁visiting	-5335
▁quiet	-5336
▁begins	-5337
▁Martin	-5338
▁species	-5339
UN	-5340
▁conversation	-5341
inating	-5342
▁Energy	-5343
orough	-5344
▁flight	-5345
▁described	-5346
▁Girl	-5347
▁caught	-5348
▁ap	-5349
▁Cert	-5350
▁eventually	-5351
▁monthly	-5352
▁fif	-5353
hus	-5354
▁consumer	-5355
▁Hospital	-5356
tered	-5357
den	-5358
▁Sar	-5359
▁tail	-5360
▁restaurants	-5361
▁housing	-5362
▁meat	-5363
▁dish	-5364
▁cells	-5365
▁teach	-5366
▁MP	-5367
▁deals	-5368
▁inches	-5369
▁television	-5370
▁pu	-5371
otic	-5372
▁Mic	-5373
▁Digital	-5374
▁accounts	-5375
▁improved	-5376
with	-5377
reprene	-5378
ersey	-5379
▁German	-5380
▁nav	-5381
▁Dev	-5382
▁Orig	-5383
▁labor	-5384
apes	-5385
▁Gen	-5386
▁Australian	-5387
▁delight	-5388
inter	-5389
▁university	-5390
▁dim	-5391
▁Id	-5392
▁Joe	-5393
▁fly	-5394
▁officer	-5395
▁neighborhood	-5396
▁shoes	-5397
ario	-5398
▁revealed	-5399
▁hundreds	-5400
▁marriage	-5401
▁campus	-5402
▁employee	-5403
ste	-5404
▁cro	-5405
▁breakfast	-5406
ulous	-5407
▁label	-5408
▁CH	-5409
▁ign	-5410
weight	-5411
▁Ul	-5412
SE	-5413
▁confirm	-5414
▁typically	-5415
▁administration	-5416
▁Penn	-5417
▁occasion	-5418
▁Academy	-5419
▁exclusive	-5420
▁introduced	-5421
▁celebrate	-5422
How	-5423
▁election	-5424
▁covers	-5425
ht	-5426
▁essay	-5427
▁appointment	-5428
▁Secret	-5429
▁Mid	-5430
ighter	-5431
▁volume	-5432
▁Ce	-5433
▁unless	-5434
▁Opt	-5435
sm	-5436
achel	-5437
▁discovered	-5438
▁specifically	-5439
hew	-5440
▁amb	-5441
▁vary	-5442
hent	-5443
▁compar	-5444
▁internal	-5445
iat	-5446
▁indic	-5447
▁planned	-5448
Our	-5449
▁Hope	-5450
▁twe	-5451
▁debt	-5452
▁cultural	-5453
NA	-5454
▁intended	-5455
▁cutting	-5456
▁sessions	-5457
▁AT	-5458
▁Lt	-5459
▁aspects	-5460
▁Americans	-5461
▁manufacturing	-5462
▁remaining	-5463
▁Maybe	-5464
▁Young	-5465
eries	-5466
ushing	-5467
▁mel	-5468
bur	-5469
▁sexual	-5470
▁SP	-5471
ixture	-5472
igr	-5473
▁shares	-5474
edia	-5475
▁Box	-5476
merce	-5477
▁nor	-5478
▁Boy	-5479
▁Second	-5480
▁recovery	-5481
);	-5482
▁fle	-5483
▁basket	-5484
▁Boston	-5485
▁chart	-5486
▁icon	-5487
▁engineering	-5488
▁remote	-5489
▁trading	-5490
ords	-5491
▁concent	-5492
▁Ari	-5493
▁partnership	-5494
▁Er	-5495
▁scored	-5496
▁incredible	-5497
▁Key	-5498
▁bread	-5499
▁lights	-5500
▁edition	-5501
▁dining	-5502
▁investigation	-5503
ournament	-5504
▁Commun	-5505
▁industrial	-5506
asts	-5507
uke	-5508
▁Jon	-5509
▁guarantee	-5510
▁forg	-5511
▁detect	-5512
▁Mur	-5513
aren	-5514
CE	-5515
▁Meet	-5516
▁invent	-5517
cont	-5518
▁Carolina	-5519
gas	-5520
▁drivers	-5521
▁components	-5522
▁negative	-5523
▁Japanese	-5524
▁liqu	-5525
▁hyd	-5526
▁automatically	-5527
mosp	-5528
▁End	-5529
elly	-5530
eper	-5531
ala	-5532
▁resource	-5533
▁cake	-5534
▁depos	-5535
▁mir	-5536
▁Pac	-5537
▁freed	-5538
▁fields	-5539
lymp	-5540
▁Virginia	-5541
▁practical	-5542
▁burn	-5543
odies	-5544
▁chain	-5545
▁Type	-5546
berry	-5547
cm	-5548
▁choices	-5549
rupt	-5550
▁noted	-5551
▁evalu	-5552
▁Human	-5553
▁quot	-5554
▁confirmed	-5555
inet	-5556
▁interior	-5557
▁dollars	-5558
▁pock	-5559
▁seemed	-5560
lywood	-5561
▁Applic	-5562
▁Lee	-5563
▁cop	-5564
▁bedroom	-5565
itionally	-5566
otton	-5567
▁thus	-5568
▁Jones	-5569
▁victory	-5570
▁rule	-5571
idays	-5572
▁suitable	-5573
iability	-5574
▁Wal	-5575
▁argu	-5576
▁Brand	-5577
▁depart	-5578
▁arrived	-5579
cles	-5580
▁Quest	-5581
ua	-5582
unting	-5583
▁perfectly	-5584
Al	-5585
▁FREE	-5586
▁twice	-5587
tters	-5588
hand	-5589
uits	-5590
▁buildings	-5591
▁boys	-5592
▁teeth	-5593
Ex	-5594
away	-5595
▁Tem	-5596
▁Mult	-5597
aped	-5598
▁broken	-5599
▁possibly	-5600
▁Equ	-5601
▁warrant	-5602
king	-5603
abet	-5604
gers	-5605
▁films	-5606
▁symptoms	-5607
▁crew	-5608
uous	-5609
▁honor	-5610
▁Italian	-5611
▁bathroom	-5612
▁elig	-5613
▁doubt	-5614
▁shooting	-5615
▁Victor	-5616
arp	-5617
▁ticket	-5618
▁Know	-5619
▁anc	-5620
!”	-5621
No	-5622
arks	-5623
▁island	-5624
▁stated	-5625
▁Gar	-5626
▁issued	-5627
flow	-5628
ailability	-5629
▁chosen	-5630
ilit	-5631
▁Cast	-5632
▁DV	-5633
rier	-5634
▁considering	-5635
▁enable	-5636
▁commission	-5637
▁Mexico	-5638
▁injuries	-5639
▁Steve	-5640
▁Little	-5641
urban	-5642
▁Trust	-5643
▁candidates	-5644
poses	-5645
otal	-5646
▁Williams	-5647
▁tests	-5648
related	-5649
▁reference	-5650
▁desire	-5651
▁keeps	-5652
▁foods	-5653
▁rapid	-5654
TC	-5655
▁corn	-5656
▁bigger	-5657
road	-5658
ibilities	-5659
ipl	-5660
▁missed	-5661
▁ris	-5662
▁Instead	-5663
▁mode	-5664
▁paying	-5665
ulations	-5666
▁boat	-5667
▁golf	-5668
▁picked	-5669
▁Does	-5670
▁contest	-5671
▁intellig	-5672
iors	-5673
acks	-5674
▁circum	-5675
▁Farm	-5676
▁Students	-5677
▁Hard	-5678
▁appreciate	-5679
▁decades	-5680
▁tomorrow	-5681
▁premium	-5682
▁turns	-5683
▁trend	-5684
▁valuable	-5685
iamond	-5686
▁settings	-5687
▁Games	-5688
gend	-5689
▁sizes	-5690
owntown	-5691
▁Coast	-5692
▁fro	-5693
▁voc	-5694
▁protected	-5695
ien	-5696
▁Tit	-5697
▁soul	-5698
▁presentation	-5699
▁Mat	-5700
▁Kn	-5701
▁Mov	-5702
▁lived	-5703
▁Page	-5704
▁regularly	-5705
▁realize	-5706
atoes	-5707
mes	-5708
▁earned	-5709
▁Current	-5710
▁registration	-5711
▁config	-5712
▁Night	-5713
▁nurs	-5714
▁attorney	-5715
▁citizens	-5716
▁Ohio	-5717
▁quant	-5718
hetic	-5719
▁magazine	-5720
▁oven	-5721
▁aid	-5722
▁failed	-5723
▁database	-5724
▁AS	-5725
fection	-5726
▁spr	-5727
▁therapy	-5728
ris	-5729
ora	-5730
▁Assist	-5731
ias	-5732
▁organic	-5733
▁sequ	-5734
▁Canadian	-5735
▁license	-5736
wing	-5737
▁Econom	-5738
weet	-5739
▁Michigan	-5740
▁agent	-5741
▁surrounding	-5742
AY	-5743
▁affected	-5744
▁mine	-5745
▁providers	-5746
▁resol	-5747
▁greatest	-5748
oosing	-5749
▁moments	-5750
▁county	-5751
▁ends	-5752
▁Olymp	-5753
▁ran	-5754
▁tells	-5755
▁ec	-5756
what	-5757
PR	-5758
▁dates	-5759
▁Cross	-5760
▁Span	-5761
▁MS	-5762
▁grown	-5763
▁reput	-5764
▁virtual	-5765
▁Instagram	-5766
ev	-5767
▁athlet	-5768
▁investors	-5769
▁Code	-5770
▁surf	-5771
▁grade	-5772
▁calcul	-5773
▁Pass	-5774
spe	-5775
▁answers	-5776
▁loves	-5777
▁shock	-5778
.|	-5779
▁supports	-5780
▁painting	-5781
phas	-5782
▁inn	-5783
▁draft	-5784
▁influence	-5785
▁proposed	-5786
oup	-5787
lights	-5788
▁surprise	-5789
▁agencies	-5790
▁History	-5791
pass	-5792
▁Control	-5793
▁Kh	-5794
abled	-5795
▁dial	-5796
▁Sn	-5797
▁hero	-5798
▁poly	-5799
▁explain	-5800
▁renew	-5801
▁accurate	-5802
▁weap	-5803
▁degrees	-5804
▁submit	-5805
race	-5806
▁recorded	-5807
▁Bal	-5808
▁Executive	-5809
▁Van	-5810
▁ages	-5811
▁Point	-5812
▁owned	-5813
oking	-5814
▁convenient	-5815
▁AR	-5816
▁Georg	-5817
▁purposes	-5818
vell	-5819
▁Share	-5820
ria	-5821
▁load	-5822
which	-5823
▁beer	-5824
▁Did	-5825
▁yes	-5826
irms	-5827
▁whom	-5828
▁Inf	-5829
fficient	-5830
▁league	-5831
ella	-5832
▁holds	-5833
▁processing	-5834
▁Buy	-5835
▁Federal	-5836
TA	-5837
▁gro	-5838
▁Middle	-5839
▁instructions	-5840
TV	-5841
▁Asia	-5842
▁die	-5843
▁Cas	-5844
▁interests	-5845
kes	-5846
▁efficiency	-5847
▁Jackson	-5848
▁Def	-5849
▁pure	-5850
ansas	-5851
hors	-5852
▁apparent	-5853
▁jack	-5854
▁effectively	-5855
▁atmosp	-5856
▁Expl	-5857
mar	-5858
▁violence	-5859
luding	-5860
▁Comple	-5861
alendar	-5862
▁returns	-5863
▁goods	-5864
▁Enjoy	-5865
▁pleased	-5866
▁element	-5867
▁Paris	-5868
▁awareness	-5869
real	-5870
vy	-5871
▁messages	-5872
OVID	-5873
cking	-5874
▁channel	-5875
▁pepper	-5876
▁receiving	-5877
print	-5878
▁infrastructure	-5879
▁Ken	-5880
▁pod	-5881
▁Ire	-5882
▁electronic	-5883
▁Three	-5884
rick	-5885
▁occup	-5886
▁forced	-5887
intage	-5888
▁Made	-5889
▁Size	-5890
▁officers	-5891
▁facing	-5892
▁creation	-5893
ospit	-5894
▁Requ	-5895
▁standing	-5896
▁musical	-5897
▁researchers	-5898
▁sam	-5899
▁Dom	-5900
▁Royal	-5901
▁incident	-5902
▁perman	-5903
▁Columb	-5904
▁belong	-5905
▁lighting	-5906
▁closer	-5907
irty	-5908
▁everyday	-5909
▁diverse	-5910
▁Try	-5911
▁grad	-5912
▁Richard	-5913
▁Daily	-5914
profit	-5915
▁route	-5916
ban	-5917
▁Travel	-5918
▁distribution	-5919
▁ongoing	-5920
▁Photo	-5921
▁lit	-5922
▁causes	-5923
poration	-5924
▁Cred	-5925
made	-5926
▁trouble	-5927
▁Ell	-5928
▁thread	-5929
▁apartment	-5930
▁Sher	-5931
▁advoc	-5932
▁administr	-5933
▁serves	-5934
▁usual	-5935
▁wheel	-5936
▁Chair	-5937
▁Ut	-5938
rum	-5939
▁sad	-5940
▁Need	-5941
▁pun	-5942
anche	-5943
▁du	-5944
▁mini	-5945
▁Store	-5946
isters	-5947
▁kinds	-5948
▁obtain	-5949
▁ped	-5950
▁healthcare	-5951
▁favourite	-5952
hy	-5953
▁silver	-5954
▁judge	-5955
▁arts	-5956
PM	-5957
▁wid	-5958
GE	-5959
▁Cath	-5960
▁supposed	-5961
▁meetings	-5962
▁crime	-5963
▁error	-5964
equ	-5965
▁spaces	-5966
▁rough	-5967
▁yellow	-5968
rete	-5969
▁knowing	-5970
▁plate	-5971
udden	-5972
▁affili	-5973
ribe	-5974
▁disappoint	-5975
▁stopped	-5976
▁flour	-5977
▁enthus	-5978
▁WH	-5979
▁fellow	-5980
umes	-5981
▁Wi	-5982
▁bound	-5983
aration	-5984
never	-5985
oses	-5986
Tube	-5987
▁collaboration	-5988
▁manner	-5989
▁Rev	-5990
▁designer	-5991
itage	-5992
xy	-5993
▁licens	-5994
▁construct	-5995
▁concerned	-5996
actions	-5997
▁Ltd	-5998
▁subscrib	-5999
▁massive	-6000
▁monit	-6001
▁Andrew	-6002
person	-6003
anges	-6004
▁clothes	-6005
▁weekly	-6006
▁follows	-6007
uction	-6008
▁Low	-6009
ennis	-6010
▁tut	-6011
▁rot	-6012
▁Four	-6013
sembly	-6014
cue	-6015
▁Local	-6016
ancer	-6017
ello	-6018
arian	-6019
▁Daniel	-6020
▁household	-6021
yard	-6022
▁tur	-6023
▁Wr	-6024
▁prison	-6025
▁reduced	-6026
▁Clean	-6027
▁simpl	-6028
▁regional	-6029
▁forces	-6030
▁challenging	-6031
iveness	-6032
EE	-6033
astern	-6034
▁Mean	-6035
▁male	-6036
▁stone	-6037
▁Guide	-6038
▁functions	-6039
▁Ra	-6040
▁tack	-6041
▁agreed	-6042
▁Right	-6043
▁hang	-6044
pond	-6045
▁script	-6046
▁Santa	-6047
▁Room	-6048
oti	-6049
▁lifestyle	-6050
▁Russian	-6051
▁Francisco	-6052
▁Hen	-6053
▁moist	-6054
▁treated	-6055
orable	-6056
▁horse	-6057
▁debut	-6058
▁complic	-6059
▁Marketing	-6060
▁alcohol	-6061
▁assets	-6062
ansion	-6063
▁innovation	-6064
▁native	-6065
▁sample	-6066
▁payments	-6067
ml	-6068
▁fixed	-6069
▁successfully	-6070
▁impressive	-6071
▁reserved	-6072
Con	-6073
▁powder	-6074
▁crisis	-6075
▁emotional	-6076
FC	-6077
▁explained	-6078
DS	-6079
Ar	-6080
▁Ep	-6081
▁inspiration	-6082
▁Job	-6083
All	-6084
▁cute	-6085
▁witness	-6086
ache	-6087
Un	-6088
▁Visit	-6089
under	-6090
▁leather	-6091
▁row	-6092
▁spokes	-6093
▁fort	-6094
▁forest	-6095
▁Rights	-6096
writ	-6097
ench	-6098
▁password	-6099
ppers	-6100
▁matters	-6101
▁Brook	-6102
ani	-6103
Pl	-6104
▁FOR	-6105
▁identified	-6106
▁luxury	-6107
alled	-6108
▁employment	-6109
BI	-6110
▁photograp	-6111
Be	-6112
▁drugs	-6113
▁Pot	-6114
▁blogg	-6115
▁Summer	-6116
▁cock	-6117
igration	-6118
▁Hor	-6119
▁extended	-6120
▁iron	-6121
And	-6122
▁Die	-6123
▁phil	-6124
▁Area	-6125
shire	-6126
erves	-6127
lyn	-6128
▁determined	-6129
▁rand	-6130
▁outstanding	-6131
▁grab	-6132
▁accepted	-6133
▁prompt	-6134
▁recognized	-6135
▁Blo	-6136
▁der	-6137
▁prop	-6138
▁styles	-6139
▁Southern	-6140
▁resolution	-6141
▁tou	-6142
folio	-6143
▁height	-6144
▁walls	-6145
▁odd	-6146
▁gifts	-6147
▁casino	-6148
▁Rose	-6149
▁clinical	-6150
▁vacation	-6151
▁Name	-6152
▁decre	-6153
▁Cra	-6154
▁accessible	-6155
▁advis	-6156
▁context	-6157
▁nearby	-6158
liance	-6159
▁graduate	-6160
▁conducted	-6161
vate	-6162
can	-6163
They	-6164
▁happening	-6165
▁Number	-6166
rip	-6167
▁positions	-6168
▁Financial	-6169
▁worse	-6170
▁perspective	-6171
▁Small	-6172
▁dangerous	-6173
▁Awards	-6174
▁freedom	-6175
▁gear	-6176
▁SH	-6177
mary	-6178
▁carried	-6179
▁speaking	-6180
▁factor	-6181
letter	-6182
▁Ash	-6183
▁stunning	-6184
▁Turn	-6185
▁sustainable	-6186
▁speech	-6187
▁Scot	-6188
cling	-6189
▁significantly	-6190
▁tag	-6191
▁folks	-6192
▁candidate	-6193
▁Colorado	-6194
unction	-6195
▁Oil	-6196
▁telling	-6197
▁examples	-6198
▁domestic	-6199
ulture	-6200
anged	-6201
▁Avenue	-6202
▁constantly	-6203
rid	-6204
▁emphas	-6205
▁committee	-6206
▁Training	-6207
▁symbol	-6208
▁Coll	-6209
▁cable	-6210
▁likes	-6211
▁Kim	-6212
▁univers	-6213
▁Lin	-6214
▁mixed	-6215
▁hardware	-6216
▁solar	-6217
ificate	-6218
▁Perform	-6219
▁originally	-6220
▁Having	-6221
▁Account	-6222
▁Which	-6223
▁Sometimes	-6224
ucle	-6225
▁hook	-6226
▁vit	-6227
emic	-6228
▁stands	-6229
▁conflic	-6230
▁Hon	-6231
▁awards	-6232
▁retire	-6233
▁adventure	-6234
Don	-6235
LY	-6236
▁showc	-6237
▁contemporary	-6238
ployment	-6239
▁involve	-6240
▁houses	-6241
▁fulf	-6242
▁village	-6243
▁logo	-6244
▁Though	-6245
▁bless	-6246
▁Cond	-6247
▁Spanish	-6248
▁carefully	-6249
▁MA	-6250
▁patterns	-6251
▁Dub	-6252
▁supplies	-6253
▁Select	-6254
▁procedures	-6255
▁DC	-6256
▁Print	-6257
▁programme	-6258
ingly	-6259
▁auto	-6260
▁browser	-6261
▁Mobile	-6262
▁imagine	-6263
▁Despite	-6264
▁confident	-6265
▁stretch	-6266
▁criminal	-6267
▁fitness	-6268
▁losing	-6269
▁replacement	-6270
lete	-6271
▁routine	-6272
▁Ireland	-6273
▁Available	-6274
▁procedure	-6275
▁adds	-6276
▁engage	-6277
▁illustr	-6278
▁bottle	-6279
▁circumst	-6280
▁Rom	-6281
ca	-6282
▁Ryan	-6283
▁Garden	-6284
etime	-6285
utch	-6286
▁crazy	-6287
▁YouTube	-6288
▁turning	-6289
▁hosting	-6290
▁random	-6291
▁taught	-6292
▁rose	-6293
▁expectations	-6294
▁Russia	-6295
▁recipes	-6296
▁lift	-6297
front	-6298
▁command	-6299
state	-6300
▁Tay	-6301
▁Drive	-6302
secut	-6303
▁fo	-6304
▁improvement	-6305
▁excess	-6306
▁hur	-6307
▁alleged	-6308
▁trained	-6309
▁tro	-6310
▁sheet	-6311
▁mixture	-6312
▁noticed	-6313
▁festival	-6314
▁Bon	-6315
illy	-6316
▁tech	-6317
▁funny	-6318
▁OS	-6319
ATE	-6320
▁shots	-6321
▁tab	-6322
▁flavor	-6323
▁reporting	-6324
▁syn	-6325
▁passeng	-6326
▁guitar	-6327
▁ol	-6328
▁hoping	-6329
▁COVID	-6330
▁severe	-6331
inder	-6332
▁entreprene	-6333
▁suspect	-6334
▁eleg	-6335
▁foundation	-6336
ether	-6337
orgeous	-6338
▁Heart	-6339
ington	-6340
ossible	-6341
▁SU	-6342
▁upper	-6343
inem	-6344
▁Building	-6345
▁Environment	-6346
anger	-6347
▁blow	-6348
eration	-6349
▁clothing	-6350
▁scholars	-6351
▁Non	-6352
▁publish	-6353
▁Italy	-6354
enced	-6355
▁ok	-6356
anna	-6357
▁authent	-6358
adium	-6359
comes	-6360
▁FA	-6361
▁pink	-6362
▁climb	-6363
▁Pop	-6364
rad	-6365
▁Senior	-6366
▁kill	-6367
pat	-6368
▁talks	-6369
iano	-6370
▁grew	-6371
▁Son	-6372
▁pil	-6373
▁root	-6374
▁Beaut	-6375
hered	-6376
▁san	-6377
oster	-6378
▁landscape	-6379
▁figures	-6380
ayer	-6381
tle	-6382
▁millions	-6383
▁machines	-6384
ERS	-6385
ums	-6386
▁Country	-6387
▁Jersey	-6388
▁Sky	-6389
So	-6390
iece	-6391
ERE	-6392
orders	-6393
iversary	-6394
▁Run	-6395
▁tasks	-6396
▁vital	-6397
▁reward	-6398
▁attended	-6399
ikes	-6400
▁eggs	-6401
▁tall	-6402
▁identity	-6403
▁tested	-6404
▁PS	-6405
’.	-6406
▁hits	-6407
▁coc	-6408
▁Senate	-6409
▁integrated	-6410
▁champions	-6411
▁herself	-6412
▁laugh	-6413
▁trends	-6414
▁input	-6415
▁vibr	-6416
▁Disney	-6417
▁Division	-6418
▁anx	-6419
▁?	-6420
▁council	-6421
forcement	-6422
oral	-6423
▁Shop	-6424
▁Nick	-6425
▁Stock	-6426
▁chapter	-6427
HS	-6428
▁mal	-6429
▁shift	-6430
▁Ref	-6431
▁Jenn	-6432
▁weak	-6433
▁historical	-6434
▁guard	-6435
▁wealth	-6436
▁dram	-6437
▁incl	-6438
▁Writ	-6439
▁Dog	-6440
▁fishing	-6441
.’	-6442
▁baking	-6443
▁airport	-6444
▁Proper	-6445
▁depth	-6446
▁museum	-6447
▁improving	-6448
▁AD	-6449
▁smile	-6450
▁invited	-6451
host	-6452
▁arrested	-6453
izz	-6454
RI	-6455
▁wash	-6456
luded	-6457
rition	-6458
▁accessories	-6459
dy	-6460
▁Professor	-6461
▁profit	-6462
▁Safety	-6463
ampion	-6464
▁ease	-6465
▁thin	-6466
▁unf	-6467
▁output	-6468
▁qualified	-6469
▁residential	-6470
▁Ford	-6471
▁Ent	-6472
▁upload	-6473
riends	-6474
▁Want	-6475
rate	-6476
▁hire	-6477
▁rear	-6478
▁Ha	-6479
▁carbon	-6480
▁tonight	-6481
▁abuse	-6482
▁authorities	-6483
▁certified	-6484
▁skill	-6485
▁Georgia	-6486
▁mountain	-6487
▁Fre	-6488
▁Sales	-6489
▁wet	-6490
remony	-6491
ATION	-6492
zil	-6493
▁ordered	-6494
▁km	-6495
pret	-6496
▁managing	-6497
▁Far	-6498
▁bags	-6499
▁instance	-6500
▁destination	-6501
▁entered	-6502
▁Still	-6503
▁thorough	-6504
▁Email	-6505
▁sole	-6506
iana	-6507
icial	-6508
▁dropped	-6509
▁institutions	-6510
▁entirely	-6511
▁terror	-6512
▁Silver	-6513
▁atmosphere	-6514
▁recy	-6515
▁Further	-6516
iami	-6517
yers	-6518
▁Bul	-6519
▁Supp	-6520
▁Systems	-6521
LS	-6522
▁Fed	-6523
▁Luc	-6524
▁Space	-6525
▁closely	-6526
▁Zeal	-6527
MP	-6528
▁Stat	-6529
▁guidance	-6530
▁sick	-6531
▁photography	-6532
▁rating	-6533
ras	-6534
▁breast	-6535
▁tiny	-6536
▁Tax	-6537
▁description	-6538
▁fuck	-6539
▁vend	-6540
▁offices	-6541
▁Members	-6542
▁scientific	-6543
▁layer	-6544
▁transportation	-6545
▁printed	-6546
stone	-6547
De	-6548
long	-6549
▁frequently	-6550
▁Fac	-6551
▁Dist	-6552
eller	-6553
▁spin	-6554
igned	-6555
▁entr	-6556
agues	-6557
▁cooper	-6558
va	-6559
▁dental	-6560
▁EU	-6561
▁shower	-6562
▁yards	-6563
▁searching	-6564
▁cycle	-6565
▁loans	-6566
▁delay	-6567
▁CO	-6568
▁Phone	-6569
▁Pract	-6570
▁failure	-6571
▁kne	-6572
▁medicine	-6573
PC	-6574
▁equal	-6575
▁lessons	-6576
izza	-6577
▁unable	-6578
▁protein	-6579
ogue	-6580
adow	-6581
▁founded	-6582
▁Aff	-6583
sen	-6584
▁Finally	-6585
▁broadcast	-6586
▁cm	-6587
▁flexible	-6588
quir	-6589
▁column	-6590
▁operate	-6591
▁Tech	-6592
▁compens	-6593
▁typical	-6594
▁rail	-6595
▁Looking	-6596
▁bonus	-6597
▁Hou	-6598
▁taxes	-6599
aduate	-6600
▁Should	-6601
▁glad	-6602
▁religious	-6603
▁sac	-6604
▁Never	-6605
▁Engineering	-6606
▁situations	-6607
▁vacc	-6608
▁bear	-6609
▁PDF	-6610
▁Ca	-6611
▁awarded	-6612
▁lad	-6613
▁Zealand	-6614
oes	-6615
▁Ball	-6616
▁Put	-6617
quality	-6618
▁external	-6619
▁eligible	-6620
▁Very	-6621
▁Mach	-6622
▁historic	-6623
▁alongside	-6624
awn	-6625
▁Sat	-6626
icket	-6627
▁strategic	-6628
UL	-6629
▁OR	-6630
▁flood	-6631
▁sudden	-6632
▁wra	-6633
worth	-6634
▁unlike	-6635
▁assessment	-6636
▁Smart	-6637
▁DVD	-6638
▁filed	-6639
▁networks	-6640
ilst	-6641
▁seriously	-6642
osoph	-6643
▁Sus	-6644
▁workshop	-6645
▁creates	-6646
Is	-6647
▁rental	-6648
umps	-6649
xx	-6650
▁worst	-6651
▁Unfortunately	-6652
?"	-6653
▁Charles	-6654
uting	-6655
▁BE	-6656
▁critic	-6657
▁transition	-6658
▁fighting	-6659
▁river	-6660
▁membership	-6661
nam	-6662
oker	-6663
ircle	-6664
▁Mountain	-6665
▁believes	-6666
asters	-6667
▁platforms	-6668
bi	-6669
omy	-6670
▁attacks	-6671
friendly	-6672
▁availability	-6673
▁none	-6674
class	-6675
▁tracks	-6676
▁Foot	-6677
▁versions	-6678
▁vul	-6679
uling	-6680
erman	-6681
▁distinct	-6682
▁Es	-6683
▁younger	-6684
▁listening	-6685
tain	-6686
▁Fox	-6687
osite	-6688
plate	-6689
aturally	-6690
▁motion	-6691
▁Ask	-6692
▁contribute	-6693
▁faculty	-6694
▁hasn	-6695
arrow	-6696
inos	-6697
▁Professional	-6698
▁juice	-6699
!"	-6700
▁proven	-6701
II	-6702
eding	-6703
One	-6704
▁bab	-6705
▁hopes	-6706
▁Pacific	-6707
star	-6708
onto	-6709
With	-6710
aze	-6711
▁letters	-6712
▁joining	-6713
ucky	-6714
irts	-6715
active	-6716
▁risks	-6717
▁performing	-6718
▁Ray	-6719
ounter	-6720
▁soph	-6721
▁streets	-6722
car	-6723
▁developers	-6724
you	-6725
▁Ariz	-6726
▁SC	-6727
▁obl	-6728
▁cups	-6729
▁conver	-6730
neys	-6731
▁pounds	-6732
Fi	-6733
▁cos	-6734
▁recording	-6735
▁Term	-6736
ati	-6737
▁tip	-6738
▁lucky	-6739
▁Easy	-6740
zer	-6741
▁Tele	-6742
▁informed	-6743
▁choosing	-6744
▁Harr	-6745
oured	-6746
▁Kent	-6747
▁grass	-6748
ented	-6749
)|	-6750
▁facilit	-6751
▁meals	-6752
▁surprised	-6753
▁mortgage	-6754
nic	-6755
obby	-6756
▁infect	-6757
▁Phys	-6758
▁capture	-6759
▁liquid	-6760
▁banks	-6761
ican	-6762
▁diss	-6763
agon	-6764
▁kit	-6765
▁PA	-6766
▁Leg	-6767
▁tournament	-6768
▁Fall	-6769
amps	-6770
▁anticip	-6771
▁papers	-6772
▁LLC	-6773
elry	-6774
▁savings	-6775
▁Field	-6776
earing	-6777
At	-6778
▁privacy	-6779
cers	-6780
▁discip	-6781
pons	-6782
To	-6783
aping	-6784
uine	-6785
▁Event	-6786
▁hurt	-6787
born	-6788
▁rein	-6789
▁Ram	-6790
▁regulations	-6791
▁decade	-6792
▁Mom	-6793
▁inch	-6794
ashed	-6795
law	-6796
ially	-6797
▁Broad	-6798
▁charm	-6799
rency	-6800
▁Taylor	-6801
celer	-6802
▁submitted	-6803
▁Kat	-6804
▁arg	-6805
etic	-6806
▁Northern	-6807
▁west	-6808
▁Ter	-6809
▁blend	-6810
▁ille	-6811
Le	-6812
▁reputation	-6813
▁Po	-6814
▁LED	-6815
Se	-6816
▁suggested	-6817
▁monitor	-6818
▁bat	-6819
▁proceed	-6820
▁hall	-6821
▁liked	-6822
▁filter	-6823
▁shops	-6824
▁organized	-6825
▁relief	-6826
▁domain	-6827
▁consequ	-6828
▁mic	-6829
▁belief	-6830
▁engagement	-6831
▁sight	-6832
entle	-6833
▁Lind	-6834
▁Cut	-6835
▁Source	-6836
bury	-6837
▁extract	-6838
Read	-6839
▁Miami	-6840
▁Radio	-6841
▁pulled	-6842
▁Come	-6843
▁Credit	-6844
▁gorgeous	-6845
days	-6846
▁justice	-6847
uter	-6848
pes	-6849
▁Sea	-6850
▁Cab	-6851
▁drawing	-6852
▁negoti	-6853
▁circumstances	-6854
▁capable	-6855
▁crucial	-6856
▁Arab	-6857
▁quote	-6858
▁)	-6859
▁empt	-6860
▁monitoring	-6861
rell	-6862
▁tank	-6863
ava	-6864
▁Think	-6865
▁portfolio	-6866
▁Order	-6867
▁legs	-6868
▁sky	-6869
▁Bible	-6870
bing	-6871
ulf	-6872
ographic	-6873
▁hate	-6874
▁immediate	-6875
▁arrive	-6876
▁ads	-6877
▁increases	-6878
▁stir	-6879
bar	-6880
▁exhibition	-6881
▁Ms	-6882
▁believed	-6883
▁penal	-6884
▁Insurance	-6885
foot	-6886
▁moves	-6887
▁linked	-6888
ta	-6889
▁Continue	-6890
athan	-6891
▁counsel	-6892
▁relatively	-6893
▁treatments	-6894
▁Pak	-6895
▁faces	-6896
▁attached	-6897
▁manual	-6898
faction	-6899
▁soil	-6900
▁crack	-6901
▁defend	-6902
▁adm	-6903
uis	-6904
▁mm	-6905
illiant	-6906
ura	-6907
▁jun	-6908
▁Mir	-6909
▁planet	-6910
bles	-6911
resents	-6912
Ad	-6913
▁technique	-6914
cknow	-6915
▁enjoying	-6916
▁listing	-6917
esides	-6918
▁guidelines	-6919
▁concert	-6920
rowse	-6921
▁directed	-6922
▁vast	-6923
▁dent	-6924
▁injured	-6925
arters	-6926
▁hosted	-6927
▁interface	-6928
▁execut	-6929
▁ast	-6930
▁Conf	-6931
▁LA	-6932
▁Rod	-6933
▁authors	-6934
▁spark	-6935
▁garage	-6936
▁hospit	-6937
uration	-6938
▁memories	-6939
rich	-6940
▁contrast	-6941
▁aside	-6942
▁equipped	-6943
▁volunteers	-6944
▁Ron	-6945
ardens	-6946
sey	-6947
▁Ur	-6948
▁normally	-6949
ppy	-6950
▁estimated	-6951
▁promise	-6952
▁firms	-6953
▁:)	-6954
▁dreams	-6955
▁Happy	-6956
▁Republican	-6957
▁Pow	-6958
▁pin	-6959
▁trig	-6960
onym	-6961
▁Jac	-6962
▁warn	-6963
▁trick	-6964
hot	-6965
▁phase	-6966
▁rice	-6967
▁depress	-6968
▁Remember	-6969
▁urban	-6970
▁Being	-6971
By	-6972
▁Quality	-6973
▁illness	-6974
iger	-6975
▁agents	-6976
▁Justice	-6977
▁prove	-6978
ba	-6979
▁consistent	-6980
▁acid	-6981
▁dust	-6982
oty	-6983
▁spoke	-6984
▁Airport	-6985
▁Houston	-6986
▁organis	-6987
holders	-6988
▁pitch	-6989
▁pleasure	-6990
▁Bed	-6991
▁matches	-6992
▁arms	-6993
▁Medicine	-6994
aints	-6995
ults	-6996
%.	-6997
Bl	-6998
AA	-6999
▁Ide	-7000
▁Talk	-7001
▁Conc	-7002
▁portion	-7003
▁index	-7004
▁Line	-7005
▁chances	-7006
asant	-7007
ogether	-7008
▁Brazil	-7009
▁fasc	-7010
▁Fact	-7011
▁lapt	-7012
.'	-7013
icit	-7014
▁newly	-7015
▁Personal	-7016
▁dynamic	-7017
▁chose	-7018
▁objects	-7019
ensity	-7020
▁Carl	-7021
▁breath	-7022
▁finance	-7023
rm	-7024
▁Arizona	-7025
▁Asian	-7026
▁refund	-7027
▁Living	-7028
▁proof	-7029
eling	-7030
▁Prom	-7031
SC	-7032
▁Standard	-7033
▁seed	-7034
▁passing	-7035
▁continuing	-7036
But	-7037
▁Officer	-7038
▁visited	-7039
▁Give	-7040
▁drinking	-7041
▁represents	-7042
site	-7043
ership	-7044
▁iPad	-7045
cket	-7046
▁formed	-7047
▁mile	-7048
inois	-7049
pack	-7050
▁ultimate	-7051
▁storm	-7052
alle	-7053
▁Mill	-7054
▁border	-7055
▁roles	-7056
▁Estate	-7057
▁Brad	-7058
▁ceremony	-7059
▁forever	-7060
▁discussed	-7061
▁superv	-7062
▁MO	-7063
annels	-7064
▁Cru	-7065
iking	-7066
▁Las	-7067
▁approval	-7068
amber	-7069
▁Welcome	-7070
▁zone	-7071
▁id	-7072
▁Season	-7073
▁Army	-7074
▁Student	-7075
▁suc	-7076
she	-7077
▁gaming	-7078
▁recommendations	-7079
▁stim	-7080
▁dealing	-7081
▁exposure	-7082
adel	-7083
▁sending	-7084
ultural	-7085
stal	-7086
▁Oak	-7087
▁stake	-7088
▁Iran	-7089
▁Therefore	-7090
▁evol	-7091
▁phones	-7092
MC	-7093
anes	-7094
▁Kevin	-7095
▁Sav	-7096
▁teasp	-7097
▁capabilities	-7098
▁gallery	-7099
▁division	-7100
▁Webs	-7101
whel	-7102
uclear	-7103
amsung	-7104
Americ	-7105
▁boxes	-7106
▁downtown	-7107
▁saving	-7108
▁presents	-7109
▁holidays	-7110
▁collected	-7111
▁lawyer	-7112
respond	-7113
▁possibility	-7114
▁fairly	-7115
▁Again	-7116
▁pra	-7117
▁implementation	-7118
▁mand	-7119
▁vulner	-7120
iki	-7121
ainless	-7122
▁susp	-7123
▁ensuring	-7124
ja	-7125
▁hat	-7126
GA	-7127
▁permanent	-7128
aper	-7129
▁Choose	-7130
▁attractive	-7131
▁pharm	-7132
▁cookies	-7133
▁constit	-7134
▁smell	-7135
▁flash	-7136
▁Administration	-7137
▁industries	-7138
▁hidden	-7139
▁Site	-7140
▁tub	-7141
▁suggestions	-7142
ih	-7143
aste	-7144
▁scheme	-7145
▁porn	-7146
bro	-7147
▁trib	-7148
▁Experience	-7149
▁finds	-7150
▁Natural	-7151
lers	-7152
izer	-7153
wear	-7154
▁Brian	-7155
ione	-7156
▁recognize	-7157
urse	-7158
missions	-7159
▁instrument	-7160
▁Express	-7161
RS	-7162
▁facts	-7163
▁Kenn	-7164
▁Ju	-7165
phy	-7166
▁heads	-7167
▁theory	-7168
▁vari	-7169
pot	-7170
▁priority	-7171
▁acknow	-7172
▁mainly	-7173
zes	-7174
lessly	-7175
▁($	-7176
▁Meanwhile	-7177
Sc	-7178
▁legislation	-7179
▁Ros	-7180
▁Clin	-7181
▁Isl	-7182
▁Case	-7183
ffered	-7184
▁reader	-7185
rible	-7186
▁bodies	-7187
FA	-7188
▁butt	-7189
▁categories	-7190
▁Chall	-7191
▁liber	-7192
▁posting	-7193
▁mut	-7194
▁realized	-7195
▁Hollywood	-7196
anned	-7197
page	-7198
▁communications	-7199
▁Software	-7200
inson	-7201
▁solve	-7202
▁Vers	-7203
▁Own	-7204
▁Ba	-7205
▁personally	-7206
▁Secretary	-7207
▁bench	-7208
▁upgrade	-7209
▁garlic	-7210
allas	-7211
▁bars	-7212
▁Dun	-7213
da	-7214
▁Queen	-7215
boy	-7216
phones	-7217
▁bridge	-7218
▁Emer	-7219
Book	-7220
EA	-7221
▁incredibly	-7222
▁Stay	-7223
then	-7224
▁USB	-7225
▁ancient	-7226
▁Policy	-7227
▁Learning	-7228
CT	-7229
▁Create	-7230
▁tradition	-7231
▁reform	-7232
esy	-7233
▁||	-7234
▁permission	-7235
▁Bang	-7236
stra	-7237
▁hole	-7238
ingu	-7239
▁tiss	-7240
▁Anal	-7241
osc	-7242
▁Prime	-7243
▁generate	-7244
▁Yet	-7245
ounce	-7246
odd	-7247
anny	-7248
▁Cand	-7249
▁rum	-7250
▁packages	-7251
▁CN	-7252
▁exec	-7253
▁copyright	-7254
▁calendar	-7255
tw	-7256
ials	-7257
▁handling	-7258
odge	-7259
▁substant	-7260
▁travell	-7261
▁pace	-7262
▁basketball	-7263
▁Hold	-7264
▁east	-7265
▁magic	-7266
parent	-7267
▁debate	-7268
▁claimed	-7269
▁raw	-7270
▁Additionally	-7271
OO	-7272
▁Level	-7273
▁victims	-7274
iti	-7275
That	-7276
▁clar	-7277
▁celebration	-7278
▁orange	-7279
▁programming	-7280
▁walked	-7281
▁doctors	-7282
▁Jr	-7283
▁MD	-7284
▁achieved	-7285
ulpt	-7286
▁fest	-7287
HA	-7288
▁giant	-7289
▁absor	-7290
▁Toronto	-7291
▁purchasing	-7292
▁forth	-7293
▁cotton	-7294
▁habit	-7295
onna	-7296
▁replaced	-7297
▁prospect	-7298
▁Cro	-7299
▁Stan	-7300
▁Film	-7301
▁bare	-7302
uls	-7303
burgh	-7304
▁explains	-7305
▁fifth	-7306
▁tooth	-7307
▁Illinois	-7308
▁desired	-7309
CD	-7310
level	-7311
▁Studies	-7312
zing	-7313
isa	-7314
▁king	-7315
▁manufacturers	-7316
▁Tool	-7317
▁titles	-7318
▁gym	-7319
▁spots	-7320
▁Dar	-7321
▁saved	-7322
▁seasons	-7323
▁Auto	-7324
▁marked	-7325
▁somewhere	-7326
▁insight	-7327
season	-7328
▁Consult	-7329
▁proposal	-7330
▁cuts	-7331
▁marks	-7332
▁hotels	-7333
▁initiative	-7334
▁feelings	-7335
uster	-7336
▁venue	-7337
▁slowly	-7338
▁singer	-7339
▁suffering	-7340
▁specialist	-7341
RL	-7342
▁Produ	-7343
ila	-7344
▁Catholic	-7345
▁expressed	-7346
▁NFL	-7347
▁Story	-7348
▁Capital	-7349
▁Irish	-7350
▁compat	-7351
▁requests	-7352
▁drinks	-7353
▁Material	-7354
imize	-7355
App	-7356
▁architecture	-7357
iot	-7358
▁vegetables	-7359
▁Sep	-7360
▁Agency	-7361
acon	-7362
igate	-7363
▁Save	-7364
aters	-7365
esh	-7366
aron	-7367
▁buyers	-7368
▁Joseph	-7369
▁merch	-7370
▁volunteer	-7371
▁impossible	-7372
▁gay	-7373
▁exceptional	-7374
▁Liber	-7375
▁stuck	-7376
▁Table	-7377
stream	-7378
▁meets	-7379
▁enables	-7380
▁swimming	-7381
▁combine	-7382
inton	-7383
▁broke	-7384
▁murder	-7385
bridge	-7386
▁publication	-7387
▁announcement	-7388
▁destroy	-7389
▁extension	-7390
▁ultimately	-7391
▁tie	-7392
ylvan	-7393
▁causing	-7394
▁enem	-7395
▁consultation	-7396
VER	-7397
▁encouraged	-7398
▁reducing	-7399
▁Mess	-7400
▁Pakistan	-7401
regon	-7402
▁accomplish	-7403
▁err	-7404
▁muscle	-7405
ologist	-7406
nesota	-7407
▁split	-7408
▁packaging	-7409
▁yard	-7410
▁Pu	-7411
▁Mix	-7412
▁surprising	-7413
▁lets	-7414
▁publ	-7415
ickets	-7416
aid	-7417
▁Short	-7418
▁Bell	-7419
▁magn	-7420
▁Vegas	-7421
▁Map	-7422
▁actor	-7423
▁Autom	-7424
▁Would	-7425
▁printing	-7426
▁engaged	-7427
▁rig	-7428
▁enterprise	-7429
▁pit	-7430
▁heav	-7431
▁describe	-7432
lements	-7433
▁Camer	-7434
▁massage	-7435
▁pricing	-7436
run	-7437
apore	-7438
▁DI	-7439
▁electrical	-7440
des	-7441
bel	-7442
aska	-7443
▁Motor	-7444
▁noise	-7445
▁Location	-7446
▁widely	-7447
▁preparation	-7448
▁mood	-7449
▁Kids	-7450
▁seeds	-7451
ifer	-7452
▁reasonable	-7453
▁Pen	-7454
▁talked	-7455
▁blocks	-7456
▁covering	-7457
▁enroll	-7458
▁performances	-7459
▁Labor	-7460
▁Spain	-7461
ns	-7462
▁breaking	-7463
▁pill	-7464
▁expansion	-7465
▁recognition	-7466
bell	-7467
▁framework	-7468
olis	-7469
▁wins	-7470
▁default	-7471
▁Recent	-7472
▁overwhel	-7473
eah	-7474
▁genuine	-7475
▁remark	-7476
▁traveling	-7477
▁Forest	-7478
▁seats	-7479
▁blank	-7480
rage	-7481
▁classroom	-7482
RC	-7483
wan	-7484
▁agric	-7485
▁knock	-7486
uct	-7487
cons	-7488
inator	-7489
▁concrete	-7490
▁interactive	-7491
▁CB	-7492
▁Theatre	-7493
▁neighb	-7494
▁Ira	-7495
▁Ess	-7496
▁pand	-7497
iler	-7498
)||	-7499
▁Adam	-7500
▁unw	-7501
▁Gallery	-7502
▁Studio	-7503
▁compr	-7504
▁Pin	-7505
▁birds	-7506
▁formal	-7507
▁Force	-7508
▁dishes	-7509
wich	-7510
▁Band	-7511
▁Ice	-7512
▁resistance	-7513
▁Memorial	-7514
▁writers	-7515
▁franch	-7516
▁Rs	-7517
▁Toy	-7518
▁Following	-7519
▁gall	-7520
▁empty	-7521
▁spray	-7522
gypt	-7523
▁brilliant	-7524
▁consists	-7525
ulum	-7526
▁constant	-7527
▁staying	-7528
▁increasingly	-7529
▁scenes	-7530
proof	-7531
▁compliance	-7532
▁Square	-7533
▁incorpor	-7534
▁acting	-7535
▁resulting	-7536
▁Mrs	-7537
EP	-7538
▁Annual	-7539
▁duty	-7540
▁Davis	-7541
▁suggests	-7542
▁pic	-7543
▁dad	-7544
▁recover	-7545
▁managers	-7546
nda	-7547
▁experiment	-7548
▁Fred	-7549
ludes	-7550
▁Member	-7551
▁basically	-7552
▁Treat	-7553
▁spiritual	-7554
axy	-7555
ateful	-7556
ding	-7557
▁Things	-7558
being	-7559
▁professor	-7560
▁Mah	-7561
▁Paper	-7562
ifies	-7563
▁Diego	-7564
▁anyway	-7565
▁mere	-7566
▁nights	-7567
▁bow	-7568
▁Spirit	-7569
child	-7570
books	-7571
▁graphics	-7572
▁Eric	-7573
leep	-7574
▁Dam	-7575
▁FL	-7576
otted	-7577
▁lists	-7578
▁Partners	-7579
▁slot	-7580
▁forecast	-7581
▁Jord	-7582
▁slic	-7583
▁Solutions	-7584
▁deck	-7585
▁pride	-7586
’,	-7587
▁scan	-7588
▁Samsung	-7589
abetes	-7590
▁Roman	-7591
▁prize	-7592
▁authority	-7593
▁Interest	-7594
rated	-7595
▁producing	-7596
▁Ly	-7597
ilton	-7598
▁Shipping	-7599
alo	-7600
irus	-7601
▁centers	-7602
una	-7603
▁packed	-7604
▁clicking	-7605
▁Model	-7606
▁Gro	-7607
▁Seattle	-7608
▁wireless	-7609
erate	-7610
alse	-7611
▁everywhere	-7612
▁Books	-7613
▁aims	-7614
▁legend	-7615
▁enthusi	-7616
acle	-7617
ghan	-7618
▁Golden	-7619
▁expenses	-7620
▁whenever	-7621
▁Minnesota	-7622
▁Pur	-7623
vas	-7624
ashes	-7625
▁Age	-7626
▁indeed	-7627
▁Limited	-7628
▁healing	-7629
utional	-7630
▁closing	-7631
▁talented	-7632
▁Cover	-7633
▁interpret	-7634
▁succeed	-7635
▁inner	-7636
inding	-7637
▁anniversary	-7638
▁singles	-7639
▁involves	-7640
rome	-7641
▁Lew	-7642
making	-7643
▁Swed	-7644
▁unex	-7645
▁Sound	-7646
ls	-7647
heast	-7648
▁connections	-7649
▁riding	-7650
▁pocket	-7651
▁channels	-7652
pends	-7653
▁obtained	-7654
▁GM	-7655
▁narr	-7656
▁founder	-7657
▁OK	-7658
▁vice	-7659
▁displayed	-7660
▁Magazine	-7661
▁Dream	-7662
ylvania	-7663
▁Perhaps	-7664
▁Customer	-7665
▁bunch	-7666
▁Total	-7667
▁assum	-7668
▁opens	-7669
▁delivering	-7670
greg	-7671
▁Month	-7672
▁Collection	-7673
▁Dallas	-7674
▁struggle	-7675
▁Bad	-7676
▁lemon	-7677
▁trips	-7678
▁designers	-7679
Press	-7680
ureau	-7681
▁Based	-7682
▁attrib	-7683
▁Steel	-7684
stein	-7685
▁Working	-7686
▁acts	-7687
▁differences	-7688
▁driven	-7689
lder	-7690
▁ending	-7691
▁Station	-7692
▁Pict	-7693
▁CP	-7694
abeth	-7695
nders	-7696
ronics	-7697
▁Mother	-7698
▁defined	-7699
▁complim	-7700
▁watched	-7701
▁improvements	-7702
coin	-7703
▁Cloud	-7704
▁mob	-7705
▁primarily	-7706
▁Action	-7707
bits	-7708
▁vintage	-7709
▁CL	-7710
▁loving	-7711
sters	-7712
▁boss	-7713
▁gender	-7714
▁Oregon	-7715
▁introduction	-7716
▁guaranteed	-7717
ambling	-7718
▁Dark	-7719
▁booking	-7720
▁returning	-7721
oom	-7722
▁Rub	-7723
▁Sym	-7724
▁SS	-7725
▁Rand	-7726
▁fits	-7727
▁sensitive	-7728
▁Eastern	-7729
▁shouldn	-7730
▁podcast	-7731
Fr	-7732
▁Everyone	-7733
▁apparently	-7734
▁politics	-7735
▁Anth	-7736
▁Base	-7737
▁precise	-7738
▁officially	-7739
pool	-7740
owa	-7741
oned	-7742
issions	-7743
▁Common	-7744
rive	-7745
▁Products	-7746
▁rug	-7747
▁Bru	-7748
▁alive	-7749
▁headed	-7750
AB	-7751
▁chopped	-7752
▁Return	-7753
su	-7754
iders	-7755
▁Miller	-7756
▁Spec	-7757
▁fing	-7758
▁unus	-7759
▁Jay	-7760
▁Blog	-7761
▁Change	-7762
▁narrow	-7763
▁protest	-7764
▁coat	-7765
▁highlights	-7766
▁trim	-7767
▁potentially	-7768
AND	-7769
▁honey	-7770
▁recre	-7771
▁shell	-7772
ailing	-7773
▁Transport	-7774
▁Austin	-7775
▁authentic	-7776
▁percentage	-7777
▁filling	-7778
▁maintaining	-7779
▁Capt	-7780
▁tape	-7781
▁lin	-7782
▁analyst	-7783
▁Cry	-7784
▁retirement	-7785
▁speaker	-7786
pson	-7787
▁crash	-7788
▁casual	-7789
atics	-7790
riers	-7791
▁Among	-7792
▁personality	-7793
▁assistant	-7794
▁Corporation	-7795
▁charity	-7796
▁acquis	-7797
▁scientists	-7798
jo	-7799
wart	-7800
▁Kingdom	-7801
▁resident	-7802
inent	-7803
▁Guard	-7804
lose	-7805
scribe	-7806
▁falling	-7807
▁plot	-7808
raid	-7809
▁DO	-7810
▁elev	-7811
pection	-7812
iac	-7813
▁opinions	-7814
onut	-7815
▁Iraq	-7816
▁bills	-7817
▁aircraft	-7818
▁licensed	-7819
▁Josh	-7820
ali	-7821
▁CR	-7822
▁Barb	-7823
▁strike	-7824
▁heading	-7825
▁naturally	-7826
ydney	-7827
acher	-7828
▁Dead	-7829
raction	-7830
▁consumption	-7831
▁renov	-7832
▁Nic	-7833
▁Sarah	-7834
▁tired	-7835
▁carrying	-7836
arliam	-7837
▁gentle	-7838
▁colours	-7839
▁Jewish	-7840
Cont	-7841
▁correspond	-7842
▁Egypt	-7843
▁obviously	-7844
▁preparing	-7845
▁functional	-7846
▁involving	-7847
asted	-7848
ilipp	-7849
▁Ap	-7850
▁Stephen	-7851
▁suffered	-7852
▁iOS	-7853
▁smartphone	-7854
▁NC	-7855
▁oz	-7856
▁Ven	-7857
teen	-7858
▁tap	-7859
▁stronger	-7860
▁intent	-7861
▁winners	-7862
osophy	-7863
▁controls	-7864
▁Singapore	-7865
athy	-7866
▁instant	-7867
▁CON	-7868
▁satisfaction	-7869
ockey	-7870
oices	-7871
▁communicate	-7872
▁integration	-7873
▁Golf	-7874
▁aggress	-7875
▁Jason	-7876
▁attending	-7877
▁colleagues	-7878
ilty	-7879
hour	-7880
▁statements	-7881
phia	-7882
▁lect	-7883
▁Jam	-7884
▁racing	-7885
ador	-7886
▁Dave	-7887
tics	-7888
anchester	-7889
▁rising	-7890
▁finger	-7891
▁component	-7892
epend	-7893
▁minimal	-7894
▁gained	-7895
▁ski	-7896
▁tracking	-7897
uma	-7898
▁undert	-7899
▁Weight	-7900
▁Atlanta	-7901
▁Website	-7902
iley	-7903
terior	-7904
▁Creek	-7905
▁behalf	-7906
▁reduction	-7907
▁trailer	-7908
▁Past	-7909
arliament	-7910
▁bid	-7911
vard	-7912
Man	-7913
unes	-7914
tery	-7915
rovers	-7916
icted	-7917
lee	-7918
etch	-7919
▁checking	-7920
▁principles	-7921
▁Vice	-7922
▁superior	-7923
▁signing	-7924
▁dollar	-7925
▁focuses	-7926
▁tone	-7927
▁ED	-7928
▁displ	-7929
▁illegal	-7930
▁preferred	-7931
▁findings	-7932
▁Friends	-7933
▁deposit	-7934
inally	-7935
sylvania	-7936
avor	-7937
▁Bit	-7938
▁Lic	-7939
adelphia	-7940
lace	-7941
ocation	-7942
▁producer	-7943
▁Rog	-7944
▁Britain	-7945
▁Korea	-7946
ucks	-7947
ression	-7948
▁batt	-7949
▁intelligence	-7950
▁heating	-7951
▁enforcement	-7952
bow	-7953
intend	-7954
fall	-7955
aka	-7956
▁clubs	-7957
▁Image	-7958
▁regardless	-7959
inals	-7960
▁Pick	-7961
▁humans	-7962
amel	-7963
▁emails	-7964
▁divor	-7965
▁assault	-7966
brid	-7967
limited	-7968
▁Tony	-7969
▁Kansas	-7970
▁removal	-7971
▁participating	-7972
▁Columbia	-7973
haust	-7974
vi	-7975
▁;	-7976
▁newspaper	-7977
iously	-7978
gent	-7979
▁till	-7980
▁Marc	-7981
----	-7982
▁array	-7983
▁Uk	-7984
▁Bridge	-7985
htt	-7986
zzle	-7987
▁anymore	-7988
makers	-7989
aine	-7990
▁flower	-7991
▁Winter	-7992
▁yield	-7993
▁Below	-7994
▁acceler	-7995
▁lifetime	-7996
cker	-7997
▁lesson	-7998
▁Has	-7999
ints	-8000
▁roads	-8001
UM	-8002
▁Hi	-8003
uten	-8004
▁usage	-8005
roke	-8006
▁compare	-8007
olit	-8008
▁loose	-8009
▁ham	-8010
▁Hun	-8011
▁entering	-8012
▁jewelry	-8013
▁Quick	-8014
▁Sem	-8015
▁Eliz	-8016
▁faced	-8017
▁Flow	-8018
▁stations	-8019
pir	-8020
ventional	-8021
▁passionate	-8022
▁divid	-8023
▁stable	-8024
▁conclus	-8025
▁Village	-8026
AV	-8027
ho	-8028
▁CC	-8029
▁ocean	-8030
ran	-8031
▁intense	-8032
giving	-8033
tail	-8034
▁Front	-8035
▁expression	-8036
mers	-8037
etary	-8038
▁Resources	-8039
▁Lady	-8040
▁introduce	-8041
▁poet	-8042
▁drama	-8043
▁recip	-8044
▁Break	-8045
▁rural	-8046
▁diseases	-8047
▁pandemic	-8048
onic	-8049
▁occurred	-8050
▁somewhat	-8051
swe	-8052
▁Kitchen	-8053
orous	-8054
▁string	-8055
pending	-8056
▁NEW	-8057
▁exception	-8058
▁warranty	-8059
aza	-8060
▁lie	-8061
▁Henry	-8062
▁Tenn	-8063
▁olive	-8064
▁careful	-8065
▁sharp	-8066
▁strange	-8067
▁workshops	-8068
▁Excell	-8069
▁oppon	-8070
▁damaged	-8071
▁viewing	-8072
▁BB	-8073
▁compete	-8074
▁strict	-8075
▁EN	-8076
▁baseball	-8077
▁Was	-8078
▁factory	-8079
oked	-8080
▁elegant	-8081
▁literally	-8082
▁solo	-8083
▁computers	-8084
itled	-8085
▁whilst	-8086
▁creativity	-8087
▁visible	-8088
winning	-8089
▁screens	-8090
▁Bol	-8091
▁era	-8092
▁association	-8093
▁referred	-8094
▁photographs	-8095
▁shoulder	-8096
▁EX	-8097
▁Sale	-8098
EST	-8099
oween	-8100
▁Lar	-8101
▁Due	-8102
▁mac	-8103
▁exceed	-8104
▁amounts	-8105
Up	-8106
▁Baby	-8107
▁attach	-8108
▁Without	-8109
▁DJ	-8110
▁visits	-8111
▁Impro	-8112
▁conflict	-8113
liers	-8114
▁Wilson	-8115
▁flying	-8116
▁depends	-8117
▁Ministry	-8118
inity	-8119
▁je	-8120
▁stead	-8121
▁SM	-8122
EG	-8123
▁limits	-8124
▁lady	-8125
walk	-8126
▁withd	-8127
▁twist	-8128
▁fraud	-8129
▁Process	-8130
▁SEO	-8131
▁Body	-8132
cycle	-8133
▁AB	-8134
▁Deb	-8135
▁smoke	-8136
that	-8137
acc	-8138
▁Edition	-8139
▁Steven	-8140
from	-8141
▁Creative	-8142
▁Sug	-8143
▁Pennsylvania	-8144
▁engaging	-8145
▁Grow	-8146
▁artwork	-8147
▁chips	-8148
▁phr	-8149
▁coaching	-8150
▁drawn	-8151
▁signature	-8152
riculum	-8153
▁flexibility	-8154
Do	-8155
▁samples	-8156
▁developer	-8157
▁resort	-8158
▁minister	-8159
▁bact	-8160
▁Sydney	-8161
▁newsletter	-8162
achelor	-8163
icide	-8164
usive	-8165
▁Stone	-8166
▁Jordan	-8167
▁Bry	-8168
▁Single	-8169
▁golden	-8170
umer	-8171
▁speakers	-8172
▁Money	-8173
▁regions	-8174
▁Forum	-8175
▁Must	-8176
▁invite	-8177
▁accuracy	-8178
▁puts	-8179
▁setup	-8180
▁!	-8181
▁Perfect	-8182
pton	-8183
▁persons	-8184
awa	-8185
lier	-8186
yes	-8187
▁accused	-8188
▁fault	-8189
▁NAS	-8190
▁Fast	-8191
▁Mu	-8192
▁consideration	-8193
▁Tru	-8194
▁decent	-8195
unicip	-8196
▁Eth	-8197
▁Holy	-8198
▁electricity	-8199
▁anxiety	-8200
▁Bern	-8201
▁weren	-8202
▁Sche	-8203
▁sees	-8204
▁shirt	-8205
▁Kelly	-8206
obe	-8207
▁bold	-8208
▁participation	-8209
▁discl	-8210
Te	-8211
ubs	-8212
▁Staff	-8213
atile	-8214
▁farmers	-8215
▁focusing	-8216
▁Bush	-8217
▁wondering	-8218
▁Hills	-8219
▁Supreme	-8220
▁Ave	-8221
▁temperatures	-8222
PD	-8223
▁necessarily	-8224
month	-8225
▁Greg	-8226
anted	-8227
▁grateful	-8228
▁subsequ	-8229
▁virus	-8230
▁cabin	-8231
▁interviews	-8232
▁contributions	-8233
found	-8234
anguage	-8235
▁insights	-8236
▁Manchester	-8237
▁Philadelphia	-8238
uminum	-8239
mates	-8240
▁yoga	-8241
onsin	-8242
She	-8243
▁applying	-8244
▁boards	-8245
▁Histor	-8246
.....	-8247
▁fundra	-8248
▁loyal	-8249
▁rely	-8250
▁NO	-8251
▁lip	-8252
▁afraid	-8253
▁sculpt	-8254
isconsin	-8255
▁Harry	-8256
otive	-8257
▁HERE	-8258
▁Father	-8259
▁texture	-8260
mble	-8261
▁reaction	-8262
▁tor	-8263
▁Kind	-8264
▁seam	-8265
▁childhood	-8266
▁controlled	-8267
ifting	-8268
▁Details	-8269
▁Private	-8270
▁structures	-8271
▁stages	-8272
style	-8273
▁recon	-8274
▁raising	-8275
▁hung	-8276
▁cameras	-8277
▁compensation	-8278
▁vill	-8279
▁Hay	-8280
▁phen	-8281
▁lies	-8282
Me	-8283
▁brush	-8284
▁wanting	-8285
▁wake	-8286
▁Nut	-8287
bourne	-8288
▁blind	-8289
▁Reading	-8290
▁Scotland	-8291
▁promoting	-8292
▁ear	-8293
athered	-8294
acious	-8295
▁conserv	-8296
TER	-8297
▁weapons	-8298
▁personnel	-8299
▁checked	-8300
oken	-8301
oted	-8302
▁unknown	-8303
iary	-8304
▁struggling	-8305
▁Eag	-8306
▁cul	-8307
▁generated	-8308
▁writes	-8309
claim	-8310
onder	-8311
▁synt	-8312
▁zero	-8313
▁param	-8314
▁Flo	-8315
▁Comb	-8316
quis	-8317
▁clock	-8318
▁pig	-8319
ista	-8320
▁sour	-8321
▁Him	-8322
step	-8323
▁Tel	-8324
▁tweet	-8325
▁Everything	-8326
▁panels	-8327
▁Corn	-8328
including	-8329
▁arrival	-8330
▁Comments	-8331
▁Install	-8332
▁reveal	-8333
▁tied	-8334
▁commonly	-8335
▁Explore	-8336
▁yours	-8337
▁Trade	-8338
acular	-8339
CO	-8340
▁Fab	-8341
▁signal	-8342
▁mold	-8343
▁graphic	-8344
▁semi	-8345
▁Modern	-8346
▁myst	-8347
▁convenience	-8348
▁champion	-8349
▁recruit	-8350
▁teaspoon	-8351
▁Civil	-8352
▁territ	-8353
▁promotion	-8354
▁Matthew	-8355
high	-8356
▁vess	-8357
date	-8358
▁Ever	-8359
▁ly	-8360
▁Attorney	-8361
▁Core	-8362
aire	-8363
▁opposite	-8364
▁laptop	-8365
gon	-8366
▁chest	-8367
▁wave	-8368
▁Exp	-8369
▁controvers	-8370
▁Appro	-8371
▁Regional	-8372
Sp	-8373
▁comparison	-8374
▁warning	-8375
chers	-8376
wr	-8377
▁entrance	-8378
▁lake	-8379
▁exposed	-8380
▁Iowa	-8381
elled	-8382
▁harder	-8383
▁CS	-8384
ulating	-8385
▁PH	-8386
▁borrow	-8387
▁Protection	-8388
▁elected	-8389
▁Muslim	-8390
obody	-8391
▁Arm	-8392
▁exploring	-8393
▁SE	-8394
▁Dim	-8395
mun	-8396
oof	-8397
▁criteria	-8398
▁Sport	-8399
sole	-8400
▁codes	-8401
▁wooden	-8402
▁donation	-8403
▁Victoria	-8404
▁gotten	-8405
▁remained	-8406
▁flag	-8407
▁Poly	-8408
'.	-8409
▁scoring	-8410
vironments	-8411
oda	-8412
▁escape	-8413
▁laid	-8414
▁Prim	-8415
edge	-8416
och	-8417
stract	-8418
▁languages	-8419
▁vine	-8420
sex	-8421
▁wal	-8422
eb	-8423
▁nuclear	-8424
▁asset	-8425
▁subscription	-8426
▁outcome	-8427
▁hanging	-8428
ellect	-8429
▁Bh	-8430
▁Patrick	-8431
ervations	-8432
▁Ont	-8433
▁Kong	-8434
▁Pitt	-8435
▁greatly	-8436
▁definition	-8437
▁Ox	-8438
▁thinks	-8439
▁diversity	-8440
sea	-8441
sized	-8442
▁Orange	-8443
▁sexy	-8444
gor	-8445
▁addresses	-8446
▁toile	-8447
▁painted	-8448
▁reaching	-8449
apping	-8450
▁Hawai	-8451
▁Philipp	-8452
week	-8453
▁Editor	-8454
▁unexpected	-8455
▁isol	-8456
▁pets	-8457
▁Elizabeth	-8458
▁scores	-8459
itution	-8460
war	-8461
hol	-8462
▁Published	-8463
▁repairs	-8464
roit	-8465
▁Description	-8466
▁Classic	-8467
▁Sex	-8468
▁union	-8469
angers	-8470
▁Prior	-8471
▁Features	-8472
▁shipped	-8473
▁Innov	-8474
▁sections	-8475
power	-8476
▁Psych	-8477
▁uncom	-8478
▁repeated	-8479
▁clip	-8480
▁Ah	-8481
words	-8482
▁admitted	-8483
▁durable	-8484
▁outcomes	-8485
▁export	-8486
▁demands	-8487
olec	-8488
ira	-8489
IGH	-8490
nce	-8491
oen	-8492
▁functionality	-8493
▁Wisconsin	-8494
▁Bowl	-8495
▁everybody	-8496
▁tsp	-8497
ivalent	-8498
▁complicated	-8499
char	-8500
▁sin	-8501
EW	-8502
▁plane	-8503
▁Lyn	-8504
screen	-8505
▁employers	-8506
▁Youth	-8507
▁fiber	-8508
▁ALL	-8509
▁tutorial	-8510
▁Cool	-8511
▁Assistant	-8512
▁UC	-8513
▁safely	-8514
▁concepts	-8515
▁twenty	-8516
rets	-8517
▁Manufact	-8518
▁struck	-8519
▁employer	-8520
▁representative	-8521
▁alarm	-8522
▁requirement	-8523
▁dough	-8524
▁toys	-8525
▁obst	-8526
▁networking	-8527
▁Hur	-8528
▁plain	-8529
▁contribution	-8530
▁Bat	-8531
▁tum	-8532
▁Bow	-8533
▁Gi	-8534
▁Collect	-8535
▁certificate	-8536
rug	-8537
▁Ten	-8538
▁Var	-8539
▁studying	-8540
▁revolution	-8541
▁Advis	-8542
▁Additional	-8543
▁Simply	-8544
▁evaluation	-8545
▁deploy	-8546
▁jail	-8547
erning	-8548
▁instruction	-8549
eping	-8550
▁Chapter	-8551
▁cooked	-8552
heim	-8553
▁Rick	-8554
▁completion	-8555
▁bands	-8556
▁Latin	-8557
▁Industry	-8558
▁newest	-8559
minute	-8560
▁beef	-8561
▁Exchange	-8562
▁matching	-8563
▁calm	-8564
ruption	-8565
▁tradem	-8566
▁temporary	-8567
arring	-8568
dale	-8569
ieties	-8570
rog	-8571
▁Blu	-8572
▁cher	-8573
▁possess	-8574
▁strongly	-8575
▁Indiana	-8576
▁Nav	-8577
▁Complete	-8578
▁Championship	-8579
▁guilty	-8580
▁initially	-8581
▁Halloween	-8582
▁bass	-8583
aver	-8584
▁deeply	-8585
▁hip	-8586
▁waters	-8587
▁arr	-8588
▁holes	-8589
▁maintained	-8590
▁Kar	-8591
▁Send	-8592
▁organisation	-8593
utter	-8594
▁Employ	-8595
lude	-8596
oz	-8597
pense	-8598
▁Reviews	-8599
▁screw	-8600
▁Glass	-8601
▁romantic	-8602
▁reception	-8603
▁Entertain	-8604
▁residence	-8605
▁hearts	-8606
▁releases	-8607
ocal	-8608
▁pizza	-8609
%,	-8610
▁Host	-8611
▁Method	-8612
▁hes	-8613
▁Currently	-8614
▁Cancer	-8615
▁requested	-8616
▁actress	-8617
ko	-8618
enities	-8619
Get	-8620
xic	-8621
erving	-8622
oir	-8623
▁salad	-8624
▁exhaust	-8625
▁voters	-8626
▁blogs	-8627
Tr	-8628
▁supplement	-8629
▁Viet	-8630
▁tablet	-8631
vals	-8632
▁Circ	-8633
▁satisfied	-8634
▁Independ	-8635
▁singing	-8636
▁subjects	-8637
▁approaches	-8638
▁Donald	-8639
▁haz	-8640
ounge	-8641
▁Finance	-8642
▁Days	-8643
▁coal	-8644
▁loud	-8645
▁sought	-8646
▁sorry	-8647
▁Brother	-8648
iche	-8649
IST	-8650
▁represented	-8651
▁Ak	-8652
▁Tam	-8653
▁boot	-8654
▁Nation	-8655
▁swing	-8656
▁Update	-8657
▁Content	-8658
▁southern	-8659
▁Questions	-8660
▁carpet	-8661
▁franchise	-8662
▁prime	-8663
▁Six	-8664
▁kil	-8665
▁bone	-8666
▁Ban	-8667
oore	-8668
▁Drag	-8669
▁Anton	-8670
▁athletes	-8671
▁III	-8672
▁Five	-8673
▁insert	-8674
▁convert	-8675
▁reject	-8676
▁slee	-8677
▁Sir	-8678
▁frustr	-8679
▁infection	-8680
▁Bud	-8681
▁automatic	-8682
▁Hong	-8683
▁stored	-8684
▁environments	-8685
▁cancell	-8686
▁flights	-8687
▁overse	-8688
▁Planning	-8689
▁Bath	-8690
▁tact	-8691
▁bull	-8692
▁Jess	-8693
oln	-8694
▁errors	-8695
▁inventory	-8696
▁Du	-8697
▁desktop	-8698
▁prayer	-8699
▁chef	-8700
▁hopefully	-8701
charge	-8702
▁sink	-8703
▁orient	-8704
▁Sony	-8705
▁dual	-8706
▁Round	-8707
▁investments	-8708
▁falls	-8709
▁unusual	-8710
▁comedy	-8711
agen	-8712
▁donations	-8713
izon	-8714
▁Wars	-8715
▁delivers	-8716
▁Self	-8717
▁BM	-8718
▁gap	-8719
▁Study	-8720
itis	-8721
▁pregnant	-8722
ificial	-8723
▁discussions	-8724
▁stamp	-8725
▁nose	-8726
▁accommodation	-8727
▁Ocean	-8728
link	-8729
▁ft	-8730
urious	-8731
▁initiatives	-8732
▁McG	-8733
▁false	-8734
▁stylish	-8735
▁transactions	-8736
aret	-8737
▁TR	-8738
▁granted	-8739
▁rapidly	-8740
ormal	-8741
▁Iss	-8742
▁transaction	-8743
▁Restaur	-8744
▁strengthen	-8745
▁Lewis	-8746
▁react	-8747
game	-8748
▁Univers	-8749
▁ladies	-8750
▁lens	-8751
▁worn	-8752
▁pregnancy	-8753
▁indoor	-8754
▁Tal	-8755
ART	-8756
▁experim	-8757
▁crypt	-8758
ji	-8759
▁directions	-8760
▁hiring	-8761
▁dispos	-8762
▁ET	-8763
oa	-8764
▁certification	-8765
oons	-8766
▁ensures	-8767
imp	-8768
▁finishing	-8769
Qu	-8770
▁Sciences	-8771
ingham	-8772
▁largely	-8773
▁Property	-8774
hire	-8775
▁resume	-8776
▁edit	-8777
via	-8778
▁Large	-8779
amental	-8780
Every	-8781
▁Exam	-8782
▁extraord	-8783
olly	-8784
▁deeper	-8785
▁therap	-8786
▁Major	-8787
▁Electric	-8788
▁acquired	-8789
▁Ren	-8790
▁hyp	-8791
lah	-8792
▁Benef	-8793
otes	-8794
▁surve	-8795
▁Saint	-8796
▁trusted	-8797
df	-8798
▁Style	-8799
▁Greek	-8800
▁catalog	-8801
▁cats	-8802
etts	-8803
▁restrictions	-8804
▁Prince	-8805
▁Fresh	-8806
▁ranging	-8807
▁Performance	-8808
▁branch	-8809
▁globe	-8810
rape	-8811
HL	-8812
▁Application	-8813
▁Less	-8814
▁aimed	-8815
uties	-8816
▁collections	-8817
ds	-8818
igious	-8819
piece	-8820
▁Michel	-8821
▁emerging	-8822
▁hitting	-8823
▁mild	-8824
▁WW	-8825
▁Democratic	-8826
▁underst	-8827
▁Delivery	-8828
▁Computer	-8829
▁correctly	-8830
Ne	-8831
ensus	-8832
▁makeup	-8833
world	-8834
▁HP	-8835
▁expanded	-8836
aug	-8837
elle	-8838
▁attitude	-8839
▁Architect	-8840
▁literature	-8841
orship	-8842
▁targeted	-8843
TE	-8844
▁workplace	-8845
▁Early	-8846
▁Comment	-8847
onymous	-8848
orses	-8849
▁finest	-8850
▁mistake	-8851
▁Course	-8852
▁gate	-8853
ffective	-8854
▁diamond	-8855
▁Op	-8856
▁contained	-8857
Hz	-8858
▁Barn	-8859
▁fabulous	-8860
ALL	-8861
agers	-8862
wall	-8863
▁Snow	-8864
▁Parent	-8865
isdom	-8866
▁Ross	-8867
▁rib	-8868
▁surge	-8869
▁tissue	-8870
▁Such	-8871
▁BBC	-8872
American	-8873
doors	-8874
▁alt	-8875
▁COM	-8876
IVE	-8877
▁tube	-8878
▁sed	-8879
▁hell	-8880
ceeds	-8881
▁homeown	-8882
▁tons	-8883
▁contracts	-8884
▁experiencing	-8885
▁Tro	-8886
▁Environmental	-8887
▁sne	-8888
achus	-8889
▁skilled	-8890
▁offensive	-8891
▁mask	-8892
nie	-8893
▁estimate	-8894
uana	-8895
▁weigh	-8896
bound	-8897
iffe	-8898
▁containing	-8899
▁appointed	-8900
▁sophist	-8901
▁Challenge	-8902
▁rolling	-8903
▁Section	-8904
UST	-8905
swered	-8906
▁refrig	-8907
▁Hom	-8908
▁Laure	-8909
▁bub	-8910
▁SA	-8911
▁themes	-8912
▁engines	-8913
▁Premier	-8914
▁demonstrate	-8915
▁suffer	-8916
▁sufficient	-8917
▁Entertainment	-8918
▁telephone	-8919
itate	-8920
tes	-8921
essee	-8922
▁weird	-8923
▁Moon	-8924
othe	-8925
▁editing	-8926
Free	-8927
▁container	-8928
rus	-8929
covery	-8930
▁Advent	-8931
viously	-8932
uters	-8933
han	-8934
▁personalized	-8935
▁stayed	-8936
PL	-8937
▁Os	-8938
▁subsid	-8939
▁equally	-8940
▁Text	-8941
UD	-8942
pay	-8943
▁Song	-8944
▁Celebr	-8945
▁assume	-8946
▁ministry	-8947
▁copies	-8948
▁workout	-8949
▁segment	-8950
▁Construction	-8951
▁formula	-8952
▁Integr	-8953
▁math	-8954
incoln	-8955
▁defensive	-8956
graduate	-8957
▁aged	-8958
▁floors	-8959
orneys	-8960
▁Side	-8961
▁photographer	-8962
core	-8963
▁responded	-8964
▁Server	-8965
▁roots	-8966
raine	-8967
▁Cooper	-8968
▁voted	-8969
aya	-8970
▁drives	-8971
▁Buff	-8972
▁sentence	-8973
ela	-8974
▁tours	-8975
▁Anderson	-8976
▁couples	-8977
▁recru	-8978
aga	-8979
▁Advanced	-8980
▁Events	-8981
▁Dur	-8982
▁BC	-8983
▁drain	-8984
▁utility	-8985
orms	-8986
▁breaks	-8987
▁Compet	-8988
▁outs	-8989
▁shapes	-8990
▁’	-8991
▁indicate	-8992
▁purchases	-8993
▁Channel	-8994
Last	-8995
▁pilot	-8996
▁stood	-8997
▁viewed	-8998
▁beans	-8999
▁aest	-9000
cut	-9001
▁layout	-9002
▁inspect	-9003
▁nursing	-9004
▁Double	-9005
achusetts	-9006
icking	-9007
▁advantages	-9008
▁wise	-9009
▁stability	-9010
▁admit	-9011
▁Galaxy	-9012
▁WordPress	-9013
gi	-9014
▁wrap	-9015
▁Linux	-9016
otte	-9017
▁muscles	-9018
▁sear	-9019
||$	-9020
▁Bring	-9021
▁streaming	-9022
▁Veter	-9023
From	-9024
▁ranked	-9025
inar	-9026
▁Lock	-9027
gree	-9028
▁Les	-9029
▁Allen	-9030
▁Laur	-9031
▁buff	-9032
▁powered	-9033
▁hosts	-9034
▁Tickets	-9035
▁Inn	-9036
ouses	-9037
▁campaigns	-9038
oli	-9039
▁displays	-9040
▁Iron	-9041
▁Along	-9042
▁Sant	-9043
▁outfit	-9044
home	-9045
▁Mind	-9046
▁Hair	-9047
▁religion	-9048
iour	-9049
▁align	-9050
▁keys	-9051
▁Ath	-9052
▁conscious	-9053
▁excite	-9054
▁amend	-9055
▁Shel	-9056
bered	-9057
▁leaf	-9058
▁explan	-9059
▁Detroit	-9060
▁grace	-9061
▁Grant	-9062
▁nutrition	-9063
▁Anthony	-9064
▁belt	-9065
▁Near	-9066
▁login	-9067
▁Mail	-9068
▁lowest	-9069
hell	-9070
▁emotions	-9071
▁File	-9072
▁equivalent	-9073
iscal	-9074
▁Gre	-9075
▁onion	-9076
▁studied	-9077
▁Football	-9078
SW	-9079
▁respectively	-9080
▁killing	-9081
▁IM	-9082
▁cam	-9083
▁Overall	-9084
▁Sweet	-9085
▁alert	-9086
▁Thus	-9087
▁Heat	-9088
▁accounting	-9089
▁neither	-9090
zed	-9091
▁peak	-9092
▁Final	-9093
inyl	-9094
▁productivity	-9095
▁Albert	-9096
looking	-9097
▁equity	-9098
utor	-9099
▁FR	-9100
▁fewer	-9101
▁statistics	-9102
▁Kir	-9103
▁evil	-9104
ESS	-9105
▁Marsh	-9106
cor	-9107
▁SD	-9108
▁organisations	-9109
▁Categ	-9110
▁Maryland	-9111
OG	-9112
ouri	-9113
▁Tree	-9114
▁junior	-9115
▁neut	-9116
▁god	-9117
rat	-9118
▁importantly	-9119
▁institution	-9120
▁Mini	-9121
ellite	-9122
▁encounter	-9123
▁Mayor	-9124
Post	-9125
▁Ontario	-9126
▁Nig	-9127
▁Girls	-9128
▁Title	-9129
▁objective	-9130
lined	-9131
iatric	-9132
athon	-9133
▁respective	-9134
fire	-9135
opher	-9136
ervice	-9137
▁Denver	-9138
▁letting	-9139
cery	-9140
umni	-9141
undry	-9142
▁deserve	-9143
▁Records	-9144
▁locally	-9145
loved	-9146
ighth	-9147
▁Address	-9148
▁parks	-9149
Ab	-9150
▁Clinton	-9151
ECT	-9152
▁Register	-9153
▁comprom	-9154
▁Roll	-9155
▁URL	-9156
▁veteran	-9157
!!!!	-9158
▁dess	-9159
wa	-9160
▁compliment	-9161
▁Valent	-9162
▁babies	-9163
▁layers	-9164
▁characteristics	-9165
▁Index	-9166
▁Article	-9167
▁operated	-9168
email	-9169
▁earnings	-9170
▁Clark	-9171
▁banking	-9172
roduction	-9173
▁adopted	-9174
▁combat	-9175
▁maps	-9176
▁beneficial	-9177
KE	-9178
▁por	-9179
onda	-9180
▁suppliers	-9181
▁Always	-9182
criptions	-9183
▁Hu	-9184
▁entrepreneurs	-9185
▁Release	-9186
▁ru	-9187
▁votes	-9188
▁stocks	-9189
▁Polit	-9190
▁mistakes	-9191
▁Sure	-9192
▁losses	-9193
▁Coach	-9194
▁balls	-9195
fa	-9196
▁worried	-9197
py	-9198
ILL	-9199
▁Trail	-9200
▁possibilities	-9201
▁Birth	-9202
dri	-9203
▁Inv	-9204
pany	-9205
▁resid	-9206
▁patch	-9207
▁rubber	-9208
▁diabetes	-9209
▁Hart	-9210
ousing	-9211
▁Chem	-9212
▁Trad	-9213
lahoma	-9214
▁Craft	-9215
oding	-9216
FF	-9217
assion	-9218
▁hide	-9219
▁complement	-9220
▁AI	-9221
▁pursue	-9222
terest	-9223
▁spir	-9224
mate	-9225
▁Az	-9226
▁inspire	-9227
▁Rain	-9228
▁expanding	-9229
▁attempts	-9230
era	-9231
▁walks	-9232
▁Brew	-9233
▁refres	-9234
▁dies	-9235
ogen	-9236
▁graduated	-9237
oto	-9238
▁delighted	-9239
▁pul	-9240
overs	-9241
▁ownership	-9242
▁Speed	-9243
▁continu	-9244
BM	-9245
▁venture	-9246
▁acquisition	-9247
olen	-9248
▁intention	-9249
▁shortly	-9250
Pr	-9251
▁aer	-9252
▁prohib	-9253
▁Olympic	-9254
▁Massachusetts	-9255
grade	-9256
▁brothers	-9257
QL	-9258
▁auction	-9259
▁laser	-9260
▁abilities	-9261
abama	-9262
▁consequences	-9263
▁tender	-9264
▁vendors	-9265
▁aband	-9266
▁sevent	-9267
▁Da	-9268
▁picking	-9269
▁checks	-9270
▁spectacular	-9271
bie	-9272
ijuana	-9273
▁bomb	-9274
▁depression	-9275
cked	-9276
▁Prep	-9277
▁hunt	-9278
▁therm	-9279
dep	-9280
itches	-9281
▁stainless	-9282
angle	-9283
',	-9284
▁oral	-9285
▁distributed	-9286
▁crown	-9287
▁unif	-9288
▁ske	-9289
▁celebrated	-9290
▁implemented	-9291
▁Future	-9292
▁squad	-9293
▁occurs	-9294
▁Mort	-9295
▁bol	-9296
▁Schools	-9297
ceived	-9298
View	-9299
▁Ult	-9300
▁reviewed	-9301
▁secondary	-9302
▁suite	-9303
▁exercises	-9304
▁gathering	-9305
▁Gift	-9306
ii	-9307
▁Jane	-9308
▁pointed	-9309
▁consistently	-9310
berries	-9311
▁entitled	-9312
▁representatives	-9313
▁northern	-9314
▁reportedly	-9315
incess	-9316
▁vibrant	-9317
▁inspection	-9318
▁survive	-9319
▁chronic	-9320
overty	-9321
▁Pers	-9322
▁lawyers	-9323
▁strip	-9324
▁gig	-9325
▁Tell	-9326
▁Years	-9327
▁passes	-9328
▁Rober	-9329
▁instantly	-9330
▁Unt	-9331
▁Remove	-9332
through	-9333
▁retired	-9334
▁cater	-9335
unate	-9336
▁shr	-9337
▁vert	-9338
▁coaches	-9339
▁bes	-9340
▁enhanced	-9341
▁retailers	-9342
▁disaster	-9343
▁appreciated	-9344
store	-9345
▁deadline	-9346
shop	-9347
▁Stadium	-9348
▁Machine	-9349
▁Corp	-9350
▁investing	-9351
▁Bird	-9352
▁Tips	-9353
ortion	-9354
▁hydro	-9355
▁argument	-9356
▁Gun	-9357
▁gre	-9358
▁pip	-9359
▁transmission	-9360
aha	-9361
▁Wales	-9362
▁Anyone	-9363
▁brew	-9364
urities	-9365
▁Tennessee	-9366
▁fiction	-9367
oust	-9368
▁Simon	-9369
▁curriculum	-9370
▁Better	-9371
▁ratio	-9372
gov	-9373
▁mountains	-9374
▁reply	-9375
abil	-9376
▁advertise	-9377
olar	-9378
mouth	-9379
▁universities	-9380
tical	-9381
▁sacr	-9382
▁soup	-9383
build	-9384
▁overnight	-9385
▁Sab	-9386
▁Beh	-9387
▁iconic	-9388
▁knee	-9389
mo	-9390
▁Unit	-9391
inst	-9392
▁tackle	-9393
mont	-9394
▁hyper	-9395
▁privile	-9396
▁thousand	-9397
▁suddenly	-9398
ussion	-9399
idal	-9400
▁Pear	-9401
▁Lincoln	-9402
ami	-9403
▁CT	-9404
erk	-9405
▁Wire	-9406
▁shed	-9407
▁restore	-9408
encing	-9409
Pe	-9410
▁impressed	-9411
▁concerning	-9412
amics	-9413
itty	-9414
▁followers	-9415
iah	-9416
▁amongst	-9417
▁cow	-9418
▁Commercial	-9419
ouver	-9420
▁Relations	-9421
▁Communications	-9422
sect	-9423
▁documentation	-9424
▁answered	-9425
▁philosophy	-9426
After	-9427
▁western	-9428
▁HR	-9429
▁offense	-9430
▁beautifully	-9431
▁decline	-9432
▁repeat	-9433
▁abroad	-9434
▁fundamental	-9435
▁circle	-9436
airy	-9437
▁extent	-9438
▁championship	-9439
owned	-9440
osit	-9441
▁heavily	-9442
▁explos	-9443
▁stom	-9444
eters	-9445
▁compatible	-9446
▁servers	-9447
FT	-9448
▁Jean	-9449
fish	-9450
▁Governor	-9451
Des	-9452
▁heritage	-9453
▁contributed	-9454
▁PL	-9455
apolis	-9456
Not	-9457
▁credits	-9458
▁Harris	-9459
▁ink	-9460
▁passengers	-9461
▁wildlife	-9462
▁interaction	-9463
amon	-9464
hyth	-9465
sis	-9466
▁quotes	-9467
inth	-9468
▁Wine	-9469
▁describes	-9470
rection	-9471
ugs	-9472
Ind	-9473
▁Kit	-9474
▁phenomen	-9475
▁Gas	-9476
▁Nature	-9477
▁producers	-9478
▁captured	-9479
▁Portland	-9480
▁Roy	-9481
▁beds	-9482
▁wheels	-9483
▁adequ	-9484
▁Springs	-9485
▁IC	-9486
▁gathered	-9487
pon	-9488
ellectual	-9489
gged	-9490
gorith	-9491
▁User	-9492
▁perm	-9493
▁semin	-9494
▁Delhi	-9495
▁handy	-9496
▁Turkey	-9497
▁discounts	-9498
gener	-9499
▁Burn	-9500
▁fruits	-9501
ustration	-9502
▁minds	-9503
▁currency	-9504
▁operational	-9505
▁Rail	-9506
▁salary	-9507
▁sponsored	-9508
▁dramatic	-9509
▁Making	-9510
▁applicable	-9511
▁Ast	-9512
▁assigned	-9513
▁Afghan	-9514
▁meters	-9515
▁Morgan	-9516
semble	-9517
▁Fashion	-9518
▁SO	-9519
▁generations	-9520
abling	-9521
▁Several	-9522
▁Updated	-9523
quarters	-9524
▁customized	-9525
▁excellence	-9526
▁overcome	-9527
▁periods	-9528
ICE	-9529
enth	-9530
▁mature	-9531
▁happiness	-9532
▁targets	-9533
ima	-9534
▁bedrooms	-9535
▁rated	-9536
▁Cart	-9537
▁Vit	-9538
▁Bab	-9539
▁Justin	-9540
▁portra	-9541
▁moisture	-9542
▁indicated	-9543
▁NBA	-9544
▁Represent	-9545
▁Altern	-9546
▁cann	-9547
▁chairman	-9548
▁Rap	-9549
▁continuous	-9550
▁Judge	-9551
FO	-9552
▁compact	-9553
▁Oklahoma	-9554
▁empower	-9555
▁template	-9556
▁divorce	-9557
iere	-9558
enna	-9559
▁Safe	-9560
▁representing	-9561
▁Results	-9562
▁dancing	-9563
▁Doctor	-9564
▁vanilla	-9565
ancouver	-9566
▁Cow	-9567
▁scratch	-9568
▁conversations	-9569
▁hospitals	-9570
▁alter	-9571
▁Alabama	-9572
olds	-9573
▁moon	-9574
Res	-9575
offs	-9576
▁accommodate	-9577
▁stack	-9578
▁sleeping	-9579
▁Tan	-9580
▁medication	-9581
▁Authority	-9582
▁meaningful	-9583
▁Dress	-9584
racy	-9585
▁sectors	-9586
▁actively	-9587
▁Easter	-9588
▁scar	-9589
▁lasting	-9590
▁harvest	-9591
▁Rh	-9592
▁observed	-9593
▁apple	-9594
▁Lat	-9595
rot	-9596
olid	-9597
▁terr	-9598
▁races	-9599
ibl	-9600
▁Lam	-9601
▁drum	-9602
uition	-9603
▁Balt	-9604
atal	-9605
▁Getting	-9606
ITY	-9607
iate	-9608
▁rehab	-9609
▁okay	-9610
orse	-9611
▁gambling	-9612
▁reserve	-9613
▁hub	-9614
▁voting	-9615
▁elections	-9616
May	-9617
▁nail	-9618
▁compan	-9619
▁excitement	-9620
▁impression	-9621
▁Coc	-9622
eman	-9623
▁cust	-9624
▁Salt	-9625
▁Dor	-9626
▁entries	-9627
works	-9628
rix	-9629
▁potatoes	-9630
▁wider	-9631
▁Chel	-9632
▁comic	-9633
▁shade	-9634
agan	-9635
itzer	-9636
▁ware	-9637
▁entertaining	-9638
▁Democrats	-9639
▁evolution	-9640
ropical	-9641
▁rescue	-9642
▁straw	-9643
▁bell	-9644
this	-9645
▁protocol	-9646
▁Cher	-9647
▁lun	-9648
▁supporters	-9649
▁smoking	-9650
ika	-9651
▁alike	-9652
▁Deep	-9653
▁pushed	-9654
▁Move	-9655
▁coconut	-9656
▁Affairs	-9657
igen	-9658
▁existence	-9659
▁Cash	-9660
▁Atlantic	-9661
oenix	-9662
▁Rout	-9663
aware	-9664
▁chip	-9665
▁hun	-9666
▁remem	-9667
ige	-9668
▁eliminate	-9669
DC	-9670
▁Andy	-9671
town	-9672
▁pushing	-9673
▁responses	-9674
▁Chairman	-9675
aux	-9676
▁pour	-9677
▁opposition	-9678
oper	-9679
▁Plant	-9680
▁heaven	-9681
▁stops	-9682
▁inquir	-9683
▁mirror	-9684
Welcome	-9685
▁developments	-9686
▁Navy	-9687
iameter	-9688
▁Utah	-9689
▁publishing	-9690
▁Holiday	-9691
opping	-9692
▁frozen	-9693
▁Imp	-9694
?!	-9695
▁Aqu	-9696
▁amenities	-9697
▁sheets	-9698
▁celebrating	-9699
▁substantial	-9700
▁Malays	-9701
▁objectives	-9702
▁generous	-9703
▁withdraw	-9704
▁accord	-9705
▁fired	-9706
▁Py	-9707
▁chemicals	-9708
was	-9709
▁viewers	-9710
▁Agr	-9711
▁Moore	-9712
▁Ped	-9713
▁financing	-9714
DP	-9715
▁processed	-9716
▁Budd	-9717
▁flaw	-9718
▁chairs	-9719
▁thoroughly	-9720
▁wound	-9721
▁completing	-9722
▁asks	-9723
Ed	-9724
vo	-9725
▁ceiling	-9726
▁Lane	-9727
▁relative	-9728
apped	-9729
▁robust	-9730
▁Virt	-9731
▁actors	-9732
▁Bron	-9733
▁regulatory	-9734
▁hunting	-9735
▁recall	-9736
boards	-9737
▁gal	-9738
attan	-9739
mart	-9740
▁surrounded	-9741
uild	-9742
children	-9743
▁physician	-9744
▁Besides	-9745
▁accompan	-9746
BO	-9747
▁instruments	-9748
▁lawn	-9749
rer	-9750
▁buttons	-9751
▁preview	-9752
▁extraordinary	-9753
▁Version	-9754
▁precious	-9755
▁Melbourne	-9756
▁protecting	-9757
▁diagnosis	-9758
▁engineers	-9759
▁emotion	-9760
▁folder	-9761
prof	-9762
▁relaxing	-9763
▁virtually	-9764
▁spokesman	-9765
ridge	-9766
papers	-9767
▁habits	-9768
Rep	-9769
▁fib	-9770
▁specialists	-9771
▁Works	-9772
maker	-9773
ez	-9774
▁courts	-9775
osa	-9776
▁Nothing	-9777
unicipal	-9778
▁Kentucky	-9779
▁Cub	-9780
otion	-9781
▁Mand	-9782
▁padd	-9783
▁caps	-9784
▁soccer	-9785
▁penalty	-9786
▁encouraging	-9787
elson	-9788
mann	-9789
▁oils	-9790
▁hal	-9791
ocument	-9792
▁Highway	-9793
▁fingers	-9794
▁exclusively	-9795
▁cooperation	-9796
elve	-9797
▁”	-9798
▁latter	-9799
▁Gall	-9800
▁prev	-9801
▁TX	-9802
▁Casino	-9803
▁Bureau	-9804
▁desper	-9805
organ	-9806
▁seal	-9807
▁proved	-9808
▁Mission	-9809
http	-9810
▁balanced	-9811
Us	-9812
▁theater	-9813
bean	-9814
▁designing	-9815
▁Original	-9816
▁evaluate	-9817
▁buyer	-9818
▁vulnerable	-9819
,'	-9820
▁libr	-9821
omed	-9822
▁surely	-9823
▁Missouri	-9824
▁sixth	-9825
▁backup	-9826
▁scope	-9827
▁ward	-9828
▁resulted	-9829
▁prevention	-9830
▁complaint	-9831
▁Answ	-9832
▁Legal	-9833
▁qualify	-9834
asty	-9835
▁module	-9836
break	-9837
▁dil	-9838
▁spell	-9839
▁fur	-9840
▁Jacob	-9841
▁Meeting	-9842
▁subscribe	-9843
▁Phill	-9844
▁seller	-9845
▁cabinet	-9846
▁snap	-9847
▁Dance	-9848
These	-9849
▁DNA	-9850
UC	-9851
iology	-9852
▁Economic	-9853
atern	-9854
▁da	-9855
▁bug	-9856
▁Kate	-9857
liances	-9858
▁Tai	-9859
▁tremend	-9860
PP	-9861
▁discovery	-9862
%)	-9863
▁listings	-9864
▁Chap	-9865
▁integrity	-9866
▁showcase	-9867
ACK	-9868
▁rarely	-9869
laim	-9870
isms	-9871
▁cinem	-9872
▁dismiss	-9873
eness	-9874
▁discrim	-9875
▁refe	-9876
▁resolve	-9877
▁Certified	-9878
▁toler	-9879
▁USD	-9880
?)	-9881
▁Gary	-9882
▁exch	-9883
▁musicians	-9884
nut	-9885
▁tennis	-9886
▁flavors	-9887
▁Moh	-9888
▁guides	-9889
upid	-9890
▁suspend	-9891
▁contents	-9892
▁divided	-9893
▁consulting	-9894
▁	-9895
e	-9896
t	-9897
a	-9898
o	-9899
i	-9900
n	-9901
s	-9902
r	-9903
h	-9904
l	-9905
d	-9906
c	-9907
u	-9908
m	-9909
p	-9910
g	-9911
f	-9912
y	-9913
w	-9914
b	-9915
.	-9916
v	-9917
,	-9918
k	-9919
T	-9920
S	-9921
I	-9922
A	-9923
-	-9924
C	-9925
0	-9926
M	-9927
1	-9928
P	-9929
x	-9930
B	-9931
2	-9932
W	-9933
D	-9934
R	-9935
E	-9936
H	-9937
F	-9938
’	-9939
L	-9940
N	-9941
O	-9942
:	-9943
'	-9944
G	-9945
j	-9946
)	-9947
(	-9948
z	-9949
3	-9950
5	-9951
q	-9952
4	-9953
U	-9954
"	-9955
9	-9956
J	-9957
8	-9958
6	-9959
V	-9960
Y	-9961
K	-9962
|	-9963
7	-9964
!	-9965
/	-9966
“	-9967
”	-9968
?	-9969
–	-9970
;	-9971
&	-9972
$	-9973
Q	-9974
%	-9975
—	-9976
X	-9977
Z	-9978
*	-9979
