<pad>	0
<s>	0
</s>	0
<unk>	0
<0x00>	0
<0x01>	0
<0x02>	0
<0x03>	0
<0x04>	0
<0x05>	0
<0x06>	0
<0x07>	0
<0x08>	0
<0x09>	0
<0x0A>	0
<0x0B>	0
<0x0C>	0
<0x0D>	0
<0x0E>	0
<0x0F>	0
<0x10>	0
<0x11>	0
<0x12>	0
<0x13>	0
<0x14>	0
<0x15>	0
<0x16>	0
<0x17>	0
<0x18>	0
<0x19>	0
<0x1A>	0
<0x1B>	0
<0x1C>	0
<0x1D>	0
<0x1E>	0
<0x1F>	0
<0x20>	0
<0x21>	0
<0x22>	0
<0x23>	0
<0x24>	0
<0x25>	0
<0x26>	0
<0x27>	0
<0x28>	0
<0x29>	0
<0x2A>	0
<0x2B>	0
<0x2C>	0
<0x2D>	0
<0x2E>	0
<0x2F>	0
<0x30>	0
<0x31>	0
<0x32>	0
<0x33>	0
<0x34>	0
<0x35>	0
<0x36>	0
<0x37>	0
<0x38>	0
<0x39>	0
<0x3A>	0
<0x3B>	0
<0x3C>	0
<0x3D>	0
<0x3E>	0
<0x3F>	0
<0x40>	0
<0x41>	0
<0x42>	0
<0x43>	0
<0x44>	0
<0x45>	0
<0x46>	0
<0x47>	0
<0x48>	0
<0x49>	0
<0x4A>	0
<0x4B>	0
<0x4C>	0
<0x4D>	0
<0x4E>	0
<0x4F>	0
<0x50>	0
<0x51>	0
<0x52>	0
<0x53>	0
<0x54>	0
<0x55>	0
<0x56>	0
<0x57>	0
<0x58>	0
<0x59>	0
<0x5A>	0
<0x5B>	0
<0x5C>	0
<0x5D>	0
<0x5E>	0
<0x5F>	0
<0x60>	0
<0x61>	0
<0x62>	0
<0x63>	0
<0x64>	0
<0x65>	0
<0x66>	0
<0x67>	0
<0x68>	0
<0x69>	0
<0x6A>	0
<0x6B>	0
<0x6C>	0
<0x6D>	0
<0x6E>	0
<0x6F>	0
<0x70>	0
<0x71>	0
<0x72>	0
<0x73>	0
<0x74>	0
<0x75>	0
<0x76>	0
<0x77>	0
<0x78>	0
<0x79>	0
<0x7A>	0
<0x7B>	0
<0x7C>	0
<0x7D>	0
<0x7E>	0
<0x7F>	0
<0x80>	0
<0x81>	0
<0x82>	0
<0x83>	0
<0x84>	0
<0x85>	0
<0x86>	0
<0x87>	0
<0x88>	0
<0x89>	0
<0x8A>	0
<0x8B>	0
<0x8C>	0
<0x8D>	0
<0x8E>	0
<0x8F>	0
<0x90>	0
<0x91>	0
<0x92>	0
<0x93>	0
<0x94>	0
<0x95>	0
<0x96>	0
<0x97>	0
<0x98>	0
<0x99>	0
<0x9A>	0
<0x9B>	0
<0x9C>	0
<0x9D>	0
<0x9E>	0
<0x9F>	0
<0xA0>	0
<0xA1>	0
<0xA2>	0
<0xA3>	0
<0xA4>	0
<0xA5>	0
<0xA6>	0
<0xA7>	0
<0xA8>	0
<0xA9>	0
<0xAA>	0
<0xAB>	0
<0xAC>	0
<0xAD>	0
<0xAE>	0
<0xAF>	0
<0xB0>	0
<0xB1>	0
<0xB2>	0
<0xB3>	0
<0xB4>	0
<0xB5>	0
<0xB6>	0
<0xB7>	0
<0xB8>	0
<0xB9>	0
<0xBA>	0
<0xBB>	0
<0xBC>	0
<0xBD>	0
<0xBE>	0
<0xBF>	0
<0xC0>	0
<0xC1>	0
<0xC2>	0
<0xC3>	0
<0xC4>	0
<0xC5>	0
<0xC6>	0
<0xC7>	0
<0xC8>	0
<0xC9>	0
<0xCA>	0
<0xCB>	0
<0xCC>	0
<0xCD>	0
<0xCE>	0
<0xCF>	0
<0xD0>	0
<0xD1>	0
<0xD2>	0
<0xD3>	0
<0xD4>	0
<0xD5>	0
<0xD6>	0
<0xD7>	0
<0xD8>	0
<0xD9>	0
<0xDA>	0
<0xDB>	0
<0xDC>	0
<0xDD>	0
<0xDE>	0
<0xDF>	0
<0xE0>	0
<0xE1>	0
<0xE2>	0
<0xE3>	0
<0xE4>	0
<0xE5>	0
<0xE6>	0
<0xE7>	0
<0xE8>	0
<0xE9>	0
<0xEA>	0
<0xEB>	0
<0xEC>	0
<0xED>	0
<0xEE>	0
<0xEF>	0
<0xF0>	0
<0xF1>	0
<0xF2>	0
<0xF3>	0
<0xF4>	0
<0xF5>	0
<0xF6>	0
<0xF7>	0
<0xF8>	0
<0xF9>	0
<0xFA>	0
<0xFB>	0
<0xFC>	0
<0xFD>	0
<0xFE>	0
<0xFF>	0
▁t	-0
▁a	-1
in	-2
he	-3
re	-4
on	-5
er	-6
▁the	-7
▁s	-8
▁w	-9
or	-10
at	-11
nd	-12
ou	-13
▁c	-14
it	-15
es	-16
▁f	-17
is	-18
en	-19
ing	-20
▁b	-21
▁p	-22
▁o	-23
an	-24
ed	-25
al	-26
▁to	-27
▁m	-28
ar	-29
▁and	-30
▁in	-31
▁of	-32
▁d	-33
le	-34
ic	-35
as	-36
om	-37
▁h	-38
ion	-39
▁th	-40
il	-41
▁T	-42
ent	-43
▁l	-44
ve	-45
▁y	-46
ro	-47
st	-48
▁I	-49
▁e	-50
▁re	-51
▁n	-52
▁S	-53
▁g	-54
et	-55
ct	-56
▁A	-57
▁you	-58
▁C	-59
ly	-60
▁for	-61
id	-62
▁is	-63
ay	-64
▁on	-65
▁be	-66
ot	-67
ow	-68
ol	-69
am	-70
ac	-71
ig	-72
us	-73
el	-74
ad	-75
im	-76
▁M	-77
ver	-78
ith	-79
ut	-80
▁st	-81
ation	-82
ur	-83
▁P	-84
▁with	-85
▁that	-86
ir	-87
▁B	-88
▁W	-89
ch	-90
ce	-91
▁The	-92
▁it	-93
▁he	-94
ill	-95
ers	-96
▁al	-97
un	-98
ul	-99
▁an	-100
▁D	-101
▁H	-102
▁F	-103
ra	-104
out	-105
▁as	-106
▁pro	-107
▁wh	-108
ke	-109
▁are	-110
se	-111
ter	-112
▁we	-113
if	-114
oo	-115
ge	-116
▁ha	-117
our	-118
▁R	-119
pp	-120
ate	-121
ess	-122
▁at	-123
▁con	-124
▁com	-125
▁or	-126
▁L	-127
est	-128
her	-129
ore	-130
ment	-131
▁fr	-132
ab	-133
igh	-134
▁-	-135
▁ne	-136
▁N	-137
▁se	-138
ort	-139
▁G	-140
ld	-141
▁your	-142
▁E	-143
ist	-144
ri	-145
op	-146
▁(	-147
▁ex	-148
ity	-149
ure	-150
em	-151
▁O	-152
▁v	-153
qu	-154
ant	-155
art	-156
ive	-157
▁r	-158
ust	-159
▁was	-160
um	-161
▁have	-162
pe	-163
▁from	-164
▁this	-165
▁de	-166
oc	-167
▁sh	-168
th	-169
ain	-170
ies	-171
▁can	-172
up	-173
▁will	-174
▁ch	-175
and	-176
▁by	-177
os	-178
ight	-179
nt	-180
ie	-181
▁us	-182
ome	-183
all	-184
ard	-185
▁not	-186
ud	-187
res	-188
▁le	-189
▁J	-190
ast	-191
▁pl	-192
ost	-193
▁su	-194
▁ab	-195
iv	-196
ear	-197
▁wor	-198
ide	-199
ack	-200
ial	-201
rou	-202
▁all	-203
gh	-204
ell	-205
od	-206
ak	-207
te	-208
ine	-209
ould	-210
▁j	-211
ag	-212
red	-213
▁has	-214
..	-215
ice	-216
▁Th	-217
▁U	-218
age	-219
▁do	-220
▁k	-221
fe	-222
ook	-223
▁ad	-224
per	-225
▁In	-226
ip	-227
▁comp	-228
ake	-229
▁out	-230
ally	-231
ions	-232
▁up	-233
are	-234
▁but	-235
▁me	-236
▁whe	-237
pt	-238
ry	-239
▁our	-240
able	-241
▁“	-242
one	-243
ind	-244
og	-245
▁en	-246
▁more	-247
ail	-248
ite	-249
ther	-250
▁their	-251
▁Y	-252
ich	-253
ime	-254
very	-255
cc	-256
▁so	-257
▁cl	-258
ood	-259
ong	-260
ated	-261
▁K	-262
▁my	-263
▁sa	-264
for	-265
ame	-266
iz	-267
ber	-268
▁they	-269
▁St	-270
ace	-271
▁te	-272
▁one	-273
so	-274
ous	-275
ans	-276
act	-277
pl	-278
▁about	-279
ike	-280
du	-281
▁cont	-282
ase	-283
▁V	-284
▁im	-285
ick	-286
ia	-287
▁work	-288
▁inc	-289
ign	-290
ance	-291
▁un	-292
ire	-293
▁off	-294
ree	-295
▁who	-296
▁fe	-297
▁man	-298
ue	-299
ach	-300
▁tr	-301
reat	-302
ub	-303
▁It	-304
ll	-305
▁go	-306
ction	-307
ne	-308
▁new	-309
▁year	-310
▁app	-311
ult	-312
▁his	-313
ib	-314
ays	-315
▁"	-316
▁Ch	-317
erv	-318
▁We	-319
und	-320
▁res	-321
ap	-322
ass	-323
ark	-324
ep	-325
ff	-326
▁qu	-327
ations	-328
ary	-329
▁per	-330
▁also	-331
▁sp	-332
ile	-333
ove	-334
▁int	-335
▁which	-336
▁time	-337
ven	-338
form	-339
▁get	-340
ount	-341
own	-342
▁like	-343
▁some	-344
▁other	-345
ond	-346
ings	-347
ents	-348
vel	-349
▁any	-350
ical	-351
ence	-352
▁part	-353
av	-354
▁been	-355
▁dis	-356
▁This	-357
▁over	-358
ition	-359
ress	-360
ors	-361
▁rec	-362
▁them	-363
ck	-364
▁He	-365
▁ar	-366
▁sc	-367
ild	-368
▁pe	-369
ink	-370
port	-371
▁ag	-372
low	-373
▁ro	-374
▁her	-375
▁when	-376
ound	-377
ose	-378
▁kn	-379
mer	-380
int	-381
ord	-382
oy	-383
ish	-384
ob	-385
irst	-386
▁need	-387
▁said	-388
ens	-389
ough	-390
▁pr	-391
ov	-392
▁pre	-393
▁just	-394
ru	-395
▁spe	-396
wn	-397
▁acc	-398
▁what	-399
ren	-400
▁there	-401
▁if	-402
▁Re	-403
▁than	-404
▁its	-405
day	-406
vers	-407
▁would	-408
fter	-409
▁had	-410
ater	-411
ade	-412
ning	-413
lud	-414
▁were	-415
▁am	-416
lp	-417
▁–	-418
rough	-419
▁into	-420
old	-421
▁des	-422
ory	-423
ople	-424
itt	-425
ang	-426
▁tw	-427
▁how	-428
▁help	-429
use	-430
anc	-431
lic	-432
ool	-433
▁bec	-434
▁first	-435
▁add	-436
ks	-437
▁make	-438
▁comm	-439
amp	-440
ons	-441
...	-442
hed	-443
▁Wh	-444
▁prov	-445
▁look	-446
ft	-447
▁You	-448
▁people	-449
▁includ	-450
ual	-451
les	-452
▁bl	-453
▁serv	-454
gr	-455
ian	-456
▁col	-457
ments	-458
ful	-459
▁know	-460
▁produ	-461
iew	-462
ates	-463
▁Ne	-464
ious	-465
rent	-466
▁em	-467
tern	-468
▁she	-469
round	-470
▁every	-471
▁through	-472
▁may	-473
▁no	-474
ating	-475
▁only	-476
▁back	-477
pport	-478
▁most	-479
▁bu	-480
▁want	-481
ict	-482
ect	-483
▁As	-484
ices	-485
▁If	-486
▁well	-487
▁see	-488
we	-489
▁ph	-490
ities	-491
▁bet	-492
▁ind	-493
ise	-494
▁use	-495
▁two	-496
xt	-497
com	-498
ont	-499
▁act	-500
▁und	-501
iss	-502
iness	-503
lect	-504
▁after	-505
▁Se	-506
ause	-507
ife	-508
ph	-509
▁play	-510
fect	-511
▁|	-512
▁co	-513
oth	-514
▁&	-515
row	-516
ily	-517
enc	-518
ock	-519
▁exper	-520
ject	-521
▁cons	-522
hen	-523
urn	-524
▁fl	-525
▁years	-526
ert	-527
als	-528
▁tra	-529
▁these	-530
ting	-531
cial	-532
▁$	-533
aw	-534
▁Com	-535
▁An	-536
▁bus	-537
▁Un	-538
▁For	-539
▁stud	-540
ange	-541
▁good	-542
any	-543
bs	-544
vent	-545
ures	-546
aking	-547
ational	-548
ased	-549
▁ke	-550
ific	-551
▁now	-552
▁Pro	-553
▁under	-554
fore	-555
▁very	-556
▁many	-557
▁sm	-558
▁reg	-559
hing	-560
ward	-561
▁imp	-562
get	-563
oint	-564
▁way	-565
▁dif	-566
erson	-567
▁start	-568
ience	-569
ts	-570
pect	-571
▁wee	-572
▁fin	-573
▁De	-574
▁great	-575
▁And	-576
▁rel	-577
uring	-578
yst	-579
formation	-580
▁gu	-581
▁could	-582
ility	-583
▁rem	-584
ible	-585
▁dec	-586
oss	-587
uch	-588
▁even	-589
hip	-590
ty	-591
▁inv	-592
).	-593
ics	-594
▁loc	-595
rit	-596
ract	-597
▁sec	-598
▁day	-599
▁own	-600
cess	-601
velop	-602
▁where	-603
▁show	-604
ork	-605
ident	-606
elf	-607
alth	-608
hes	-609
its	-610
▁high	-611
▁find	-612
air	-613
ull	-614
nds	-615
▁don	-616
olog	-617
▁home	-618
▁ass	-619
▁should	-620
ath	-621
line	-622
▁here	-623
▁ent	-624
▁down	-625
▁best	-626
▁then	-627
lease	-628
▁Sh	-629
ble	-630
ied	-631
ular	-632
▁br	-633
▁Al	-634
▁right	-635
The	-636
arch	-637
chool	-638
||	-639
▁ac	-640
▁set	-641
ited	-642
▁car	-643
▁New	-644
▁read	-645
▁av	-646
▁mon	-647
▁min	-648
▁take	-649
gan	-650
erm	-651
▁business	-652
▁fam	-653
ix	-654
ner	-655
▁ins	-656
▁inst	-657
▁att	-658
▁design	-659
▁too	-660
ystem	-661
ys	-662
.”	-663
▁che	-664
▁much	-665
▁long	-666
io	-667
ative	-668
▁Be	-669
▁information	-670
▁Cl	-671
▁made	-672
▁last	-673
ollow	-674
ason	-675
other	-676
ues	-677
▁because	-678
▁	-679
e	-680
t	-681
a	-682
o	-683
i	-684
n	-685
s	-686
r	-687
h	-688
l	-689
d	-690
c	-691
u	-692
m	-693
p	-694
g	-695
f	-696
y	-697
w	-698
b	-699
.	-700
v	-701
,	-702
k	-703
T	-704
S	-705
I	-706
A	-707
-	-708
C	-709
0	-710
M	-711
1	-712
P	-713
x	-714
B	-715
2	-716
W	-717
D	-718
R	-719
E	-720
H	-721
F	-722
’	-723
L	-724
N	-725
O	-726
:	-727
'	-728
G	-729
j	-730
)	-731
(	-732
z	-733
3	-734
5	-735
q	-736
U	-737
4	-738
"	-739
9	-740
J	-741
8	-742
6	-743
V	-744
Y	-745
K	-746
|	-747
7	-748
!	-749
/	-750
“	-751
”	-752
?	-753
–	-754
;	-755
&	-756
$	-757
Q	-758
%	-759
—	-760
X	-761
Z	-762
*	-763
