<pad>	0
<s>	0
</s>	0
<unk>	0
<0x00>	0
<0x01>	0
<0x02>	0
<0x03>	0
<0x04>	0
<0x05>	0
<0x06>	0
<0x07>	0
<0x08>	0
<0x09>	0
<0x0A>	0
<0x0B>	0
<0x0C>	0
<0x0D>	0
<0x0E>	0
<0x0F>	0
<0x10>	0
<0x11>	0
<0x12>	0
<0x13>	0
<0x14>	0
<0x15>	0
<0x16>	0
<0x17>	0
<0x18>	0
<0x19>	0
<0x1A>	0
<0x1B>	0
<0x1C>	0
<0x1D>	0
<0x1E>	0
<0x1F>	0
<0x20>	0
<0x21>	0
<0x22>	0
<0x23>	0
<0x24>	0
<0x25>	0
<0x26>	0
<0x27>	0
<0x28>	0
<0x29>	0
<0x2A>	0
<0x2B>	0
<0x2C>	0
<0x2D>	0
<0x2E>	0
<0x2F>	0
<0x30>	0
<0x31>	0
<0x32>	0
<0x33>	0
<0x34>	0
<0x35>	0
<0x36>	0
<0x37>	0
<0x38>	0
<0x39>	0
<0x3A>	0
<0x3B>	0
<0x3C>	0
<0x3D>	0
<0x3E>	0
<0x3F>	0
<0x40>	0
<0x41>	0
<0x42>	0
<0x43>	0
<0x44>	0
<0x45>	0
<0x46>	0
<0x47>	0
<0x48>	0
<0x49>	0
<0x4A>	0
<0x4B>	0
<0x4C>	0
<0x4D>	0
<0x4E>	0
<0x4F>	0
<0x50>	0
<0x51>	0
<0x52>	0
<0x53>	0
<0x54>	0
<0x55>	0
<0x56>	0
<0x57>	0
<0x58>	0
<0x59>	0
<0x5A>	0
<0x5B>	0
<0x5C>	0
<0x5D>	0
<0x5E>	0
<0x5F>	0
<0x60>	0
<0x61>	0
<0x62>	0
<0x63>	0
<0x64>	0
<0x65>	0
<0x66>	0
<0x67>	0
<0x68>	0
<0x69>	0
<0x6A>	0
<0x6B>	0
<0x6C>	0
<0x6D>	0
<0x6E>	0
<0x6F>	0
<0x70>	0
<0x71>	0
<0x72>	0
<0x73>	0
<0x74>	0
<0x75>	0
<0x76>	0
<0x77>	0
<0x78>	0
<0x79>	0
<0x7A>	0
<0x7B>	0
<0x7C>	0
<0x7D>	0
<0x7E>	0
<0x7F>	0
<0x80>	0
<0x81>	0
<0x82>	0
<0x83>	0
<0x84>	0
<0x85>	0
<0x86>	0
<0x87>	0
<0x88>	0
<0x89>	0
<0x8A>	0
<0x8B>	0
<0x8C>	0
<0x8D>	0
<0x8E>	0
<0x8F>	0
<0x90>	0
<0x91>	0
<0x92>	0
<0x93>	0
<0x94>	0
<0x95>	0
<0x96>	0
<0x97>	0
<0x98>	0
<0x99>	0
<0x9A>	0
<0x9B>	0
<0x9C>	0
<0x9D>	0
<0x9E>	0
<0x9F>	0
<0xA0>	0
<0xA1>	0
<0xA2>	0
<0xA3>	0
<0xA4>	0
<0xA5>	0
<0xA6>	0
<0xA7>	0
<0xA8>	0
<0xA9>	0
<0xAA>	0
<0xAB>	0
<0xAC>	0
<0xAD>	0
<0xAE>	0
<0xAF>	0
<0xB0>	0
<0xB1>	0
<0xB2>	0
<0xB3>	0
<0xB4>	0
<0xB5>	0
<0xB6>	0
<0xB7>	0
<0xB8>	0
<0xB9>	0
<0xBA>	0
<0xBB>	0
<0xBC>	0
<0xBD>	0
<0xBE>	0
<0xBF>	0
<0xC0>	0
<0xC1>	0
<0xC2>	0
<0xC3>	0
<0xC4>	0
<0xC5>	0
<0xC6>	0
<0xC7>	0
<0xC8>	0
<0xC9>	0
<0xCA>	0
<0xCB>	0
<0xCC>	0
<0xCD>	0
<0xCE>	0
<0xCF>	0
<0xD0>	0
<0xD1>	0
<0xD2>	0
<0xD3>	0
<0xD4>	0
<0xD5>	0
<0xD6>	0
<0xD7>	0
<0xD8>	0
<0xD9>	0
<0xDA>	0
<0xDB>	0
<0xDC>	0
<0xDD>	0
<0xDE>	0
<0xDF>	0
<0xE0>	0
<0xE1>	0
<0xE2>	0
<0xE3>	0
<0xE4>	0
<0xE5>	0
<0xE6>	0
<0xE7>	0
<0xE8>	0
<0xE9>	0
<0xEA>	0
<0xEB>	0
<0xEC>	0
<0xED>	0
<0xEE>	0
<0xEF>	0
<0xF0>	0
<0xF1>	0
<0xF2>	0
<0xF3>	0
<0xF4>	0
<0xF5>	0
<0xF6>	0
<0xF7>	0
<0xF8>	0
<0xF9>	0
<0xFA>	0
<0xFB>	0
<0xFC>	0
<0xFD>	0
<0xFE>	0
<0xFF>	0
▁t	-0
▁a	-1
in	-2
he	-3
re	-4
on	-5
er	-6
▁the	-7
▁s	-8
▁w	-9
or	-10
at	-11
nd	-12
ou	-13
▁c	-14
it	-15
es	-16
▁f	-17
is	-18
en	-19
ing	-20
▁b	-21
▁p	-22
▁o	-23
an	-24
ed	-25
al	-26
▁to	-27
▁m	-28
ar	-29
▁and	-30
▁in	-31
▁of	-32
▁d	-33
le	-34
ic	-35
as	-36
om	-37
▁h	-38
ion	-39
▁th	-40
il	-41
▁T	-42
ent	-43
▁l	-44
ve	-45
▁y	-46
ro	-47
st	-48
▁I	-49
▁e	-50
▁re	-51
▁n	-52
▁S	-53
▁g	-54
et	-55
ct	-56
▁A	-57
▁you	-58
▁C	-59
ly	-60
▁for	-61
id	-62
▁is	-63
ay	-64
▁on	-65
▁be	-66
ot	-67
ow	-68
ol	-69
am	-70
ce	-71
ig	-72
us	-73
ad	-74
im	-75
▁M	-76
ch	-77
el	-78
ver	-79
ith	-80
ut	-81
▁st	-82
ation	-83
ur	-84
▁P	-85
▁with	-86
▁that	-87
ir	-88
▁B	-89
▁W	-90
▁The	-91
▁it	-92
▁he	-93
ra	-94
ill	-95
ers	-96
▁al	-97
un	-98
ul	-99
▁an	-100
▁D	-101
▁H	-102
▁F	-103
out	-104
▁pro	-105
▁as	-106
▁wh	-107
▁are	-108
ke	-109
se	-110
ter	-111
▁we	-112
if	-113
▁ha	-114
ge	-115
oo	-116
▁R	-117
our	-118
pp	-119
ck	-120
ate	-121
ess	-122
▁at	-123
▁con	-124
▁com	-125
▁or	-126
▁L	-127
est	-128
her	-129
ore	-130
ment	-131
▁fr	-132
ab	-133
igh	-134
▁-	-135
▁ne	-136
▁N	-137
ort	-138
▁se	-139
▁G	-140
▁your	-141
ld	-142
▁E	-143
ist	-144
ri	-145
op	-146
▁(	-147
▁ex	-148
ity	-149
ure	-150
▁O	-151
em	-152
▁v	-153
qu	-154
ant	-155
art	-156
ive	-157
ust	-158
um	-159
▁was	-160
▁have	-161
pe	-162
▁from	-163
▁this	-164
▁de	-165
▁r	-166
▁sh	-167
th	-168
ain	-169
ies	-170
▁can	-171
up	-172
▁will	-173
▁ch	-174
and	-175
▁by	-176
os	-177
ight	-178
nt	-179
ie	-180
▁us	-181
ome	-182
all	-183
ard	-184
▁not	-185
ud	-186
res	-187
▁le	-188
▁J	-189
ast	-190
▁pl	-191
ost	-192
▁su	-193
▁ab	-194
iv	-195
ear	-196
▁wor	-197
ide	-198
ial	-199
rou	-200
▁all	-201
gh	-202
od	-203
oc	-204
ak	-205
te	-206
ine	-207
ould	-208
▁j	-209
red	-210
ag	-211
▁has	-212
..	-213
ice	-214
▁Th	-215
ell	-216
▁U	-217
age	-218
▁do	-219
▁k	-220
ack	-221
fe	-222
ook	-223
ac	-224
▁ad	-225
per	-226
▁In	-227
ip	-228
▁comp	-229
ake	-230
▁out	-231
ions	-232
ally	-233
▁up	-234
are	-235
▁but	-236
▁me	-237
▁whe	-238
pt	-239
lo	-240
ry	-241
able	-242
▁our	-243
▁“	-244
one	-245
ind	-246
▁en	-247
▁more	-248
ail	-249
ite	-250
ther	-251
▁their	-252
▁Y	-253
ich	-254
▁so	-255
very	-256
ime	-257
cc	-258
ood	-259
ated	-260
ong	-261
▁K	-262
▁my	-263
▁sa	-264
for	-265
iz	-266
ame	-267
ber	-268
▁they	-269
▁St	-270
▁te	-271
so	-272
ous	-273
▁one	-274
ans	-275
act	-276
▁about	-277
ll	-278
ike	-279
du	-280
▁cont	-281
ase	-282
og	-283
▁V	-284
▁im	-285
ick	-286
▁cl	-287
ia	-288
ance	-289
▁work	-290
▁inc	-291
ign	-292
▁un	-293
ire	-294
ree	-295
▁off	-296
▁fe	-297
▁who	-298
▁man	-299
ue	-300
ace	-301
ach	-302
reat	-303
ub	-304
▁It	-305
ction	-306
▁go	-307
ne	-308
▁app	-309
▁year	-310
▁new	-311
ep	-312
ult	-313
ib	-314
ap	-315
▁his	-316
ays	-317
erv	-318
▁Ch	-319
▁We	-320
▁res	-321
und	-322
▁"	-323
▁sp	-324
ass	-325
ark	-326
ations	-327
ff	-328
▁qu	-329
ary	-330
▁per	-331
▁also	-332
ile	-333
▁which	-334
▁int	-335
▁time	-336
ove	-337
form	-338
ven	-339
ount	-340
▁get	-341
▁tr	-342
own	-343
▁like	-344
▁some	-345
▁other	-346
ond	-347
ents	-348
ings	-349
vel	-350
▁any	-351
ical	-352
ence	-353
▁part	-354
av	-355
▁been	-356
▁dis	-357
▁This	-358
▁over	-359
ition	-360
ress	-361
pl	-362
ors	-363
▁rec	-364
▁them	-365
▁He	-366
▁sc	-367
▁ar	-368
ild	-369
▁pe	-370
port	-371
ink	-372
low	-373
▁ag	-374
▁ro	-375
▁her	-376
▁when	-377
ound	-378
▁kn	-379
ord	-380
mer	-381
int	-382
▁need	-383
ish	-384
▁pr	-385
irst	-386
ens	-387
ough	-388
▁said	-389
ru	-390
▁pre	-391
▁spe	-392
▁just	-393
wn	-394
ren	-395
▁what	-396
▁there	-397
▁if	-398
▁acc	-399
▁than	-400
▁its	-401
ov	-402
▁Re	-403
day	-404
vers	-405
▁would	-406
ater	-407
fter	-408
▁had	-409
ade	-410
ning	-411
lud	-412
▁hel	-413
▁–	-414
▁were	-415
▁am	-416
old	-417
rough	-418
▁into	-419
▁des	-420
ory	-421
ople	-422
itt	-423
ang	-424
▁help	-425
▁tw	-426
▁how	-427
use	-428
lic	-429
ool	-430
▁bec	-431
▁add	-432
anc	-433
▁first	-434
ose	-435
▁make	-436
▁comm	-437
ons	-438
amp	-439
ob	-440
hed	-441
▁prov	-442
▁Wh	-443
▁tra	-444
...	-445
ft	-446
▁look	-447
▁You	-448
▁includ	-449
ual	-450
▁people	-451
les	-452
▁serv	-453
gr	-454
▁col	-455
ian	-456
ments	-457
ful	-458
▁know	-459
▁produ	-460
ates	-461
iew	-462
▁Ne	-463
▁em	-464
rent	-465
ious	-466
tern	-467
▁she	-468
round	-469
ek	-470
▁every	-471
▁through	-472
▁may	-473
ating	-474
▁no	-475
▁only	-476
pport	-477
▁back	-478
▁most	-479
ect	-480
▁bu	-481
▁want	-482
ict	-483
ices	-484
▁As	-485
▁If	-486
▁well	-487
ities	-488
▁ind	-489
we	-490
▁bet	-491
▁ph	-492
ise	-493
▁use	-494
▁two	-495
▁co	-496
xt	-497
ont	-498
com	-499
▁act	-500
▁und	-501
ph	-502
iness	-503
lect	-504
iss	-505
▁after	-506
oy	-507
▁Se	-508
ife	-509
ause	-510
▁play	-511
fect	-512
▁|	-513
oth	-514
▁&	-515
ily	-516
row	-517
ork	-518
enc	-519
▁exper	-520
ject	-521
▁cons	-522
hen	-523
cial	-524
urn	-525
ert	-526
▁years	-527
als	-528
▁these	-529
ank	-530
ting	-531
▁$	-532
▁Com	-533
aw	-534
▁bus	-535
▁An	-536
▁Un	-537
▁stud	-538
any	-539
bs	-540
ange	-541
▁For	-542
ures	-543
vent	-544
▁good	-545
ational	-546
aking	-547
▁see	-548
▁ke	-549
ased	-550
ific	-551
▁Pro	-552
▁now	-553
fore	-554
▁under	-555
▁very	-556
▁many	-557
▁reg	-558
▁sm	-559
ward	-560
hing	-561
▁imp	-562
get	-563
oint	-564
▁dif	-565
▁ra	-566
▁way	-567
erson	-568
ience	-569
▁start	-570
ts	-571
pect	-572
▁fin	-573
▁great	-574
▁And	-575
yst	-576
uring	-577
▁De	-578
▁rel	-579
formation	-580
▁gu	-581
ility	-582
ible	-583
▁rem	-584
▁could	-585
oss	-586
hip	-587
▁dec	-588
uch	-589
▁even	-590
▁inv	-591
).	-592
ty	-593
ics	-594
rit	-595
ract	-596
▁own	-597
▁sec	-598
cess	-599
velop	-600
▁day	-601
▁where	-602
▁show	-603
ident	-604
elf	-605
hes	-606
alth	-607
▁high	-608
its	-609
▁loc	-610
air	-611
▁find	-612
olog	-613
▁ac	-614
ull	-615
nds	-616
▁Al	-617
▁don	-618
▁ass	-619
▁home	-620
▁should	-621
line	-622
ath	-623
▁ent	-624
▁best	-625
▁here	-626
▁down	-627
lease	-628
▁then	-629
▁Sh	-630
ied	-631
ble	-632
ular	-633
||	-634
▁right	-635
The	-636
arch	-637
▁set	-638
chool	-639
ited	-640
▁car	-641
▁av	-642
▁read	-643
▁New	-644
▁mon	-645
gan	-646
▁min	-647
▁take	-648
▁business	-649
erm	-650
▁fam	-651
▁ins	-652
ner	-653
ix	-654
▁inst	-655
▁fl	-656
ys	-657
▁design	-658
▁att	-659
ystem	-660
▁br	-661
alk	-662
▁too	-663
.”	-664
▁che	-665
▁bl	-666
io	-667
▁long	-668
▁much	-669
ative	-670
▁information	-671
▁Be	-672
▁made	-673
▁last	-674
ollow	-675
ason	-676
other	-677
ues	-678
gram	-679
arket	-680
▁product	-681
omet	-682
▁because	-683
ock	-684
ax	-685
▁Fr	-686
),	-687
rib	-688
▁week	-689
▁call	-690
▁did	-691
▁before	-692
▁think	-693
▁Cl	-694
▁team	-695
▁world	-696
atch	-697
me	-698
▁cre	-699
ale	-700
pen	-701
oun	-702
▁again	-703
▁sur	-704
ower	-705
▁Ad	-706
▁vis	-707
ient	-708
▁But	-709
chn	-710
pr	-711
az	-712
ustom	-713
land	-714
▁requ	-715
▁art	-716
▁develop	-717
▁being	-718
▁diffe	-719
▁pres	-720
rest	-721
way	-722
▁person	-723
ng	-724
ener	-725
▁such	-726
▁Le	-727
▁inte	-728
▁mem	-729
▁disc	-730
▁him	-731
ces	-732
▁support	-733
▁life	-734
arn	-735
ug	-736
ving	-737
ced	-738
ouse	-739
unity	-740
ave	-741
ince	-742
irect	-743
▁med	-744
▁Ar	-745
▁does	-746
▁while	-747
▁those	-748
ins	-749
▁provid	-750
ash	-751
arm	-752
view	-753
▁sim	-754
ivers	-755
ros	-756
▁lead	-757
▁sk	-758
akes	-759
ality	-760
▁pol	-761
▁end	-762
▁mod	-763
▁used	-764
▁cur	-765
ives	-766
▁around	-767
ric	-768
led	-769
ier	-770
▁free	-771
ailable	-772
ually	-773
▁each	-774
▁care	-775
▁comple	-776
▁follow	-777
ional	-778
ublic	-779
▁det	-780
▁On	-781
ple	-782
read	-783
der	-784
▁ret	-785
ize	-786
▁trans	-787
ather	-788
▁love	-789
▁There	-790
ages	-791
▁post	-792
ines	-793
▁child	-794
▁system	-795
ars	-796
▁bo	-797
ene	-798
roup	-799
▁eas	-800
▁book	-801
▁num	-802
▁ed	-803
▁How	-804
▁ser	-805
,”	-806
imes	-807
▁Te	-808
▁really	-809
▁count	-810
ets	-811
▁gr	-812
▁str	-813
▁program	-814
▁custom	-815
ton	-816
▁top	-817
▁run	-818
▁del	-819
au	-820
▁All	-821
iet	-822
▁cour	-823
▁found	-824
ffect	-825
▁So	-826
▁place	-827
▁list	-828
ness	-829
ved	-830
iel	-831
▁form	-832
▁month	-833
▁prof	-834
▁char	-835
ah	-836
▁feel	-837
▁To	-838
ute	-839
▁available	-840
▁going	-841
▁inter	-842
ittle	-843
▁They	-844
▁sign	-845
▁sub	-846
gg	-847
▁market	-848
man	-849
ature	-850
ames	-851
▁fun	-852
▁cle	-853
▁still	-854
cept	-855
▁Pl	-856
ways	-857
▁somet	-858
▁different	-859
▁aut	-860
▁both	-861
▁three	-862
▁few	-863
orn	-864
▁health	-865
▁though	-866
▁Ex	-867
ital	-868
ired	-869
▁pur	-870
ering	-871
▁rep	-872
▁adv	-873
▁exp	-874
▁techn	-875
▁happ	-876
▁open	-877
▁lot	-878
▁report	-879
▁company	-880
ata	-881
ween	-882
▁keep	-883
meric	-884
▁Sc	-885
orth	-886
▁plan	-887
▁hand	-888
ining	-889
bers	-890
iqu	-891
▁She	-892
tt	-893
ants	-894
be	-895
▁ext	-896
▁lar	-897
▁game	-898
▁sol	-899
▁point	-900
▁Q	-901
ross	-902
ology	-903
▁say	-904
ves	-905
atur	-906
▁met	-907
▁import	-908
▁process	-909
▁fil	-910
▁frie	-911
▁including	-912
▁family	-913
▁ev	-914
▁using	-915
▁same	-916
work	-917
▁project	-918
ized	-919
uc	-920
oot	-921
▁school	-922
▁between	-923
▁What	-924
ling	-925
ik	-926
▁little	-927
ution	-928
att	-929
ott	-930
▁experience	-931
▁during	-932
."	-933
less	-934
▁state	-935
iving	-936
▁Col	-937
▁i	-938
▁next	-939
uss	-940
els	-941
▁service	-942
aint	-943
▁real	-944
ody	-945
oh	-946
▁build	-947
▁allow	-948
ms	-949
reen	-950
▁opt	-951
▁water	-952
ished	-953
▁things	-954
▁come	-955
▁contin	-956
thing	-957
▁Americ	-958
▁var	-959
▁Ph	-960
▁dri	-961
ists	-962
uck	-963
ever	-964
ern	-965
ield	-966
▁cent	-967
arly	-968
over	-969
rand	-970
▁small	-971
▁rece	-972
▁organ	-973
▁appro	-974
▁rest	-975
gy	-976
▁big	-977
self	-978
▁Ind	-979
▁ref	-980
ex	-981
▁always	-982
▁mus	-983
▁better	-984
▁sure	-985
▁With	-986
▁interest	-987
▁win	-988
aut	-989
loy	-990
▁full	-991
▁pat	-992
▁pass	-993
▁poss	-994
ery	-995
illion	-996
▁online	-997
▁pri	-998
▁iss	-999
▁ty	-1000
▁put	-1001
ined	-1002
cent	-1003
ware	-1004
▁When	-1005
▁result	-1006
▁gener	-1007
▁since	-1008
▁Bl	-1009
▁ve	-1010
ps	-1011
▁try	-1012
▁direct	-1013
▁quest	-1014
iversity	-1015
▁mov	-1016
▁stand	-1017
▁partic	-1018
▁days	-1019
▁perform	-1020
▁group	-1021
ok	-1022
▁val	-1023
▁pay	-1024
▁ide	-1025
▁head	-1026
▁special	-1027
▁bel	-1028
▁Tr	-1029
▁today	-1030
▁Chr	-1031
▁something	-1032
▁class	-1033
▁provide	-1034
ients	-1035
ours	-1036
▁tri	-1037
▁second	-1038
▁services	-1039
▁ann	-1040
▁Our	-1041
ared	-1042
▁Con	-1043
ccess	-1044
▁resp	-1045
joy	-1046
▁phot	-1047
▁conf	-1048
▁Is	-1049
ploy	-1050
▁Or	-1051
▁dist	-1052
▁hard	-1053
▁without	-1054
pping	-1055
con	-1056
▁Sp	-1057
▁number	-1058
▁Z	-1059
ER	-1060
▁bro	-1061
▁def	-1062
▁sl	-1063
▁cor	-1064
▁must	-1065
oney	-1066
▁blo	-1067
▁another	-1068
ision	-1069
▁vide	-1070
stand	-1071
eng	-1072
▁current	-1073
cl	-1074
outh	-1075
▁give	-1076
▁wom	-1077
▁old	-1078
aj	-1079
ically	-1080
▁access	-1081
▁able	-1082
▁webs	-1083
ards	-1084
▁important	-1085
ior	-1086
iver	-1087
,"	-1088
▁cr	-1089
ately	-1090
ium	-1091
▁—	-1092
▁cost	-1093
sh	-1094
▁grow	-1095
▁ask	-1096
ope	-1097
ral	-1098
▁meet	-1099
▁fact	-1100
▁invest	-1101
▁At	-1102
▁area	-1103
ruct	-1104
▁Cent	-1105
▁public	-1106
▁got	-1107
raph	-1108
▁Res	-1109
▁wr	-1110
▁bre	-1111
▁soc	-1112
ote	-1113
▁visit	-1114
▁proble	-1115
ered	-1116
▁light	-1117
▁incre	-1118
▁US	-1119
ample	-1120
▁working	-1121
ems	-1122
▁ob	-1123
ense	-1124
▁data	-1125
▁unt	-1126
ann	-1127
rence	-1128
pped	-1129
br	-1130
▁level	-1131
▁proper	-1132
▁looking	-1133
▁never	-1134
▁sal	-1135
▁might	-1136
inal	-1137
▁No	-1138
ats	-1139
ffic	-1140
▁order	-1141
ential	-1142
ember	-1143
▁effect	-1144
ley	-1145
▁event	-1146
▁fac	-1147
▁students	-1148
▁rese	-1149
▁food	-1150
▁local	-1151
▁Man	-1152
ency	-1153
▁four	-1154
▁Comm	-1155
▁eng	-1156
▁profess	-1157
ird	-1158
▁let	-1159
▁That	-1160
ission	-1161
▁offer	-1162
▁inf	-1163
ww	-1164
▁enjoy	-1165
▁site	-1166
▁Pr	-1167
▁spec	-1168
▁season	-1169
▁check	-1170
▁addition	-1171
ertain	-1172
▁within	-1173
▁children	-1174
gin	-1175
▁oper	-1176
▁pos	-1177
▁test	-1178
ording	-1179
▁making	-1180
▁My	-1181
▁view	-1182
lection	-1183
▁room	-1184
▁sit	-1185
▁prom	-1186
▁power	-1187
ories	-1188
ney	-1189
▁expl	-1190
here	-1191
▁ca	-1192
load	-1193
ently	-1194
▁products	-1195
rol	-1196
▁night	-1197
▁past	-1198
▁community	-1199
▁pop	-1200
▁Mar	-1201
▁sing	-1202
▁against	-1203
let	-1204
ream	-1205
tend	-1206
▁until	-1207
ases	-1208
▁less	-1209
▁'	-1210
utes	-1211
▁el	-1212
ains	-1213
agement	-1214
▁est	-1215
med	-1216
ids	-1217
▁email	-1218
ieve	-1219
▁job	-1220
iron	-1221
ised	-1222
ator	-1223
▁quality	-1224
ivid	-1225
▁May	-1226
ina	-1227
▁intern	-1228
▁indust	-1229
to	-1230
ills	-1231
▁gl	-1232
▁website	-1233
▁prote	-1234
▁impro	-1235
▁law	-1236
ode	-1237
ks	-1238
orm	-1239
▁equ	-1240
▁App	-1241
▁turn	-1242
ified	-1243
enn	-1244
urs	-1245
co	-1246
ged	-1247
IN	-1248
▁Br	-1249
▁away	-1250
icle	-1251
▁air	-1252
▁Fe	-1253
▁contact	-1254
▁creat	-1255
▁toget	-1256
We	-1257
▁together	-1258
▁University	-1259
bo	-1260
istr	-1261
ique	-1262
pend	-1263
aring	-1264
▁supp	-1265
▁learn	-1266
▁success	-1267
▁pract	-1268
▁Co	-1269
▁dr	-1270
ury	-1271
▁complete	-1272
▁Can	-1273
▁leg	-1274
iday	-1275
▁applic	-1276
▁expect	-1277
▁needs	-1278
▁include	-1279
por	-1280
▁Christ	-1281
iety	-1282
ocus	-1283
atter	-1284
ider	-1285
▁Cont	-1286
▁.	-1287
▁detail	-1288
▁large	-1289
▁easy	-1290
▁la	-1291
▁Car	-1292
ability	-1293
ret	-1294
▁One	-1295
oci	-1296
▁along	-1297
irl	-1298
▁course	-1299
▁says	-1300
▁change	-1301
▁news	-1302
arent	-1303
aster	-1304
room	-1305
▁present	-1306
ger	-1307
▁offic	-1308
vern	-1309
▁name	-1310
▁chang	-1311
hor	-1312
ism	-1313
▁conc	-1314
yle	-1315
ym	-1316
atures	-1317
▁beaut	-1318
▁Am	-1319
▁Do	-1320
▁activ	-1321
pos	-1322
▁cap	-1323
part	-1324
lish	-1325
ump	-1326
ising	-1327
▁members	-1328
ries	-1329
▁Me	-1330
▁money	-1331
▁Ste	-1332
enef	-1333
min	-1334
iting	-1335
▁employ	-1336
rap	-1337
▁video	-1338
▁bas	-1339
▁times	-1340
the	-1341
▁talk	-1342
▁Eng	-1343
ify	-1344
▁buy	-1345
ec	-1346
augh	-1347
▁beh	-1348
▁music	-1349
itions	-1350
▁Ro	-1351
▁fav	-1352
▁These	-1353
▁house	-1354
une	-1355
▁pa	-1356
ift	-1357
nect	-1358
▁opport	-1359
▁dem	-1360
▁sw	-1361
side	-1362
▁/	-1363
ane	-1364
▁hist	-1365
▁why	-1366
Th	-1367
▁En	-1368
▁dra	-1369
ably	-1370
▁cond	-1371
▁ce	-1372
▁case	-1373
▁please	-1374
▁treat	-1375
by	-1376
mber	-1377
ron	-1378
veral	-1379
ots	-1380
▁perfect	-1381
aff	-1382
rie	-1383
aterial	-1384
pecial	-1385
▁live	-1386
ready	-1387
fort	-1388
ten	-1389
▁govern	-1390
▁account	-1391
▁dev	-1392
▁short	-1393
ention	-1394
▁thing	-1395
ization	-1396
▁create	-1397
▁following	-1398
▁Che	-1399
▁story	-1400
ON	-1401
▁clo	-1402
▁left	-1403
book	-1404
▁const	-1405
ived	-1406
viron	-1407
▁review	-1408
▁below	-1409
▁trad	-1410
▁understand	-1411
▁hum	-1412
▁million	-1413
son	-1414
!!	-1415
▁side	-1416
itive	-1417
▁having	-1418
alf	-1419
▁Your	-1420
ored	-1421
▁After	-1422
▁hot	-1423
ohn	-1424
ows	-1425
sc	-1426
▁page	-1427
etwork	-1428
▁Med	-1429
▁Fl	-1430
▁based	-1431
▁focus	-1432
▁makes	-1433
of	-1434
▁word	-1435
AT	-1436
RE	-1437
▁research	-1438
▁move	-1439
▁writ	-1440
▁across	-1441
▁camp	-1442
▁personal	-1443
ienc	-1444
▁link	-1445
▁line	-1446
ances	-1447
▁kind	-1448
▁possible	-1449
▁cou	-1450
rop	-1451
▁ever	-1452
▁mar	-1453
▁pot	-1454
uture	-1455
ividual	-1456
▁getting	-1457
▁comes	-1458
▁already	-1459
uly	-1460
▁benef	-1461
ajor	-1462
▁elect	-1463
▁educ	-1464
vious	-1465
▁record	-1466
ured	-1467
uper	-1468
osp	-1469
▁country	-1470
▁become	-1471
▁soft	-1472
▁Rep	-1473
ination	-1474
oice	-1475
orts	-1476
▁often	-1477
▁share	-1478
▁friends	-1479
▁several	-1480
ush	-1481
▁Ass	-1482
▁done	-1483
iven	-1484
ister	-1485
▁social	-1486
▁Count	-1487
▁es	-1488
duct	-1489
▁pack	-1490
▁bit	-1491
wards	-1492
▁fund	-1493
ead	-1494
iam	-1495
▁enough	-1496
▁quick	-1497
▁mil	-1498
▁tre	-1499
ones	-1500
▁minutes	-1501
uro	-1502
▁Please	-1503
conom	-1504
fer	-1505
▁bring	-1506
▁Inst	-1507
inc	-1508
▁women	-1509
uff	-1510
▁development	-1511
▁vers	-1512
▁Serv	-1513
▁hours	-1514
▁Des	-1515
▁body	-1516
▁mult	-1517
unch	-1518
app	-1519
oose	-1520
ips	-1521
▁tell	-1522
ides	-1523
iful	-1524
▁John	-1525
vironment	-1526
▁return	-1527
▁purch	-1528
mend	-1529
▁:	-1530
aim	-1531
▁cut	-1532
▁men	-1533
ners	-1534
▁city	-1535
▁lo	-1536
arl	-1537
reet	-1538
ape	-1539
▁Intern	-1540
▁deal	-1541
▁X	-1542
oon	-1543
▁individual	-1544
AN	-1545
▁exc	-1546
▁won	-1547
ST	-1548
▁ens	-1549
▁young	-1550
ted	-1551
ateg	-1552
▁Here	-1553
▁material	-1554
▁hold	-1555
▁compet	-1556
ograph	-1557
▁sum	-1558
▁...	-1559
▁Comp	-1560
▁others	-1561
▁jo	-1562
yn	-1563
utions	-1564
▁Tw	-1565
▁started	-1566
▁called	-1567
▁industry	-1568
▁months	-1569
▁mom	-1570
▁term	-1571
▁non	-1572
▁orig	-1573
idd	-1574
ights	-1575
▁didn	-1576
ript	-1577
▁land	-1578
ee	-1579
ai	-1580
nder	-1581
▁Gu	-1582
▁walk	-1583
▁clean	-1584
▁future	-1585
▁rele	-1586
▁American	-1587
▁However	-1588
▁pie	-1589
.,	-1590
▁City	-1591
▁far	-1592
▁commun	-1593
lished	-1594
ched	-1595
▁po	-1596
▁doing	-1597
▁major	-1598
ained	-1599
▁control	-1600
▁space	-1601
ource	-1602
fact	-1603
ball	-1604
urity	-1605
arr	-1606
osed	-1607
▁wa	-1608
▁low	-1609
ges	-1610
▁cover	-1611
▁Ab	-1612
▁store	-1613
anies	-1614
lement	-1615
ference	-1616
ford	-1617
▁occ	-1618
▁games	-1619
▁means	-1620
AR	-1621
lege	-1622
▁Not	-1623
▁mind	-1624
▁offers	-1625
oring	-1626
▁Tra	-1627
▁yet	-1628
▁bra	-1629
▁Dr	-1630
▁came	-1631
▁five	-1632
▁percent	-1633
▁chall	-1634
▁comb	-1635
▁Min	-1636
▁took	-1637
▁invol	-1638
▁doesn	-1639
sel	-1640
▁lim	-1641
orld	-1642
▁fore	-1643
ilities	-1644
▁*	-1645
▁customers	-1646
▁features	-1647
bal	-1648
▁State	-1649
▁least	-1650
▁strong	-1651
▁step	-1652
▁price	-1653
ches	-1654
▁heart	-1655
▁God	-1656
▁Ke	-1657
urther	-1658
▁range	-1659
▁specific	-1660
▁More	-1661
▁main	-1662
most	-1663
▁require	-1664
▁close	-1665
▁School	-1666
▁once	-1667
▁key	-1668
▁pict	-1669
sw	-1670
err	-1671
ler	-1672
▁upd	-1673
ilt	-1674
ither	-1675
▁mean	-1676
▁Bo	-1677
▁early	-1678
▁ey	-1679
▁cra	-1680
▁Jan	-1681
▁Now	-1682
▁tool	-1683
▁stay	-1684
▁discuss	-1685
▁government	-1686
illed	-1687
aces	-1688
af	-1689
▁series	-1690
▁tem	-1691
ources	-1692
▁hig	-1693
▁priv	-1694
▁Bro	-1695
▁ste	-1696
▁technology	-1697
pro	-1698
cle	-1699
▁install	-1700
▁charact	-1701
▁Im	-1702
atural	-1703
▁Ed	-1704
▁typ	-1705
▁United	-1706
▁redu	-1707
▁beautiful	-1708
atic	-1709
▁By	-1710
▁ago	-1711
▁went	-1712
▁begin	-1713
aken	-1714
//	-1715
▁announ	-1716
org	-1717
▁thought	-1718
▁Pe	-1719
▁pick	-1720
▁told	-1721
▁hope	-1722
▁appear	-1723
ancial	-1724
isk	-1725
It	-1726
resent	-1727
▁anal	-1728
▁happen	-1729
anks	-1730
rew	-1731
▁Gr	-1732
▁Em	-1733
irm	-1734
▁break	-1735
ille	-1736
▁wind	-1737
▁questions	-1738
resh	-1739
OR	-1740
▁York	-1741
▁x	-1742
▁Qu	-1743
come	-1744
▁Pre	-1745
▁content	-1746
▁certain	-1747
▁Add	-1748
oll	-1749
▁everything	-1750
▁prep	-1751
ourn	-1752
hers	-1753
://	-1754
▁sn	-1755
ians	-1756
irt	-1757
gle	-1758
▁field	-1759
▁companies	-1760
▁travel	-1761
ony	-1762
▁Cal	-1763
▁enc	-1764
▁recom	-1765
▁single	-1766
▁known	-1767
▁added	-1768
▁favor	-1769
▁media	-1770
▁--	-1771
cell	-1772
▁building	-1773
arning	-1774
▁manag	-1775
▁Park	-1776
aps	-1777
▁search	-1778
▁environment	-1779
▁friend	-1780
▁actually	-1781
aur	-1782
▁address	-1783
ief	-1784
▁tot	-1785
▁ener	-1786
de	-1787
▁study	-1788
▁mess	-1789
eral	-1790
▁vol	-1791
▁tax	-1792
▁press	-1793
▁problem	-1794
play	-1795
isc	-1796
▁later	-1797
▁connect	-1798
ino	-1799
▁works	-1800
ests	-1801
▁Sm	-1802
▁girl	-1803
icy	-1804
▁improve	-1805
gest	-1806
acy	-1807
ibr	-1808
▁taking	-1809
ew	-1810
▁South	-1811
▁ident	-1812
▁maint	-1813
▁sound	-1814
▁pub	-1815
ental	-1816
year	-1817
lebr	-1818
ural	-1819
▁Su	-1820
▁track	-1821
ided	-1822
▁training	-1823
▁watch	-1824
▁results	-1825
ster	-1826
▁staff	-1827
▁card	-1828
▁wond	-1829
abor	-1830
▁North	-1831
▁face	-1832
back	-1833
▁professional	-1834
nes	-1835
ensive	-1836
▁Mc	-1837
▁Just	-1838
ocu	-1839
gs	-1840
ES	-1841
▁film	-1842
▁provides	-1843
wh	-1844
atest	-1845
yl	-1846
▁seen	-1847
▁While	-1848
▁issues	-1849
▁someone	-1850
ama	-1851
▁Per	-1852
▁unique	-1853
▁host	-1854
▁half	-1855
▁front	-1856
▁official	-1857
cer	-1858
▁Euro	-1859
fully	-1860
▁near	-1861
opy	-1862
▁econom	-1863
▁relations	-1864
▁web	-1865
▁sell	-1866
▁particular	-1867
▁National	-1868
▁County	-1869
▁everyone	-1870
▁miss	-1871
▁port	-1872
AL	-1873
▁dig	-1874
urch	-1875
▁due	-1876
▁Aust	-1877
▁Some	-1878
go	-1879
▁recommend	-1880
▁network	-1881
hod	-1882
▁cook	-1883
▁Center	-1884
▁Don	-1885
lex	-1886
▁cred	-1887
▁office	-1888
▁respons	-1889
▁z	-1890
ued	-1891
▁Inc	-1892
▁Oct	-1893
▁simple	-1894
itted	-1895
▁Part	-1896
▁age	-1897
▁ant	-1898
ctor	-1899
ibility	-1900
▁aud	-1901
▁management	-1902
ging	-1903
▁click	-1904
not	-1905
roll	-1906
▁oil	-1907
▁Pol	-1908
▁particip	-1909
time	-1910
▁Dep	-1911
asing	-1912
▁whole	-1913
pecially	-1914
▁mot	-1915
▁bar	-1916
obile	-1917
iod	-1918
▁Acc	-1919
▁Pres	-1920
▁performance	-1921
▁areas	-1922
▁Apr	-1923
▁mor	-1924
▁ess	-1925
pper	-1926
▁fall	-1927
▁author	-1928
cing	-1929
▁given	-1930
ply	-1931
imate	-1932
▁bed	-1933
▁World	-1934
icult	-1935
nding	-1936
▁above	-1937
▁reason	-1938
▁protect	-1939
ites	-1940
▁events	-1941
In	-1942
ators	-1943
aining	-1944
▁among	-1945
▁eff	-1946
ables	-1947
umb	-1948
▁Will	-1949
ops	-1950
▁experienc	-1951
ask	-1952
▁Sec	-1953
▁history	-1954
EN	-1955
▁select	-1956
▁Stud	-1957
omes	-1958
▁black	-1959
ogn	-1960
ED	-1961
▁assist	-1962
▁size	-1963
▁energy	-1964
▁foot	-1965
ison	-1966
cy	-1967
ili	-1968
▁High	-1969
▁details	-1970
▁print	-1971
ledge	-1972
▁htt	-1973
▁Reg	-1974
▁glo	-1975
▁believe	-1976
▁flo	-1977
▁sex	-1978
crib	-1979
▁further	-1980
▁From	-1981
▁amount	-1982
▁Post	-1983
▁six	-1984
▁log	-1985
idence	-1986
ety	-1987
ulation	-1988
▁designed	-1989
▁includes	-1990
▁prob	-1991
▁Friday	-1992
astic	-1993
▁pain	-1994
ands	-1995
vert	-1996
▁cult	-1997
ufact	-1998
▁points	-1999
▁repl	-2000
▁parent	-2001
▁mag	-2002
▁red	-2003
▁Day	-2004
▁property	-2005
AS	-2006
▁Ge	-2007
ruction	-2008
▁Bar	-2009
▁continue	-2010
▁soon	-2011
nov	-2012
▁feature	-2013
▁Aug	-2014
▁value	-2015
urance	-2016
▁et	-2017
▁Mr	-2018
▁Europe	-2019
▁anything	-2020
▁text	-2021
▁various	-2022
itch	-2023
▁coming	-2024
▁question	-2025
▁popular	-2026
▁latest	-2027
itional	-2028
▁according	-2029
aily	-2030
▁lov	-2031
▁living	-2032
rodu	-2033
▁phys	-2034
▁forward	-2035
▁type	-2036
my	-2037
▁fre	-2038
uation	-2039
▁March	-2040
▁phone	-2041
itc	-2042
ouch	-2043
▁consider	-2044
cript	-2045
▁pret	-2046
▁whether	-2047
aturday	-2048
IC	-2049
IT	-2050
▁brand	-2051
▁entire	-2052
▁idea	-2053
ze	-2054
though	-2055
▁claim	-2056
▁white	-2057
edd	-2058
aching	-2059
▁celebr	-2060
▁weeks	-2061
▁gra	-2062
▁dou	-2063
▁needed	-2064
▁Bu	-2065
▁diff	-2066
▁consum	-2067
▁potential	-2068
▁opportunity	-2069
▁comput	-2070
▁deb	-2071
▁El	-2072
▁color	-2073
elt	-2074
▁taken	-2075
▁Us	-2076
▁June	-2077
▁wide	-2078
▁required	-2079
▁receive	-2080
▁par	-2081
▁date	-2082
▁Sept	-2083
▁extra	-2084
selves	-2085
▁Sund	-2086
ung	-2087
itter	-2088
▁docu	-2089
new	-2090
▁third	-2091
▁example	-2092
AC	-2093
▁relationship	-2094
▁safe	-2095
ival	-2096
▁bad	-2097
▁sent	-2098
▁ensure	-2099
This	-2100
itor	-2101
ises	-2102
▁ready	-2103
▁inj	-2104
▁Off	-2105
▁West	-2106
▁,	-2107
▁comfort	-2108
▁currently	-2109
ilar	-2110
amer	-2111
▁meas	-2112
ees	-2113
ires	-2114
▁financial	-2115
▁common	-2116
▁almost	-2117
ffe	-2118
▁sugg	-2119
▁fire	-2120
head	-2121
▁ach	-2122
▁April	-2123
val	-2124
uary	-2125
▁ways	-2126
▁human	-2127
▁kids	-2128
▁Read	-2129
▁Art	-2130
▁pretty	-2131
▁period	-2132
▁quite	-2133
▁Jo	-2134
▁options	-2135
▁final	-2136
▁skin	-2137
▁natural	-2138
▁yourself	-2139
▁especially	-2140
▁veh	-2141
irc	-2142
▁road	-2143
▁style	-2144
▁trying	-2145
▁park	-2146
▁sho	-2147
▁box	-2148
▁Health	-2149
▁Cor	-2150
ring	-2151
▁items	-2152
▁His	-2153
▁answ	-2154
▁paper	-2155
used	-2156
▁member	-2157
▁provided	-2158
▁either	-2159
ese	-2160
ana	-2161
ively	-2162
....	-2163
▁Saturday	-2164
itting	-2165
onday	-2166
▁coll	-2167
▁engine	-2168
▁choose	-2169
▁hon	-2170
▁self	-2171
▁crit	-2172
▁held	-2173
▁throughout	-2174
▁happy	-2175
▁dam	-2176
▁fit	-2177
▁download	-2178
▁via	-2179
▁swe	-2180
▁attend	-2181
▁wanted	-2182
▁flow	-2183
▁clients	-2184
▁stra	-2185
ication	-2186
▁summer	-2187
▁Pa	-2188
▁recent	-2189
▁Fin	-2190
▁impact	-2191
▁Aut	-2192
▁users	-2193
ada	-2194
▁created	-2195
▁sales	-2196
▁tit	-2197
▁Af	-2198
icro	-2199
▁July	-2200
azing	-2201
▁blog	-2202
▁issue	-2203
▁previous	-2204
▁behind	-2205
▁takes	-2206
arter	-2207
oogle	-2208
▁recently	-2209
hel	-2210
▁TH	-2211
▁software	-2212
▁Dav	-2213
angu	-2214
gress	-2215
IS	-2216
do	-2217
▁init	-2218
cast	-2219
ams	-2220
ux	-2221
▁version	-2222
▁super	-2223
▁Get	-2224
▁Feb	-2225
ried	-2226
▁bott	-2227
▁seem	-2228
▁Up	-2229
▁couple	-2230
▁song	-2231
▁running	-2232
▁insp	-2233
▁hol	-2234
verage	-2235
ume	-2236
ober	-2237
▁clear	-2238
▁collect	-2239
▁problems	-2240
ades	-2241
apt	-2242
▁isn	-2243
▁education	-2244
▁received	-2245
▁method	-2246
oura	-2247
▁table	-2248
▁players	-2249
▁role	-2250
▁represent	-2251
▁reading	-2252
▁Val	-2253
uge	-2254
▁Direct	-2255
eth	-2256
▁Int	-2257
anced	-2258
itten	-2259
▁signific	-2260
atform	-2261
▁likely	-2262
eke	-2263
ole	-2264
earch	-2265
ification	-2266
▁Sw	-2267
par	-2268
▁shows	-2269
▁di	-2270
where	-2271
▁security	-2272
▁increase	-2273
▁accom	-2274
▁States	-2275
▁Mon	-2276
▁favorite	-2277
▁customer	-2278
▁stri	-2279
▁pan	-2280
▁party	-2281
reme	-2282
▁action	-2283
▁skills	-2284
▁regular	-2285
St	-2286
▁difficult	-2287
▁fast	-2288
▁simply	-2289
idge	-2290
OU	-2291
▁sle	-2292
▁else	-2293
▁Face	-2294
▁writing	-2295
▁ele	-2296
▁nice	-2297
aging	-2298
▁Sunday	-2299
▁Monday	-2300
oud	-2301
oid	-2302
▁position	-2303
overed	-2304
▁article	-2305
▁outside	-2306
▁original	-2307
▁Her	-2308
▁probably	-2309
▁cool	-2310
icles	-2311
aving	-2312
mit	-2313
▁cup	-2314
▁necess	-2315
▁inside	-2316
▁fresh	-2317
ID	-2318
istration	-2319
▁asked	-2320
▁wonder	-2321
▁goal	-2322
▁systems	-2323
.)	-2324
▁manufact	-2325
arth	-2326
aby	-2327
▁model	-2328
--	-2329
▁House	-2330
li	-2331
▁morning	-2332
▁ground	-2333
▁President	-2334
icated	-2335
▁application	-2336
▁leave	-2337
ham	-2338
eter	-2339
▁ful	-2340
▁learning	-2341
▁anim	-2342
uit	-2343
aker	-2344
▁Associ	-2345
▁risk	-2346
▁Act	-2347
▁Black	-2348
▁knowledge	-2349
▁located	-2350
based	-2351
▁contrib	-2352
▁UK	-2353
▁release	-2354
▁projects	-2355
▁lives	-2356
▁changes	-2357
▁tour	-2358
▁Are	-2359
▁Bus	-2360
▁however	-2361
ox	-2362
▁Free	-2363
▁treatment	-2364
▁stop	-2365
medi	-2366
face	-2367
right	-2368
▁Austral	-2369
▁exist	-2370
▁mix	-2371
▁recogn	-2372
▁additional	-2373
▁polit	-2374
adem	-2375
▁Red	-2376
▁activities	-2377
▁private	-2378
▁abs	-2379
▁sat	-2380
▁career	-2381
iple	-2382
name	-2383
▁board	-2384
▁medical	-2385
▁Work	-2386
▁total	-2387
▁Mich	-2388
▁cal	-2389
▁anyone	-2390
▁hit	-2391
▁etc	-2392
artment	-2393
▁fail	-2394
▁ple	-2395
▁TV	-2396
▁accept	-2397
urg	-2398
▁town	-2399
▁Soc	-2400
ague	-2401
▁base	-2402
arget	-2403
aign	-2404
amed	-2405
bor	-2406
OT	-2407
hib	-2408
▁mark	-2409
▁former	-2410
▁contract	-2411
▁matter	-2412
▁included	-2413
▁America	-2414
ming	-2415
ounc	-2416
ules	-2417
▁mach	-2418
ession	-2419
▁Sal	-2420
iol	-2421
▁stock	-2422
▁match	-2423
▁autom	-2424
▁words	-2425
▁significant	-2426
izing	-2427
▁hair	-2428
ipment	-2429
▁saf	-2430
ecut	-2431
▁Ser	-2432
▁meeting	-2433
wood	-2434
▁Of	-2435
▁October	-2436
▁books	-2437
▁September	-2438
ovember	-2439
▁growth	-2440
▁Ac	-2441
▁playing	-2442
▁January	-2443
aced	-2444
▁leaders	-2445
empt	-2446
▁ball	-2447
▁worth	-2448
mon	-2449
irth	-2450
▁round	-2451
▁longer	-2452
▁drive	-2453
▁hy	-2454
▁character	-2455
▁variety	-2456
ny	-2457
▁concern	-2458
▁News	-2459
▁First	-2460
▁practice	-2461
ester	-2462
▁production	-2463
che	-2464
▁function	-2465
▁Sk	-2466
▁Wed	-2467
rict	-2468
▁looks	-2469
▁squ	-2470
ground	-2471
▁exam	-2472
▁late	-2473
reg	-2474
▁San	-2475
ude	-2476
▁lay	-2477
airs	-2478
▁Every	-2479
▁wall	-2480
mercial	-2481
pm	-2482
iff	-2483
▁sun	-2484
ursday	-2485
▁defin	-2486
adu	-2487
▁determ	-2488
na	-2489
▁Ag	-2490
▁August	-2491
▁suggest	-2492
ci	-2493
▁Har	-2494
elcome	-2495
▁worked	-2496
▁weeke	-2497
▁fig	-2498
ville	-2499
▁associ	-2500
uesday	-2501
▁Google	-2502
▁programs	-2503
▁death	-2504
imum	-2505
▁chance	-2506
▁platform	-2507
▁cand	-2508
▁screen	-2509
▁international	-2510
▁Then	-2511
iddle	-2512
▁Let	-2513
ipping	-2514
cks	-2515
rect	-2516
▁deg	-2517
▁true	-2518
▁Dis	-2519
▁nothing	-2520
Wh	-2521
▁challeng	-2522
itchen	-2523
▁loss	-2524
▁general	-2525
▁clos	-2526
▁rather	-2527
▁plans	-2528
arden	-2529
▁Facebook	-2530
▁purchase	-2531
▁estab	-2532
erc	-2533
▁amazing	-2534
▁credit	-2535
▁leading	-2536
▁subject	-2537
▁Department	-2538
▁regard	-2539
▁stat	-2540
cember	-2541
▁allows	-2542
ouncil	-2543
▁seems	-2544
olution	-2545
eds	-2546
▁built	-2547
▁arri	-2548
▁police	-2549
mas	-2550
▁similar	-2551
▁Mus	-2552
▁student	-2553
▁Sim	-2554
▁usually	-2555
▁infl	-2556
▁Pat	-2557
▁rate	-2558
▁quickly	-2559
▁Air	-2560
oke	-2561
▁November	-2562
▁teac	-2563
▁Also	-2564
lin	-2565
AM	-2566
▁Street	-2567
▁draw	-2568
▁national	-2569
ashing	-2570
▁touch	-2571
ought	-2572
▁providing	-2573
▁comment	-2574
▁International	-2575
oph	-2576
light	-2577
▁excell	-2578
▁deep	-2579
nesday	-2580
▁apply	-2581
▁higher	-2582
iter	-2583
iber	-2584
▁choice	-2585
▁photos	-2586
clus	-2587
▁Group	-2588
str	-2589
gar	-2590
▁tast	-2591
ING	-2592
▁respect	-2593
off	-2594
▁collection	-2595
▁safety	-2596
▁image	-2597
▁Out	-2598
▁Cons	-2599
now	-2600
▁hands	-2601
▁marketing	-2602
▁prior	-2603
ondon	-2604
▁ideas	-2605
▁integr	-2606
▁moment	-2607
▁movie	-2608
▁sil	-2609
▁encoura	-2610
▁easily	-2611
▁decision	-2612
example	-2613
▁ut	-2614
▁Cour	-2615
▁location	-2616
▁cell	-2617
▁bal	-2618
▁inde	-2619
▁dom	-2620
hern	-2621
▁rad	-2622
▁prevent	-2623
▁court	-2624
▁af	-2625
▁bud	-2626
▁Wind	-2627
▁op	-2628
▁released	-2629
▁decided	-2630
▁mass	-2631
▁ill	-2632
▁commit	-2633
▁Thursday	-2634
ached	-2635
▁digital	-2636
▁Home	-2637
put	-2638
▁Tuesday	-2639
ournal	-2640
▁emb	-2641
ha	-2642
▁reported	-2643
▁Well	-2644
▁benefits	-2645
▁Calif	-2646
▁file	-2647
ivery	-2648
▁exact	-2649
▁seek	-2650
▁December	-2651
▁introdu	-2652
▁wood	-2653
amb	-2654
▁La	-2655
▁cannot	-2656
ma	-2657
eal	-2658
▁campaign	-2659
▁lost	-2660
reng	-2661
▁display	-2662
▁Most	-2663
▁daily	-2664
▁partners	-2665
▁parents	-2666
▁ord	-2667
▁attack	-2668
▁Business	-2669
ishing	-2670
idents	-2671
hood	-2672
▁involved	-2673
▁agree	-2674
▁announced	-2675
▁cause	-2676
▁sche	-2677
▁effic	-2678
rown	-2679
▁sens	-2680
ructure	-2681
▁Gl	-2682
unities	-2683
▁drink	-2684
▁piece	-2685
▁center	-2686
▁Ang	-2687
ray	-2688
ospital	-2689
▁neg	-2690
atory	-2691
▁user	-2692
▁dest	-2693
OM	-2694
▁related	-2695
▁saw	-2696
▁Any	-2697
▁affect	-2698
▁expected	-2699
▁vict	-2700
ipe	-2701
▁Design	-2702
▁investig	-2703
▁ability	-2704
▁club	-2705
ederal	-2706
▁patients	-2707
▁Wednesday	-2708
▁ep	-2709
▁London	-2710
▁Click	-2711
ruary	-2712
EO	-2713
avy	-2714
▁rout	-2715
▁send	-2716
illing	-2717
▁ri	-2718
▁save	-2719
▁tick	-2720
ilies	-2721
▁modern	-2722
▁norm	-2723
just	-2724
ET	-2725
▁weekend	-2726
▁mobile	-2727
▁circ	-2728
sp	-2729
▁standard	-2730
▁langu	-2731
▁Prof	-2732
▁expert	-2733
▁option	-2734
ett	-2735
▁goes	-2736
▁boy	-2737
▁ded	-2738
▁immedi	-2739
▁green	-2740
▁enter	-2741
▁restaur	-2742
▁computer	-2743
▁Over	-2744
▁fight	-2745
▁War	-2746
▁aw	-2747
▁woman	-2748
▁bag	-2749
▁global	-2750
▁pers	-2751
istic	-2752
board	-2753
lim	-2754
▁target	-2755
▁mother	-2756
ivity	-2757
▁iP	-2758
▁emer	-2759
uel	-2760
▁sym	-2761
▁College	-2762
like	-2763
iring	-2764
▁serious	-2765
▁innov	-2766
▁parts	-2767
▁helps	-2768
▁huge	-2769
▁PM	-2770
▁costs	-2771
▁English	-2772
key	-2773
asons	-2774
oday	-2775
aves	-2776
▁gen	-2777
▁Check	-2778
zz	-2779
ellow	-2780
▁surpr	-2781
▁weight	-2782
▁http	-2783
▁earn	-2784
enge	-2785
uk	-2786
erve	-2787
▁rights	-2788
ara	-2789
▁bank	-2790
▁ones	-2791
ornia	-2792
▁legal	-2793
▁code	-2794
▁solutions	-2795
▁request	-2796
▁equipment	-2797
▁Sen	-2798
▁myself	-2799
▁gives	-2800
▁tools	-2801
▁Afric	-2802
▁warm	-2803
▁arch	-2804
▁Other	-2805
▁insurance	-2806
cription	-2807
raft	-2808
band	-2809
▁Del	-2810
ram	-2811
edding	-2812
▁feed	-2813
▁Hol	-2814
EC	-2815
▁approach	-2816
ault	-2817
▁conditions	-2818
▁played	-2819
▁giving	-2820
▁admin	-2821
▁dress	-2822
▁Ob	-2823
▁Techn	-2824
pri	-2825
▁Book	-2826
attle	-2827
▁attention	-2828
▁roll	-2829
OS	-2830
▁levels	-2831
▁sus	-2832
▁sett	-2833
▁resources	-2834
unt	-2835
▁award	-2836
▁Par	-2837
▁Brit	-2838
▁prim	-2839
hold	-2840
▁deliver	-2841
▁trust	-2842
ension	-2843
iction	-2844
atives	-2845
▁Service	-2846
▁note	-2847
▁sold	-2848
aged	-2849
bert	-2850
▁qual	-2851
▁remember	-2852
▁policy	-2853
▁February	-2854
▁interested	-2855
erous	-2856
▁Play	-2857
▁solution	-2858
▁door	-2859
▁Trans	-2860
▁businesses	-2861
▁capt	-2862
▁gets	-2863
▁planning	-2864
▁subs	-2865
▁highly	-2866
▁lab	-2867
aught	-2868
▁object	-2869
iding	-2870
pose	-2871
▁starting	-2872
▁opp	-2873
▁cases	-2874
partment	-2875
▁Law	-2876
ysis	-2877
▁Christmas	-2878
akers	-2879
▁lower	-2880
▁upon	-2881
▁instead	-2882
▁vac	-2883
▁write	-2884
▁hear	-2885
▁organization	-2886
▁materials	-2887
vey	-2888
▁express	-2889
▁themselves	-2890
▁published	-2891
EL	-2892
irit	-2893
▁California	-2894
ening	-2895
▁president	-2896
▁source	-2897
ica	-2898
▁reach	-2899
▁Gener	-2900
▁plant	-2901
▁condition	-2902
ples	-2903
mission	-2904
ashion	-2905
orge	-2906
urt	-2907
▁sense	-2908
▁fine	-2909
▁streng	-2910
apan	-2911
ibrary	-2912
www	-2913
▁dry	-2914
izes	-2915
▁effective	-2916
▁firm	-2917
▁sale	-2918
bum	-2919
▁mid	-2920
▁photo	-2921
▁written	-2922
▁types	-2923
AP	-2924
▁dise	-2925
▁average	-2926
▁interview	-2927
rup	-2928
urb	-2929
rom	-2930
▁consult	-2931
▁AM	-2932
▁Go	-2933
▁countries	-2934
▁Met	-2935
▁positive	-2936
ule	-2937
▁remov	-2938
▁multiple	-2939
wide	-2940
▁Rem	-2941
▁Services	-2942
iles	-2943
ida	-2944
gu	-2945
ael	-2946
▁lif	-2947
arant	-2948
▁Great	-2949
▁join	-2950
mm	-2951
▁Je	-2952
enty	-2953
unk	-2954
▁slow	-2955
▁Spe	-2956
▁India	-2957
▁trip	-2958
▁describ	-2959
ube	-2960
aches	-2961
ength	-2962
▁began	-2963
ato	-2964
▁interesting	-2965
▁imm	-2966
▁Mod	-2967
▁images	-2968
▁answer	-2969
▁prem	-2970
▁player	-2971
▁cat	-2972
add	-2973
▁viol	-2974
▁opportunities	-2975
urer	-2976
▁message	-2977
▁Cle	-2978
▁employees	-2979
▁dream	-2980
ography	-2981
▁heat	-2982
▁healthy	-2983
ager	-2984
▁Sch	-2985
▁Why	-2986
▁Thanks	-2987
▁sites	-2988
ration	-2989
▁directly	-2990
▁camer	-2991
▁hour	-2992
▁item	-2993
rel	-2994
rought	-2995
▁document	-2996
▁fans	-2997
▁According	-2998
bit	-2999
orage	-3000
press	-3001
▁necessary	-3002
itute	-3003
▁picture	-3004
▁achieve	-3005
▁David	-3006
IL	-3007
▁copy	-3008
▁Hot	-3009
▁Av	-3010
▁Program	-3011
▁essential	-3012
▁completely	-3013
▁lic	-3014
▁Sub	-3015
▁gift	-3016
▁Once	-3017
▁tele	-3018
▁band	-3019
▁families	-3020
▁stories	-3021
sy	-3022
▁prices	-3023
▁groups	-3024
duc	-3025
▁Year	-3026
olf	-3027
▁Phot	-3028
▁commercial	-3029
▁King	-3030
arlier	-3031
▁Rec	-3032
▁Whe	-3033
▁Found	-3034
▁Since	-3035
▁reve	-3036
elling	-3037
▁offe	-3038
▁goals	-3039
ocol	-3040
▁excellent	-3041
▁div	-3042
▁cert	-3043
▁East	-3044
▁Cr	-3045
▁promot	-3046
▁dru	-3047
▁Even	-3048
▁pull	-3049
▁successful	-3050
▁eye	-3051
▁Market	-3052
▁fully	-3053
▁www	-3054
▁growing	-3055
ares	-3056
itely	-3057
▁Mag	-3058
▁hor	-3059
▁led	-3060
▁itself	-3061
itation	-3062
▁Many	-3063
▁Loc	-3064
▁creating	-3065
▁fix	-3066
▁stru	-3067
iant	-3068
▁except	-3069
▁adult	-3070
▁traditional	-3071
▁White	-3072
▁comments	-3073
▁gold	-3074
▁paint	-3075
▁separ	-3076
oul	-3077
erved	-3078
▁Good	-3079
▁fab	-3080
▁aim	-3081
coming	-3082
▁neigh	-3083
▁broad	-3084
▁Germ	-3085
▁Russ	-3086
mb	-3087
▁Green	-3088
ancy	-3089
iable	-3090
▁birth	-3091
onse	-3092
▁propos	-3093
omen	-3094
▁fair	-3095
▁cy	-3096
ooth	-3097
▁gar	-3098
▁device	-3099
BC	-3100
▁reports	-3101
uses	-3102
anch	-3103
▁Best	-3104
▁block	-3105
▁mount	-3106
▁teams	-3107
▁terms	-3108
▁kitchen	-3109
▁cross	-3110
oms	-3111
udd	-3112
▁Spr	-3113
▁stuff	-3114
tee	-3115
▁extreme	-3116
▁dark	-3117
ffee	-3118
▁vehicle	-3119
▁Last	-3120
▁Jack	-3121
▁attempt	-3122
▁Each	-3123
▁glass	-3124
urning	-3125
▁wasn	-3126
▁applications	-3127
ores	-3128
venue	-3129
▁hop	-3130
▁saying	-3131
▁floor	-3132
hest	-3133
▁wrong	-3134
ey	-3135
▁baby	-3136
imately	-3137
▁Tex	-3138
▁dead	-3139
ties	-3140
uth	-3141
▁Bra	-3142
▁China	-3143
▁thinking	-3144
▁Port	-3145
▁rev	-3146
▁depend	-3147
▁shoot	-3148
▁Web	-3149
▁Ty	-3150
inner	-3151
ipped	-3152
▁blood	-3153
ashington	-3154
ecutive	-3155
▁bi	-3156
ald	-3157
oming	-3158
▁Twitter	-3159
▁Develop	-3160
OL	-3161
istry	-3162
▁mention	-3163
▁See	-3164
TM	-3165
”.	-3166
▁gave	-3167
▁Japan	-3168
aughter	-3169
▁Hall	-3170
▁smart	-3171
▁System	-3172
▁wait	-3173
inary	-3174
▁implement	-3175
pite	-3176
▁obs	-3177
rote	-3178
▁profession	-3179
▁speed	-3180
▁aware	-3181
▁serve	-3182
▁spend	-3183
▁attract	-3184
▁director	-3185
▁organiz	-3186
▁Bel	-3187
▁offering	-3188
iced	-3189
▁section	-3190
▁sen	-3191
▁budget	-3192
▁Association	-3193
▁became	-3194
▁farm	-3195
aries	-3196
ological	-3197
▁impress	-3198
▁distrib	-3199
Ch	-3200
rows	-3201
▁Office	-3202
▁ge	-3203
▁Mor	-3204
▁pictures	-3205
▁nation	-3206
▁college	-3207
▁wish	-3208
AD	-3209
▁Pri	-3210
▁correct	-3211
▁Sol	-3212
field	-3213
overn	-3214
▁Make	-3215
▁suit	-3216
▁IN	-3217
▁effort	-3218
▁Mem	-3219
▁developed	-3220
▁places	-3221
▁moving	-3222
▁conduct	-3223
▁coun	-3224
▁tal	-3225
▁carry	-3226
▁dog	-3227
▁limited	-3228
▁individuals	-3229
▁advice	-3230
ils	-3231
▁dro	-3232
vest	-3233
▁son	-3234
pre	-3235
▁rent	-3236
▁avoid	-3237
▁spent	-3238
yond	-3239
ications	-3240
zy	-3241
▁complex	-3242
▁Paul	-3243
▁defe	-3244
lock	-3245
▁bath	-3246
▁title	-3247
▁sleep	-3248
▁situation	-3249
▁Down	-3250
▁Road	-3251
idered	-3252
▁requirements	-3253
▁album	-3254
▁progress	-3255
▁delivery	-3256
ceed	-3257
▁Today	-3258
▁jud	-3259
▁Washington	-3260
▁cas	-3261
▁Vis	-3262
▁Educ	-3263
▁Inter	-3264
▁vot	-3265
▁construction	-3266
rench	-3267
riend	-3268
▁enh	-3269
▁Public	-3270
ibly	-3271
▁About	-3272
house	-3273
haps	-3274
▁ble	-3275
word	-3276
▁Canada	-3277
▁advant	-3278
▁wants	-3279
▁Top	-3280
▁statement	-3281
▁feet	-3282
▁Use	-3283
▁schools	-3284
▁Gold	-3285
▁war	-3286
down	-3287
▁race	-3288
useum	-3289
▁heard	-3290
▁convers	-3291
▁eat	-3292
▁Find	-3293
US	-3294
▁sometimes	-3295
▁sweet	-3296
▁Director	-3297
▁AN	-3298
▁nut	-3299
▁stress	-3300
▁billion	-3301
reci	-3302
▁Lear	-3303
▁quarter	-3304
▁physical	-3305
▁felt	-3306
ancing	-3307
▁hous	-3308
PS	-3309
▁Indian	-3310
▁hotel	-3311
▁Mac	-3312
itary	-3313
▁towards	-3314
▁consist	-3315
▁stage	-3316
▁spot	-3317
▁annual	-3318
▁shop	-3319
▁shot	-3320
▁strateg	-3321
▁Flor	-3322
▁wonderful	-3323
ports	-3324
porate	-3325
▁Open	-3326
▁loved	-3327
▁region	-3328
▁ing	-3329
▁path	-3330
▁Dem	-3331
▁feeling	-3332
▁owners	-3333
▁finish	-3334
▁ver	-3335
▁Pal	-3336
▁THE	-3337
▁aff	-3338
unte	-3339
▁mat	-3340
ari	-3341
▁eyes	-3342
▁pattern	-3343
▁Council	-3344
▁finally	-3345
isions	-3346
▁lik	-3347
ctions	-3348
▁ten	-3349
▁brought	-3350
ION	-3351
▁Texas	-3352
▁language	-3353
▁wife	-3354
▁Care	-3355
▁pet	-3356
▁interact	-3357
▁partner	-3358
▁sports	-3359
▁straight	-3360
rast	-3361
▁inform	-3362
▁Dan	-3363
▁nature	-3364
ads	-3365
▁investment	-3366
▁Club	-3367
roid	-3368
▁respond	-3369
▁concept	-3370
▁nearly	-3371
owl	-3372
dule	-3373
▁helping	-3374
▁Hel	-3375
▁Class	-3376
▁exerc	-3377
▁overall	-3378
▁star	-3379
▁Bre	-3380
▁categ	-3381
▁weather	-3382
▁ult	-3383
▁Apple	-3384
▁max	-3385
▁tried	-3386
▁guide	-3387
▁blue	-3388
▁William	-3389
end	-3390
▁temper	-3391
estival	-3392
▁pow	-3393
▁collabor	-3394
▁largest	-3395
▁Court	-3396
".	-3397
ened	-3398
▁demand	-3399
▁charge	-3400
▁independ	-3401
▁client	-3402
hips	-3403
▁Board	-3404
As	-3405
▁rock	-3406
▁Time	-3407
itect	-3408
ourney	-3409
▁wear	-3410
change	-3411
▁Oh	-3412
ament	-3413
▁pred	-3414
He	-3415
▁advert	-3416
▁definitely	-3417
mitted	-3418
▁appoint	-3419
▁wrote	-3420
▁candid	-3421
▁activity	-3422
▁gas	-3423
▁seven	-3424
▁Windows	-3425
rences	-3426
▁Ann	-3427
▁Ir	-3428
▁cold	-3429
rig	-3430
aly	-3431
▁benefit	-3432
ago	-3433
▁Internet	-3434
▁offered	-3435
inger	-3436
roud	-3437
asc	-3438
▁Australia	-3439
yd	-3440
▁acqu	-3441
▁influ	-3442
▁response	-3443
▁turned	-3444
▁Ant	-3445
wise	-3446
▁double	-3447
▁miles	-3448
▁Review	-3449
▁pieces	-3450
▁uses	-3451
▁Tom	-3452
last	-3453
ounds	-3454
▁earlier	-3455
▁devices	-3456
▁Fam	-3457
▁internet	-3458
uted	-3459
▁beginning	-3460
▁thous	-3461
ned	-3462
▁considered	-3463
▁ahead	-3464
lies	-3465
▁altern	-3466
▁appreci	-3467
ails	-3468
▁grand	-3469
▁reduce	-3470
▁exactly	-3471
▁Adv	-3472
▁histor	-3473
▁View	-3474
▁prec	-3475
▁Research	-3476
▁James	-3477
bon	-3478
▁wedding	-3479
▁active	-3480
▁homes	-3481
▁imag	-3482
▁entertain	-3483
arc	-3484
▁Michael	-3485
▁paid	-3486
ategy	-3487
▁doll	-3488
ustain	-3489
▁transport	-3490
▁difference	-3491
▁belie	-3492
▁Thank	-3493
icks	-3494
olute	-3495
▁political	-3496
▁IT	-3497
▁regul	-3498
▁challenge	-3499
▁served	-3500
▁supply	-3501
▁cho	-3502
more	-3503
▁surround	-3504
ampions	-3505
▁Micro	-3506
▁finished	-3507
▁Rich	-3508
▁Have	-3509
icate	-3510
OV	-3511
▁Big	-3512
umn	-3513
ading	-3514
You	-3515
agn	-3516
▁Rel	-3517
▁cash	-3518
▁Look	-3519
▁creative	-3520
cause	-3521
▁eight	-3522
estern	-3523
ston	-3524
▁understanding	-3525
▁retail	-3526
▁replace	-3527
▁Govern	-3528
icip	-3529
▁states	-3530
LE	-3531
ying	-3532
:||	-3533
▁Cur	-3534
▁Mark	-3535
▁rates	-3536
orrow	-3537
mod	-3538
▁culture	-3539
▁Char	-3540
antly	-3541
ky	-3542
vin	-3543
oly	-3544
▁European	-3545
▁Super	-3546
▁lots	-3547
▁guarant	-3548
▁easier	-3549
▁experienced	-3550
▁ST	-3551
▁afford	-3552
▁Call	-3553
box	-3554
▁pages	-3555
▁Life	-3556
▁hus	-3557
dd	-3558
▁bottom	-3559
place	-3560
▁expand	-3561
iny	-3562
▁truly	-3563
sec	-3564
▁father	-3565
▁pressure	-3566
▁maybe	-3567
▁flav	-3568
hens	-3569
▁economic	-3570
ales	-3571
▁thank	-3572
▁reflect	-3573
inated	-3574
▁machine	-3575
ses	-3576
▁Company	-3577
error	-3578
rial	-3579
▁analysis	-3580
amic	-3581
icious	-3582
▁fat	-3583
▁IS	-3584
▁immediately	-3585
▁emot	-3586
▁named	-3587
alt	-3588
aled	-3589
▁gradu	-3590
▁numbers	-3591
sych	-3592
het	-3593
▁tom	-3594
▁Child	-3595
▁Det	-3596
▁Angel	-3597
▁demon	-3598
▁girls	-3599
▁exhib	-3600
rey	-3601
▁prot	-3602
▁comfortable	-3603
IP	-3604
erry	-3605
pa	-3606
▁assess	-3607
▁posted	-3608
▁satis	-3609
nown	-3610
▁degree	-3611
▁tips	-3612
chan	-3613
▁helped	-3614
▁damage	-3615
ivil	-3616
▁Ev	-3617
▁opening	-3618
▁Management	-3619
▁garden	-3620
▁dating	-3621
▁Bank	-3622
▁videos	-3623
▁contain	-3624
▁obt	-3625
▁wild	-3626
▁PC	-3627
ronic	-3628
care	-3629
▁storage	-3630
▁Bay	-3631
▁Ret	-3632
▁speak	-3633
▁behav	-3634
phone	-3635
▁subst	-3636
▁remain	-3637
force	-3638
anging	-3639
▁Plan	-3640
▁trade	-3641
▁launch	-3642
undred	-3643
rem	-3644
▁reviews	-3645
▁completed	-3646
▁Ins	-3647
▁II	-3648
ico	-3649
▁pool	-3650
▁Sun	-3651
▁Island	-3652
▁beyond	-3653
amm	-3654
▁lack	-3655
▁disease	-3656
asy	-3657
▁lock	-3658
▁Sing	-3659
▁Rock	-3660
set	-3661
▁threat	-3662
▁purpose	-3663
If	-3664
tion	-3665
▁Water	-3666
order	-3667
orial	-3668
▁cards	-3669
▁Contact	-3670
ado	-3671
▁adjust	-3672
▁Mart	-3673
dom	-3674
que	-3675
▁ter	-3676
▁spread	-3677
▁accur	-3678
▁existing	-3679
▁fashion	-3680
arily	-3681
▁knew	-3682
▁decor	-3683
▁Love	-3684
▁fant	-3685
▁Jes	-3686
▁highest	-3687
▁cancer	-3688
Re	-3689
lied	-3690
▁Florida	-3691
▁plus	-3692
OW	-3693
▁craft	-3694
▁jobs	-3695
soft	-3696
▁Although	-3697
met	-3698
▁conference	-3699
▁Rob	-3700
body	-3701
▁Win	-3702
▁responsible	-3703
▁increasing	-3704
▁Sur	-3705
▁During	-3706
▁allowed	-3707
aling	-3708
▁train	-3709
▁setting	-3710
▁excited	-3711
atever	-3712
▁prefer	-3713
rapy	-3714
▁driving	-3715
▁camera	-3716
▁proud	-3717
door	-3718
▁increased	-3719
▁Sa	-3720
▁sty	-3721
imal	-3722
▁welcome	-3723
▁lines	-3724
▁himself	-3725
▁middle	-3726
▁initial	-3727
▁appropri	-3728
▁Dec	-3729
▁proced	-3730
ona	-3731
aith	-3732
ences	-3733
▁fem	-3734
illa	-3735
▁Sum	-3736
▁Church	-3737
▁certainly	-3738
▁General	-3739
▁passion	-3740
▁frame	-3741
▁furn	-3742
▁coffee	-3743
cel	-3744
▁strugg	-3745
▁journey	-3746
▁Product	-3747
▁holiday	-3748
iling	-3749
▁files	-3750
▁Community	-3751
▁Camp	-3752
▁estate	-3753
▁effects	-3754
▁er	-3755
za	-3756
fl	-3757
▁husband	-3758
▁thanks	-3759
▁Back	-3760
▁frequ	-3761
▁cast	-3762
▁ingred	-3763
aming	-3764
▁steps	-3765
▁button	-3766
▁Republic	-3767
▁length	-3768
▁update	-3769
▁People	-3770
▁pen	-3771
▁Custom	-3772
▁born	-3773
ologies	-3774
▁normal	-3775
istics	-3776
▁efforts	-3777
▁selection	-3778
▁Two	-3779
▁Education	-3780
▁changed	-3781
ously	-3782
▁Mary	-3783
▁batter	-3784
▁Cong	-3785
net	-3786
▁secure	-3787
▁mission	-3788
vant	-3789
▁cru	-3790
anta	-3791
▁spirit	-3792
▁dedicated	-3793
▁bill	-3794
▁owner	-3795
▁clin	-3796
▁relax	-3797
▁surv	-3798
▁shopping	-3799
▁looked	-3800
lying	-3801
icken	-3802
ken	-3803
▁incred	-3804
▁occas	-3805
▁stream	-3806
ovel	-3807
▁moved	-3808
▁Show	-3809
ady	-3810
▁links	-3811
▁mis	-3812
omb	-3813
nection	-3814
▁Cap	-3815
▁science	-3816
ij	-3817
EM	-3818
▁aspect	-3819
▁protection	-3820
):	-3821
oma	-3822
▁haven	-3823
fit	-3824
▁wine	-3825
▁powerful	-3826
▁French	-3827
othing	-3828
▁extend	-3829
▁evening	-3830
▁demonstr	-3831
▁instruct	-3832
▁Take	-3833
▁meaning	-3834
▁background	-3835
▁Like	-3836
oos	-3837
ipp	-3838
▁occur	-3839
▁talking	-3840
▁patient	-3841
▁produce	-3842
IV	-3843
▁particularly	-3844
nded	-3845
▁USA	-3846
enance	-3847
▁aren	-3848
▁guys	-3849
porary	-3850
reed	-3851
friend	-3852
▁measure	-3853
▁Power	-3854
▁Sil	-3855
▁opin	-3856
▁basic	-3857
▁challenges	-3858
▁alone	-3859
ota	-3860
▁Under	-3861
▁Online	-3862
▁fan	-3863
DA	-3864
▁cream	-3865
ocr	-3866
▁payment	-3867
▁biggest	-3868
▁transfer	-3869
▁rules	-3870
▁Gra	-3871
▁doub	-3872
▁session	-3873
CC	-3874
itiz	-3875
▁shared	-3876
▁fill	-3877
leg	-3878
▁spring	-3879
▁fra	-3880
▁winter	-3881
▁sort	-3882
▁Project	-3883
range	-3884
▁runs	-3885
▁whose	-3886
▁letter	-3887
▁basis	-3888
▁couldn	-3889
IM	-3890
▁coach	-3891
▁federal	-3892
▁Information	-3893
▁Special	-3894
azine	-3895
annel	-3896
▁bur	-3897
▁schedule	-3898
▁liter	-3899
free	-3900
▁organizations	-3901
▁Pet	-3902
▁Because	-3903
▁manager	-3904
ios	-3905
istrict	-3906
▁leader	-3907
see	-3908
▁Phil	-3909
icing	-3910
▁drop	-3911
▁Who	-3912
▁models	-3913
▁electric	-3914
▁strength	-3915
▁Music	-3916
▁artist	-3917
acity	-3918
uing	-3919
▁church	-3920
isl	-3921
▁peace	-3922
▁reasons	-3923
uled	-3924
esome	-3925
▁Food	-3926
▁egg	-3927
▁Lake	-3928
▁slight	-3929
iques	-3930
▁absolute	-3931
▁capital	-3932
▁communities	-3933
▁sugar	-3934
▁volunte	-3935
▁extremely	-3936
▁Star	-3937
▁adding	-3938
▁competition	-3939
iture	-3940
▁exclus	-3941
▁guests	-3942
▁instit	-3943
▁onto	-3944
▁views	-3945
▁unit	-3946
▁mer	-3947
▁stick	-3948
▁British	-3949
▁shown	-3950
▁regarding	-3951
istered	-3952
▁Follow	-3953
vision	-3954
iation	-3955
▁residents	-3956
▁Sam	-3957
▁Ve	-3958
▁Thom	-3959
rief	-3960
gency	-3961
▁Profess	-3962
▁hundred	-3963
▁voice	-3964
▁conven	-3965
▁Miss	-3966
umber	-3967
hone	-3968
▁Enter	-3969
azon	-3970
la	-3971
▁seeing	-3972
▁River	-3973
▁chem	-3974
▁taste	-3975
▁ideal	-3976
▁strategy	-3977
apter	-3978
▁Mil	-3979
▁Yes	-3980
▁scient	-3981
▁followed	-3982
▁AP	-3983
▁Dri	-3984
▁Blue	-3985
ustr	-3986
▁daughter	-3987
▁Real	-3988
eria	-3989
▁colors	-3990
oyal	-3991
▁heavy	-3992
▁Institute	-3993
▁trou	-3994
▁compon	-3995
▁sched	-3996
▁Att	-3997
▁cry	-3998
osing	-3999
▁brother	-4000
▁gone	-4001
▁advantage	-4002
imb	-4003
▁notice	-4004
rian	-4005
▁Lou	-4006
▁guid	-4007
esterday	-4008
▁manage	-4009
oman	-4010
▁score	-4011
▁Matt	-4012
▁characters	-4013
▁virt	-4014
ags	-4015
standing	-4016
▁Fire	-4017
▁Police	-4018
▁Fore	-4019
iverse	-4020
▁traffic	-4021
asp	-4022
▁window	-4023
▁surface	-4024
▁ton	-4025
ocolate	-4026
term	-4027
▁Mount	-4028
▁experiences	-4029
▁Pay	-4030
▁smooth	-4031
ette	-4032
▁happened	-4033
▁Mal	-4034
▁reb	-4035
▁Ben	-4036
fast	-4037
▁graph	-4038
▁hom	-4039
▁Vol	-4040
▁names	-4041
▁identify	-4042
encies	-4043
▁shipping	-4044
▁pair	-4045
▁standards	-4046
▁senior	-4047
Sh	-4048
▁Wood	-4049
ech	-4050
icine	-4051
acing	-4052
gen	-4053
mark	-4054
▁talent	-4055
▁u	-4056
itude	-4057
▁District	-4058
BS	-4059
▁hospital	-4060
▁professionals	-4061
▁List	-4062
raw	-4063
▁initi	-4064
uce	-4065
▁breat	-4066
▁although	-4067
▁classic	-4068
▁workers	-4069
▁experts	-4070
ula	-4071
ixt	-4072
TS	-4073
▁luck	-4074
gn	-4075
▁Step	-4076
▁Hist	-4077
▁audience	-4078
▁covered	-4079
▁Est	-4080
▁laws	-4081
ero	-4082
▁Mot	-4083
▁Sign	-4084
▁passed	-4085
▁waiting	-4086
▁academ	-4087
▁guy	-4088
▁dang	-4089
▁beauty	-4090
rooms	-4091
▁fear	-4092
▁approx	-4093
▁continues	-4094
▁Development	-4095
▁finding	-4096
▁Team	-4097
▁snow	-4098
▁flex	-4099
▁efficient	-4100
orney	-4101
▁master	-4102
▁mail	-4103
▁associated	-4104
▁exciting	-4105
▁eval	-4106
▁Elect	-4107
inese	-4108
▁Exper	-4109
▁compared	-4110
inate	-4111
ga	-4112
▁larger	-4113
▁Chic	-4114
ss	-4115
▁critical	-4116
▁laun	-4117
sequ	-4118
▁cars	-4119
▁rob	-4120
▁Color	-4121
▁cab	-4122
▁technical	-4123
▁Family	-4124
▁trail	-4125
icon	-4126
▁ice	-4127
UR	-4128
▁shape	-4129
▁beg	-4130
▁district	-4131
▁keeping	-4132
▁TO	-4133
▁remind	-4134
▁solid	-4135
▁den	-4136
osh	-4137
▁Foundation	-4138
▁England	-4139
▁Science	-4140
▁facilities	-4141
▁boo	-4142
rees	-4143
▁wat	-4144
▁calls	-4145
▁restaurant	-4146
▁scene	-4147
▁maintain	-4148
▁greater	-4149
▁PR	-4150
▁Engine	-4151
▁sustain	-4152
▁officials	-4153
▁sy	-4154
mail	-4155
▁Alex	-4156
▁Bet	-4157
▁Sl	-4158
▁Jesus	-4159
▁posts	-4160
▁station	-4161
▁friendly	-4162
▁epis	-4163
▁Str	-4164
▁driver	-4165
▁sand	-4166
▁bul	-4167
▁listed	-4168
▁recipe	-4169
▁plenty	-4170
▁Glo	-4171
▁forget	-4172
odes	-4173
▁Vir	-4174
▁fish	-4175
▁older	-4176
illage	-4177
cul	-4178
▁rich	-4179
▁Start	-4180
▁continued	-4181
▁football	-4182
incip	-4183
▁package	-4184
▁developing	-4185
itors	-4186
log	-4187
▁Hum	-4188
▁established	-4189
yer	-4190
iller	-4191
▁Brown	-4192
rowd	-4193
▁income	-4194
▁useful	-4195
▁minute	-4196
▁truck	-4197
well	-4198
▁studies	-4199
▁advent	-4200
▁announce	-4201
oop	-4202
▁learned	-4203
ervation	-4204
▁Press	-4205
atically	-4206
▁disapp	-4207
▁tim	-4208
▁produced	-4209
win	-4210
▁motor	-4211
tra	-4212
▁League	-4213
using	-4214
▁rooms	-4215
unately	-4216
▁closed	-4217
▁beat	-4218
▁handle	-4219
▁appropriate	-4220
▁Whether	-4221
▁classes	-4222
unning	-4223
▁origin	-4224
▁military	-4225
ander	-4226
▁Central	-4227
▁artists	-4228
▁died	-4229
gal	-4230
▁Commission	-4231
▁explore	-4232
▁sup	-4233
▁placed	-4234
▁Offic	-4235
CA	-4236
▁economy	-4237
▁kept	-4238
▁thousands	-4239
night	-4240
▁knows	-4241
▁Franc	-4242
▁connection	-4243
▁winning	-4244
▁Smith	-4245
▁remove	-4246
▁pros	-4247
▁Social	-4248
▁evidence	-4249
▁force	-4250
▁primary	-4251
▁CEO	-4252
▁Media	-4253
▁adop	-4254
▁tree	-4255
▁repair	-4256
▁salt	-4257
▁Build	-4258
▁bright	-4259
aded	-4260
▁novel	-4261
▁testing	-4262
▁Download	-4263
iment	-4264
IG	-4265
▁Christian	-4266
▁operations	-4267
▁util	-4268
rael	-4269
▁status	-4270
▁opened	-4271
▁figure	-4272
▁requires	-4273
BA	-4274
▁street	-4275
▁discount	-4276
▁fol	-4277
There	-4278
▁Another	-4279
▁gun	-4280
▁communication	-4281
atab	-4282
ipes	-4283
▁presented	-4284
▁Grand	-4285
rd	-4286
▁decl	-4287
▁Beach	-4288
▁discover	-4289
ka	-4290
What	-4291
▁Obama	-4292
overy	-4293
▁ingredients	-4294
▁teaching	-4295
▁surg	-4296
▁medium	-4297
▁Network	-4298
▁injury	-4299
inn	-4300
▁Arch	-4301
semb	-4302
▁harm	-4303
▁starts	-4304
vention	-4305
oe	-4306
▁brain	-4307
bed	-4308
▁Carol	-4309
▁catch	-4310
▁contains	-4311
iled	-4312
▁selected	-4313
irection	-4314
▁shall	-4315
▁Mex	-4316
outhern	-4317
▁sharing	-4318
▁brings	-4319
look	-4320
action	-4321
▁butter	-4322
arge	-4323
▁doctor	-4324
idential	-4325
▁Disc	-4326
▁structure	-4327
▁advance	-4328
itar	-4329
ideo	-4330
▁poor	-4331
rehens	-4332
▁scen	-4333
men	-4334
▁famous	-4335
asure	-4336
▁pray	-4337
▁dinner	-4338
mp	-4339
▁arrest	-4340
apers	-4341
pective	-4342
▁Dig	-4343
▁prepared	-4344
olic	-4345
▁esc	-4346
▁Scott	-4347
▁Hill	-4348
▁manufacturer	-4349
▁suff	-4350
enses	-4351
▁Mad	-4352
▁Word	-4353
▁pm	-4354
▁serving	-4355
▁Microsoft	-4356
▁jump	-4357
▁Card	-4358
▁ship	-4359
▁loan	-4360
▁architect	-4361
▁Light	-4362
uries	-4363
▁Full	-4364
▁department	-4365
▁mo	-4366
▁remains	-4367
▁funds	-4368
▁Valley	-4369
▁vision	-4370
▁watching	-4371
▁secret	-4372
▁rank	-4373
atively	-4374
▁victim	-4375
PA	-4376
▁sto	-4377
▁Amazon	-4378
▁resist	-4379
▁Cup	-4380
ini	-4381
ctors	-4382
▁veget	-4383
▁gain	-4384
▁Chicago	-4385
aven	-4386
▁Their	-4387
noon	-4388
▁methods	-4389
▁balance	-4390
usion	-4391
lor	-4392
iers	-4393
▁agency	-4394
allery	-4395
▁updated	-4396
▁buying	-4397
▁movement	-4398
”,	-4399
riage	-4400
▁leaves	-4401
CH	-4402
▁Keep	-4403
▁Bill	-4404
▁drug	-4405
▁compl	-4406
▁Chinese	-4407
▁guess	-4408
▁Support	-4409
ooper	-4410
▁Net	-4411
RA	-4412
aked	-4413
▁encourage	-4414
▁Stand	-4415
▁spending	-4416
▁cloud	-4417
▁journal	-4418
▁map	-4419
▁OF	-4420
▁Week	-4421
▁reality	-4422
lands	-4423
▁Award	-4424
going	-4425
ption	-4426
ishes	-4427
▁Africa	-4428
LC	-4429
▁properties	-4430
okes	-4431
lastname	-4432
eless	-4433
▁beach	-4434
▁becoming	-4435
▁happens	-4436
▁Date	-4437
▁Ber	-4438
ellig	-4439
▁bought	-4440
top	-4441
▁sector	-4442
▁cleaning	-4443
▁Women	-4444
▁spons	-4445
▁RE	-4446
▁ID	-4447
▁Mel	-4448
▁leaving	-4449
▁sport	-4450
iency	-4451
▁relig	-4452
▁Commit	-4453
▁showing	-4454
antic	-4455
▁plants	-4456
itness	-4457
life	-4458
▁maintenance	-4459
▁https	-4460
▁facility	-4461
▁metal	-4462
▁Fort	-4463
▁Tor	-4464
ception	-4465
▁perhaps	-4466
▁dep	-4467
▁Times	-4468
essions	-4469
hem	-4470
ki	-4471
▁determine	-4472
ifts	-4473
▁leadership	-4474
▁Long	-4475
▁advanced	-4476
▁worksh	-4477
▁Israel	-4478
▁independent	-4479
▁stores	-4480
▁entry	-4481
▁Rad	-4482
▁Academ	-4483
▁Android	-4484
▁cris	-4485
▁mechan	-4486
▁fee	-4487
▁analy	-4488
▁Where	-4489
▁rain	-4490
berg	-4491
edy	-4492
▁upgr	-4493
▁rare	-4494
osure	-4495
▁unc	-4496
outs	-4497
▁cart	-4498
▁Que	-4499
▁exercise	-4500
▁wouldn	-4501
▁committed	-4502
abilities	-4503
ror	-4504
▁faith	-4505
itz	-4506
▁NY	-4507
▁meant	-4508
alls	-4509
▁vote	-4510
▁sem	-4511
▁iPhone	-4512
▁Mass	-4513
ograp	-4514
▁mist	-4515
▁bird	-4516
craft	-4517
▁Both	-4518
▁fabric	-4519
▁designs	-4520
▁Tim	-4521
▁numerous	-4522
▁ride	-4523
▁focused	-4524
▁anti	-4525
▁markets	-4526
▁Div	-4527
▁brows	-4528
▁Nov	-4529
▁ju	-4530
▁incor	-4531
▁Fil	-4532
fr	-4533
▁signed	-4534
agram	-4535
▁sources	-4536
▁Pub	-4537
▁records	-4538
**	-4539
▁funding	-4540
▁theme	-4541
▁actual	-4542
aturing	-4543
iest	-4544
▁establish	-4545
▁changing	-4546
▁chair	-4547
ae	-4548
▁visitors	-4549
▁steel	-4550
▁visual	-4551
▁multi	-4552
▁ir	-4553
For	-4554
estic	-4555
▁Next	-4556
MS	-4557
▁Los	-4558
▁forms	-4559
iences	-4560
▁crowd	-4561
iance	-4562
▁joined	-4563
▁Organ	-4564
isation	-4565
▁mill	-4566
▁coverage	-4567
▁elements	-4568
▁showed	-4569
rim	-4570
▁kick	-4571
▁selling	-4572
▁Watch	-4573
▁practices	-4574
▁animals	-4575
▁operating	-4576
▁obvious	-4577
fin	-4578
▁menu	-4579
▁busy	-4580
▁Nor	-4581
▁capacity	-4582
▁locations	-4583
▁grant	-4584
▁Medical	-4585
▁songs	-4586
▁fell	-4587
▁Set	-4588
▁neighbor	-4589
▁roof	-4590
▁refer	-4591
▁Head	-4592
isher	-4593
eared	-4594
▁George	-4595
oor	-4596
miss	-4597
▁memory	-4598
▁raised	-4599
▁Only	-4600
rics	-4601
▁worry	-4602
▁whatever	-4603
▁corner	-4604
▁ban	-4605
▁lose	-4606
▁allowing	-4607
igan	-4608
▁listen	-4609
IA	-4610
▁central	-4611
reek	-4612
▁plastic	-4613
▁society	-4614
▁accommod	-4615
gage	-4616
vere	-4617
▁relationships	-4618
SS	-4619
▁Tri	-4620
▁diet	-4621
igation	-4622
▁lux	-4623
▁diagn	-4624
▁thr	-4625
▁managed	-4626
▁Copy	-4627
OP	-4628
▁updates	-4629
▁limit	-4630
▁caused	-4631
▁estim	-4632
▁rap	-4633
▁parking	-4634
▁population	-4635
▁tables	-4636
▁Before	-4637
ya	-4638
▁Note	-4639
▁uns	-4640
",	-4641
fol	-4642
▁parties	-4643
▁decide	-4644
isco	-4645
uty	-4646
▁claims	-4647
▁articles	-4648
▁core	-4649
ano	-4650
▁survey	-4651
▁repe	-4652
▁Mer	-4653
ferences	-4654
▁assistance	-4655
amin	-4656
▁walking	-4657
▁tickets	-4658
▁Its	-4659
▁techniques	-4660
▁thoughts	-4661
ection	-4662
▁CD	-4663
rab	-4664
ivered	-4665
▁Sy	-4666
▁afternoon	-4667
▁colour	-4668
▁documents	-4669
▁wire	-4670
arrant	-4671
▁bowl	-4672
▁ended	-4673
▁transl	-4674
▁youth	-4675
▁brown	-4676
▁combination	-4677
▁vehicles	-4678
lines	-4679
▁flat	-4680
▁forum	-4681
▁yesterday	-4682
▁previously	-4683
▁Game	-4684
▁enjoyed	-4685
▁landsc	-4686
▁Society	-4687
▁profile	-4688
▁courses	-4689
iliar	-4690
▁launched	-4691
▁toward	-4692
▁appears	-4693
DF	-4694
▁eating	-4695
point	-4696
▁sea	-4697
▁Bur	-4698
▁Town	-4699
▁accident	-4700
▁Cre	-4701
▁awesome	-4702
▁filled	-4703
▁optim	-4704
▁teacher	-4705
coh	-4706
▁factors	-4707
bour	-4708
eed	-4709
▁Chris	-4710
▁Technology	-4711
▁temperature	-4712
rs	-4713
▁micro	-4714
▁mort	-4715
pan	-4716
▁psych	-4717
while	-4718
▁generally	-4719
▁putting	-4720
▁shel	-4721
▁charges	-4722
▁Learn	-4723
▁Mont	-4724
▁Trump	-4725
▁citiz	-4726
▁Atl	-4727
▁notes	-4728
▁smaller	-4729
▁Author	-4730
▁firstname	-4731
▁Pack	-4732
▁direction	-4733
▁values	-4734
▁task	-4735
no	-4736
rehensive	-4737
▁counter	-4738
▁Lord	-4739
▁Log	-4740
▁Wil	-4741
▁AL	-4742
▁outdoor	-4743
▁CA	-4744
▁Sand	-4745
▁earth	-4746
▁kid	-4747
▁teachers	-4748
▁panel	-4749
▁becomes	-4750
▁vs	-4751
▁tend	-4752
▁corporate	-4753
orthern	-4754
▁favour	-4755
ola	-4756
▁bon	-4757
▁Arts	-4758
▁Virgin	-4759
▁century	-4760
▁honest	-4761
▁separate	-4762
▁legisl	-4763
??	-4764
▁cheese	-4765
▁Security	-4766
▁assign	-4767
yan	-4768
▁Congress	-4769
▁matt	-4770
On	-4771
▁sch	-4772
▁truth	-4773
▁purs	-4774
▁concerns	-4775
OD	-4776
▁situ	-4777
▁Committee	-4778
▁Main	-4779
istan	-4780
▁Data	-4781
▁helpful	-4782
▁dur	-4783
▁shut	-4784
▁Jew	-4785
New	-4786
▁swim	-4787
▁Centre	-4788
iration	-4789
▁missing	-4790
▁orders	-4791
▁fold	-4792
▁Jul	-4793
▁Frank	-4794
▁milk	-4795
rain	-4796
▁McC	-4797
een	-4798
▁Government	-4799
▁flu	-4800
▁throw	-4801
!!!	-4802
po	-4803
▁Ext	-4804
▁adapt	-4805
▁polic	-4806
▁innovative	-4807
▁installation	-4808
ownt	-4809
▁Aud	-4810
▁ur	-4811
▁south	-4812
▁relevant	-4813
▁Lo	-4814
▁tow	-4815
▁van	-4816
pet	-4817
ifying	-4818
olars	-4819
rical	-4820
▁Robert	-4821
SP	-4822
▁Museum	-4823
▁decisions	-4824
▁environmental	-4825
ye	-4826
▁discussion	-4827
▁despite	-4828
▁waste	-4829
▁AND	-4830
▁fourth	-4831
▁slightly	-4832
orter	-4833
▁Tur	-4834
oles	-4835
▁inspired	-4836
▁Mike	-4837
▁ang	-4838
▁dance	-4839
▁net	-4840
▁Tre	-4841
▁enhance	-4842
▁Den	-4843
▁apart	-4844
▁Prov	-4845
▁Wall	-4846
▁Jim	-4847
▁scr	-4848
▁spect	-4849
▁mental	-4850
▁Hotel	-4851
▁Old	-4852
▁fantastic	-4853
▁Land	-4854
▁pal	-4855
▁format	-4856
▁Somet	-4857
▁sav	-4858
▁joint	-4859
▁desk	-4860
ita	-4861
▁upcoming	-4862
▁ath	-4863
▁AC	-4864
▁spl	-4865
▁Lead	-4866
▁Dou	-4867
inct	-4868
▁emp	-4869
▁YOU	-4870
▁willing	-4871
rist	-4872
▁hearing	-4873
▁sounds	-4874
▁fuel	-4875
▁commitment	-4876
ups	-4877
▁consumers	-4878
▁appeal	-4879
▁raise	-4880
?”	-4881
▁Manager	-4882
▁civil	-4883
▁UN	-4884
kin	-4885
osen	-4886
▁Place	-4887
▁library	-4888
umin	-4889
SA	-4890
ensions	-4891
▁vir	-4892
▁north	-4893
▁Through	-4894
▁expertise	-4895
▁Report	-4896
▁promote	-4897
▁asking	-4898
▁absolutely	-4899
▁units	-4900
▁Contin	-4901
water	-4902
▁chocolate	-4903
cher	-4904
▁extensive	-4905
▁Louis	-4906
▁movies	-4907
▁delivered	-4908
▁Series	-4909
▁bask	-4910
▁delicious	-4911
▁Ill	-4912
Pro	-4913
▁eth	-4914
▁reached	-4915
▁sets	-4916
zen	-4917
Com	-4918
▁Vict	-4919
known	-4920
▁executive	-4921
uable	-4922
▁plays	-4923
▁agreement	-4924
ternal	-4925
▁Link	-4926
▁radio	-4927
nergy	-4928
▁Posted	-4929
▁Ma	-4930
▁foreign	-4931
▁alle	-4932
▁lunch	-4933
REE	-4934
▁transform	-4935
▁datab	-4936
aser	-4937
▁register	-4938
icians	-4939
▁emergency	-4940
▁thick	-4941
▁struct	-4942
▁trees	-4943
▁Angeles	-4944
▁Invest	-4945
list	-4946
eline	-4947
▁Ham	-4948
▁Lim	-4949
▁Const	-4950
▁Oper	-4951
▁provider	-4952
▁brief	-4953
▁NE	-4954
▁presence	-4955
text	-4956
▁Upd	-4957
▁combined	-4958
▁Fund	-4959
▁rid	-4960
!)	-4961
▁Admin	-4962
▁Fun	-4963
▁achie	-4964
prise	-4965
▁Gal	-4966
▁furniture	-4967
▁seeking	-4968
▁fruit	-4969
▁NOT	-4970
▁Hand	-4971
▁controll	-4972
▁Union	-4973
osition	-4974
▁connected	-4975
▁Join	-4976
bre	-4977
▁Jun	-4978
▁readers	-4979
▁expensive	-4980
▁adults	-4981
▁Person	-4982
▁Cook	-4983
▁Democr	-4984
reens	-4985
▁seconds	-4986
▁feels	-4987
▁poll	-4988
▁ON	-4989
uality	-4990
▁rat	-4991
▁generation	-4992
▁distance	-4993
▁edge	-4994
▁fees	-4995
▁mentioned	-4996
▁recommended	-4997
▁trial	-4998
▁chat	-4999
▁calling	-5000
▁har	-5001
▁nine	-5002
▁cities	-5003
▁chicken	-5004
▁approximately	-5005
▁Plus	-5006
atin	-5007
▁bringing	-5008
TH	-5009
▁consid	-5010
▁Access	-5011
▁Journal	-5012
▁Inte	-5013
▁wel	-5014
▁married	-5015
fortunately	-5016
▁Peter	-5017
▁prepare	-5018
▁websites	-5019
▁operation	-5020
▁alternative	-5021
▁confidence	-5022
▁server	-5023
▁dogs	-5024
IR	-5025
▁registered	-5026
▁stars	-5027
cean	-5028
LA	-5029
▁educational	-5030
▁Master	-5031
burg	-5032
▁Di	-5033
appy	-5034
▁Indust	-5035
▁photograph	-5036
▁restrict	-5037
ef	-5038
ruit	-5039
▁Chief	-5040
▁Ol	-5041
▁tight	-5042
My	-5043
▁Children	-5044
▁centre	-5045
hab	-5046
emporary	-5047
▁square	-5048
▁France	-5049
othes	-5050
▁Spring	-5051
▁tun	-5052
▁returned	-5053
▁lovely	-5054
▁minimum	-5055
▁category	-5056
OC	-5057
▁Live	-5058
azz	-5059
▁exchange	-5060
▁seat	-5061
irmed	-5062
▁stret	-5063
▁Prote	-5064
ears	-5065
▁topic	-5066
▁installed	-5067
▁tea	-5068
▁info	-5069
▁Rest	-5070
rag	-5071
▁tough	-5072
▁brands	-5073
asks	-5074
▁guest	-5075
▁princip	-5076
▁Way	-5077
bu	-5078
▁majority	-5079
▁researc	-5080
atre	-5081
inations	-5082
▁wearing	-5083
▁appearance	-5084
▁female	-5085
how	-5086
▁neck	-5087
▁Minister	-5088
▁colle	-5089
estyle	-5090
ship	-5091
orry	-5092
▁Cy	-5093
IF	-5094
When	-5095
ulated	-5096
aks	-5097
▁ven	-5098
▁accompl	-5099
▁therefore	-5100
▁mostly	-5101
▁instru	-5102
▁Canad	-5103
▁Ok	-5104
▁Price	-5105
elines	-5106
▁maximum	-5107
▁HD	-5108
▁winner	-5109
▁sauce	-5110
▁processes	-5111
▁academic	-5112
▁surgery	-5113
van	-5114
kins	-5115
▁measures	-5116
▁responsibility	-5117
▁Ver	-5118
ifications	-5119
▁leads	-5120
▁impl	-5121
▁teen	-5122
▁Mo	-5123
▁killed	-5124
▁Sup	-5125
▁approved	-5126
▁apps	-5127
▁anywhere	-5128
▁arrange	-5129
▁Max	-5130
nel	-5131
▁Men	-5132
osis	-5133
▁Sports	-5134
▁stre	-5135
▁Video	-5136
▁Hy	-5137
▁importance	-5138
▁Test	-5139
▁gather	-5140
▁ring	-5141
▁climate	-5142
▁Squ	-5143
alian	-5144
▁satisf	-5145
▁detailed	-5146
▁boost	-5147
▁signs	-5148
▁battery	-5149
An	-5150
▁nom	-5151
hi	-5152
▁battle	-5153
▁feedback	-5154
▁chief	-5155
▁veter	-5156
▁Festival	-5157
▁switch	-5158
▁Creat	-5159
mond	-5160
▁dyn	-5161
▁worldwide	-5162
▁featured	-5163
▁scheduled	-5164
▁cooking	-5165
▁disp	-5166
▁highlight	-5167
ius	-5168
lets	-5169
▁Wild	-5170
▁supporting	-5171
▁rise	-5172
ait	-5173
▁crim	-5174
▁Library	-5175
▁sympt	-5176
ulty	-5177
▁cheap	-5178
cohol	-5179
▁comprehensive	-5180
▁predict	-5181
▁participants	-5182
vis	-5183
▁Walk	-5184
▁Jud	-5185
arsh	-5186
▁Cat	-5187
ker	-5188
▁IP	-5189
▁Thomas	-5190
▁affordable	-5191
▁otherwise	-5192
paper	-5193
▁Bob	-5194
▁Tour	-5195
▁defense	-5196
▁Conference	-5197
alend	-5198
ters	-5199
Cl	-5200
cious	-5201
▁bike	-5202
▁Lab	-5203
roy	-5204
otten	-5205
▁properly	-5206
ician	-5207
▁animal	-5208
▁actions	-5209
▁Using	-5210
ulate	-5211
▁clearly	-5212
ena	-5213
▁performed	-5214
▁Earth	-5215
FL	-5216
▁Search	-5217
gl	-5218
▁mur	-5219
▁Pan	-5220
▁purchased	-5221
itable	-5222
bl	-5223
▁Those	-5224
idden	-5225
▁ourselves	-5226
iner	-5227
pected	-5228
oston	-5229
▁Bi	-5230
▁conv	-5231
▁joy	-5232
uts	-5233
▁Copyright	-5234
▁audio	-5235
iser	-5236
▁chemical	-5237
▁meal	-5238
▁vent	-5239
▁competitive	-5240
verse	-5241
anda	-5242
▁Johnson	-5243
▁appeared	-5244
▁windows	-5245
▁advertising	-5246
▁Global	-5247
▁applied	-5248
▁push	-5249
▁motiv	-5250
UT	-5251
bol	-5252
▁Prem	-5253
▁ment	-5254
▁Cam	-5255
▁doors	-5256
▁Soft	-5257
ENT	-5258
▁Party	-5259
▁sister	-5260
▁policies	-5261
gment	-5262
▁pump	-5263
▁mouth	-5264
oga	-5265
▁topics	-5266
▁Form	-5267
▁Jeff	-5268
erg	-5269
▁supported	-5270
▁valid	-5271
▁Bas	-5272
▁technologies	-5273
▁pregn	-5274
▁scale	-5275
▁flowers	-5276
▁rom	-5277
▁behavior	-5278
▁arm	-5279
▁African	-5280
▁sitting	-5281
rastructure	-5282
GB	-5283
MA	-5284
▁minor	-5285
▁writer	-5286
▁familiar	-5287
▁Jose	-5288
▁holding	-5289
▁entertainment	-5290
▁featuring	-5291
▁rub	-5292
▁Germany	-5293
▁episode	-5294
▁coord	-5295
but	-5296
▁bond	-5297
ushed	-5298
▁studio	-5299
▁Western	-5300
▁editor	-5301
▁Charl	-5302
▁opinion	-5303
▁Kore	-5304
▁elim	-5305
alog	-5306
▁Cost	-5307
▁participate	-5308
▁revenue	-5309
▁plug	-5310
▁Haw	-5311
tr	-5312
▁removed	-5313
▁faster	-5314
▁Connect	-5315
▁Fair	-5316
▁Help	-5317
▁Saf	-5318
▁sides	-5319
west	-5320
inch	-5321
▁strategies	-5322
▁Champions	-5323
▁coast	-5324
erts	-5325
▁jew	-5326
▁charged	-5327
▁depending	-5328
col	-5329
▁totally	-5330
prene	-5331
oration	-5332
▁birthday	-5333
▁reliable	-5334
▁visiting	-5335
▁quiet	-5336
▁begins	-5337
▁Martin	-5338
▁species	-5339
▁conversation	-5340
▁described	-5341
UN	-5342
inating	-5343
▁Energy	-5344
▁flight	-5345
orough	-5346
▁caught	-5347
▁Girl	-5348
▁Cert	-5349
▁ap	-5350
▁eventually	-5351
▁monthly	-5352
▁fif	-5353
▁consumer	-5354
hus	-5355
den	-5356
▁Hospital	-5357
tered	-5358
▁Sar	-5359
▁restaurants	-5360
▁tail	-5361
▁meat	-5362
▁housing	-5363
▁cells	-5364
▁dish	-5365
▁teach	-5366
▁MP	-5367
▁deals	-5368
▁inches	-5369
▁Digital	-5370
▁pu	-5371
▁television	-5372
otic	-5373
▁Mic	-5374
▁accounts	-5375
with	-5376
▁improved	-5377
reprene	-5378
ersey	-5379
▁German	-5380
▁Dev	-5381
▁nav	-5382
▁Orig	-5383
apes	-5384
▁Gen	-5385
▁labor	-5386
▁Australian	-5387
▁delight	-5388
inter	-5389
▁university	-5390
▁dim	-5391
▁Id	-5392
▁fly	-5393
▁Joe	-5394
▁officer	-5395
▁marriage	-5396
▁hundreds	-5397
▁neighborhood	-5398
▁campus	-5399
▁revealed	-5400
ario	-5401
▁shoes	-5402
▁employee	-5403
ste	-5404
▁cro	-5405
▁label	-5406
▁breakfast	-5407
ulous	-5408
▁ign	-5409
weight	-5410
▁CH	-5411
▁Ul	-5412
▁confirm	-5413
▁Penn	-5414
▁administration	-5415
▁typically	-5416
SE	-5417
▁occasion	-5418
▁Academy	-5419
▁introduced	-5420
▁celebrate	-5421
▁exclusive	-5422
How	-5423
▁election	-5424
▁covers	-5425
ht	-5426
▁Secret	-5427
▁essay	-5428
▁Mid	-5429
▁appointment	-5430
ighter	-5431
▁volume	-5432
▁Ce	-5433
▁unless	-5434
sm	-5435
▁Opt	-5436
hew	-5437
achel	-5438
▁discovered	-5439
▁specifically	-5440
▁amb	-5441
▁vary	-5442
hent	-5443
▁compar	-5444
iat	-5445
▁internal	-5446
▁indic	-5447
▁planned	-5448
Our	-5449
▁Hope	-5450
▁twe	-5451
▁debt	-5452
▁intended	-5453
NA	-5454
▁cultural	-5455
▁cutting	-5456
▁sessions	-5457
▁AT	-5458
▁Americans	-5459
▁Lt	-5460
▁aspects	-5461
▁manufacturing	-5462
▁remaining	-5463
▁Maybe	-5464
▁Young	-5465
eries	-5466
ushing	-5467
▁mel	-5468
▁sexual	-5469
▁SP	-5470
bur	-5471
ixture	-5472
igr	-5473
▁shares	-5474
edia	-5475
▁nor	-5476
▁Box	-5477
merce	-5478
▁Boy	-5479
▁Second	-5480
▁recovery	-5481
);	-5482
▁basket	-5483
▁fle	-5484
▁Boston	-5485
▁icon	-5486
▁chart	-5487
▁engineering	-5488
▁remote	-5489
▁trading	-5490
ords	-5491
▁concent	-5492
▁Ari	-5493
▁scored	-5494
▁Er	-5495
▁bread	-5496
▁incredible	-5497
▁partnership	-5498
▁Key	-5499
▁investigation	-5500
▁lights	-5501
▁edition	-5502
ournament	-5503
▁dining	-5504
▁Commun	-5505
uke	-5506
asts	-5507
▁industrial	-5508
▁Jon	-5509
▁guarantee	-5510
▁forg	-5511
▁detect	-5512
▁Mur	-5513
CE	-5514
▁invent	-5515
aren	-5516
▁Meet	-5517
cont	-5518
▁Carolina	-5519
▁drivers	-5520
gas	-5521
▁components	-5522
▁Japanese	-5523
▁negative	-5524
▁liqu	-5525
▁hyd	-5526
▁automatically	-5527
mosp	-5528
▁End	-5529
elly	-5530
▁resource	-5531
eper	-5532
▁depos	-5533
▁cake	-5534
ala	-5535
▁Pac	-5536
▁mir	-5537
▁freed	-5538
▁fields	-5539
lymp	-5540
▁burn	-5541
▁Virginia	-5542
odies	-5543
▁practical	-5544
berry	-5545
▁chain	-5546
▁Type	-5547
cm	-5548
▁choices	-5549
▁noted	-5550
rupt	-5551
▁Human	-5552
▁evalu	-5553
▁quot	-5554
▁pock	-5555
▁confirmed	-5556
inet	-5557
▁interior	-5558
▁dollars	-5559
▁seemed	-5560
▁Applic	-5561
otton	-5562
▁Lee	-5563
lywood	-5564
▁cop	-5565
▁victory	-5566
▁bedroom	-5567
▁Jones	-5568
itionally	-5569
▁thus	-5570
▁rule	-5571
idays	-5572
▁suitable	-5573
▁Wal	-5574
iability	-5575
▁argu	-5576
▁depart	-5577
▁arrived	-5578
cles	-5579
▁Brand	-5580
▁Quest	-5581
ua	-5582
unting	-5583
▁perfectly	-5584
Al	-5585
▁FREE	-5586
▁twice	-5587
tters	-5588
hand	-5589
uits	-5590
▁buildings	-5591
▁boys	-5592
Ex	-5593
away	-5594
▁teeth	-5595
▁Tem	-5596
aped	-5597
▁possibly	-5598
▁broken	-5599
▁warrant	-5600
▁Mult	-5601
▁Equ	-5602
king	-5603
abet	-5604
gers	-5605
▁symptoms	-5606
▁films	-5607
▁crew	-5608
▁honor	-5609
uous	-5610
▁shooting	-5611
▁elig	-5612
▁Italian	-5613
▁doubt	-5614
▁bathroom	-5615
▁Victor	-5616
arp	-5617
▁ticket	-5618
▁Know	-5619
▁anc	-5620
arks	-5621
No	-5622
!”	-5623
▁Gar	-5624
▁island	-5625
▁stated	-5626
▁issued	-5627
ailability	-5628
flow	-5629
▁DV	-5630
▁chosen	-5631
ilit	-5632
▁Cast	-5633
rier	-5634
▁considering	-5635
▁enable	-5636
▁commission	-5637
▁Mexico	-5638
▁Steve	-5639
▁Little	-5640
▁injuries	-5641
▁Trust	-5642
urban	-5643
▁candidates	-5644
poses	-5645
▁tests	-5646
related	-5647
otal	-5648
▁Williams	-5649
▁reference	-5650
▁desire	-5651
▁foods	-5652
▁rapid	-5653
▁keeps	-5654
▁corn	-5655
TC	-5656
▁bigger	-5657
ibilities	-5658
road	-5659
▁ris	-5660
▁missed	-5661
ipl	-5662
▁Instead	-5663
▁mode	-5664
▁paying	-5665
ulations	-5666
▁boat	-5667
▁picked	-5668
▁golf	-5669
▁contest	-5670
▁Does	-5671
iors	-5672
▁intellig	-5673
▁circum	-5674
▁Farm	-5675
acks	-5676
▁Students	-5677
▁Hard	-5678
▁appreciate	-5679
▁decades	-5680
▁premium	-5681
▁turns	-5682
▁tomorrow	-5683
▁sizes	-5684
iamond	-5685
▁trend	-5686
▁Games	-5687
▁valuable	-5688
gend	-5689
owntown	-5690
▁fro	-5691
▁settings	-5692
▁Coast	-5693
▁protected	-5694
ien	-5695
▁voc	-5696
▁Tit	-5697
▁Kn	-5698
▁presentation	-5699
▁soul	-5700
▁Mat	-5701
▁Mov	-5702
▁lived	-5703
▁Page	-5704
▁regularly	-5705
▁realize	-5706
mes	-5707
▁earned	-5708
atoes	-5709
▁Current	-5710
▁registration	-5711
▁nurs	-5712
▁Night	-5713
▁config	-5714
▁Ohio	-5715
▁attorney	-5716
▁magazine	-5717
▁citizens	-5718
▁quant	-5719
hetic	-5720
▁aid	-5721
▁failed	-5722
▁oven	-5723
▁AS	-5724
▁database	-5725
fection	-5726
ora	-5727
ris	-5728
▁spr	-5729
▁Assist	-5730
▁therapy	-5731
▁organic	-5732
ias	-5733
▁license	-5734
▁sequ	-5735
wing	-5736
▁Canadian	-5737
weet	-5738
▁Econom	-5739
▁agent	-5740
▁Michigan	-5741
▁surrounding	-5742
AY	-5743
▁mine	-5744
▁affected	-5745
▁greatest	-5746
▁resol	-5747
▁ends	-5748
▁providers	-5749
▁moments	-5750
oosing	-5751
▁ran	-5752
▁county	-5753
▁Olymp	-5754
▁tells	-5755
what	-5756
▁ec	-5757
▁dates	-5758
▁Span	-5759
PR	-5760
▁grown	-5761
▁Cross	-5762
▁reput	-5763
▁MS	-5764
▁athlet	-5765
▁Code	-5766
ev	-5767
▁surf	-5768
▁virtual	-5769
▁investors	-5770
▁Instagram	-5771
▁grade	-5772
spe	-5773
▁Pass	-5774
▁calcul	-5775
▁answers	-5776
.|	-5777
▁loves	-5778
▁shock	-5779
▁supports	-5780
▁painting	-5781
▁inn	-5782
▁draft	-5783
phas	-5784
▁influence	-5785
▁proposed	-5786
lights	-5787
▁agencies	-5788
oup	-5789
▁surprise	-5790
▁History	-5791
pass	-5792
▁Control	-5793
▁Kh	-5794
abled	-5795
▁hero	-5796
▁dial	-5797
▁poly	-5798
▁Sn	-5799
▁explain	-5800
▁weap	-5801
▁accurate	-5802
▁submit	-5803
▁degrees	-5804
▁renew	-5805
▁Bal	-5806
race	-5807
▁recorded	-5808
▁Executive	-5809
▁ages	-5810
▁Van	-5811
▁Point	-5812
oking	-5813
▁owned	-5814
▁convenient	-5815
▁Georg	-5816
▁AR	-5817
▁purposes	-5818
▁Share	-5819
vell	-5820
▁load	-5821
ria	-5822
which	-5823
▁Did	-5824
▁beer	-5825
▁yes	-5826
irms	-5827
▁whom	-5828
fficient	-5829
▁Inf	-5830
▁league	-5831
▁Federal	-5832
▁holds	-5833
▁processing	-5834
ella	-5835
▁Buy	-5836
▁Middle	-5837
TA	-5838
▁gro	-5839
TV	-5840
▁instructions	-5841
▁die	-5842
▁Cas	-5843
▁Asia	-5844
kes	-5845
▁interests	-5846
▁Jackson	-5847
▁Def	-5848
▁apparent	-5849
▁efficiency	-5850
▁pure	-5851
ansas	-5852
hors	-5853
▁jack	-5854
▁atmosp	-5855
▁effectively	-5856
▁Expl	-5857
mar	-5858
▁violence	-5859
luding	-5860
▁returns	-5861
alendar	-5862
▁Comple	-5863
▁Enjoy	-5864
▁element	-5865
▁pleased	-5866
▁awareness	-5867
▁goods	-5868
▁Paris	-5869
vy	-5870
real	-5871
▁messages	-5872
OVID	-5873
cking	-5874
▁pepper	-5875
▁channel	-5876
▁receiving	-5877
▁infrastructure	-5878
print	-5879
▁Ken	-5880
▁pod	-5881
rick	-5882
▁Three	-5883
▁electronic	-5884
▁Ire	-5885
▁occup	-5886
▁Made	-5887
▁forced	-5888
intage	-5889
▁officers	-5890
▁Size	-5891
▁facing	-5892
▁creation	-5893
ospit	-5894
▁musical	-5895
▁standing	-5896
▁Requ	-5897
▁researchers	-5898
▁Dom	-5899
▁sam	-5900
▁incident	-5901
▁Royal	-5902
▁perman	-5903
▁Columb	-5904
▁belong	-5905
▁closer	-5906
irty	-5907
▁lighting	-5908
▁everyday	-5909
▁Try	-5910
▁diverse	-5911
▁grad	-5912
▁Richard	-5913
▁route	-5914
▁Daily	-5915
profit	-5916
ban	-5917
▁Travel	-5918
▁ongoing	-5919
▁distribution	-5920
▁Photo	-5921
▁lit	-5922
▁Cred	-5923
▁causes	-5924
poration	-5925
made	-5926
▁trouble	-5927
▁Ell	-5928
▁thread	-5929
▁apartment	-5930
▁Sher	-5931
▁administr	-5932
▁advoc	-5933
▁usual	-5934
▁wheel	-5935
▁serves	-5936
▁Chair	-5937
▁Ut	-5938
rum	-5939
▁sad	-5940
▁Need	-5941
▁pun	-5942
anche	-5943
▁Store	-5944
▁du	-5945
▁mini	-5946
isters	-5947
▁obtain	-5948
▁kinds	-5949
▁ped	-5950
▁healthcare	-5951
▁favourite	-5952
hy	-5953
▁judge	-5954
▁silver	-5955
▁arts	-5956
▁wid	-5957
PM	-5958
GE	-5959
▁Cath	-5960
▁supposed	-5961
▁meetings	-5962
▁error	-5963
▁crime	-5964
equ	-5965
▁rough	-5966
▁spaces	-5967
▁yellow	-5968
▁knowing	-5969
rete	-5970
▁plate	-5971
▁affili	-5972
udden	-5973
ribe	-5974
▁disappoint	-5975
▁stopped	-5976
▁flour	-5977
▁enthus	-5978
▁fellow	-5979
▁WH	-5980
umes	-5981
▁Wi	-5982
▁bound	-5983
never	-5984
oses	-5985
▁collaboration	-5986
aration	-5987
▁manner	-5988
Tube	-5989
▁Rev	-5990
xy	-5991
▁designer	-5992
itage	-5993
▁licens	-5994
▁construct	-5995
▁concerned	-5996
actions	-5997
▁Andrew	-5998
▁monit	-5999
▁subscrib	-6000
▁massive	-6001
▁Ltd	-6002
person	-6003
anges	-6004
▁weekly	-6005
▁clothes	-6006
▁follows	-6007
ennis	-6008
uction	-6009
▁Low	-6010
▁tut	-6011
▁rot	-6012
▁Four	-6013
ancer	-6014
cue	-6015
sembly	-6016
▁Local	-6017
▁Daniel	-6018
arian	-6019
ello	-6020
▁prison	-6021
▁tur	-6022
▁household	-6023
▁Wr	-6024
yard	-6025
▁simpl	-6026
▁forces	-6027
▁Clean	-6028
▁reduced	-6029
▁regional	-6030
▁challenging	-6031
iveness	-6032
EE	-6033
astern	-6034
▁male	-6035
▁Mean	-6036
▁tack	-6037
▁Guide	-6038
▁functions	-6039
▁stone	-6040
▁Ra	-6041
▁agreed	-6042
pond	-6043
▁hang	-6044
▁Right	-6045
▁script	-6046
▁Room	-6047
▁Santa	-6048
▁Francisco	-6049
oti	-6050
▁Hen	-6051
▁lifestyle	-6052
▁Russian	-6053
▁moist	-6054
▁treated	-6055
orable	-6056
▁horse	-6057
▁debut	-6058
▁complic	-6059
▁Marketing	-6060
▁alcohol	-6061
ansion	-6062
▁assets	-6063
▁native	-6064
▁innovation	-6065
▁payments	-6066
▁sample	-6067
▁fixed	-6068
ml	-6069
▁reserved	-6070
▁successfully	-6071
▁impressive	-6072
Con	-6073
▁powder	-6074
▁crisis	-6075
▁emotional	-6076
▁explained	-6077
FC	-6078
DS	-6079
▁Ep	-6080
Ar	-6081
▁inspiration	-6082
▁cute	-6083
▁Job	-6084
All	-6085
▁Visit	-6086
Un	-6087
ache	-6088
▁witness	-6089
under	-6090
▁leather	-6091
▁spokes	-6092
▁row	-6093
▁Rights	-6094
writ	-6095
ench	-6096
▁fort	-6097
▁forest	-6098
▁password	-6099
ppers	-6100
▁matters	-6101
▁Brook	-6102
▁FOR	-6103
Pl	-6104
ani	-6105
▁identified	-6106
alled	-6107
▁luxury	-6108
▁employment	-6109
BI	-6110
▁photograp	-6111
Be	-6112
▁blogg	-6113
▁drugs	-6114
▁Pot	-6115
▁Summer	-6116
▁Hor	-6117
▁cock	-6118
▁extended	-6119
And	-6120
▁phil	-6121
▁iron	-6122
▁Die	-6123
shire	-6124
igration	-6125
erves	-6126
▁Area	-6127
lyn	-6128
▁determined	-6129
▁rand	-6130
▁accepted	-6131
▁grab	-6132
▁recognized	-6133
▁outstanding	-6134
▁prop	-6135
▁Blo	-6136
▁prompt	-6137
▁der	-6138
▁styles	-6139
▁resolution	-6140
▁Southern	-6141
▁tou	-6142
▁height	-6143
folio	-6144
▁walls	-6145
▁odd	-6146
▁gifts	-6147
▁Rose	-6148
▁clinical	-6149
▁casino	-6150
▁vacation	-6151
▁Name	-6152
▁decre	-6153
▁advis	-6154
▁Cra	-6155
▁accessible	-6156
▁context	-6157
▁nearby	-6158
▁graduate	-6159
liance	-6160
▁conducted	-6161
can	-6162
They	-6163
vate	-6164
▁happening	-6165
rip	-6166
▁Number	-6167
▁positions	-6168
▁worse	-6169
▁Small	-6170
▁dangerous	-6171
▁perspective	-6172
▁Awards	-6173
▁Financial	-6174
▁SH	-6175
▁freedom	-6176
▁gear	-6177
mary	-6178
▁carried	-6179
▁speaking	-6180
▁factor	-6181
letter	-6182
▁Ash	-6183
▁Turn	-6184
▁stunning	-6185
▁sustainable	-6186
▁speech	-6187
▁Colorado	-6188
cling	-6189
▁tag	-6190
▁Scot	-6191
▁folks	-6192
▁significantly	-6193
▁candidate	-6194
▁Oil	-6195
unction	-6196
▁telling	-6197
▁domestic	-6198
ulture	-6199
▁examples	-6200
anged	-6201
▁Avenue	-6202
▁constantly	-6203
rid	-6204
▁committee	-6205
▁emphas	-6206
▁Training	-6207
▁cable	-6208
▁Coll	-6209
▁likes	-6210
▁Lin	-6211
▁symbol	-6212
▁Kim	-6213
▁univers	-6214
▁hardware	-6215
▁mixed	-6216
▁Perform	-6217
ificate	-6218
▁originally	-6219
▁solar	-6220
▁Having	-6221
▁Account	-6222
▁hook	-6223
▁vit	-6224
ucle	-6225
▁Sometimes	-6226
▁Which	-6227
▁stands	-6228
emic	-6229
▁retire	-6230
▁Hon	-6231
▁conflic	-6232
▁awards	-6233
Don	-6234
ployment	-6235
▁adventure	-6236
▁contemporary	-6237
▁showc	-6238
LY	-6239
▁houses	-6240
▁involve	-6241
▁logo	-6242
▁village	-6243
▁fulf	-6244
▁Though	-6245
▁Cond	-6246
▁bless	-6247
▁Spanish	-6248
▁carefully	-6249
▁patterns	-6250
▁supplies	-6251
▁MA	-6252
▁Dub	-6253
▁Select	-6254
▁procedures	-6255
▁Print	-6256
▁DC	-6257
ingly	-6258
▁auto	-6259
▁programme	-6260
▁browser	-6261
▁imagine	-6262
▁Mobile	-6263
▁Despite	-6264
▁stretch	-6265
▁losing	-6266
▁confident	-6267
▁criminal	-6268
▁fitness	-6269
▁replacement	-6270
lete	-6271
▁routine	-6272
▁Available	-6273
▁illustr	-6274
▁adds	-6275
▁Ireland	-6276
▁procedure	-6277
▁engage	-6278
▁Rom	-6279
ca	-6280
▁circumst	-6281
▁Ryan	-6282
▁bottle	-6283
etime	-6284
▁Garden	-6285
▁crazy	-6286
utch	-6287
▁turning	-6288
▁YouTube	-6289
▁random	-6290
▁hosting	-6291
▁taught	-6292
▁rose	-6293
▁expectations	-6294
▁lift	-6295
state	-6296
▁Russia	-6297
▁command	-6298
▁recipes	-6299
▁Tay	-6300
front	-6301
▁Drive	-6302
secut	-6303
▁fo	-6304
▁improvement	-6305
▁alleged	-6306
▁excess	-6307
▁hur	-6308
▁tro	-6309
▁trained	-6310
▁sheet	-6311
▁noticed	-6312
▁mixture	-6313
▁festival	-6314
▁Bon	-6315
▁funny	-6316
illy	-6317
▁tech	-6318
▁OS	-6319
ATE	-6320
▁tab	-6321
▁shots	-6322
▁syn	-6323
▁flavor	-6324
▁reporting	-6325
▁passeng	-6326
▁guitar	-6327
▁ol	-6328
▁hoping	-6329
▁severe	-6330
▁entreprene	-6331
▁COVID	-6332
inder	-6333
▁suspect	-6334
▁eleg	-6335
ether	-6336
▁foundation	-6337
orgeous	-6338
▁Heart	-6339
ington	-6340
▁SU	-6341
▁upper	-6342
ossible	-6343
inem	-6344
anger	-6345
▁Building	-6346
▁Environment	-6347
▁blow	-6348
eration	-6349
▁clothing	-6350
▁scholars	-6351
▁publish	-6352
▁Non	-6353
▁ok	-6354
enced	-6355
anna	-6356
▁Italy	-6357
adium	-6358
▁authent	-6359
▁FA	-6360
▁climb	-6361
▁pink	-6362
comes	-6363
▁Pop	-6364
▁Senior	-6365
rad	-6366
iano	-6367
▁talks	-6368
▁kill	-6369
pat	-6370
▁grew	-6371
▁Son	-6372
▁pil	-6373
hered	-6374
▁Beaut	-6375
▁root	-6376
▁san	-6377
oster	-6378
▁landscape	-6379
tle	-6380
ayer	-6381
▁figures	-6382
▁millions	-6383
ERS	-6384
ums	-6385
▁machines	-6386
▁Country	-6387
ERE	-6388
So	-6389
iece	-6390
▁Jersey	-6391
iversary	-6392
▁Run	-6393
▁Sky	-6394
orders	-6395
▁tasks	-6396
▁vital	-6397
▁reward	-6398
▁attended	-6399
ikes	-6400
▁eggs	-6401
▁tall	-6402
▁identity	-6403
▁tested	-6404
▁hits	-6405
▁PS	-6406
▁Senate	-6407
▁coc	-6408
’.	-6409
▁integrated	-6410
▁champions	-6411
▁laugh	-6412
▁herself	-6413
▁trends	-6414
▁input	-6415
▁Division	-6416
▁Disney	-6417
forcement	-6418
▁vibr	-6419
▁anx	-6420
▁council	-6421
oral	-6422
▁?	-6423
▁Shop	-6424
▁Nick	-6425
▁chapter	-6426
▁Stock	-6427
▁Ref	-6428
HS	-6429
▁shift	-6430
▁mal	-6431
▁Jenn	-6432
▁guard	-6433
▁weak	-6434
▁dram	-6435
▁wealth	-6436
▁Dog	-6437
▁historical	-6438
▁Writ	-6439
▁fishing	-6440
▁incl	-6441
▁baking	-6442
.’	-6443
▁airport	-6444
▁Proper	-6445
▁depth	-6446
▁AD	-6447
▁museum	-6448
▁improving	-6449
▁smile	-6450
▁invited	-6451
▁arrested	-6452
izz	-6453
host	-6454
RI	-6455
▁wash	-6456
luded	-6457
rition	-6458
▁accessories	-6459
dy	-6460
▁Professor	-6461
ampion	-6462
▁Safety	-6463
▁thin	-6464
▁profit	-6465
▁ease	-6466
▁unf	-6467
▁output	-6468
▁qualified	-6469
▁Ent	-6470
▁Ford	-6471
▁residential	-6472
rate	-6473
▁Want	-6474
riends	-6475
▁rear	-6476
▁upload	-6477
▁abuse	-6478
▁Ha	-6479
▁hire	-6480
▁authorities	-6481
▁tonight	-6482
▁carbon	-6483
▁Georgia	-6484
▁certified	-6485
▁skill	-6486
▁mountain	-6487
▁Fre	-6488
▁wet	-6489
ATION	-6490
▁Sales	-6491
remony	-6492
zil	-6493
▁ordered	-6494
pret	-6495
▁Far	-6496
▁bags	-6497
▁managing	-6498
▁instance	-6499
▁km	-6500
▁destination	-6501
▁Still	-6502
▁entered	-6503
▁thorough	-6504
▁Email	-6505
iana	-6506
▁sole	-6507
▁dropped	-6508
icial	-6509
▁entirely	-6510
▁recy	-6511
▁Bul	-6512
▁institutions	-6513
iami	-6514
▁terror	-6515
▁atmosphere	-6516
▁Silver	-6517
yers	-6518
▁Further	-6519
LS	-6520
▁Supp	-6521
▁Fed	-6522
▁Systems	-6523
▁Luc	-6524
▁Space	-6525
▁closely	-6526
▁sick	-6527
▁guidance	-6528
▁photography	-6529
PC	-6530
▁Stat	-6531
▁breast	-6532
▁Zeal	-6533
▁rating	-6534
ras	-6535
▁tiny	-6536
▁description	-6537
▁Tax	-6538
▁vend	-6539
▁Members	-6540
▁fuck	-6541
▁offices	-6542
▁scientific	-6543
▁transportation	-6544
▁layer	-6545
stone	-6546
▁printed	-6547
long	-6548
De	-6549
▁frequently	-6550
▁Fac	-6551
▁Dist	-6552
▁spin	-6553
eller	-6554
igned	-6555
va	-6556
agues	-6557
▁cooper	-6558
▁entr	-6559
▁EU	-6560
▁yards	-6561
▁shower	-6562
▁searching	-6563
▁cycle	-6564
▁dental	-6565
▁loans	-6566
▁delay	-6567
▁CO	-6568
▁Phone	-6569
▁failure	-6570
▁Pract	-6571
▁kne	-6572
▁medicine	-6573
MP	-6574
▁equal	-6575
▁lessons	-6576
izza	-6577
▁unable	-6578
▁protein	-6579
adow	-6580
ogue	-6581
▁broadcast	-6582
▁founded	-6583
sen	-6584
▁Aff	-6585
▁Finally	-6586
▁cm	-6587
▁column	-6588
▁flexible	-6589
quir	-6590
▁Tech	-6591
▁operate	-6592
▁bonus	-6593
▁typical	-6594
▁compens	-6595
▁Looking	-6596
▁rail	-6597
▁taxes	-6598
aduate	-6599
▁Hou	-6600
▁glad	-6601
▁Should	-6602
▁religious	-6603
▁Never	-6604
▁sac	-6605
▁Engineering	-6606
▁situations	-6607
▁vacc	-6608
▁awarded	-6609
▁bear	-6610
▁PDF	-6611
▁Ca	-6612
▁lad	-6613
▁Ball	-6614
▁Zealand	-6615
oes	-6616
▁Put	-6617
▁eligible	-6618
quality	-6619
▁Very	-6620
▁external	-6621
▁Mach	-6622
▁historic	-6623
▁Sat	-6624
▁alongside	-6625
icket	-6626
awn	-6627
UL	-6628
▁flood	-6629
▁strategic	-6630
▁OR	-6631
▁sudden	-6632
▁unlike	-6633
▁wra	-6634
▁DVD	-6635
worth	-6636
▁assessment	-6637
▁filed	-6638
▁Smart	-6639
osoph	-6640
ilst	-6641
▁networks	-6642
▁seriously	-6643
▁Sus	-6644
▁creates	-6645
▁workshop	-6646
Is	-6647
?"	-6648
umps	-6649
▁worst	-6650
▁rental	-6651
▁Unfortunately	-6652
xx	-6653
▁BE	-6654
▁Charles	-6655
▁transition	-6656
uting	-6657
▁fighting	-6658
▁critic	-6659
▁river	-6660
nam	-6661
▁membership	-6662
ircle	-6663
▁Mountain	-6664
oker	-6665
▁believes	-6666
asters	-6667
bi	-6668
▁platforms	-6669
omy	-6670
▁none	-6671
friendly	-6672
▁availability	-6673
▁attacks	-6674
▁versions	-6675
▁vul	-6676
▁Foot	-6677
▁tracks	-6678
class	-6679
uling	-6680
▁distinct	-6681
erman	-6682
▁younger	-6683
▁Es	-6684
tain	-6685
▁listening	-6686
osite	-6687
▁Fox	-6688
plate	-6689
▁faculty	-6690
▁motion	-6691
aturally	-6692
▁Ask	-6693
▁contribute	-6694
▁hasn	-6695
arrow	-6696
inos	-6697
!"	-6698
▁Professional	-6699
▁juice	-6700
II	-6701
▁proven	-6702
eding	-6703
▁Pacific	-6704
One	-6705
▁hopes	-6706
▁bab	-6707
onto	-6708
star	-6709
aze	-6710
With	-6711
▁joining	-6712
▁letters	-6713
irts	-6714
ucky	-6715
▁risks	-6716
▁performing	-6717
active	-6718
▁Ray	-6719
▁streets	-6720
car	-6721
▁soph	-6722
▁Ariz	-6723
ounter	-6724
you	-6725
▁developers	-6726
▁SC	-6727
▁conver	-6728
▁obl	-6729
▁cups	-6730
▁pounds	-6731
neys	-6732
Fi	-6733
▁cos	-6734
▁recording	-6735
▁Term	-6736
▁tip	-6737
ati	-6738
▁Tele	-6739
zer	-6740
▁Harr	-6741
▁Easy	-6742
▁lucky	-6743
▁Kent	-6744
▁informed	-6745
oured	-6746
▁choosing	-6747
▁surprised	-6748
ented	-6749
▁grass	-6750
▁facilit	-6751
▁meals	-6752
)|	-6753
▁mortgage	-6754
nic	-6755
▁Phys	-6756
obby	-6757
▁infect	-6758
▁capture	-6759
▁liquid	-6760
ican	-6761
▁banks	-6762
▁diss	-6763
▁tournament	-6764
▁PA	-6765
agon	-6766
▁Leg	-6767
▁kit	-6768
▁Fall	-6769
amps	-6770
▁LLC	-6771
▁anticip	-6772
elry	-6773
▁papers	-6774
▁Field	-6775
▁savings	-6776
earing	-6777
At	-6778
▁privacy	-6779
cers	-6780
▁discip	-6781
To	-6782
pons	-6783
uine	-6784
▁Event	-6785
aping	-6786
▁hurt	-6787
born	-6788
▁rein	-6789
▁regulations	-6790
▁Ram	-6791
▁Mom	-6792
▁Broad	-6793
▁inch	-6794
▁decade	-6795
ashed	-6796
law	-6797
ially	-6798
▁charm	-6799
▁Taylor	-6800
▁submitted	-6801
rency	-6802
celer	-6803
▁Kat	-6804
etic	-6805
▁arg	-6806
▁west	-6807
▁Northern	-6808
▁Ter	-6809
▁blend	-6810
▁ille	-6811
Le	-6812
▁reputation	-6813
▁LED	-6814
▁bat	-6815
Se	-6816
▁Po	-6817
▁suggested	-6818
▁monitor	-6819
▁hall	-6820
▁proceed	-6821
▁liked	-6822
▁relief	-6823
▁organized	-6824
▁filter	-6825
▁shops	-6826
▁domain	-6827
▁consequ	-6828
▁mic	-6829
▁Lind	-6830
▁belief	-6831
▁sight	-6832
▁engagement	-6833
entle	-6834
▁Cut	-6835
▁Source	-6836
▁Miami	-6837
bury	-6838
▁extract	-6839
▁pulled	-6840
Read	-6841
▁Radio	-6842
▁Come	-6843
▁Credit	-6844
▁gorgeous	-6845
days	-6846
▁justice	-6847
uter	-6848
pes	-6849
▁Cab	-6850
▁drawing	-6851
▁Sea	-6852
▁negoti	-6853
▁circumstances	-6854
▁capable	-6855
▁quote	-6856
▁Arab	-6857
▁)	-6858
▁tank	-6859
▁monitoring	-6860
ava	-6861
▁empt	-6862
▁crucial	-6863
rell	-6864
▁Think	-6865
▁legs	-6866
▁Order	-6867
▁portfolio	-6868
▁Bible	-6869
▁sky	-6870
bing	-6871
ulf	-6872
ographic	-6873
▁hate	-6874
▁immediate	-6875
▁increases	-6876
▁ads	-6877
▁arrive	-6878
▁exhibition	-6879
▁stir	-6880
▁Ms	-6881
bar	-6882
▁believed	-6883
foot	-6884
▁penal	-6885
▁moves	-6886
▁Insurance	-6887
▁linked	-6888
ta	-6889
athan	-6890
▁Continue	-6891
▁counsel	-6892
▁relatively	-6893
▁treatments	-6894
▁faces	-6895
▁attached	-6896
▁Pak	-6897
▁manual	-6898
faction	-6899
▁soil	-6900
▁crack	-6901
▁adm	-6902
▁defend	-6903
illiant	-6904
uis	-6905
▁mm	-6906
▁jun	-6907
ura	-6908
▁Mir	-6909
▁planet	-6910
resents	-6911
bles	-6912
Ad	-6913
▁technique	-6914
cknow	-6915
▁concert	-6916
▁enjoying	-6917
rowse	-6918
▁guidelines	-6919
▁listing	-6920
esides	-6921
▁directed	-6922
▁interface	-6923
▁injured	-6924
arters	-6925
▁vast	-6926
▁hosted	-6927
▁execut	-6928
▁dent	-6929
▁LA	-6930
▁ast	-6931
▁Conf	-6932
▁Rod	-6933
▁spark	-6934
▁garage	-6935
▁authors	-6936
▁hospit	-6937
▁memories	-6938
uration	-6939
rich	-6940
▁contrast	-6941
▁aside	-6942
▁volunteers	-6943
▁equipped	-6944
sey	-6945
▁Ron	-6946
ardens	-6947
▁Ur	-6948
▁normally	-6949
ppy	-6950
▁estimated	-6951
▁:)	-6952
▁promise	-6953
▁firms	-6954
▁Republican	-6955
▁dreams	-6956
▁Happy	-6957
▁Pow	-6958
onym	-6959
▁Jac	-6960
▁warn	-6961
▁trig	-6962
▁pin	-6963
hot	-6964
▁trick	-6965
▁phase	-6966
▁depress	-6967
▁rice	-6968
▁Remember	-6969
▁urban	-6970
▁illness	-6971
By	-6972
▁Being	-6973
▁Quality	-6974
iger	-6975
▁agents	-6976
▁Justice	-6977
▁acid	-6978
▁prove	-6979
ba	-6980
▁consistent	-6981
oty	-6982
▁dust	-6983
▁spoke	-6984
▁Airport	-6985
▁Houston	-6986
▁pitch	-6987
▁Bed	-6988
▁organis	-6989
▁pleasure	-6990
▁arms	-6991
holders	-6992
aints	-6993
▁matches	-6994
▁Medicine	-6995
AA	-6996
ults	-6997
Bl	-6998
%.	-6999
▁Ide	-7000
▁Talk	-7001
▁portion	-7002
▁Conc	-7003
▁index	-7004
▁Line	-7005
▁chances	-7006
ogether	-7007
▁Brazil	-7008
asant	-7009
▁fasc	-7010
▁Fact	-7011
.'	-7012
icit	-7013
▁lapt	-7014
▁newly	-7015
▁chose	-7016
▁Personal	-7017
▁objects	-7018
▁Carl	-7019
▁dynamic	-7020
ensity	-7021
▁breath	-7022
▁finance	-7023
rm	-7024
▁Arizona	-7025
▁refund	-7026
▁Asian	-7027
▁Living	-7028
▁Standard	-7029
▁Prom	-7030
▁proof	-7031
▁seed	-7032
SC	-7033
eling	-7034
▁passing	-7035
▁continuing	-7036
But	-7037
▁visited	-7038
▁represents	-7039
▁Officer	-7040
▁drinking	-7041
▁Give	-7042
site	-7043
ership	-7044
▁iPad	-7045
cket	-7046
▁formed	-7047
▁storm	-7048
▁ultimate	-7049
▁mile	-7050
pack	-7051
inois	-7052
alle	-7053
▁Brad	-7054
▁Mill	-7055
▁roles	-7056
▁border	-7057
▁Estate	-7058
▁forever	-7059
▁MO	-7060
▁discussed	-7061
▁superv	-7062
▁ceremony	-7063
▁Cru	-7064
annels	-7065
▁approval	-7066
iking	-7067
▁Las	-7068
▁zone	-7069
amber	-7070
▁Welcome	-7071
▁Army	-7072
▁Season	-7073
▁Student	-7074
▁id	-7075
▁suc	-7076
she	-7077
▁stim	-7078
▁exposure	-7079
▁recommendations	-7080
adel	-7081
▁gaming	-7082
▁dealing	-7083
stal	-7084
▁sending	-7085
ultural	-7086
▁Oak	-7087
▁Iran	-7088
▁stake	-7089
▁evol	-7090
▁Therefore	-7091
▁phones	-7092
MC	-7093
anes	-7094
▁Sav	-7095
▁Kevin	-7096
▁capabilities	-7097
▁teasp	-7098
▁division	-7099
▁gallery	-7100
▁Webs	-7101
uclear	-7102
Americ	-7103
whel	-7104
amsung	-7105
▁boxes	-7106
▁downtown	-7107
▁saving	-7108
▁presents	-7109
▁collected	-7110
▁holidays	-7111
respond	-7112
▁lawyer	-7113
▁possibility	-7114
▁fairly	-7115
▁Again	-7116
▁implementation	-7117
iki	-7118
▁vulner	-7119
▁pra	-7120
ainless	-7121
▁mand	-7122
▁susp	-7123
▁hat	-7124
GA	-7125
ja	-7126
▁ensuring	-7127
▁Choose	-7128
▁permanent	-7129
aper	-7130
▁attractive	-7131
▁pharm	-7132
▁smell	-7133
▁cookies	-7134
▁Administration	-7135
▁constit	-7136
▁flash	-7137
▁Site	-7138
▁industries	-7139
ih	-7140
▁tub	-7141
▁hidden	-7142
▁suggestions	-7143
▁scheme	-7144
aste	-7145
bro	-7146
▁trib	-7147
▁finds	-7148
lers	-7149
▁Experience	-7150
izer	-7151
▁porn	-7152
▁Natural	-7153
▁Brian	-7154
ione	-7155
wear	-7156
urse	-7157
▁recognize	-7158
▁Express	-7159
RS	-7160
▁Kenn	-7161
▁instrument	-7162
missions	-7163
▁facts	-7164
phy	-7165
▁Ju	-7166
▁theory	-7167
▁heads	-7168
▁vari	-7169
pot	-7170
▁priority	-7171
▁mainly	-7172
▁acknow	-7173
zes	-7174
▁($	-7175
lessly	-7176
▁Meanwhile	-7177
Sc	-7178
▁legislation	-7179
ffered	-7180
rible	-7181
▁reader	-7182
▁Clin	-7183
▁Ros	-7184
▁Isl	-7185
▁bodies	-7186
▁Case	-7187
FA	-7188
▁butt	-7189
▁liber	-7190
▁categories	-7191
▁Chall	-7192
▁posting	-7193
▁realized	-7194
▁mut	-7195
▁Hollywood	-7196
anned	-7197
page	-7198
inson	-7199
▁Software	-7200
▁communications	-7201
▁Vers	-7202
▁Ba	-7203
▁solve	-7204
▁Own	-7205
▁bench	-7206
▁personally	-7207
▁Dun	-7208
▁garlic	-7209
▁Secretary	-7210
▁upgrade	-7211
da	-7212
▁bars	-7213
allas	-7214
▁Queen	-7215
boy	-7216
▁bridge	-7217
phones	-7218
▁Emer	-7219
Book	-7220
EA	-7221
▁Stay	-7222
▁incredibly	-7223
▁USB	-7224
then	-7225
▁ancient	-7226
▁Learning	-7227
▁Policy	-7228
CT	-7229
▁Create	-7230
▁reform	-7231
▁tradition	-7232
esy	-7233
▁||	-7234
▁permission	-7235
▁hole	-7236
▁Bang	-7237
stra	-7238
ingu	-7239
▁tiss	-7240
osc	-7241
▁Prime	-7242
▁Anal	-7243
▁generate	-7244
▁Yet	-7245
odd	-7246
anny	-7247
ounce	-7248
▁Cand	-7249
▁exec	-7250
▁CN	-7251
▁copyright	-7252
▁packages	-7253
▁calendar	-7254
▁rum	-7255
odge	-7256
▁handling	-7257
tw	-7258
ials	-7259
▁substant	-7260
▁travell	-7261
▁pace	-7262
▁basketball	-7263
▁east	-7264
▁magic	-7265
▁Hold	-7266
▁debate	-7267
parent	-7268
OO	-7269
▁victims	-7270
▁raw	-7271
▁claimed	-7272
▁Level	-7273
That	-7274
▁Additionally	-7275
iti	-7276
▁celebration	-7277
▁clar	-7278
▁walked	-7279
▁orange	-7280
▁programming	-7281
▁Jr	-7282
▁doctors	-7283
▁MD	-7284
HA	-7285
ulpt	-7286
▁achieved	-7287
▁fest	-7288
▁giant	-7289
▁cotton	-7290
▁Toronto	-7291
▁absor	-7292
▁forth	-7293
▁purchasing	-7294
▁habit	-7295
onna	-7296
▁prospect	-7297
▁replaced	-7298
▁Cro	-7299
▁Stan	-7300
▁bare	-7301
▁Film	-7302
burgh	-7303
▁fifth	-7304
▁explains	-7305
uls	-7306
▁tooth	-7307
▁Illinois	-7308
▁desired	-7309
▁Studies	-7310
level	-7311
CD	-7312
zing	-7313
isa	-7314
▁king	-7315
▁Tool	-7316
▁manufacturers	-7317
▁spots	-7318
▁titles	-7319
▁gym	-7320
▁saved	-7321
▁Dar	-7322
▁seasons	-7323
▁cuts	-7324
season	-7325
▁somewhere	-7326
▁marked	-7327
▁Auto	-7328
▁proposal	-7329
▁Consult	-7330
▁insight	-7331
▁marks	-7332
▁hotels	-7333
▁initiative	-7334
uster	-7335
▁feelings	-7336
▁venue	-7337
▁slowly	-7338
RL	-7339
▁singer	-7340
▁specialist	-7341
▁suffering	-7342
▁Produ	-7343
▁Catholic	-7344
ila	-7345
▁NFL	-7346
▁expressed	-7347
▁Story	-7348
▁Capital	-7349
▁compat	-7350
▁requests	-7351
▁Irish	-7352
▁drinks	-7353
▁Material	-7354
imize	-7355
▁architecture	-7356
App	-7357
iot	-7358
▁vegetables	-7359
▁Save	-7360
▁Sep	-7361
aron	-7362
▁Agency	-7363
igate	-7364
esh	-7365
▁buyers	-7366
acon	-7367
aters	-7368
▁Joseph	-7369
▁merch	-7370
▁volunteer	-7371
▁gay	-7372
▁exceptional	-7373
▁impossible	-7374
▁stuck	-7375
▁Liber	-7376
▁Table	-7377
▁meets	-7378
▁enables	-7379
▁swimming	-7380
stream	-7381
▁combine	-7382
inton	-7383
▁murder	-7384
▁broke	-7385
bridge	-7386
▁publication	-7387
▁announcement	-7388
▁destroy	-7389
▁tie	-7390
▁extension	-7391
ylvan	-7392
▁causing	-7393
▁ultimately	-7394
▁enem	-7395
VER	-7396
▁consultation	-7397
▁encouraged	-7398
▁reducing	-7399
▁muscle	-7400
▁err	-7401
▁accomplish	-7402
▁Pakistan	-7403
▁Mess	-7404
regon	-7405
nesota	-7406
▁split	-7407
ologist	-7408
▁packaging	-7409
▁yard	-7410
▁surprising	-7411
▁Mix	-7412
▁lets	-7413
▁Pu	-7414
▁publ	-7415
▁Bell	-7416
ickets	-7417
▁magn	-7418
aid	-7419
▁Short	-7420
▁Vegas	-7421
▁Map	-7422
▁actor	-7423
▁rig	-7424
▁printing	-7425
▁Would	-7426
▁enterprise	-7427
▁engaged	-7428
▁Autom	-7429
▁pit	-7430
lements	-7431
▁describe	-7432
▁Camer	-7433
▁heav	-7434
▁massage	-7435
▁pricing	-7436
run	-7437
▁DI	-7438
bel	-7439
apore	-7440
des	-7441
aska	-7442
▁Motor	-7443
▁electrical	-7444
▁noise	-7445
▁mood	-7446
▁Location	-7447
▁widely	-7448
▁preparation	-7449
▁Kids	-7450
ifer	-7451
▁seeds	-7452
▁reasonable	-7453
▁talked	-7454
▁Pen	-7455
▁enroll	-7456
▁blocks	-7457
▁covering	-7458
▁performances	-7459
▁Labor	-7460
ns	-7461
▁Spain	-7462
▁breaking	-7463
▁expansion	-7464
bell	-7465
▁recognition	-7466
▁pill	-7467
olis	-7468
▁default	-7469
▁framework	-7470
eah	-7471
▁wins	-7472
▁Recent	-7473
▁genuine	-7474
▁overwhel	-7475
▁traveling	-7476
▁remark	-7477
▁blank	-7478
▁Forest	-7479
▁seats	-7480
rage	-7481
▁classroom	-7482
RC	-7483
▁agric	-7484
wan	-7485
▁knock	-7486
inator	-7487
cons	-7488
▁Ira	-7489
▁interactive	-7490
uct	-7491
▁concrete	-7492
▁neighb	-7493
▁Theatre	-7494
▁Ess	-7495
▁CB	-7496
iler	-7497
▁Adam	-7498
▁unw	-7499
▁pand	-7500
▁Gallery	-7501
)||	-7502
▁Studio	-7503
▁birds	-7504
▁formal	-7505
▁Force	-7506
▁Pin	-7507
▁compr	-7508
▁dishes	-7509
▁Band	-7510
wich	-7511
▁Memorial	-7512
▁writers	-7513
▁Ice	-7514
▁franch	-7515
▁resistance	-7516
▁Following	-7517
▁gall	-7518
▁empty	-7519
▁Rs	-7520
▁Toy	-7521
gypt	-7522
▁brilliant	-7523
▁spray	-7524
▁consists	-7525
▁constant	-7526
ulum	-7527
▁scenes	-7528
▁increasingly	-7529
▁staying	-7530
▁compliance	-7531
proof	-7532
▁Square	-7533
▁incorpor	-7534
▁Mrs	-7535
▁resulting	-7536
▁acting	-7537
▁Davis	-7538
▁Annual	-7539
EP	-7540
▁duty	-7541
▁suggests	-7542
▁pic	-7543
▁dad	-7544
▁recover	-7545
ludes	-7546
▁managers	-7547
▁Fred	-7548
▁Member	-7549
▁experiment	-7550
nda	-7551
▁Treat	-7552
▁basically	-7553
▁spiritual	-7554
ateful	-7555
axy	-7556
ding	-7557
▁Things	-7558
▁professor	-7559
ifies	-7560
▁anyway	-7561
▁bow	-7562
▁Diego	-7563
▁nights	-7564
▁Paper	-7565
▁Mah	-7566
being	-7567
▁Spirit	-7568
▁mere	-7569
child	-7570
▁Eric	-7571
books	-7572
▁FL	-7573
leep	-7574
▁graphics	-7575
otted	-7576
▁Dam	-7577
▁lists	-7578
▁Partners	-7579
▁Jord	-7580
▁forecast	-7581
▁slic	-7582
▁slot	-7583
▁Solutions	-7584
▁scan	-7585
▁pride	-7586
▁deck	-7587
▁Samsung	-7588
▁Roman	-7589
abetes	-7590
’,	-7591
▁prize	-7592
▁authority	-7593
▁Shipping	-7594
▁producing	-7595
▁Ly	-7596
rated	-7597
▁Interest	-7598
ilton	-7599
alo	-7600
▁centers	-7601
▁clicking	-7602
▁Seattle	-7603
irus	-7604
▁Model	-7605
▁packed	-7606
una	-7607
▁wireless	-7608
▁Gro	-7609
erate	-7610
alse	-7611
▁Books	-7612
▁everywhere	-7613
▁aims	-7614
ghan	-7615
▁legend	-7616
acle	-7617
▁Golden	-7618
▁Minnesota	-7619
▁enthusi	-7620
ashes	-7621
▁whenever	-7622
▁expenses	-7623
vas	-7624
▁Pur	-7625
▁Age	-7626
▁indeed	-7627
▁healing	-7628
▁Limited	-7629
utional	-7630
▁interpret	-7631
▁closing	-7632
▁Cover	-7633
▁talented	-7634
▁singles	-7635
▁anniversary	-7636
▁succeed	-7637
▁inner	-7638
inding	-7639
▁Lew	-7640
making	-7641
▁involves	-7642
rome	-7643
▁Swed	-7644
▁pocket	-7645
ls	-7646
▁riding	-7647
▁unex	-7648
▁connections	-7649
▁Sound	-7650
▁GM	-7651
heast	-7652
▁channels	-7653
▁obtained	-7654
pends	-7655
▁narr	-7656
▁founder	-7657
▁vice	-7658
▁OK	-7659
ylvania	-7660
▁Magazine	-7661
▁Perhaps	-7662
▁displayed	-7663
▁Customer	-7664
▁Dream	-7665
▁bunch	-7666
▁assum	-7667
▁Total	-7668
▁opens	-7669
greg	-7670
▁Collection	-7671
▁delivering	-7672
▁Month	-7673
▁Bad	-7674
▁Dallas	-7675
▁designers	-7676
▁struggle	-7677
ureau	-7678
▁lemon	-7679
Press	-7680
▁trips	-7681
▁Based	-7682
▁Steel	-7683
▁attrib	-7684
▁differences	-7685
stein	-7686
▁acts	-7687
▁ending	-7688
▁Working	-7689
▁driven	-7690
▁Pict	-7691
lder	-7692
abeth	-7693
▁CP	-7694
nders	-7695
▁Station	-7696
ronics	-7697
▁defined	-7698
▁Mother	-7699
▁watched	-7700
▁complim	-7701
▁improvements	-7702
▁mob	-7703
▁Cloud	-7704
▁primarily	-7705
coin	-7706
▁CL	-7707
▁loving	-7708
▁vintage	-7709
bits	-7710
▁Action	-7711
▁gender	-7712
▁boss	-7713
sters	-7714
▁guaranteed	-7715
▁introduction	-7716
▁Rub	-7717
▁Oregon	-7718
▁booking	-7719
▁Dark	-7720
ambling	-7721
▁returning	-7722
▁Rand	-7723
oom	-7724
▁Sym	-7725
▁sensitive	-7726
▁fits	-7727
▁shouldn	-7728
▁Eastern	-7729
▁SS	-7730
▁podcast	-7731
Fr	-7732
▁apparently	-7733
▁Everyone	-7734
▁Anth	-7735
▁Base	-7736
▁politics	-7737
owa	-7738
▁officially	-7739
pool	-7740
issions	-7741
▁precise	-7742
oned	-7743
▁Common	-7744
▁rug	-7745
▁Products	-7746
rive	-7747
▁alive	-7748
▁headed	-7749
▁Bru	-7750
▁Return	-7751
AB	-7752
▁chopped	-7753
su	-7754
▁Miller	-7755
iders	-7756
▁fing	-7757
▁unus	-7758
▁Jay	-7759
▁Spec	-7760
▁Blog	-7761
▁coat	-7762
▁Change	-7763
▁narrow	-7764
▁highlights	-7765
▁protest	-7766
▁trim	-7767
▁recre	-7768
AND	-7769
▁potentially	-7770
▁honey	-7771
▁shell	-7772
▁Transport	-7773
ailing	-7774
▁percentage	-7775
▁authentic	-7776
▁Austin	-7777
▁filling	-7778
▁tape	-7779
▁maintaining	-7780
▁lin	-7781
▁Capt	-7782
▁analyst	-7783
▁retirement	-7784
▁Cry	-7785
▁casual	-7786
▁speaker	-7787
▁crash	-7788
pson	-7789
atics	-7790
riers	-7791
▁Among	-7792
▁assistant	-7793
▁charity	-7794
▁personality	-7795
▁Corporation	-7796
wart	-7797
▁acquis	-7798
▁scientists	-7799
jo	-7800
▁Kingdom	-7801
▁resident	-7802
▁Guard	-7803
▁falling	-7804
inent	-7805
lose	-7806
scribe	-7807
raid	-7808
▁plot	-7809
▁DO	-7810
▁elev	-7811
▁Iraq	-7812
pection	-7813
iac	-7814
▁bills	-7815
▁opinions	-7816
onut	-7817
▁Josh	-7818
▁Barb	-7819
▁strike	-7820
▁licensed	-7821
▁aircraft	-7822
▁heading	-7823
ali	-7824
▁CR	-7825
▁Nic	-7826
▁naturally	-7827
▁Dead	-7828
acher	-7829
raction	-7830
▁consumption	-7831
ydney	-7832
▁renov	-7833
▁Sarah	-7834
▁carrying	-7835
▁tired	-7836
▁gentle	-7837
arliam	-7838
▁colours	-7839
Cont	-7840
▁Jewish	-7841
▁Egypt	-7842
▁correspond	-7843
▁obviously	-7844
▁functional	-7845
▁preparing	-7846
▁	-7847
e	-7848
t	-7849
a	-7850
o	-7851
i	-7852
n	-7853
s	-7854
r	-7855
h	-7856
l	-7857
d	-7858
c	-7859
u	-7860
m	-7861
p	-7862
g	-7863
f	-7864
y	-7865
w	-7866
b	-7867
.	-7868
v	-7869
,	-7870
k	-7871
T	-7872
S	-7873
I	-7874
A	-7875
-	-7876
C	-7877
0	-7878
M	-7879
1	-7880
P	-7881
x	-7882
B	-7883
2	-7884
W	-7885
D	-7886
R	-7887
E	-7888
H	-7889
F	-7890
’	-7891
L	-7892
N	-7893
O	-7894
:	-7895
'	-7896
G	-7897
j	-7898
)	-7899
(	-7900
z	-7901
3	-7902
5	-7903
q	-7904
4	-7905
U	-7906
"	-7907
9	-7908
J	-7909
8	-7910
6	-7911
V	-7912
Y	-7913
K	-7914
|	-7915
7	-7916
!	-7917
/	-7918
“	-7919
”	-7920
?	-7921
–	-7922
;	-7923
&	-7924
$	-7925
Q	-7926
%	-7927
—	-7928
X	-7929
Z	-7930
*	-7931
