<pad>	0
<s>	0
</s>	0
<unk>	0
<0x00>	0
<0x01>	0
<0x02>	0
<0x03>	0
<0x04>	0
<0x05>	0
<0x06>	0
<0x07>	0
<0x08>	0
<0x09>	0
<0x0A>	0
<0x0B>	0
<0x0C>	0
<0x0D>	0
<0x0E>	0
<0x0F>	0
<0x10>	0
<0x11>	0
<0x12>	0
<0x13>	0
<0x14>	0
<0x15>	0
<0x16>	0
<0x17>	0
<0x18>	0
<0x19>	0
<0x1A>	0
<0x1B>	0
<0x1C>	0
<0x1D>	0
<0x1E>	0
<0x1F>	0
<0x20>	0
<0x21>	0
<0x22>	0
<0x23>	0
<0x24>	0
<0x25>	0
<0x26>	0
<0x27>	0
<0x28>	0
<0x29>	0
<0x2A>	0
<0x2B>	0
<0x2C>	0
<0x2D>	0
<0x2E>	0
<0x2F>	0
<0x30>	0
<0x31>	0
<0x32>	0
<0x33>	0
<0x34>	0
<0x35>	0
<0x36>	0
<0x37>	0
<0x38>	0
<0x39>	0
<0x3A>	0
<0x3B>	0
<0x3C>	0
<0x3D>	0
<0x3E>	0
<0x3F>	0
<0x40>	0
<0x41>	0
<0x42>	0
<0x43>	0
<0x44>	0
<0x45>	0
<0x46>	0
<0x47>	0
<0x48>	0
<0x49>	0
<0x4A>	0
<0x4B>	0
<0x4C>	0
<0x4D>	0
<0x4E>	0
<0x4F>	0
<0x50>	0
<0x51>	0
<0x52>	0
<0x53>	0
<0x54>	0
<0x55>	0
<0x56>	0
<0x57>	0
<0x58>	0
<0x59>	0
<0x5A>	0
<0x5B>	0
<0x5C>	0
<0x5D>	0
<0x5E>	0
<0x5F>	0
<0x60>	0
<0x61>	0
<0x62>	0
<0x63>	0
<0x64>	0
<0x65>	0
<0x66>	0
<0x67>	0
<0x68>	0
<0x69>	0
<0x6A>	0
<0x6B>	0
<0x6C>	0
<0x6D>	0
<0x6E>	0
<0x6F>	0
<0x70>	0
<0x71>	0
<0x72>	0
<0x73>	0
<0x74>	0
<0x75>	0
<0x76>	0
<0x77>	0
<0x78>	0
<0x79>	0
<0x7A>	0
<0x7B>	0
<0x7C>	0
<0x7D>	0
<0x7E>	0
<0x7F>	0
<0x80>	0
<0x81>	0
<0x82>	0
<0x83>	0
<0x84>	0
<0x85>	0
<0x86>	0
<0x87>	0
<0x88>	0
<0x89>	0
<0x8A>	0
<0x8B>	0
<0x8C>	0
<0x8D>	0
<0x8E>	0
<0x8F>	0
<0x90>	0
<0x91>	0
<0x92>	0
<0x93>	0
<0x94>	0
<0x95>	0
<0x96>	0
<0x97>	0
<0x98>	0
<0x99>	0
<0x9A>	0
<0x9B>	0
<0x9C>	0
<0x9D>	0
<0x9E>	0
<0x9F>	0
<0xA0>	0
<0xA1>	0
<0xA2>	0
<0xA3>	0
<0xA4>	0
<0xA5>	0
<0xA6>	0
<0xA7>	0
<0xA8>	0
<0xA9>	0
<0xAA>	0
<0xAB>	0
<0xAC>	0
<0xAD>	0
<0xAE>	0
<0xAF>	0
<0xB0>	0
<0xB1>	0
<0xB2>	0
<0xB3>	0
<0xB4>	0
<0xB5>	0
<0xB6>	0
<0xB7>	0
<0xB8>	0
<0xB9>	0
<0xBA>	0
<0xBB>	0
<0xBC>	0
<0xBD>	0
<0xBE>	0
<0xBF>	0
<0xC0>	0
<0xC1>	0
<0xC2>	0
<0xC3>	0
<0xC4>	0
<0xC5>	0
<0xC6>	0
<0xC7>	0
<0xC8>	0
<0xC9>	0
<0xCA>	0
<0xCB>	0
<0xCC>	0
<0xCD>	0
<0xCE>	0
<0xCF>	0
<0xD0>	0
<0xD1>	0
<0xD2>	0
<0xD3>	0
<0xD4>	0
<0xD5>	0
<0xD6>	0
<0xD7>	0
<0xD8>	0
<0xD9>	0
<0xDA>	0
<0xDB>	0
<0xDC>	0
<0xDD>	0
<0xDE>	0
<0xDF>	0
<0xE0>	0
<0xE1>	0
<0xE2>	0
<0xE3>	0
<0xE4>	0
<0xE5>	0
<0xE6>	0
<0xE7>	0
<0xE8>	0
<0xE9>	0
<0xEA>	0
<0xEB>	0
<0xEC>	0
<0xED>	0
<0xEE>	0
<0xEF>	0
<0xF0>	0
<0xF1>	0
<0xF2>	0
<0xF3>	0
<0xF4>	0
<0xF5>	0
<0xF6>	0
<0xF7>	0
<0xF8>	0
<0xF9>	0
<0xFA>	0
<0xFB>	0
<0xFC>	0
<0xFD>	0
<0xFE>	0
<0xFF>	0
▁t	-0
▁a	-1
in	-2
he	-3
re	-4
on	-5
er	-6
▁the	-7
▁s	-8
▁w	-9
or	-10
at	-11
nd	-12
ou	-13
▁c	-14
it	-15
es	-16
▁f	-17
is	-18
en	-19
ing	-20
▁b	-21
▁p	-22
▁o	-23
an	-24
ed	-25
al	-26
▁to	-27
▁m	-28
ar	-29
▁and	-30
▁in	-31
▁of	-32
▁d	-33
le	-34
ic	-35
as	-36
om	-37
▁h	-38
ion	-39
▁th	-40
il	-41
▁T	-42
ent	-43
▁l	-44
ve	-45
▁y	-46
ro	-47
st	-48
▁I	-49
▁e	-50
▁re	-51
▁n	-52
▁S	-53
▁g	-54
et	-55
ct	-56
▁A	-57
▁you	-58
▁C	-59
ly	-60
▁for	-61
id	-62
▁is	-63
ay	-64
▁on	-65
▁be	-66
ot	-67
ow	-68
ol	-69
am	-70
ce	-71
ig	-72
us	-73
ad	-74
im	-75
▁M	-76
ch	-77
el	-78
ver	-79
ith	-80
ut	-81
▁st	-82
ation	-83
ur	-84
▁P	-85
▁with	-86
▁that	-87
ir	-88
▁B	-89
▁W	-90
▁The	-91
▁it	-92
▁he	-93
ra	-94
ill	-95
ers	-96
▁al	-97
un	-98
ul	-99
▁an	-100
▁D	-101
▁H	-102
▁F	-103
out	-104
▁pro	-105
▁as	-106
▁wh	-107
▁are	-108
ke	-109
se	-110
ter	-111
▁we	-112
if	-113
▁ha	-114
ge	-115
oo	-116
▁R	-117
our	-118
pp	-119
ck	-120
ate	-121
ess	-122
▁at	-123
▁con	-124
▁com	-125
▁or	-126
▁L	-127
est	-128
her	-129
ore	-130
ment	-131
▁fr	-132
ab	-133
igh	-134
▁-	-135
▁ne	-136
▁N	-137
ort	-138
▁se	-139
▁G	-140
▁your	-141
ld	-142
▁E	-143
ist	-144
ri	-145
op	-146
▁(	-147
▁ex	-148
ity	-149
ure	-150
▁O	-151
em	-152
▁v	-153
qu	-154
ant	-155
art	-156
ive	-157
ust	-158
um	-159
▁was	-160
▁have	-161
pe	-162
▁from	-163
▁this	-164
▁de	-165
▁r	-166
▁sh	-167
th	-168
ain	-169
ies	-170
▁can	-171
up	-172
▁will	-173
▁ch	-174
and	-175
▁by	-176
os	-177
ight	-178
nt	-179
ie	-180
▁us	-181
ome	-182
all	-183
ard	-184
▁not	-185
ud	-186
res	-187
▁le	-188
▁J	-189
ast	-190
▁pl	-191
ost	-192
▁su	-193
▁ab	-194
iv	-195
ear	-196
▁wor	-197
ide	-198
ial	-199
rou	-200
▁all	-201
gh	-202
od	-203
oc	-204
ak	-205
te	-206
ine	-207
ould	-208
▁j	-209
red	-210
ag	-211
▁has	-212
..	-213
ice	-214
▁Th	-215
ell	-216
▁U	-217
age	-218
▁do	-219
▁k	-220
ack	-221
fe	-222
ook	-223
ac	-224
▁ad	-225
per	-226
▁In	-227
ip	-228
▁comp	-229
ake	-230
▁out	-231
ions	-232
ally	-233
▁up	-234
are	-235
▁but	-236
▁me	-237
▁whe	-238
pt	-239
lo	-240
ry	-241
able	-242
▁our	-243
▁“	-244
one	-245
ind	-246
▁en	-247
▁more	-248
ail	-249
ite	-250
ther	-251
▁their	-252
▁Y	-253
ich	-254
▁so	-255
very	-256
ime	-257
cc	-258
ood	-259
ated	-260
ong	-261
▁K	-262
▁my	-263
▁sa	-264
for	-265
iz	-266
ame	-267
ber	-268
▁they	-269
▁St	-270
▁te	-271
so	-272
ous	-273
▁one	-274
ans	-275
act	-276
▁about	-277
ll	-278
ike	-279
du	-280
▁cont	-281
ase	-282
og	-283
▁V	-284
▁im	-285
ick	-286
▁cl	-287
ia	-288
ance	-289
▁work	-290
▁inc	-291
ign	-292
▁un	-293
ire	-294
ree	-295
▁off	-296
▁fe	-297
▁who	-298
▁man	-299
ue	-300
ace	-301
ach	-302
reat	-303
ub	-304
▁It	-305
ction	-306
▁go	-307
ne	-308
▁app	-309
▁year	-310
▁new	-311
ep	-312
ult	-313
ib	-314
ap	-315
▁his	-316
ays	-317
erv	-318
▁Ch	-319
▁We	-320
▁res	-321
und	-322
▁"	-323
▁sp	-324
ass	-325
ark	-326
ations	-327
ff	-328
▁qu	-329
ary	-330
▁per	-331
▁also	-332
ile	-333
▁which	-334
▁int	-335
▁time	-336
ove	-337
form	-338
ven	-339
ount	-340
▁get	-341
▁tr	-342
own	-343
▁like	-344
▁some	-345
▁other	-346
ond	-347
ents	-348
ings	-349
vel	-350
▁any	-351
ical	-352
ence	-353
▁part	-354
av	-355
▁been	-356
▁dis	-357
▁This	-358
▁over	-359
ition	-360
ress	-361
pl	-362
ors	-363
▁rec	-364
▁them	-365
▁He	-366
▁sc	-367
▁ar	-368
ild	-369
▁pe	-370
port	-371
ink	-372
low	-373
▁ag	-374
▁ro	-375
▁her	-376
▁when	-377
ound	-378
▁kn	-379
ord	-380
mer	-381
int	-382
▁need	-383
ish	-384
▁pr	-385
irst	-386
ens	-387
ough	-388
▁said	-389
ru	-390
▁pre	-391
▁spe	-392
▁just	-393
wn	-394
ren	-395
▁what	-396
▁there	-397
▁if	-398
▁acc	-399
▁than	-400
▁its	-401
ov	-402
▁Re	-403
day	-404
vers	-405
▁would	-406
ater	-407
fter	-408
▁had	-409
ade	-410
ning	-411
lud	-412
▁hel	-413
▁–	-414
▁were	-415
▁am	-416
old	-417
rough	-418
▁into	-419
▁des	-420
ory	-421
ople	-422
itt	-423
ang	-424
▁help	-425
▁tw	-426
▁how	-427
use	-428
lic	-429
ool	-430
▁bec	-431
▁add	-432
anc	-433
▁first	-434
ose	-435
▁make	-436
▁comm	-437
ons	-438
amp	-439
ob	-440
hed	-441
▁prov	-442
▁Wh	-443
▁tra	-444
...	-445
ft	-446
▁look	-447
▁You	-448
▁includ	-449
ual	-450
▁people	-451
les	-452
▁serv	-453
gr	-454
▁col	-455
ian	-456
ments	-457
ful	-458
▁know	-459
▁produ	-460
ates	-461
iew	-462
▁Ne	-463
▁em	-464
rent	-465
ious	-466
tern	-467
▁she	-468
round	-469
ek	-470
▁every	-471
▁through	-472
▁may	-473
ating	-474
▁no	-475
▁only	-476
pport	-477
▁back	-478
▁most	-479
ect	-480
▁bu	-481
▁want	-482
ict	-483
ices	-484
▁As	-485
▁If	-486
▁well	-487
ities	-488
▁ind	-489
we	-490
▁bet	-491
▁ph	-492
ise	-493
▁use	-494
▁two	-495
▁co	-496
xt	-497
ont	-498
com	-499
▁act	-500
▁und	-501
ph	-502
iness	-503
lect	-504
iss	-505
▁after	-506
oy	-507
▁Se	-508
ife	-509
ause	-510
▁play	-511
fect	-512
▁|	-513
oth	-514
▁&	-515
ily	-516
row	-517
ork	-518
enc	-519
▁exper	-520
ject	-521
▁cons	-522
hen	-523
cial	-524
urn	-525
ert	-526
▁years	-527
als	-528
▁these	-529
ank	-530
ting	-531
▁$	-532
▁Com	-533
aw	-534
▁bus	-535
▁An	-536
▁Un	-537
▁stud	-538
any	-539
bs	-540
ange	-541
▁For	-542
ures	-543
vent	-544
▁good	-545
ational	-546
aking	-547
▁see	-548
▁ke	-549
ased	-550
ific	-551
▁Pro	-552
▁now	-553
fore	-554
▁under	-555
▁very	-556
▁many	-557
▁reg	-558
▁sm	-559
ward	-560
hing	-561
▁imp	-562
get	-563
oint	-564
▁dif	-565
▁ra	-566
▁way	-567
erson	-568
ience	-569
▁start	-570
ts	-571
pect	-572
▁fin	-573
▁great	-574
▁And	-575
yst	-576
uring	-577
▁De	-578
▁rel	-579
formation	-580
▁gu	-581
ility	-582
ible	-583
▁rem	-584
▁could	-585
oss	-586
hip	-587
▁dec	-588
uch	-589
▁even	-590
▁inv	-591
).	-592
ty	-593
ics	-594
rit	-595
ract	-596
▁own	-597
▁sec	-598
cess	-599
velop	-600
▁day	-601
▁where	-602
▁show	-603
ident	-604
elf	-605
hes	-606
alth	-607
▁high	-608
its	-609
▁loc	-610
air	-611
▁find	-612
olog	-613
▁ac	-614
ull	-615
nds	-616
▁Al	-617
▁don	-618
▁ass	-619
▁home	-620
▁should	-621
line	-622
ath	-623
▁ent	-624
▁best	-625
▁here	-626
▁down	-627
lease	-628
▁then	-629
▁Sh	-630
ied	-631
ble	-632
ular	-633
||	-634
▁right	-635
The	-636
arch	-637
▁set	-638
chool	-639
ited	-640
▁car	-641
▁av	-642
▁read	-643
▁New	-644
▁mon	-645
gan	-646
▁min	-647
▁take	-648
▁business	-649
erm	-650
▁fam	-651
▁ins	-652
ner	-653
ix	-654
▁inst	-655
▁fl	-656
ys	-657
▁design	-658
▁att	-659
ystem	-660
▁br	-661
alk	-662
▁too	-663
.”	-664
▁che	-665
▁bl	-666
io	-667
▁long	-668
▁much	-669
ative	-670
▁information	-671
▁Be	-672
▁made	-673
▁last	-674
ollow	-675
ason	-676
other	-677
ues	-678
gram	-679
arket	-680
▁product	-681
omet	-682
▁because	-683
ock	-684
ax	-685
▁Fr	-686
),	-687
rib	-688
▁week	-689
▁call	-690
▁did	-691
▁before	-692
▁think	-693
▁Cl	-694
▁team	-695
▁world	-696
atch	-697
me	-698
▁cre	-699
ale	-700
pen	-701
oun	-702
▁again	-703
▁sur	-704
ower	-705
▁Ad	-706
▁vis	-707
ient	-708
▁But	-709
chn	-710
pr	-711
az	-712
ustom	-713
land	-714
▁requ	-715
▁art	-716
▁develop	-717
▁being	-718
▁diffe	-719
▁pres	-720
rest	-721
way	-722
▁person	-723
ng	-724
ener	-725
▁such	-726
▁Le	-727
▁inte	-728
▁mem	-729
▁disc	-730
▁him	-731
ces	-732
▁support	-733
▁life	-734
arn	-735
ug	-736
ving	-737
ced	-738
ouse	-739
unity	-740
ave	-741
ince	-742
irect	-743
▁med	-744
▁Ar	-745
▁does	-746
▁while	-747
▁those	-748
ins	-749
▁provid	-750
ash	-751
arm	-752
view	-753
▁sim	-754
ivers	-755
ros	-756
▁lead	-757
▁sk	-758
akes	-759
ality	-760
▁pol	-761
▁end	-762
▁mod	-763
▁used	-764
▁cur	-765
ives	-766
▁around	-767
ric	-768
led	-769
ier	-770
▁free	-771
ailable	-772
ually	-773
▁each	-774
▁care	-775
▁comple	-776
▁follow	-777
ional	-778
ublic	-779
▁det	-780
▁On	-781
ple	-782
read	-783
der	-784
▁ret	-785
ize	-786
▁trans	-787
ather	-788
▁love	-789
▁There	-790
ages	-791
▁post	-792
ines	-793
▁child	-794
▁system	-795
ars	-796
▁bo	-797
ene	-798
roup	-799
▁eas	-800
▁book	-801
▁num	-802
▁ed	-803
▁How	-804
▁ser	-805
,”	-806
imes	-807
▁Te	-808
▁really	-809
▁count	-810
ets	-811
▁gr	-812
▁str	-813
▁program	-814
▁custom	-815
ton	-816
▁top	-817
▁run	-818
▁del	-819
au	-820
▁All	-821
iet	-822
▁cour	-823
▁found	-824
ffect	-825
▁So	-826
▁place	-827
▁list	-828
ness	-829
ved	-830
iel	-831
▁form	-832
▁month	-833
▁prof	-834
▁char	-835
ah	-836
▁feel	-837
▁To	-838
ute	-839
▁available	-840
▁going	-841
▁inter	-842
ittle	-843
▁They	-844
▁sign	-845
▁sub	-846
gg	-847
▁market	-848
man	-849
ature	-850
ames	-851
▁fun	-852
▁cle	-853
▁still	-854
cept	-855
▁Pl	-856
ways	-857
▁somet	-858
▁different	-859
▁aut	-860
▁both	-861
▁three	-862
▁few	-863
orn	-864
▁health	-865
▁though	-866
▁Ex	-867
ital	-868
ired	-869
▁pur	-870
ering	-871
▁rep	-872
▁adv	-873
▁exp	-874
▁techn	-875
▁happ	-876
▁open	-877
▁lot	-878
▁report	-879
▁company	-880
ata	-881
ween	-882
▁keep	-883
meric	-884
▁Sc	-885
orth	-886
▁plan	-887
▁hand	-888
ining	-889
bers	-890
iqu	-891
▁She	-892
tt	-893
ants	-894
be	-895
▁ext	-896
▁lar	-897
▁game	-898
▁sol	-899
▁point	-900
▁Q	-901
ross	-902
ology	-903
▁say	-904
ves	-905
atur	-906
▁met	-907
▁import	-908
▁process	-909
▁fil	-910
▁frie	-911
▁including	-912
▁family	-913
▁ev	-914
▁using	-915
▁same	-916
work	-917
▁project	-918
ized	-919
uc	-920
oot	-921
▁school	-922
▁between	-923
▁What	-924
ling	-925
ik	-926
▁little	-927
ution	-928
att	-929
ott	-930
▁experience	-931
▁during	-932
."	-933
less	-934
▁state	-935
iving	-936
▁Col	-937
▁i	-938
▁next	-939
uss	-940
els	-941
▁service	-942
aint	-943
▁real	-944
ody	-945
oh	-946
▁build	-947
▁allow	-948
ms	-949
reen	-950
▁opt	-951
▁water	-952
ished	-953
▁things	-954
▁come	-955
▁contin	-956
thing	-957
▁Americ	-958
▁var	-959
▁Ph	-960
▁dri	-961
ists	-962
uck	-963
ever	-964
ern	-965
ield	-966
▁cent	-967
arly	-968
over	-969
rand	-970
▁small	-971
▁rece	-972
▁organ	-973
▁appro	-974
▁rest	-975
gy	-976
▁big	-977
self	-978
▁Ind	-979
▁ref	-980
ex	-981
▁always	-982
▁mus	-983
▁better	-984
▁sure	-985
▁With	-986
▁interest	-987
▁win	-988
aut	-989
loy	-990
▁full	-991
▁pat	-992
▁pass	-993
▁poss	-994
ery	-995
illion	-996
▁online	-997
▁pri	-998
▁iss	-999
▁ty	-1000
▁put	-1001
ined	-1002
cent	-1003
ware	-1004
▁When	-1005
▁result	-1006
▁gener	-1007
▁since	-1008
▁Bl	-1009
▁ve	-1010
ps	-1011
▁try	-1012
▁direct	-1013
▁quest	-1014
iversity	-1015
▁mov	-1016
▁stand	-1017
▁partic	-1018
▁days	-1019
▁perform	-1020
▁group	-1021
ok	-1022
▁val	-1023
▁pay	-1024
▁ide	-1025
▁head	-1026
▁special	-1027
▁bel	-1028
▁Tr	-1029
▁today	-1030
▁Chr	-1031
▁something	-1032
▁class	-1033
▁provide	-1034
ients	-1035
ours	-1036
▁tri	-1037
▁second	-1038
▁services	-1039
▁ann	-1040
▁Our	-1041
ared	-1042
▁Con	-1043
ccess	-1044
▁resp	-1045
joy	-1046
▁phot	-1047
▁conf	-1048
▁Is	-1049
ploy	-1050
▁Or	-1051
▁dist	-1052
▁hard	-1053
▁without	-1054
pping	-1055
con	-1056
▁Sp	-1057
▁number	-1058
▁Z	-1059
ER	-1060
▁bro	-1061
▁def	-1062
▁sl	-1063
▁cor	-1064
▁must	-1065
oney	-1066
▁blo	-1067
▁another	-1068
ision	-1069
▁vide	-1070
stand	-1071
eng	-1072
▁current	-1073
cl	-1074
outh	-1075
▁give	-1076
▁wom	-1077
▁old	-1078
aj	-1079
ically	-1080
▁access	-1081
▁able	-1082
▁webs	-1083
ards	-1084
▁important	-1085
ior	-1086
iver	-1087
,"	-1088
▁cr	-1089
ately	-1090
ium	-1091
▁—	-1092
▁cost	-1093
sh	-1094
▁grow	-1095
▁ask	-1096
ope	-1097
ral	-1098
▁meet	-1099
▁fact	-1100
▁invest	-1101
▁At	-1102
▁area	-1103
ruct	-1104
▁Cent	-1105
▁public	-1106
▁got	-1107
raph	-1108
▁Res	-1109
▁wr	-1110
▁bre	-1111
▁soc	-1112
ote	-1113
▁visit	-1114
▁proble	-1115
ered	-1116
▁light	-1117
▁incre	-1118
▁US	-1119
ample	-1120
▁working	-1121
ems	-1122
▁ob	-1123
ense	-1124
▁data	-1125
▁unt	-1126
ann	-1127
rence	-1128
pped	-1129
br	-1130
▁level	-1131
▁proper	-1132
▁looking	-1133
▁never	-1134
▁sal	-1135
▁might	-1136
inal	-1137
▁No	-1138
ats	-1139
ffic	-1140
▁order	-1141
ential	-1142
ember	-1143
▁effect	-1144
ley	-1145
▁event	-1146
▁fac	-1147
▁students	-1148
▁rese	-1149
▁food	-1150
▁local	-1151
▁Man	-1152
ency	-1153
▁four	-1154
▁Comm	-1155
▁eng	-1156
▁profess	-1157
ird	-1158
▁let	-1159
▁That	-1160
ission	-1161
▁offer	-1162
▁inf	-1163
ww	-1164
▁enjoy	-1165
▁site	-1166
▁Pr	-1167
▁spec	-1168
▁season	-1169
▁check	-1170
▁addition	-1171
ertain	-1172
▁within	-1173
▁children	-1174
gin	-1175
▁oper	-1176
▁pos	-1177
▁test	-1178
ording	-1179
▁making	-1180
▁My	-1181
▁view	-1182
lection	-1183
▁room	-1184
▁sit	-1185
▁prom	-1186
▁power	-1187
ories	-1188
ney	-1189
▁expl	-1190
here	-1191
▁ca	-1192
load	-1193
ently	-1194
▁products	-1195
rol	-1196
▁night	-1197
▁past	-1198
▁community	-1199
▁pop	-1200
▁Mar	-1201
▁sing	-1202
▁against	-1203
let	-1204
ream	-1205
tend	-1206
▁until	-1207
ases	-1208
▁less	-1209
▁'	-1210
utes	-1211
▁el	-1212
ains	-1213
agement	-1214
▁est	-1215
med	-1216
ids	-1217
▁email	-1218
ieve	-1219
▁job	-1220
iron	-1221
ised	-1222
ator	-1223
▁quality	-1224
ivid	-1225
▁May	-1226
ina	-1227
▁intern	-1228
▁indust	-1229
to	-1230
ills	-1231
▁gl	-1232
▁website	-1233
▁prote	-1234
▁impro	-1235
▁law	-1236
ode	-1237
ks	-1238
orm	-1239
▁equ	-1240
▁App	-1241
▁turn	-1242
ified	-1243
enn	-1244
urs	-1245
co	-1246
ged	-1247
IN	-1248
▁Br	-1249
▁away	-1250
icle	-1251
▁air	-1252
▁Fe	-1253
▁contact	-1254
▁creat	-1255
▁toget	-1256
We	-1257
▁together	-1258
▁University	-1259
bo	-1260
istr	-1261
ique	-1262
pend	-1263
aring	-1264
▁supp	-1265
▁learn	-1266
▁success	-1267
▁pract	-1268
▁Co	-1269
▁dr	-1270
ury	-1271
▁complete	-1272
▁Can	-1273
▁leg	-1274
iday	-1275
▁applic	-1276
▁expect	-1277
▁needs	-1278
▁include	-1279
por	-1280
▁Christ	-1281
iety	-1282
ocus	-1283
atter	-1284
ider	-1285
▁Cont	-1286
▁.	-1287
▁detail	-1288
▁large	-1289
▁easy	-1290
▁la	-1291
▁Car	-1292
ability	-1293
ret	-1294
▁One	-1295
oci	-1296
▁along	-1297
irl	-1298
▁course	-1299
▁says	-1300
▁change	-1301
▁news	-1302
arent	-1303
aster	-1304
room	-1305
▁present	-1306
ger	-1307
▁offic	-1308
vern	-1309
▁name	-1310
▁chang	-1311
hor	-1312
ism	-1313
▁conc	-1314
yle	-1315
ym	-1316
atures	-1317
▁beaut	-1318
▁Am	-1319
▁Do	-1320
▁activ	-1321
pos	-1322
▁cap	-1323
part	-1324
lish	-1325
ump	-1326
ising	-1327
▁members	-1328
ries	-1329
▁Me	-1330
▁money	-1331
▁Ste	-1332
enef	-1333
min	-1334
iting	-1335
▁employ	-1336
rap	-1337
▁video	-1338
▁bas	-1339
▁times	-1340
the	-1341
▁talk	-1342
▁Eng	-1343
ify	-1344
▁buy	-1345
ec	-1346
augh	-1347
▁beh	-1348
▁music	-1349
itions	-1350
▁Ro	-1351
▁fav	-1352
▁These	-1353
▁house	-1354
une	-1355
▁pa	-1356
ift	-1357
nect	-1358
▁opport	-1359
▁dem	-1360
▁sw	-1361
side	-1362
▁/	-1363
ane	-1364
▁hist	-1365
▁why	-1366
Th	-1367
▁En	-1368
▁dra	-1369
ably	-1370
▁cond	-1371
▁ce	-1372
▁case	-1373
▁please	-1374
▁treat	-1375
by	-1376
mber	-1377
ron	-1378
veral	-1379
ots	-1380
▁perfect	-1381
aff	-1382
rie	-1383
aterial	-1384
pecial	-1385
▁live	-1386
ready	-1387
fort	-1388
ten	-1389
▁govern	-1390
▁account	-1391
▁dev	-1392
▁short	-1393
ention	-1394
▁thing	-1395
ization	-1396
▁create	-1397
▁following	-1398
▁Che	-1399
▁story	-1400
ON	-1401
▁clo	-1402
▁left	-1403
book	-1404
▁const	-1405
ived	-1406
viron	-1407
▁review	-1408
▁below	-1409
▁trad	-1410
▁understand	-1411
▁hum	-1412
▁million	-1413
son	-1414
!!	-1415
▁side	-1416
itive	-1417
▁having	-1418
alf	-1419
▁Your	-1420
ored	-1421
▁After	-1422
▁hot	-1423
ohn	-1424
ows	-1425
sc	-1426
▁page	-1427
etwork	-1428
▁Med	-1429
▁Fl	-1430
▁based	-1431
▁focus	-1432
▁makes	-1433
of	-1434
▁word	-1435
AT	-1436
RE	-1437
▁research	-1438
▁move	-1439
▁writ	-1440
▁across	-1441
▁camp	-1442
▁personal	-1443
ienc	-1444
▁link	-1445
▁line	-1446
ances	-1447
▁kind	-1448
▁possible	-1449
▁cou	-1450
rop	-1451
▁ever	-1452
▁mar	-1453
▁pot	-1454
uture	-1455
ividual	-1456
▁getting	-1457
▁comes	-1458
▁already	-1459
uly	-1460
▁benef	-1461
ajor	-1462
▁elect	-1463
▁educ	-1464
vious	-1465
▁record	-1466
ured	-1467
uper	-1468
osp	-1469
▁country	-1470
▁become	-1471
▁soft	-1472
▁Rep	-1473
ination	-1474
oice	-1475
orts	-1476
▁often	-1477
▁share	-1478
▁friends	-1479
▁several	-1480
ush	-1481
▁Ass	-1482
▁done	-1483
iven	-1484
ister	-1485
▁social	-1486
▁Count	-1487
▁es	-1488
duct	-1489
▁pack	-1490
▁bit	-1491
wards	-1492
▁fund	-1493
ead	-1494
iam	-1495
▁enough	-1496
▁quick	-1497
▁mil	-1498
▁tre	-1499
ones	-1500
▁minutes	-1501
uro	-1502
▁Please	-1503
conom	-1504
fer	-1505
▁bring	-1506
▁Inst	-1507
inc	-1508
▁women	-1509
uff	-1510
▁development	-1511
▁vers	-1512
▁Serv	-1513
▁hours	-1514
▁Des	-1515
▁body	-1516
▁mult	-1517
unch	-1518
app	-1519
oose	-1520
ips	-1521
▁tell	-1522
ides	-1523
iful	-1524
▁John	-1525
vironment	-1526
▁return	-1527
▁purch	-1528
mend	-1529
▁:	-1530
aim	-1531
▁cut	-1532
▁men	-1533
ners	-1534
▁city	-1535
▁lo	-1536
arl	-1537
reet	-1538
ape	-1539
▁Intern	-1540
▁deal	-1541
▁X	-1542
oon	-1543
▁individual	-1544
AN	-1545
▁exc	-1546
▁won	-1547
ST	-1548
▁ens	-1549
▁young	-1550
ted	-1551
ateg	-1552
▁Here	-1553
▁material	-1554
▁hold	-1555
▁compet	-1556
ograph	-1557
▁sum	-1558
▁...	-1559
▁Comp	-1560
▁others	-1561
▁jo	-1562
yn	-1563
utions	-1564
▁Tw	-1565
▁started	-1566
▁called	-1567
▁industry	-1568
▁months	-1569
▁mom	-1570
▁term	-1571
▁non	-1572
▁orig	-1573
idd	-1574
ights	-1575
▁didn	-1576
ript	-1577
▁land	-1578
ee	-1579
ai	-1580
nder	-1581
▁Gu	-1582
▁walk	-1583
▁clean	-1584
▁future	-1585
▁rele	-1586
▁American	-1587
▁However	-1588
▁pie	-1589
.,	-1590
▁City	-1591
▁far	-1592
▁commun	-1593
lished	-1594
ched	-1595
▁po	-1596
▁doing	-1597
▁major	-1598
ained	-1599
▁control	-1600
▁space	-1601
ource	-1602
fact	-1603
ball	-1604
urity	-1605
arr	-1606
osed	-1607
▁wa	-1608
▁low	-1609
ges	-1610
▁cover	-1611
▁Ab	-1612
▁store	-1613
anies	-1614
lement	-1615
ference	-1616
ford	-1617
▁occ	-1618
▁games	-1619
▁means	-1620
AR	-1621
lege	-1622
▁Not	-1623
▁mind	-1624
▁offers	-1625
oring	-1626
▁Tra	-1627
▁yet	-1628
▁bra	-1629
▁Dr	-1630
▁came	-1631
▁five	-1632
▁percent	-1633
▁chall	-1634
▁comb	-1635
▁Min	-1636
▁took	-1637
▁invol	-1638
▁doesn	-1639
sel	-1640
▁lim	-1641
orld	-1642
▁fore	-1643
ilities	-1644
▁*	-1645
▁customers	-1646
▁features	-1647
bal	-1648
▁State	-1649
▁least	-1650
▁strong	-1651
▁step	-1652
▁price	-1653
ches	-1654
▁heart	-1655
▁God	-1656
▁Ke	-1657
urther	-1658
▁range	-1659
▁specific	-1660
▁More	-1661
▁main	-1662
most	-1663
▁require	-1664
▁close	-1665
▁School	-1666
▁once	-1667
▁key	-1668
▁pict	-1669
sw	-1670
err	-1671
ler	-1672
▁upd	-1673
ilt	-1674
ither	-1675
▁mean	-1676
▁Bo	-1677
▁early	-1678
▁ey	-1679
▁cra	-1680
▁Jan	-1681
▁Now	-1682
▁tool	-1683
▁stay	-1684
▁discuss	-1685
▁government	-1686
illed	-1687
aces	-1688
af	-1689
▁series	-1690
▁tem	-1691
ources	-1692
▁hig	-1693
▁priv	-1694
▁Bro	-1695
▁ste	-1696
▁technology	-1697
pro	-1698
cle	-1699
▁install	-1700
▁charact	-1701
▁Im	-1702
atural	-1703
▁Ed	-1704
▁typ	-1705
▁United	-1706
▁redu	-1707
▁beautiful	-1708
atic	-1709
▁By	-1710
▁ago	-1711
▁went	-1712
▁begin	-1713
aken	-1714
//	-1715
▁announ	-1716
org	-1717
▁thought	-1718
▁Pe	-1719
▁pick	-1720
▁told	-1721
▁hope	-1722
▁appear	-1723
ancial	-1724
isk	-1725
It	-1726
resent	-1727
▁anal	-1728
▁happen	-1729
anks	-1730
rew	-1731
▁Gr	-1732
▁Em	-1733
irm	-1734
▁break	-1735
ille	-1736
▁wind	-1737
▁questions	-1738
resh	-1739
OR	-1740
▁York	-1741
▁x	-1742
▁Qu	-1743
come	-1744
▁Pre	-1745
▁content	-1746
▁certain	-1747
▁Add	-1748
oll	-1749
▁everything	-1750
▁prep	-1751
ourn	-1752
hers	-1753
://	-1754
▁sn	-1755
ians	-1756
irt	-1757
gle	-1758
▁field	-1759
▁companies	-1760
▁travel	-1761
ony	-1762
▁Cal	-1763
▁enc	-1764
▁recom	-1765
▁single	-1766
▁known	-1767
▁added	-1768
▁favor	-1769
▁media	-1770
▁--	-1771
cell	-1772
▁building	-1773
arning	-1774
▁manag	-1775
▁Park	-1776
aps	-1777
▁search	-1778
▁environment	-1779
▁friend	-1780
▁actually	-1781
aur	-1782
▁address	-1783
ief	-1784
▁tot	-1785
▁ener	-1786
de	-1787
▁study	-1788
▁mess	-1789
eral	-1790
▁vol	-1791
▁tax	-1792
▁press	-1793
▁problem	-1794
play	-1795
isc	-1796
▁later	-1797
▁connect	-1798
ino	-1799
▁works	-1800
ests	-1801
▁Sm	-1802
▁girl	-1803
icy	-1804
▁improve	-1805
gest	-1806
acy	-1807
ibr	-1808
▁taking	-1809
ew	-1810
▁South	-1811
▁ident	-1812
▁maint	-1813
▁sound	-1814
▁pub	-1815
ental	-1816
year	-1817
lebr	-1818
ural	-1819
▁Su	-1820
▁track	-1821
ided	-1822
▁training	-1823
▁watch	-1824
▁results	-1825
ster	-1826
▁staff	-1827
▁card	-1828
▁wond	-1829
abor	-1830
▁North	-1831
▁face	-1832
back	-1833
▁professional	-1834
nes	-1835
ensive	-1836
▁Mc	-1837
▁Just	-1838
ocu	-1839
gs	-1840
ES	-1841
▁film	-1842
▁provides	-1843
wh	-1844
atest	-1845
yl	-1846
▁seen	-1847
▁While	-1848
▁issues	-1849
▁someone	-1850
ama	-1851
▁Per	-1852
▁unique	-1853
▁host	-1854
▁half	-1855
▁front	-1856
▁official	-1857
cer	-1858
▁Euro	-1859
fully	-1860
▁near	-1861
opy	-1862
▁econom	-1863
▁relations	-1864
▁web	-1865
▁sell	-1866
▁particular	-1867
▁National	-1868
▁County	-1869
▁everyone	-1870
▁miss	-1871
▁port	-1872
AL	-1873
▁dig	-1874
urch	-1875
▁due	-1876
▁Aust	-1877
▁Some	-1878
go	-1879
▁recommend	-1880
▁network	-1881
hod	-1882
▁cook	-1883
▁Center	-1884
▁Don	-1885
lex	-1886
▁cred	-1887
▁office	-1888
▁respons	-1889
▁z	-1890
ued	-1891
▁Inc	-1892
▁Oct	-1893
▁simple	-1894
itted	-1895
▁Part	-1896
▁age	-1897
▁ant	-1898
ctor	-1899
ibility	-1900
▁aud	-1901
▁management	-1902
ging	-1903
▁click	-1904
not	-1905
roll	-1906
▁oil	-1907
▁Pol	-1908
▁particip	-1909
time	-1910
▁Dep	-1911
asing	-1912
▁whole	-1913
pecially	-1914
▁mot	-1915
▁bar	-1916
obile	-1917
iod	-1918
▁Acc	-1919
▁Pres	-1920
▁performance	-1921
▁areas	-1922
▁Apr	-1923
▁mor	-1924
▁ess	-1925
pper	-1926
▁fall	-1927
▁author	-1928
cing	-1929
▁given	-1930
ply	-1931
imate	-1932
▁bed	-1933
▁World	-1934
icult	-1935
nding	-1936
▁above	-1937
▁reason	-1938
▁protect	-1939
ites	-1940
▁events	-1941
In	-1942
ators	-1943
aining	-1944
▁among	-1945
▁eff	-1946
ables	-1947
umb	-1948
▁Will	-1949
ops	-1950
▁experienc	-1951
ask	-1952
▁Sec	-1953
▁history	-1954
EN	-1955
▁select	-1956
▁Stud	-1957
omes	-1958
▁black	-1959
ogn	-1960
ED	-1961
▁assist	-1962
▁size	-1963
▁energy	-1964
▁foot	-1965
ison	-1966
cy	-1967
ili	-1968
▁High	-1969
▁details	-1970
▁print	-1971
ledge	-1972
▁htt	-1973
▁Reg	-1974
▁glo	-1975
▁believe	-1976
▁flo	-1977
▁sex	-1978
crib	-1979
▁further	-1980
▁From	-1981
▁amount	-1982
▁Post	-1983
▁six	-1984
▁log	-1985
idence	-1986
ety	-1987
ulation	-1988
▁designed	-1989
▁includes	-1990
▁prob	-1991
▁Friday	-1992
astic	-1993
▁pain	-1994
ands	-1995
vert	-1996
▁cult	-1997
ufact	-1998
▁points	-1999
▁repl	-2000
▁parent	-2001
▁mag	-2002
▁red	-2003
▁Day	-2004
▁property	-2005
AS	-2006
▁Ge	-2007
ruction	-2008
▁Bar	-2009
▁continue	-2010
▁soon	-2011
nov	-2012
▁feature	-2013
▁Aug	-2014
▁value	-2015
urance	-2016
▁et	-2017
▁Mr	-2018
▁Europe	-2019
▁anything	-2020
▁text	-2021
▁various	-2022
itch	-2023
▁coming	-2024
▁question	-2025
▁popular	-2026
▁latest	-2027
itional	-2028
▁according	-2029
aily	-2030
▁lov	-2031
▁living	-2032
rodu	-2033
▁phys	-2034
▁forward	-2035
▁type	-2036
my	-2037
▁fre	-2038
uation	-2039
▁March	-2040
▁phone	-2041
itc	-2042
ouch	-2043
▁consider	-2044
cript	-2045
▁pret	-2046
▁whether	-2047
aturday	-2048
IC	-2049
IT	-2050
▁brand	-2051
▁entire	-2052
▁idea	-2053
ze	-2054
though	-2055
▁claim	-2056
▁white	-2057
edd	-2058
aching	-2059
▁celebr	-2060
▁weeks	-2061
▁gra	-2062
▁dou	-2063
▁needed	-2064
▁Bu	-2065
▁diff	-2066
▁consum	-2067
▁potential	-2068
▁opportunity	-2069
▁comput	-2070
▁deb	-2071
▁El	-2072
▁color	-2073
elt	-2074
▁taken	-2075
▁Us	-2076
▁June	-2077
▁wide	-2078
▁required	-2079
▁receive	-2080
▁par	-2081
▁date	-2082
▁Sept	-2083
▁extra	-2084
selves	-2085
▁Sund	-2086
ung	-2087
itter	-2088
▁docu	-2089
new	-2090
▁third	-2091
▁example	-2092
AC	-2093
▁relationship	-2094
▁safe	-2095
ival	-2096
▁bad	-2097
▁sent	-2098
▁ensure	-2099
This	-2100
itor	-2101
ises	-2102
▁ready	-2103
▁inj	-2104
▁Off	-2105
▁West	-2106
▁,	-2107
▁comfort	-2108
▁currently	-2109
ilar	-2110
amer	-2111
▁meas	-2112
ees	-2113
ires	-2114
▁financial	-2115
▁common	-2116
▁almost	-2117
ffe	-2118
▁sugg	-2119
▁fire	-2120
head	-2121
▁ach	-2122
▁April	-2123
val	-2124
uary	-2125
▁ways	-2126
▁human	-2127
▁kids	-2128
▁Read	-2129
▁Art	-2130
▁pretty	-2131
▁period	-2132
▁quite	-2133
▁Jo	-2134
▁options	-2135
▁final	-2136
▁skin	-2137
▁natural	-2138
▁yourself	-2139
▁especially	-2140
▁veh	-2141
irc	-2142
▁road	-2143
▁style	-2144
▁trying	-2145
▁park	-2146
▁sho	-2147
▁box	-2148
▁Health	-2149
▁Cor	-2150
ring	-2151
▁items	-2152
▁His	-2153
▁answ	-2154
▁paper	-2155
used	-2156
▁member	-2157
▁provided	-2158
▁either	-2159
ese	-2160
ana	-2161
ively	-2162
....	-2163
▁Saturday	-2164
itting	-2165
onday	-2166
▁coll	-2167
▁engine	-2168
▁choose	-2169
▁hon	-2170
▁self	-2171
▁crit	-2172
▁held	-2173
▁throughout	-2174
▁happy	-2175
▁dam	-2176
▁fit	-2177
▁download	-2178
▁via	-2179
▁swe	-2180
▁attend	-2181
▁wanted	-2182
▁flow	-2183
▁clients	-2184
▁stra	-2185
ication	-2186
▁summer	-2187
▁Pa	-2188
▁recent	-2189
▁Fin	-2190
▁impact	-2191
▁Aut	-2192
▁users	-2193
ada	-2194
▁created	-2195
▁sales	-2196
▁tit	-2197
▁Af	-2198
icro	-2199
▁July	-2200
azing	-2201
▁blog	-2202
▁issue	-2203
▁previous	-2204
▁behind	-2205
▁takes	-2206
arter	-2207
oogle	-2208
▁recently	-2209
hel	-2210
▁TH	-2211
▁software	-2212
▁Dav	-2213
angu	-2214
gress	-2215
IS	-2216
do	-2217
▁init	-2218
cast	-2219
ams	-2220
ux	-2221
▁version	-2222
▁super	-2223
▁Get	-2224
▁Feb	-2225
ried	-2226
▁bott	-2227
▁seem	-2228
▁Up	-2229
▁couple	-2230
▁song	-2231
▁running	-2232
▁insp	-2233
▁hol	-2234
verage	-2235
ume	-2236
ober	-2237
▁clear	-2238
▁collect	-2239
▁problems	-2240
ades	-2241
apt	-2242
▁isn	-2243
▁education	-2244
▁received	-2245
▁method	-2246
oura	-2247
▁table	-2248
▁players	-2249
▁role	-2250
▁represent	-2251
▁reading	-2252
▁Val	-2253
uge	-2254
▁Direct	-2255
eth	-2256
▁Int	-2257
anced	-2258
itten	-2259
▁signific	-2260
atform	-2261
▁likely	-2262
eke	-2263
ole	-2264
earch	-2265
ification	-2266
▁Sw	-2267
par	-2268
▁shows	-2269
▁di	-2270
where	-2271
▁security	-2272
▁increase	-2273
▁accom	-2274
▁States	-2275
▁Mon	-2276
▁favorite	-2277
▁customer	-2278
▁stri	-2279
▁pan	-2280
▁party	-2281
reme	-2282
▁action	-2283
▁skills	-2284
▁regular	-2285
St	-2286
▁difficult	-2287
▁fast	-2288
▁simply	-2289
idge	-2290
OU	-2291
▁sle	-2292
▁else	-2293
▁Face	-2294
▁writing	-2295
▁ele	-2296
▁nice	-2297
aging	-2298
▁Sunday	-2299
▁Monday	-2300
oud	-2301
oid	-2302
▁position	-2303
overed	-2304
▁article	-2305
▁outside	-2306
▁original	-2307
▁Her	-2308
▁probably	-2309
▁cool	-2310
icles	-2311
aving	-2312
mit	-2313
▁cup	-2314
▁necess	-2315
▁inside	-2316
▁fresh	-2317
ID	-2318
istration	-2319
▁asked	-2320
▁wonder	-2321
▁goal	-2322
▁systems	-2323
.)	-2324
▁manufact	-2325
arth	-2326
aby	-2327
▁model	-2328
--	-2329
▁House	-2330
li	-2331
▁morning	-2332
▁ground	-2333
▁President	-2334
icated	-2335
▁application	-2336
▁leave	-2337
ham	-2338
eter	-2339
▁ful	-2340
▁learning	-2341
▁anim	-2342
uit	-2343
aker	-2344
▁Associ	-2345
▁risk	-2346
▁Act	-2347
▁Black	-2348
▁knowledge	-2349
▁located	-2350
based	-2351
▁contrib	-2352
▁UK	-2353
▁release	-2354
▁projects	-2355
▁lives	-2356
▁changes	-2357
▁tour	-2358
▁Are	-2359
▁Bus	-2360
▁however	-2361
ox	-2362
▁Free	-2363
▁treatment	-2364
▁stop	-2365
medi	-2366
face	-2367
right	-2368
▁Austral	-2369
▁exist	-2370
▁mix	-2371
▁recogn	-2372
▁additional	-2373
▁polit	-2374
adem	-2375
▁Red	-2376
▁activities	-2377
▁private	-2378
▁abs	-2379
▁sat	-2380
▁career	-2381
iple	-2382
name	-2383
▁board	-2384
▁medical	-2385
▁Work	-2386
▁total	-2387
▁Mich	-2388
▁cal	-2389
▁anyone	-2390
▁hit	-2391
▁etc	-2392
artment	-2393
▁fail	-2394
▁ple	-2395
▁TV	-2396
▁accept	-2397
urg	-2398
▁town	-2399
▁Soc	-2400
ague	-2401
▁base	-2402
arget	-2403
aign	-2404
amed	-2405
bor	-2406
OT	-2407
hib	-2408
▁mark	-2409
▁former	-2410
▁contract	-2411
▁matter	-2412
▁included	-2413
▁America	-2414
ming	-2415
ounc	-2416
ules	-2417
▁mach	-2418
ession	-2419
▁Sal	-2420
iol	-2421
▁stock	-2422
▁match	-2423
▁autom	-2424
▁words	-2425
▁significant	-2426
izing	-2427
▁hair	-2428
ipment	-2429
▁saf	-2430
ecut	-2431
▁Ser	-2432
▁meeting	-2433
wood	-2434
▁Of	-2435
▁October	-2436
▁books	-2437
▁September	-2438
ovember	-2439
▁growth	-2440
▁Ac	-2441
▁playing	-2442
▁January	-2443
aced	-2444
▁leaders	-2445
empt	-2446
▁ball	-2447
▁worth	-2448
mon	-2449
irth	-2450
▁round	-2451
▁longer	-2452
▁drive	-2453
▁hy	-2454
▁character	-2455
▁variety	-2456
ny	-2457
▁concern	-2458
▁News	-2459
▁First	-2460
▁practice	-2461
ester	-2462
▁production	-2463
che	-2464
▁function	-2465
▁Sk	-2466
▁Wed	-2467
rict	-2468
▁looks	-2469
▁squ	-2470
ground	-2471
▁exam	-2472
▁late	-2473
reg	-2474
▁San	-2475
ude	-2476
▁lay	-2477
airs	-2478
▁Every	-2479
▁wall	-2480
mercial	-2481
pm	-2482
iff	-2483
▁sun	-2484
ursday	-2485
▁defin	-2486
adu	-2487
▁determ	-2488
na	-2489
▁Ag	-2490
▁August	-2491
▁suggest	-2492
ci	-2493
▁Har	-2494
elcome	-2495
▁worked	-2496
▁weeke	-2497
▁fig	-2498
ville	-2499
▁associ	-2500
uesday	-2501
▁Google	-2502
▁programs	-2503
▁death	-2504
imum	-2505
▁chance	-2506
▁platform	-2507
▁cand	-2508
▁screen	-2509
▁international	-2510
▁Then	-2511
iddle	-2512
▁Let	-2513
ipping	-2514
cks	-2515
rect	-2516
▁deg	-2517
▁true	-2518
▁Dis	-2519
▁nothing	-2520
Wh	-2521
▁challeng	-2522
itchen	-2523
▁loss	-2524
▁general	-2525
▁clos	-2526
▁rather	-2527
▁plans	-2528
arden	-2529
▁Facebook	-2530
▁purchase	-2531
▁estab	-2532
erc	-2533
▁amazing	-2534
▁credit	-2535
▁leading	-2536
▁subject	-2537
▁Department	-2538
▁regard	-2539
▁stat	-2540
cember	-2541
▁allows	-2542
ouncil	-2543
▁seems	-2544
olution	-2545
eds	-2546
▁built	-2547
▁arri	-2548
▁police	-2549
mas	-2550
▁similar	-2551
▁Mus	-2552
▁student	-2553
▁Sim	-2554
▁usually	-2555
▁infl	-2556
▁Pat	-2557
▁rate	-2558
▁quickly	-2559
▁Air	-2560
oke	-2561
▁November	-2562
▁teac	-2563
▁Also	-2564
lin	-2565
AM	-2566
▁Street	-2567
▁draw	-2568
▁national	-2569
ashing	-2570
▁touch	-2571
ought	-2572
▁providing	-2573
▁comment	-2574
▁International	-2575
oph	-2576
light	-2577
▁excell	-2578
▁deep	-2579
nesday	-2580
▁apply	-2581
▁higher	-2582
iter	-2583
iber	-2584
▁choice	-2585
▁photos	-2586
clus	-2587
▁Group	-2588
str	-2589
gar	-2590
▁tast	-2591
ING	-2592
▁respect	-2593
off	-2594
▁collection	-2595
▁safety	-2596
▁image	-2597
▁Out	-2598
▁Cons	-2599
now	-2600
▁hands	-2601
▁marketing	-2602
▁prior	-2603
ondon	-2604
▁ideas	-2605
▁integr	-2606
▁moment	-2607
▁movie	-2608
▁sil	-2609
▁encoura	-2610
▁easily	-2611
▁decision	-2612
example	-2613
▁ut	-2614
▁Cour	-2615
▁location	-2616
▁cell	-2617
▁bal	-2618
▁inde	-2619
▁dom	-2620
hern	-2621
▁rad	-2622
▁prevent	-2623
▁court	-2624
▁af	-2625
▁bud	-2626
▁Wind	-2627
▁op	-2628
▁released	-2629
▁decided	-2630
▁mass	-2631
▁ill	-2632
▁commit	-2633
▁Thursday	-2634
ached	-2635
▁digital	-2636
▁Home	-2637
put	-2638
▁Tuesday	-2639
ournal	-2640
▁emb	-2641
ha	-2642
▁reported	-2643
▁Well	-2644
▁benefits	-2645
▁Calif	-2646
▁file	-2647
ivery	-2648
▁exact	-2649
▁seek	-2650
▁December	-2651
▁introdu	-2652
▁wood	-2653
amb	-2654
▁La	-2655
▁cannot	-2656
ma	-2657
eal	-2658
▁campaign	-2659
▁lost	-2660
reng	-2661
▁display	-2662
▁Most	-2663
▁daily	-2664
▁partners	-2665
▁parents	-2666
▁ord	-2667
▁attack	-2668
▁Business	-2669
ishing	-2670
idents	-2671
hood	-2672
▁involved	-2673
▁agree	-2674
▁announced	-2675
▁cause	-2676
▁sche	-2677
▁effic	-2678
rown	-2679
▁sens	-2680
ructure	-2681
▁Gl	-2682
unities	-2683
▁drink	-2684
▁piece	-2685
▁center	-2686
▁Ang	-2687
ray	-2688
ospital	-2689
▁neg	-2690
atory	-2691
▁user	-2692
▁dest	-2693
OM	-2694
▁related	-2695
▁saw	-2696
▁Any	-2697
▁affect	-2698
▁expected	-2699
▁vict	-2700
ipe	-2701
▁Design	-2702
▁investig	-2703
▁ability	-2704
▁club	-2705
ederal	-2706
▁patients	-2707
▁Wednesday	-2708
▁ep	-2709
▁London	-2710
▁Click	-2711
ruary	-2712
EO	-2713
avy	-2714
▁rout	-2715
▁send	-2716
illing	-2717
▁ri	-2718
▁save	-2719
▁tick	-2720
ilies	-2721
▁modern	-2722
▁norm	-2723
just	-2724
ET	-2725
▁weekend	-2726
▁mobile	-2727
▁circ	-2728
sp	-2729
▁standard	-2730
▁langu	-2731
▁Prof	-2732
▁expert	-2733
▁option	-2734
ett	-2735
▁goes	-2736
▁boy	-2737
▁ded	-2738
▁immedi	-2739
▁green	-2740
▁enter	-2741
▁restaur	-2742
▁computer	-2743
▁Over	-2744
▁fight	-2745
▁War	-2746
▁aw	-2747
▁woman	-2748
▁bag	-2749
▁global	-2750
▁pers	-2751
istic	-2752
board	-2753
lim	-2754
▁target	-2755
▁mother	-2756
ivity	-2757
▁iP	-2758
▁emer	-2759
uel	-2760
▁sym	-2761
▁College	-2762
like	-2763
iring	-2764
▁serious	-2765
▁innov	-2766
▁parts	-2767
▁helps	-2768
▁huge	-2769
▁PM	-2770
▁costs	-2771
▁English	-2772
key	-2773
asons	-2774
oday	-2775
aves	-2776
▁gen	-2777
▁Check	-2778
zz	-2779
ellow	-2780
▁surpr	-2781
▁weight	-2782
▁http	-2783
▁earn	-2784
enge	-2785
uk	-2786
erve	-2787
▁rights	-2788
ara	-2789
▁bank	-2790
▁ones	-2791
ornia	-2792
▁legal	-2793
▁code	-2794
▁solutions	-2795
▁request	-2796
▁equipment	-2797
▁Sen	-2798
▁myself	-2799
▁gives	-2800
▁tools	-2801
▁Afric	-2802
▁warm	-2803
▁arch	-2804
▁Other	-2805
▁insurance	-2806
cription	-2807
raft	-2808
band	-2809
▁Del	-2810
ram	-2811
edding	-2812
▁feed	-2813
▁Hol	-2814
EC	-2815
▁approach	-2816
ault	-2817
▁conditions	-2818
▁played	-2819
▁giving	-2820
▁admin	-2821
▁dress	-2822
▁Ob	-2823
▁Techn	-2824
pri	-2825
▁Book	-2826
attle	-2827
▁attention	-2828
▁roll	-2829
OS	-2830
▁levels	-2831
▁sus	-2832
▁sett	-2833
▁resources	-2834
unt	-2835
▁award	-2836
▁Par	-2837
▁Brit	-2838
▁prim	-2839
hold	-2840
▁deliver	-2841
▁trust	-2842
ension	-2843
iction	-2844
atives	-2845
▁Service	-2846
▁note	-2847
▁sold	-2848
aged	-2849
bert	-2850
▁qual	-2851
▁remember	-2852
▁policy	-2853
▁February	-2854
▁interested	-2855
erous	-2856
▁Play	-2857
▁solution	-2858
▁door	-2859
▁Trans	-2860
▁businesses	-2861
▁capt	-2862
▁gets	-2863
▁planning	-2864
▁subs	-2865
▁highly	-2866
▁lab	-2867
aught	-2868
▁object	-2869
iding	-2870
pose	-2871
▁starting	-2872
▁opp	-2873
▁cases	-2874
partment	-2875
▁Law	-2876
ysis	-2877
▁Christmas	-2878
akers	-2879
▁lower	-2880
▁upon	-2881
▁instead	-2882
▁vac	-2883
▁write	-2884
▁hear	-2885
▁organization	-2886
▁materials	-2887
vey	-2888
▁express	-2889
▁themselves	-2890
▁published	-2891
EL	-2892
irit	-2893
▁California	-2894
ening	-2895
▁president	-2896
▁source	-2897
ica	-2898
▁reach	-2899
▁Gener	-2900
▁plant	-2901
▁condition	-2902
ples	-2903
mission	-2904
ashion	-2905
orge	-2906
urt	-2907
▁sense	-2908
▁fine	-2909
▁streng	-2910
apan	-2911
ibrary	-2912
www	-2913
▁dry	-2914
izes	-2915
▁effective	-2916
▁firm	-2917
▁sale	-2918
bum	-2919
▁mid	-2920
▁photo	-2921
▁written	-2922
▁types	-2923
AP	-2924
▁dise	-2925
▁average	-2926
▁interview	-2927
rup	-2928
urb	-2929
rom	-2930
▁consult	-2931
▁AM	-2932
▁Go	-2933
▁countries	-2934
▁Met	-2935
▁positive	-2936
ule	-2937
▁remov	-2938
▁multiple	-2939
wide	-2940
▁Rem	-2941
▁Services	-2942
iles	-2943
ida	-2944
gu	-2945
ael	-2946
▁lif	-2947
arant	-2948
▁Great	-2949
▁join	-2950
mm	-2951
▁Je	-2952
enty	-2953
unk	-2954
▁slow	-2955
▁Spe	-2956
▁India	-2957
▁trip	-2958
▁describ	-2959
ube	-2960
aches	-2961
ength	-2962
▁began	-2963
ato	-2964
▁interesting	-2965
▁imm	-2966
▁Mod	-2967
▁images	-2968
▁answer	-2969
▁prem	-2970
▁player	-2971
▁cat	-2972
add	-2973
▁viol	-2974
▁opportunities	-2975
urer	-2976
▁message	-2977
▁Cle	-2978
▁employees	-2979
▁dream	-2980
ography	-2981
▁heat	-2982
▁healthy	-2983
ager	-2984
▁Sch	-2985
▁Why	-2986
▁Thanks	-2987
▁sites	-2988
ration	-2989
▁directly	-2990
▁camer	-2991
▁hour	-2992
▁item	-2993
rel	-2994
rought	-2995
▁document	-2996
▁fans	-2997
▁According	-2998
bit	-2999
orage	-3000
press	-3001
▁necessary	-3002
itute	-3003
▁picture	-3004
▁achieve	-3005
▁David	-3006
IL	-3007
▁copy	-3008
▁Hot	-3009
▁Av	-3010
▁Program	-3011
▁essential	-3012
▁completely	-3013
▁lic	-3014
▁Sub	-3015
▁gift	-3016
▁Once	-3017
▁tele	-3018
▁band	-3019
▁families	-3020
▁stories	-3021
sy	-3022
▁prices	-3023
▁groups	-3024
duc	-3025
▁Year	-3026
olf	-3027
▁Phot	-3028
▁commercial	-3029
▁King	-3030
arlier	-3031
▁Rec	-3032
▁Whe	-3033
▁Found	-3034
▁Since	-3035
▁reve	-3036
elling	-3037
▁offe	-3038
▁goals	-3039
ocol	-3040
▁excellent	-3041
▁div	-3042
▁cert	-3043
▁East	-3044
▁Cr	-3045
▁promot	-3046
▁dru	-3047
▁Even	-3048
▁pull	-3049
▁successful	-3050
▁eye	-3051
▁Market	-3052
▁fully	-3053
▁www	-3054
▁growing	-3055
ares	-3056
itely	-3057
▁Mag	-3058
▁hor	-3059
▁led	-3060
▁itself	-3061
itation	-3062
▁Many	-3063
▁Loc	-3064
▁creating	-3065
▁fix	-3066
▁stru	-3067
iant	-3068
▁except	-3069
▁adult	-3070
▁traditional	-3071
▁White	-3072
▁comments	-3073
▁gold	-3074
▁paint	-3075
▁separ	-3076
oul	-3077
erved	-3078
▁Good	-3079
▁fab	-3080
▁aim	-3081
coming	-3082
▁neigh	-3083
▁broad	-3084
▁Germ	-3085
▁Russ	-3086
mb	-3087
▁Green	-3088
ancy	-3089
iable	-3090
▁birth	-3091
onse	-3092
▁propos	-3093
omen	-3094
▁fair	-3095
▁cy	-3096
ooth	-3097
▁gar	-3098
▁device	-3099
BC	-3100
▁reports	-3101
uses	-3102
anch	-3103
▁Best	-3104
▁block	-3105
▁mount	-3106
▁teams	-3107
▁terms	-3108
▁kitchen	-3109
▁cross	-3110
oms	-3111
udd	-3112
▁Spr	-3113
▁stuff	-3114
tee	-3115
▁extreme	-3116
▁dark	-3117
ffee	-3118
▁vehicle	-3119
▁Last	-3120
▁Jack	-3121
▁attempt	-3122
▁Each	-3123
▁glass	-3124
urning	-3125
▁wasn	-3126
▁applications	-3127
ores	-3128
venue	-3129
▁hop	-3130
▁saying	-3131
▁floor	-3132
hest	-3133
▁wrong	-3134
ey	-3135
▁baby	-3136
imately	-3137
▁Tex	-3138
▁dead	-3139
ties	-3140
uth	-3141
▁Bra	-3142
▁China	-3143
▁thinking	-3144
▁Port	-3145
▁rev	-3146
▁depend	-3147
▁shoot	-3148
▁Web	-3149
▁Ty	-3150
inner	-3151
ipped	-3152
▁blood	-3153
ashington	-3154
ecutive	-3155
▁bi	-3156
ald	-3157
oming	-3158
▁Twitter	-3159
▁Develop	-3160
OL	-3161
istry	-3162
▁mention	-3163
▁See	-3164
TM	-3165
”.	-3166
▁gave	-3167
▁Japan	-3168
aughter	-3169
▁Hall	-3170
▁smart	-3171
▁System	-3172
▁wait	-3173
inary	-3174
▁implement	-3175
pite	-3176
▁obs	-3177
rote	-3178
▁profession	-3179
▁speed	-3180
▁aware	-3181
▁serve	-3182
▁spend	-3183
▁attract	-3184
▁director	-3185
▁organiz	-3186
▁Bel	-3187
▁offering	-3188
iced	-3189
▁section	-3190
▁sen	-3191
▁budget	-3192
▁Association	-3193
▁became	-3194
▁farm	-3195
aries	-3196
ological	-3197
▁impress	-3198
▁distrib	-3199
Ch	-3200
rows	-3201
▁Office	-3202
▁ge	-3203
▁Mor	-3204
▁pictures	-3205
▁nation	-3206
▁college	-3207
▁wish	-3208
AD	-3209
▁Pri	-3210
▁correct	-3211
▁Sol	-3212
field	-3213
overn	-3214
▁Make	-3215
▁suit	-3216
▁IN	-3217
▁effort	-3218
▁Mem	-3219
▁developed	-3220
▁places	-3221
▁moving	-3222
▁conduct	-3223
▁coun	-3224
▁tal	-3225
▁carry	-3226
▁dog	-3227
▁limited	-3228
▁individuals	-3229
▁advice	-3230
ils	-3231
▁dro	-3232
vest	-3233
▁son	-3234
pre	-3235
▁rent	-3236
▁avoid	-3237
▁spent	-3238
yond	-3239
ications	-3240
zy	-3241
▁complex	-3242
▁Paul	-3243
▁defe	-3244
lock	-3245
▁bath	-3246
▁title	-3247
▁sleep	-3248
▁situation	-3249
▁Down	-3250
▁Road	-3251
idered	-3252
▁requirements	-3253
▁album	-3254
▁progress	-3255
▁delivery	-3256
ceed	-3257
▁Today	-3258
▁jud	-3259
▁Washington	-3260
▁cas	-3261
▁Vis	-3262
▁Educ	-3263
▁Inter	-3264
▁vot	-3265
▁construction	-3266
rench	-3267
riend	-3268
▁enh	-3269
▁Public	-3270
ibly	-3271
▁About	-3272
house	-3273
haps	-3274
▁ble	-3275
word	-3276
▁Canada	-3277
▁advant	-3278
▁wants	-3279
▁Top	-3280
▁statement	-3281
▁feet	-3282
▁Use	-3283
▁schools	-3284
▁Gold	-3285
▁war	-3286
down	-3287
▁race	-3288
useum	-3289
▁heard	-3290
▁convers	-3291
▁eat	-3292
▁Find	-3293
US	-3294
▁sometimes	-3295
▁sweet	-3296
▁Director	-3297
▁AN	-3298
▁nut	-3299
▁stress	-3300
▁billion	-3301
reci	-3302
▁Lear	-3303
▁quarter	-3304
▁physical	-3305
▁felt	-3306
ancing	-3307
▁hous	-3308
PS	-3309
▁Indian	-3310
▁hotel	-3311
▁Mac	-3312
itary	-3313
▁towards	-3314
▁consist	-3315
▁stage	-3316
▁spot	-3317
▁annual	-3318
▁shop	-3319
▁shot	-3320
▁strateg	-3321
▁Flor	-3322
▁wonderful	-3323
ports	-3324
porate	-3325
▁Open	-3326
▁loved	-3327
▁region	-3328
▁ing	-3329
▁path	-3330
▁Dem	-3331
▁feeling	-3332
▁owners	-3333
▁finish	-3334
▁ver	-3335
▁Pal	-3336
▁THE	-3337
▁aff	-3338
unte	-3339
▁mat	-3340
ari	-3341
▁eyes	-3342
▁pattern	-3343
▁Council	-3344
▁finally	-3345
isions	-3346
▁lik	-3347
ctions	-3348
▁ten	-3349
▁brought	-3350
ION	-3351
▁Texas	-3352
▁language	-3353
▁wife	-3354
▁Care	-3355
▁pet	-3356
▁interact	-3357
▁partner	-3358
▁sports	-3359
▁straight	-3360
rast	-3361
▁inform	-3362
▁Dan	-3363
▁nature	-3364
ads	-3365
▁investment	-3366
▁Club	-3367
roid	-3368
▁respond	-3369
▁concept	-3370
▁nearly	-3371
owl	-3372
dule	-3373
▁helping	-3374
▁Hel	-3375
▁Class	-3376
▁exerc	-3377
▁overall	-3378
▁star	-3379
▁Bre	-3380
▁categ	-3381
▁weather	-3382
▁ult	-3383
▁Apple	-3384
▁max	-3385
▁tried	-3386
▁guide	-3387
▁blue	-3388
▁William	-3389
end	-3390
▁temper	-3391
estival	-3392
▁pow	-3393
▁collabor	-3394
▁largest	-3395
▁Court	-3396
".	-3397
ened	-3398
▁demand	-3399
▁charge	-3400
▁independ	-3401
▁client	-3402
hips	-3403
▁Board	-3404
As	-3405
▁rock	-3406
▁Time	-3407
itect	-3408
ourney	-3409
▁wear	-3410
change	-3411
▁Oh	-3412
ament	-3413
▁pred	-3414
He	-3415
▁advert	-3416
▁definitely	-3417
mitted	-3418
▁appoint	-3419
▁wrote	-3420
▁candid	-3421
▁activity	-3422
▁gas	-3423
▁seven	-3424
▁Windows	-3425
rences	-3426
▁Ann	-3427
▁Ir	-3428
▁cold	-3429
rig	-3430
aly	-3431
▁benefit	-3432
ago	-3433
▁Internet	-3434
▁offered	-3435
inger	-3436
roud	-3437
asc	-3438
▁Australia	-3439
yd	-3440
▁acqu	-3441
▁influ	-3442
▁response	-3443
▁turned	-3444
▁Ant	-3445
wise	-3446
▁double	-3447
▁miles	-3448
▁Review	-3449
▁pieces	-3450
▁uses	-3451
▁Tom	-3452
last	-3453
ounds	-3454
▁earlier	-3455
▁devices	-3456
▁Fam	-3457
▁internet	-3458
uted	-3459
▁beginning	-3460
▁thous	-3461
ned	-3462
▁considered	-3463
▁ahead	-3464
lies	-3465
▁altern	-3466
▁appreci	-3467
ails	-3468
▁grand	-3469
▁reduce	-3470
▁exactly	-3471
▁Adv	-3472
▁histor	-3473
▁View	-3474
▁prec	-3475
▁Research	-3476
▁James	-3477
bon	-3478
▁wedding	-3479
▁active	-3480
▁homes	-3481
▁imag	-3482
▁entertain	-3483
arc	-3484
▁Michael	-3485
▁paid	-3486
ategy	-3487
▁doll	-3488
ustain	-3489
▁transport	-3490
▁difference	-3491
▁belie	-3492
▁Thank	-3493
icks	-3494
olute	-3495
▁political	-3496
▁IT	-3497
▁regul	-3498
▁challenge	-3499
▁served	-3500
▁supply	-3501
▁cho	-3502
more	-3503
▁surround	-3504
ampions	-3505
▁Micro	-3506
▁finished	-3507
▁Rich	-3508
▁Have	-3509
icate	-3510
OV	-3511
▁Big	-3512
umn	-3513
ading	-3514
You	-3515
agn	-3516
▁Rel	-3517
▁cash	-3518
▁Look	-3519
▁creative	-3520
cause	-3521
▁eight	-3522
estern	-3523
ston	-3524
▁understanding	-3525
▁retail	-3526
▁replace	-3527
▁Govern	-3528
icip	-3529
▁states	-3530
LE	-3531
ying	-3532
:||	-3533
▁Cur	-3534
▁Mark	-3535
▁rates	-3536
orrow	-3537
mod	-3538
▁culture	-3539
▁Char	-3540
antly	-3541
ky	-3542
vin	-3543
oly	-3544
▁European	-3545
▁Super	-3546
▁lots	-3547
▁guarant	-3548
▁easier	-3549
▁experienced	-3550
▁ST	-3551
▁afford	-3552
▁Call	-3553
box	-3554
▁pages	-3555
▁Life	-3556
▁hus	-3557
dd	-3558
▁bottom	-3559
place	-3560
▁expand	-3561
iny	-3562
▁truly	-3563
sec	-3564
▁father	-3565
▁pressure	-3566
▁maybe	-3567
▁flav	-3568
hens	-3569
▁economic	-3570
ales	-3571
▁thank	-3572
▁reflect	-3573
inated	-3574
▁machine	-3575
ses	-3576
▁Company	-3577
error	-3578
rial	-3579
▁analysis	-3580
amic	-3581
icious	-3582
▁fat	-3583
▁IS	-3584
▁immediately	-3585
▁emot	-3586
▁named	-3587
alt	-3588
aled	-3589
▁gradu	-3590
▁numbers	-3591
sych	-3592
het	-3593
▁tom	-3594
▁Child	-3595
▁Det	-3596
▁Angel	-3597
▁demon	-3598
▁girls	-3599
▁exhib	-3600
rey	-3601
▁prot	-3602
▁comfortable	-3603
IP	-3604
erry	-3605
pa	-3606
▁assess	-3607
▁posted	-3608
▁satis	-3609
nown	-3610
▁degree	-3611
▁tips	-3612
chan	-3613
▁helped	-3614
▁damage	-3615
ivil	-3616
▁Ev	-3617
▁opening	-3618
▁Management	-3619
▁garden	-3620
▁dating	-3621
▁Bank	-3622
▁videos	-3623
▁contain	-3624
▁obt	-3625
▁wild	-3626
▁PC	-3627
ronic	-3628
care	-3629
▁storage	-3630
▁Bay	-3631
▁Ret	-3632
▁speak	-3633
▁behav	-3634
phone	-3635
▁subst	-3636
▁remain	-3637
force	-3638
anging	-3639
▁Plan	-3640
▁trade	-3641
▁launch	-3642
undred	-3643
rem	-3644
▁reviews	-3645
▁completed	-3646
▁Ins	-3647
▁II	-3648
ico	-3649
▁pool	-3650
▁Sun	-3651
▁Island	-3652
▁beyond	-3653
amm	-3654
▁lack	-3655
▁disease	-3656
asy	-3657
▁lock	-3658
▁Sing	-3659
▁Rock	-3660
set	-3661
▁threat	-3662
▁purpose	-3663
If	-3664
tion	-3665
▁Water	-3666
order	-3667
orial	-3668
▁cards	-3669
▁Contact	-3670
ado	-3671
▁adjust	-3672
▁Mart	-3673
dom	-3674
que	-3675
▁ter	-3676
▁spread	-3677
▁accur	-3678
▁existing	-3679
▁fashion	-3680
arily	-3681
▁knew	-3682
▁decor	-3683
▁Love	-3684
▁fant	-3685
▁Jes	-3686
▁highest	-3687
▁cancer	-3688
Re	-3689
lied	-3690
▁Florida	-3691
▁plus	-3692
OW	-3693
▁craft	-3694
▁jobs	-3695
soft	-3696
▁Although	-3697
met	-3698
▁conference	-3699
▁Rob	-3700
body	-3701
▁Win	-3702
▁responsible	-3703
▁increasing	-3704
▁Sur	-3705
▁During	-3706
▁allowed	-3707
aling	-3708
▁train	-3709
▁setting	-3710
▁excited	-3711
atever	-3712
▁prefer	-3713
rapy	-3714
▁driving	-3715
▁camera	-3716
▁proud	-3717
door	-3718
▁increased	-3719
▁Sa	-3720
▁sty	-3721
imal	-3722
▁welcome	-3723
▁lines	-3724
▁himself	-3725
▁middle	-3726
▁initial	-3727
▁appropri	-3728
▁Dec	-3729
▁proced	-3730
ona	-3731
aith	-3732
ences	-3733
▁fem	-3734
illa	-3735
▁Sum	-3736
▁Church	-3737
▁certainly	-3738
▁General	-3739
▁passion	-3740
▁frame	-3741
▁furn	-3742
▁coffee	-3743
cel	-3744
▁strugg	-3745
▁journey	-3746
▁Product	-3747
▁holiday	-3748
iling	-3749
▁files	-3750
▁	-3751
e	-3752
t	-3753
a	-3754
o	-3755
i	-3756
n	-3757
s	-3758
r	-3759
h	-3760
l	-3761
d	-3762
c	-3763
u	-3764
m	-3765
p	-3766
g	-3767
f	-3768
y	-3769
w	-3770
b	-3771
.	-3772
v	-3773
,	-3774
k	-3775
T	-3776
S	-3777
I	-3778
A	-3779
-	-3780
C	-3781
0	-3782
M	-3783
1	-3784
P	-3785
x	-3786
B	-3787
2	-3788
W	-3789
D	-3790
R	-3791
E	-3792
H	-3793
F	-3794
’	-3795
L	-3796
N	-3797
O	-3798
:	-3799
'	-3800
G	-3801
j	-3802
)	-3803
(	-3804
z	-3805
3	-3806
5	-3807
q	-3808
4	-3809
U	-3810
"	-3811
9	-3812
J	-3813
8	-3814
6	-3815
V	-3816
Y	-3817
K	-3818
|	-3819
7	-3820
!	-3821
/	-3822
“	-3823
”	-3824
?	-3825
–	-3826
;	-3827
&	-3828
$	-3829
Q	-3830
%	-3831
—	-3832
X	-3833
Z	-3834
*	-3835
