<pad>	0
<s>	0
</s>	0
<unk>	0
	0
	0
	0
	0
<0x00>	0
<0x01>	0
<0x02>	0
<0x03>	0
<0x04>	0
<0x05>	0
<0x06>	0
<0x07>	0
<0x08>	0
<0x09>	0
<0x0A>	0
<0x0B>	0
<0x0C>	0
<0x0D>	0
<0x0E>	0
<0x0F>	0
<0x10>	0
<0x11>	0
<0x12>	0
<0x13>	0
<0x14>	0
<0x15>	0
<0x16>	0
<0x17>	0
<0x18>	0
<0x19>	0
<0x1A>	0
<0x1B>	0
<0x1C>	0
<0x1D>	0
<0x1E>	0
<0x1F>	0
<0x20>	0
<0x21>	0
<0x22>	0
<0x23>	0
<0x24>	0
<0x25>	0
<0x26>	0
<0x27>	0
<0x28>	0
<0x29>	0
<0x2A>	0
<0x2B>	0
<0x2C>	0
<0x2D>	0
<0x2E>	0
<0x2F>	0
<0x30>	0
<0x31>	0
<0x32>	0
<0x33>	0
<0x34>	0
<0x35>	0
<0x36>	0
<0x37>	0
<0x38>	0
<0x39>	0
<0x3A>	0
<0x3B>	0
<0x3C>	0
<0x3D>	0
<0x3E>	0
<0x3F>	0
<0x40>	0
<0x41>	0
<0x42>	0
<0x43>	0
<0x44>	0
<0x45>	0
<0x46>	0
<0x47>	0
<0x48>	0
<0x49>	0
<0x4A>	0
<0x4B>	0
<0x4C>	0
<0x4D>	0
<0x4E>	0
<0x4F>	0
<0x50>	0
<0x51>	0
<0x52>	0
<0x53>	0
<0x54>	0
<0x55>	0
<0x56>	0
<0x57>	0
<0x58>	0
<0x59>	0
<0x5A>	0
<0x5B>	0
<0x5C>	0
<0x5D>	0
<0x5E>	0
<0x5F>	0
<0x60>	0
<0x61>	0
<0x62>	0
<0x63>	0
<0x64>	0
<0x65>	0
<0x66>	0
<0x67>	0
<0x68>	0
<0x69>	0
<0x6A>	0
<0x6B>	0
<0x6C>	0
<0x6D>	0
<0x6E>	0
<0x6F>	0
<0x70>	0
<0x71>	0
<0x72>	0
<0x73>	0
<0x74>	0
<0x75>	0
<0x76>	0
<0x77>	0
<0x78>	0
<0x79>	0
<0x7A>	0
<0x7B>	0
<0x7C>	0
<0x7D>	0
<0x7E>	0
<0x7F>	0
<0x80>	0
<0x81>	0
<0x82>	0
<0x83>	0
<0x84>	0
<0x85>	0
<0x86>	0
<0x87>	0
<0x88>	0
<0x89>	0
<0x8A>	0
<0x8B>	0
<0x8C>	0
<0x8D>	0
<0x8E>	0
<0x8F>	0
<0x90>	0
<0x91>	0
<0x92>	0
<0x93>	0
<0x94>	0
<0x95>	0
<0x96>	0
<0x97>	0
<0x98>	0
<0x99>	0
<0x9A>	0
<0x9B>	0
<0x9C>	0
<0x9D>	0
<0x9E>	0
<0x9F>	0
<0xA0>	0
<0xA1>	0
<0xA2>	0
<0xA3>	0
<0xA4>	0
<0xA5>	0
<0xA6>	0
<0xA7>	0
<0xA8>	0
<0xA9>	0
<0xAA>	0
<0xAB>	0
<0xAC>	0
<0xAD>	0
<0xAE>	0
<0xAF>	0
<0xB0>	0
<0xB1>	0
<0xB2>	0
<0xB3>	0
<0xB4>	0
<0xB5>	0
<0xB6>	0
<0xB7>	0
<0xB8>	0
<0xB9>	0
<0xBA>	0
<0xBB>	0
<0xBC>	0
<0xBD>	0
<0xBE>	0
<0xBF>	0
<0xC0>	0
<0xC1>	0
<0xC2>	0
<0xC3>	0
<0xC4>	0
<0xC5>	0
<0xC6>	0
<0xC7>	0
<0xC8>	0
<0xC9>	0
<0xCA>	0
<0xCB>	0
<0xCC>	0
<0xCD>	0
<0xCE>	0
<0xCF>	0
<0xD0>	0
<0xD1>	0
<0xD2>	0
<0xD3>	0
<0xD4>	0
<0xD5>	0
<0xD6>	0
<0xD7>	0
<0xD8>	0
<0xD9>	0
<0xDA>	0
<0xDB>	0
<0xDC>	0
<0xDD>	0
<0xDE>	0
<0xDF>	0
<0xE0>	0
<0xE1>	0
<0xE2>	0
<0xE3>	0
<0xE4>	0
<0xE5>	0
<0xE6>	0
<0xE7>	0
<0xE8>	0
<0xE9>	0
<0xEA>	0
<0xEB>	0
<0xEC>	0
<0xED>	0
<0xEE>	0
<0xEF>	0
<0xF0>	0
<0xF1>	0
<0xF2>	0
<0xF3>	0
<0xF4>	0
<0xF5>	0
<0xF6>	0
<0xF7>	0
<0xF8>	0
<0xF9>	0
<0xFA>	0
<0xFB>	0
<0xFC>	0
<0xFD>	0
<0xFE>	0
<0xFF>	0
▁t	-0
▁a	-1
in	-2
he	-3
re	-4
on	-5
er	-6
▁the	-7
▁s	-8
▁w	-9
or	-10
at	-11
ou	-12
nd	-13
it	-14
▁c	-15
es	-16
▁f	-17
is	-18
en	-19
ing	-20
▁b	-21
▁p	-22
▁o	-23
an	-24
al	-25
ed	-26
▁to	-27
ar	-28
▁m	-29
▁and	-30
▁in	-31
▁of	-32
le	-33
▁d	-34
as	-35
ic	-36
▁h	-37
om	-38
ion	-39
▁th	-40
il	-41
st	-42
▁l	-43
ro	-44
ent	-45
ve	-46
▁y	-47
▁e	-48
▁re	-49
▁n	-50
▁g	-51
ac	-52
et	-53
▁you	-54
ly	-55
the	-56
id	-57
ay	-58
▁for	-59
▁is	-60
▁on	-61
▁be	-62
am	-63
ow	-64
se	-65
ot	-66
ad	-67
ol	-68
ig	-69
ct	-70
im	-71
ch	-72
▁u	-73
ver	-74
ith	-75
ut	-76
▁st	-77
el	-78
ation	-79
▁with	-80
ir	-81
▁that	-82
th	-83
ur	-84
ce	-85
▁he	-86
▁it	-87
ill	-88
ter	-89
if	-90
▁al	-91
▁an	-92
ul	-93
ke	-94
our	-95
ag	-96
ers	-97
▁pro	-98
▁wh	-99
▁as	-100
▁are	-101
▁we	-102
▁ha	-103
oo	-104
out	-105
un	-106
pp	-107
us	-108
ab	-109
ate	-110
ess	-111
▁at	-112
▁con	-113
▁com	-114
▁or	-115
ra	-116
em	-117
ore	-118
ri	-119
est	-120
igh	-121
rom	-122
▁-	-123
▁ne	-124
op	-125
▁se	-126
▁your	-127
qu	-128
ld	-129
and	-130
ist	-131
▁(	-132
res	-133
ment	-134
▁ex	-135
ant	-136
pe	-137
ity	-138
art	-139
▁v	-140
ive	-141
▁r	-142
all	-143
▁have	-144
ort	-145
ust	-146
▁was	-147
um	-148
▁this	-149
▁from	-150
▁de	-151
oc	-152
▁sh	-153
ies	-154
os	-155
▁su	-156
ain	-157
▁will	-158
▁can	-159
▁ch	-160
ight	-161
▁by	-162
nt	-163
ome	-164
ard	-165
▁not	-166
te	-167
ud	-168
▁le	-169
red	-170
we	-171
▁wor	-172
ost	-173
ie	-174
ge	-175
▁pl	-176
▁ab	-177
ther	-178
iv	-179
king	-180
ide	-181
ast	-182
for	-183
per	-184
gh	-185
..	-186
rou	-187
fe	-188
ial	-189
▁all	-190
pl	-191
ack	-192
ine	-193
▁j	-194
ould	-195
od	-196
ice	-197
ell	-198
▁has	-199
ind	-200
act	-201
ne	-202
ure	-203
cl	-204
one	-205
ear	-206
▁do	-207
so	-208
▁k	-209
are	-210
▁us	-211
▁ad	-212
ake	-213
age	-214
ks	-215
▁me	-216
ip	-217
▁out	-218
▁but	-219
ry	-220
ap	-221
ally	-222
▁up	-223
▁whe	-224
ions	-225
com	-226
to	-227
able	-228
▁our	-229
ail	-230
▁en	-231
▁more	-232
▁comp	-233
very	-234
ite	-235
og	-236
▁my	-237
▁“	-238
ime	-239
▁so	-240
ich	-241
her	-242
▁cl	-243
▁their	-244
ood	-245
ong	-246
ated	-247
ber	-248
▁sa	-249
pt	-250
ame	-251
iz	-252
▁they	-253
▁one	-254
▁ac	-255
du	-256
ike	-257
▁te	-258
ous	-259
▁about	-260
ak	-261
ans	-262
ase	-263
ace	-264
ass	-265
▁cont	-266
ia	-267
ru	-268
con	-269
▁im	-270
ire	-271
ign	-272
▁fe	-273
▁who	-274
ance	-275
ree	-276
▁off	-277
ach	-278
▁man	-279
bl	-280
reat	-281
now	-282
▁go	-283
▁new	-284
au	-285
▁"	-286
ays	-287
▁his	-288
av	-289
ick	-290
ib	-291
▁year	-292
▁app	-293
ff	-294
▁res	-295
form	-296
▁qu	-297
erv	-298
ove	-299
ary	-300
port	-301
ction	-302
ult	-303
this	-304
ations	-305
▁per	-306
ook	-307
ile	-308
▁also	-309
▁get	-310
day	-311
▁time	-312
▁which	-313
ents	-314
ep	-315
▁like	-316
ount	-317
vel	-318
▁some	-319
ue	-320
▁any	-321
ven	-322
▁other	-323
▁tr	-324
▁sp	-325
cess	-326
ph	-327
▁been	-328
che	-329
▁part	-330
ings	-331
ical	-332
▁over	-333
sh	-334
ark	-335
pro	-336
▁un	-337
▁dis	-338
ress	-339
ence	-340
be	-341
wh	-342
▁them	-343
low	-344
ition	-345
ors	-346
int	-347
▁pe	-348
ild	-349
▁her	-350
▁ar	-351
▁ag	-352
▁when	-353
ord	-354
▁ro	-355
ov	-356
ound	-357
ough	-358
ple	-359
▁just	-360
su	-361
▁said	-362
ish	-363
own	-364
irst	-365
ang	-366
ren	-367
▁need	-368
ck	-369
ose	-370
ob	-371
▁spe	-372
ll	-373
▁pre	-374
▁what	-375
▁there	-376
▁pr	-377
gr	-378
▁if	-379
old	-380
ens	-381
wn	-382
you	-383
▁work	-384
de	-385
▁than	-386
lp	-387
vers	-388
▁would	-389
▁know	-390
ning	-391
oy	-392
ater	-393
fter	-394
▁had	-395
▁am	-396
ade	-397
▁des	-398
▁were	-399
▁sc	-400
rough	-401
▁rec	-402
clud	-403
itt	-404
▁how	-405
▁comm	-406
ory	-407
▁into	-408
ople	-409
...	-410
man	-411
▁–	-412
▁help	-413
nder	-414
ful	-415
▁first	-416
▁em	-417
▁its	-418
je	-419
ool	-420
▁add	-421
ft	-422
▁make	-423
▁tw	-424
but	-425
▁prov	-426
▁bl	-427
ink	-428
anc	-429
▁people	-430
end	-431
▁includ	-432
▁col	-433
▁she	-434
ict	-435
rent	-436
get	-437
iew	-438
▁produ	-439
ian	-440
▁serv	-441
ex	-442
round	-443
ious	-444
ates	-445
tern	-446
▁every	-447
▁only	-448
▁bec	-449
aw	-450
▁bu	-451
▁may	-452
▁no	-453
▁back	-454
▁through	-455
ating	-456
up	-457
ual	-458
ices	-459
sp	-460
new	-461
▁ph	-462
▁want	-463
▁most	-464
arch	-465
▁see	-466
ments	-467
▁well	-468
bs	-469
pport	-470
ities	-471
wor	-472
▁use	-473
▁two	-474
iss	-475
co	-476
▁bet	-477
les	-478
cts	-479
▁after	-480
ise	-481
ause	-482
ife	-483
hing	-484
ons	-485
fore	-486
iness	-487
▁play	-488
ty	-489
ily	-490
row	-491
▁|	-492
▁act	-493
▁&	-494
▁co	-495
air	-496
lect	-497
ting	-498
▁fl	-499
enc	-500
whe	-501
br	-502
▁exper	-503
xt	-504
▁stud	-505
cial	-506
urn	-507
cent	-508
sel	-509
▁these	-510
ond	-511
tr	-512
ts	-513
▁years	-514
als	-515
vent	-516
▁cons	-517
▁under	-518
▁$	-519
aking	-520
alth	-521
▁bus	-522
▁ke	-523
▁very	-524
fr	-525
ubl	-526
▁loc	-527
▁good	-528
▁sm	-529
oth	-530
▁now	-531
cre	-532
▁many	-533
ational	-534
ased	-535
▁wee	-536
▁reg	-537
ific	-538
▁gu	-539
its	-540
▁tra	-541
▁way	-542
ures	-543
formation	-544
▁dif	-545
erson	-546
ange	-547
any	-548
▁great	-549
fect	-550
ms	-551
ience	-552
oint	-553
▁start	-554
ert	-555
▁fin	-556
▁day	-557
other	-558
▁rel	-559
▁sy	-560
▁could	-561
▁rem	-562
uring	-563
read	-564
ath	-565
▁ind	-566
▁don	-567
ility	-568
ible	-569
ident	-570
▁even	-571
▁mu	-572
▁here	-573
▁own	-574
ics	-575
pr	-576
).	-577
▁where	-578
hed	-579
▁inv	-580
▁acc	-581
▁home	-582
velop	-583
oss	-584
line	-585
▁show	-586
amp	-587
comm	-588
▁find	-589
▁should	-590
▁ent	-591
ble	-592
▁high	-593
▁then	-594
chool	-595
ular	-596
▁down	-597
▁br	-598
▁right	-599
ix	-600
▁read	-601
▁best	-602
ited	-603
▁car	-604
▁av	-605
olog	-606
||	-607
me	-608
▁fam	-609
▁ass	-610
▁set	-611
▁too	-612
fl	-613
gan	-614
ied	-615
▁min	-616
arn	-617
▁mon	-618
view	-619
▁take	-620
ock	-621
ward	-622
▁design	-623
▁che	-624
io	-625
pect	-626
ull	-627
sc	-628
gram	-629
stem	-630
▁business	-631
▁much	-632
▁information	-633
way	-634
eng	-635
az	-636
ax	-637
▁last	-638
ins	-639
▁inst	-640
ys	-641
▁long	-642
ener	-643
mon	-644
rest	-645
omet	-646
ative	-647
ason	-648
▁made	-649
▁because	-650
app	-651
▁did	-652
.”	-653
min	-654
rit	-655
ject	-656
med	-657
ps	-658
land	-659
▁call	-660
atch	-661
let	-662
▁before	-663
ollow	-664
not	-665
▁team	-666
ave	-667
ash	-668
how	-669
oun	-670
▁sur	-671
there	-672
uc	-673
▁cre	-674
ner	-675
▁world	-676
▁him	-677
amer	-678
▁mem	-679
▁again	-680
ient	-681
▁requ	-682
▁hand	-683
▁person	-684
▁art	-685
▁op	-686
▁diffe	-687
my	-688
▁develop	-689
mer	-690
▁gr	-691
riend	-692
▁does	-693
▁life	-694
▁vis	-695
),	-696
arket	-697
ouse	-698
▁being	-699
▁inte	-700
aut	-701
▁end	-702
▁dec	-703
ros	-704
ustom	-705
bo	-706
ale	-707
▁such	-708
ality	-709
ower	-710
unity	-711
▁pres	-712
▁look	-713
ving	-714
▁those	-715
ince	-716
chn	-717
▁med	-718
no	-719
▁sk	-720
ger	-721
▁while	-722
▁free	-723
▁love	-724
▁provid	-725
der	-726
ailable	-727
irect	-728
▁support	-729
ages	-730
ters	-731
akes	-732
ton	-733
ank	-734
▁around	-735
▁sim	-736
▁used	-737
▁each	-738
ced	-739
▁pol	-740
ier	-741
ces	-742
▁post	-743
ement	-744
they	-745
ives	-746
▁att	-747
what	-748
▁cur	-749
ah	-750
▁bo	-751
col	-752
▁lead	-753
▁mod	-754
ather	-755
ital	-756
ional	-757
by	-758
ually	-759
▁char	-760
ize	-761
self	-762
▁ser	-763
▁care	-764
she	-765
rand	-766
ivers	-767
▁eas	-768
▁ed	-769
▁child	-770
und	-771
ublic	-772
▁loo	-773
▁det	-774
▁follow	-775
▁really	-776
▁ret	-777
▁program	-778
▁system	-779
imes	-780
▁run	-781
▁num	-782
▁cour	-783
ets	-784
do	-785
cur	-786
ub	-787
▁trans	-788
ines	-789
▁found	-790
▁list	-791
▁inter	-792
▁feel	-793
▁think	-794
▁available	-795
led	-796
ittle	-797
▁going	-798
ness	-799
▁count	-800
iet	-801
ways	-802
▁somet	-803
fin	-804
▁del	-805
ann	-806
iel	-807
▁fun	-808
▁month	-809
ene	-810
hip	-811
▁ra	-812
▁str	-813
▁top	-814
▁custom	-815
▁still	-816
▁ins	-817
ames	-818
▁prof	-819
cond	-820
,”	-821
ten	-822
▁place	-823
mar	-824
▁cle	-825
with	-826
▁though	-827
▁few	-828
gg	-829
▁sign	-830
▁fr	-831
jo	-832
▁both	-833
▁three	-834
arm	-835
▁sub	-836
cept	-837
que	-838
▁i	-839
▁gl	-840
▁different	-841
▁happ	-842
bers	-843
orn	-844
▁health	-845
lease	-846
ved	-847
lic	-848
▁week	-849
olut	-850
ired	-851
▁open	-852
▁adv	-853
▁pur	-854
▁keep	-855
ross	-856
▁exp	-857
▁lot	-858
▁friend	-859
when	-860
part	-861
ants	-862
▁market	-863
▁say	-864
ata	-865
ween	-866
▁family	-867
▁school	-868
of	-869
▁little	-870
pres	-871
alk	-872
▁game	-873
ars	-874
▁same	-875
▁company	-876
less	-877
."	-878
▁using	-879
ering	-880
atur	-881
▁process	-882
iving	-883
▁report	-884
▁techn	-885
▁feat	-886
▁lar	-887
lo	-888
americ	-889
▁fil	-890
▁import	-891
thing	-892
▁ev	-893
▁point	-894
go	-895
▁including	-896
▁comple	-897
▁experience	-898
ology	-899
▁things	-900
▁met	-901
ves	-902
▁during	-903
▁water	-904
▁next	-905
▁between	-906
stand	-907
search	-908
▁aut	-909
ues	-910
▁real	-911
ished	-912
ized	-913
ever	-914
ody	-915
ining	-916
▁disc	-917
▁state	-918
▁service	-919
tra	-920
att	-921
▁come	-922
▁mus	-923
ware	-924
roup	-925
▁win	-926
▁allow	-927
pre	-928
▁small	-929
▁tri	-930
▁dri	-931
gy	-932
▁contin	-933
▁ear	-934
cer	-935
ists	-936
▁form	-937
▁full	-938
▁sure	-939
▁always	-940
▁rest	-941
ric	-942
nor	-943
work	-944
▁cr	-945
ield	-946
▁big	-947
▁var	-948
▁organ	-949
▁rece	-950
▁put	-951
▁opt	-952
joy	-953
▁online	-954
▁build	-955
oot	-956
▁try	-957
▁cent	-958
par	-959
els	-960
▁appro	-961
car	-962
▁interest	-963
▁plan	-964
▁phot	-965
ik	-966
▁better	-967
▁days	-968
▁bel	-969
▁pri	-970
▁pat	-971
uss	-972
▁since	-973
that	-974
sw	-975
ards	-976
▁got	-977
▁poss	-978
▁class	-979
ffect	-980
cri	-981
▁something	-982
▁cap	-983
ours	-984
▁main	-985
▁quest	-986
▁partic	-987
istr	-988
pa	-989
▁special	-990
▁ide	-991
reen	-992
▁pass	-993
fer	-994
▁ve	-995
▁today	-996
▁result	-997
▁sl	-998
gu	-999
▁pay	-1000
off	-1001
▁mov	-1002
chr	-1003
▁ty	-1004
▁hard	-1005
ipp	-1006
▁gener	-1007
▁direct	-1008
▁perform	-1009
▁stand	-1010
▁bro	-1011
illion	-1012
▁head	-1013
iversity	-1014
▁provide	-1015
can	-1016
ott	-1017
▁resp	-1018
▁let	-1019
▁second	-1020
ok	-1021
oney	-1022
ploy	-1023
ont	-1024
ients	-1025
▁give	-1026
▁val	-1027
▁wom	-1028
▁another	-1029
▁manag	-1030
▁cor	-1031
▁current	-1032
vis	-1033
▁meet	-1034
,"	-1035
▁without	-1036
here	-1037
ope	-1038
▁able	-1039
▁book	-1040
▁services	-1041
sy	-1042
rence	-1043
▁wr	-1044
▁ann	-1045
may	-1046
ley	-1047
▁vide	-1048
▁number	-1049
▁int	-1050
raph	-1051
▁area	-1052
▁bre	-1053
▁soc	-1054
▁old	-1055
ww	-1056
vir	-1057
ium	-1058
▁cost	-1059
▁must	-1060
ically	-1061
ems	-1062
ately	-1063
▁—	-1064
ior	-1065
por	-1066
▁access	-1067
▁ter	-1068
▁invest	-1069
▁important	-1070
son	-1071
▁unt	-1072
dr	-1073
bu	-1074
▁working	-1075
ense	-1076
▁students	-1077
▁webs	-1078
▁public	-1079
most	-1080
gin	-1081
ling	-1082
▁never	-1083
▁sal	-1084
▁light	-1085
ertain	-1086
ral	-1087
▁fact	-1088
aj	-1089
▁suc	-1090
just	-1091
▁order	-1092
▁proble	-1093
▁grow	-1094
cont	-1095
hes	-1096
▁visit	-1097
▁incre	-1098
▁proper	-1099
▁might	-1100
vern	-1101
▁local	-1102
▁imp	-1103
more	-1104
▁site	-1105
ruct	-1106
outh	-1107
ample	-1108
add	-1109
▁sing	-1110
▁enjoy	-1111
ember	-1112
▁four	-1113
room	-1114
▁event	-1115
gether	-1116
▁level	-1117
▁exc	-1118
count	-1119
fort	-1120
▁fac	-1121
book	-1122
▁looking	-1123
comp	-1124
ds	-1125
ute	-1126
▁food	-1127
ission	-1128
play	-1129
ording	-1130
pend	-1131
▁test	-1132
rol	-1133
tend	-1134
▁night	-1135
▁season	-1136
hor	-1137
▁expl	-1138
▁data	-1139
▁until	-1140
▁spec	-1141
val	-1142
ential	-1143
▁room	-1144
ories	-1145
▁offer	-1146
▁dr	-1147
▁children	-1148
▁making	-1149
▁el	-1150
ency	-1151
▁less	-1152
▁within	-1153
▁eng	-1154
▁email	-1155
▁products	-1156
come	-1157
cle	-1158
ently	-1159
▁view	-1160
▁'	-1161
lection	-1162
▁profess	-1163
▁pop	-1164
serv	-1165
▁product	-1166
▁sit	-1167
des	-1168
ids	-1169
use	-1170
ieve	-1171
▁job	-1172
ats	-1173
▁oper	-1174
▁prom	-1175
▁power	-1176
▁pos	-1177
ases	-1178
year	-1179
ains	-1180
ched	-1181
ature	-1182
▁addition	-1183
▁contact	-1184
▁supp	-1185
▁intern	-1186
▁est	-1187
ste	-1188
tt	-1189
your	-1190
▁community	-1191
▁law	-1192
ney	-1193
tw	-1194
ared	-1195
ribut	-1196
af	-1197
ique	-1198
ills	-1199
▁quality	-1200
aff	-1201
▁turn	-1202
▁against	-1203
▁prote	-1204
▁impro	-1205
▁past	-1206
ches	-1207
icle	-1208
inc	-1209
ivid	-1210
university	-1211
pos	-1212
reg	-1213
▁together	-1214
▁ob	-1215
pm	-1216
utes	-1217
▁away	-1218
gl	-1219
▁mar	-1220
▁project	-1221
ator	-1222
ified	-1223
after	-1224
ined	-1225
▁conf	-1226
rap	-1227
ode	-1228
▁website	-1229
sm	-1230
iday	-1231
▁indust	-1232
▁ask	-1233
▁easy	-1234
ability	-1235
▁complete	-1236
ider	-1237
▁needs	-1238
irl	-1239
▁eff	-1240
ina	-1241
please	-1242
face	-1243
▁creat	-1244
▁learn	-1245
back	-1246
▁pract	-1247
these	-1248
▁success	-1249
▁tru	-1250
ips	-1251
time	-1252
▁bas	-1253
ju	-1254
▁beaut	-1255
▁please	-1256
▁detail	-1257
free	-1258
▁equ	-1259
▁pain	-1260
▁leg	-1261
ready	-1262
augh	-1263
▁members	-1264
▁change	-1265
cal	-1266
atter	-1267
!!	-1268
▁course	-1269
▁chang	-1270
ng	-1271
leg	-1272
▁include	-1273
▁large	-1274
christ	-1275
arent	-1276
iety	-1277
▁money	-1278
yle	-1279
▁along	-1280
ries	-1281
▁says	-1282
▁group	-1283
ift	-1284
oci	-1285
▁check	-1286
ream	-1287
ised	-1288
▁fav	-1289
▁dist	-1290
bro	-1291
aster	-1292
opp	-1293
▁applic	-1294
▁name	-1295
▁house	-1296
▁near	-1297
over	-1298
▁offic	-1299
aterial	-1300
ird	-1301
bar	-1302
alf	-1303
load	-1304
eu	-1305
▁expect	-1306
▁music	-1307
cut	-1308
ism	-1309
ring	-1310
▁video	-1311
▁activ	-1312
uk	-1313
une	-1314
▁times	-1315
▁present	-1316
ane	-1317
iting	-1318
cour	-1319
▁buy	-1320
igin	-1321
▁why	-1322
ump	-1323
side	-1324
▁employ	-1325
iver	-1326
net	-1327
ising	-1328
▁perfect	-1329
ably	-1330
ocus	-1331
▁opport	-1332
ered	-1333
▁thing	-1334
ote	-1335
spe	-1336
hn	-1337
ery	-1338
▁below	-1339
▁.	-1340
veral	-1341
urs	-1342
cor	-1343
ny	-1344
oor	-1345
state	-1346
▁air	-1347
▁ref	-1348
▁pa	-1349
ify	-1350
ball	-1351
ury	-1352
enef	-1353
itions	-1354
▁case	-1355
▁research	-1356
▁account	-1357
ots	-1358
vernment	-1359
▁live	-1360
ored	-1361
ived	-1362
▁line	-1363
▁beh	-1364
▁hum	-1365
aring	-1366
▁create	-1367
la	-1368
▁following	-1369
▁writ	-1370
▁short	-1371
▁hist	-1372
▁hot	-1373
▁makes	-1374
▁sw	-1375
▁kind	-1376
▁review	-1377
▁soft	-1378
▁ce	-1379
▁left	-1380
▁page	-1381
▁treat	-1382
itive	-1383
ision	-1384
▁/	-1385
viron	-1386
dis	-1387
▁having	-1388
▁side	-1389
▁dem	-1390
▁conne	-1391
uck	-1392
fact	-1393
▁getting	-1394
vious	-1395
▁story	-1396
▁works	-1397
▁share	-1398
ization	-1399
while	-1400
▁across	-1401
▁minutes	-1402
▁enough	-1403
▁move	-1404
▁ever	-1405
don	-1406
iam	-1407
osp	-1408
▁personal	-1409
ffe	-1410
ma	-1411
▁far	-1412
ca	-1413
▁already	-1414
▁trad	-1415
▁cond	-1416
tain	-1417
▁understand	-1418
ention	-1419
▁effect	-1420
▁const	-1421
▁record	-1422
john	-1423
▁won	-1424
▁hours	-1425
▁possible	-1426
▁done	-1427
mber	-1428
▁million	-1429
▁news	-1430
▁par	-1431
aim	-1432
ush	-1433
▁comes	-1434
light	-1435
▁based	-1436
▁several	-1437
▁nor	-1438
▁cut	-1439
▁educ	-1440
▁women	-1441
ze	-1442
ienc	-1443
pol	-1444
unch	-1445
▁camp	-1446
▁dev	-1447
▁social	-1448
house	-1449
ividual	-1450
aces	-1451
▁become	-1452
ured	-1453
▁mil	-1454
ister	-1455
oice	-1456
right	-1457
ron	-1458
uture	-1459
american	-1460
ajor	-1461
▁bit	-1462
▁country	-1463
iven	-1464
▁boo	-1465
city	-1466
▁benef	-1467
▁focus	-1468
▁es	-1469
▁often	-1470
ford	-1471
▁cou	-1472
▁men	-1473
raw	-1474
▁tell	-1475
▁:	-1476
nes	-1477
▁development	-1478
mal	-1479
▁net	-1480
ances	-1481
intern	-1482
▁pot	-1483
▁jo	-1484
▁quick	-1485
▁...	-1486
iful	-1487
▁vers	-1488
▁hold	-1489
▁material	-1490
rec	-1491
▁city	-1492
▁body	-1493
ork	-1494
▁friends	-1495
jan	-1496
▁ext	-1497
school	-1498
head	-1499
ides	-1500
▁didn	-1501
pri	-1502
▁bring	-1503
▁fund	-1504
▁purch	-1505
▁sum	-1506
ograph	-1507
vironment	-1508
ows	-1509
▁blog	-1510
raft	-1511
inst	-1512
▁issu	-1513
yes	-1514
▁elect	-1515
▁mult	-1516
ference	-1517
ai	-1518
nov	-1519
ource	-1520
osed	-1521
post	-1522
▁return	-1523
ns	-1524
▁doing	-1525
met	-1526
olution	-1527
▁pie	-1528
from	-1529
ham	-1530
idd	-1531
▁tre	-1532
well	-1533
mc	-1534
▁others	-1535
▁months	-1536
ners	-1537
▁ste	-1538
▁mom	-1539
▁wa	-1540
ones	-1541
▁individual	-1542
▁pack	-1543
har	-1544
▁non	-1545
▁travel	-1546
▁doesn	-1547
▁called	-1548
ser	-1549
where	-1550
lege	-1551
▁started	-1552
▁space	-1553
po	-1554
gar	-1555
▁deal	-1556
▁compet	-1557
aug	-1558
▁took	-1559
however	-1560
▁store	-1561
▁mind	-1562
▁sol	-1563
some	-1564
▁came	-1565
.,	-1566
ination	-1567
conom	-1568
▁clean	-1569
reet	-1570
str	-1571
▁future	-1572
▁la	-1573
▁yet	-1574
▁lo	-1575
ateg	-1576
▁rele	-1577
wood	-1578
▁industry	-1579
▁price	-1580
▁cover	-1581
▁pict	-1582
▁games	-1583
acy	-1584
▁means	-1585
curity	-1586
▁low	-1587
will	-1588
roll	-1589
ged	-1590
arning	-1591
unic	-1592
bed	-1593
world	-1594
▁oc	-1595
sk	-1596
lish	-1597
west	-1598
na	-1599
▁major	-1600
▁percent	-1601
▁key	-1602
aust	-1603
▁control	-1604
top	-1605
▁*	-1606
ply	-1607
▁lim	-1608
▁heart	-1609
▁least	-1610
▁went	-1611
▁tem	-1612
jects	-1613
duct	-1614
▁offers	-1615
▁five	-1616
▁range	-1617
cr	-1618
▁chall	-1619
▁once	-1620
ye	-1621
see	-1622
ption	-1623
anies	-1624
▁tool	-1625
god	-1626
ilities	-1627
▁features	-1628
▁fore	-1629
high	-1630
ster	-1631
bre	-1632
▁early	-1633
▁x	-1634
▁origin	-1635
▁series	-1636
▁specific	-1637
▁land	-1638
▁wind	-1639
united	-1640
▁--	-1641
▁tal	-1642
▁comb	-1643
▁hope	-1644
▁require	-1645
anks	-1646
commend	-1647
hol	-1648
▁step	-1649
illed	-1650
ither	-1651
dep	-1652
▁discuss	-1653
▁upd	-1654
▁invol	-1655
▁mean	-1656
org	-1657
ilt	-1658
ask	-1659
pet	-1660
▁girl	-1661
▁single	-1662
nam	-1663
▁ago	-1664
mat	-1665
▁thought	-1666
aken	-1667
▁priv	-1668
▁close	-1669
▁told	-1670
resh	-1671
itor	-1672
▁strong	-1673
▁beautiful	-1674
▁appear	-1675
stud	-1676
char	-1677
york	-1678
▁happen	-1679
//	-1680
▁questions	-1681
last	-1682
▁favor	-1683
oose	-1684
cy	-1685
▁stay	-1686
down	-1687
board	-1688
▁government	-1689
north	-1690
mit	-1691
▁customers	-1692
like	-1693
tract	-1694
urther	-1695
▁added	-1696
▁brand	-1697
euro	-1698
gs	-1699
://	-1700
▁study	-1701
aps	-1702
rel	-1703
present	-1704
wed	-1705
▁charac	-1706
▁begin	-1707
oct	-1708
rain	-1709
ians	-1710
▁redu	-1711
ted	-1712
▁hig	-1713
ibr	-1714
opy	-1715
press	-1716
▁mess	-1717
▁port	-1718
▁everything	-1719
fully	-1720
▁actually	-1721
irm	-1722
ources	-1723
▁tax	-1724
▁install	-1725
atural	-1726
▁clear	-1727
▁ener	-1728
lab	-1729
bur	-1730
wards	-1731
hers	-1732
ern	-1733
icy	-1734
▁search	-1735
ret	-1736
ama	-1737
▁taking	-1738
south	-1739
put	-1740
▁field	-1741
ensive	-1742
hy	-1743
rs	-1744
▁technology	-1745
▁announ	-1746
▁address	-1747
▁environment	-1748
▁def	-1749
atest	-1750
▁certain	-1751
▁unique	-1752
acc	-1753
▁watch	-1754
▁improve	-1755
ancial	-1756
lebr	-1757
cast	-1758
apr	-1759
▁face	-1760
isk	-1761
▁staff	-1762
gle	-1763
▁media	-1764
ship	-1765
▁host	-1766
▁super	-1767
▁results	-1768
▁content	-1769
▁bar	-1770
ural	-1771
▁training	-1772
▁half	-1773
center	-1774
▁anal	-1775
▁typ	-1776
▁mor	-1777
ports	-1778
rop	-1779
▁young	-1780
▁someone	-1781
▁companies	-1782
ocu	-1783
▁tot	-1784
friday	-1785
county	-1786
▁later	-1787
unities	-1788
▁sound	-1789
▁recommend	-1790
national	-1791
ctor	-1792
ief	-1793
▁vol	-1794
▁building	-1795
ram	-1796
▁everyone	-1797
sure	-1798
tty	-1799
eral	-1800
uff	-1801
▁contr	-1802
▁miss	-1803
enn	-1804
ided	-1805
▁press	-1806
▁known	-1807
bus	-1808
▁card	-1809
▁oil	-1810
▁professional	-1811
▁particip	-1812
▁office	-1813
▁whole	-1814
▁problem	-1815
public	-1816
cially	-1817
urch	-1818
▁z	-1819
▁break	-1820
ests	-1821
▁mot	-1822
phone	-1823
▁film	-1824
▁provides	-1825
▁wond	-1826
sue	-1827
▁official	-1828
ica	-1829
▁ident	-1830
▁bed	-1831
coming	-1832
▁six	-1833
satur	-1834
▁particular	-1835
▁ess	-1836
itted	-1837
care	-1838
ables	-1839
▁respons	-1840
▁simple	-1841
name	-1842
▁seen	-1843
ging	-1844
▁color	-1845
▁log	-1846
▁size	-1847
ape	-1848
pat	-1849
▁front	-1850
health	-1851
ibility	-1852
hod	-1853
prof	-1854
ison	-1855
▁age	-1856
▁issues	-1857
place	-1858
▁mag	-1859
▁web	-1860
▁areas	-1861
elf	-1862
▁sell	-1863
europe	-1864
park	-1865
▁publ	-1866
▁tour	-1867
▁fall	-1868
▁dig	-1869
oved	-1870
imate	-1871
▁cred	-1872
march	-1873
▁given	-1874
set	-1875
pecially	-1876
▁performance	-1877
lin	-1878
sund	-1879
▁reason	-1880
▁anything	-1881
▁events	-1882
▁htt	-1883
ee	-1884
▁energy	-1885
atic	-1886
▁due	-1887
▁designed	-1888
bor	-1889
▁management	-1890
ilar	-1891
tc	-1892
▁black	-1893
▁author	-1894
▁believe	-1895
▁above	-1896
▁prob	-1897
june	-1898
▁cal	-1899
▁details	-1900
ety	-1901
▁relations	-1902
▁assist	-1903
mo	-1904
used	-1905
▁latest	-1906
▁phone	-1907
▁foot	-1908
then	-1909
ledge	-1910
▁print	-1911
iod	-1912
asing	-1913
saturday	-1914
obal	-1915
▁aud	-1916
was	-1917
gest	-1918
▁effort	-1919
mor	-1920
▁econom	-1921
obile	-1922
direct	-1923
▁pretty	-1924
▁skin	-1925
aur	-1926
▁sex	-1927
▁history	-1928
ug	-1929
ino	-1930
ille	-1931
sept	-1932
▁claim	-1933
▁weeks	-1934
ites	-1935
ouch	-1936
inter	-1937
▁property	-1938
ulation	-1939
▁connect	-1940
based	-1941
▁according	-1942
july	-1943
▁ca	-1944
▁link	-1945
▁select	-1946
▁experienc	-1947
ators	-1948
key	-1949
ii	-1950
tv	-1951
▁soon	-1952
▁ant	-1953
▁idea	-1954
▁points	-1955
▁includes	-1956
inking	-1957
▁living	-1958
itter	-1959
▁pick	-1960
every	-1961
▁popular	-1962
itch	-1963
weet	-1964
▁comput	-1965
ges	-1966
ogn	-1967
▁protect	-1968
▁phys	-1969
aily	-1970
▁defin	-1971
▁among	-1972
▁continue	-1973
▁inc	-1974
▁question	-1975
his	-1976
▁cult	-1977
sal	-1978
▁compl	-1979
news	-1980
irt	-1981
itional	-1982
▁fre	-1983
astic	-1984
dav	-1985
▁fire	-1986
ruction	-1987
mas	-1988
....	-1989
manag	-1990
ufact	-1991
▁white	-1992
nding	-1993
feb	-1994
vert	-1995
▁receive	-1996
ands	-1997
april	-1998
▁talk	-1999
▁opportunity	-2000
▁parent	-2001
first	-2002
▁taken	-2003
▁dou	-2004
kend	-2005
uation	-2006
▁track	-2007
▁type	-2008
▁further	-2009
▁value	-2010
▁celebr	-2011
ental	-2012
oh	-2013
li	-2014
▁date	-2015
▁amount	-2016
ming	-2017
▁kids	-2018
▁items	-2019
▁currently	-2020
▁docu	-2021
idence	-2022
▁comfort	-2023
▁di	-2024
▁hon	-2025
▁required	-2026
ires	-2027
selves	-2028
▁descri	-2029
▁answ	-2030
▁coming	-2031
▁fit	-2032
monday	-2033
▁various	-2034
ding	-2035
ese	-2036
▁safe	-2037
▁human	-2038
▁entire	-2039
▁text	-2040
▁trying	-2041
▁whether	-2042
▁bad	-2043
▁sent	-2044
▁forward	-2045
▁,	-2046
aching	-2047
▁yourself	-2048
sunday	-2049
den	-2050
elt	-2051
iate	-2052
▁concer	-2053
▁summer	-2054
▁consider	-2055
mic	-2056
▁stop	-2057
many	-2058
fo	-2059
▁sugg	-2060
▁wide	-2061
wes	-2062
▁happy	-2063
ume	-2064
word	-2065
▁ready	-2066
itting	-2067
▁member	-2068
▁almost	-2069
aged	-2070
ises	-2071
▁diff	-2072
icated	-2073
ler	-2074
pper	-2075
uary	-2076
▁dam	-2077
▁box	-2078
ained	-2079
▁needed	-2080
▁attend	-2081
black	-2082
soc	-2083
▁example	-2084
▁style	-2085
sing	-2086
▁final	-2087
▁ach	-2088
ried	-2089
▁either	-2090
▁software	-2091
ival	-2092
▁via	-2093
mus	-2094
azing	-2095
▁meas	-2096
▁famil	-2097
ux	-2098
▁red	-2099
president	-2100
ole	-2101
▁crit	-2102
▁wanted	-2103
▁hom	-2104
home	-2105
▁provided	-2106
▁especially	-2107
urance	-2108
ana	-2109
ray	-2110
icult	-2111
▁third	-2112
▁recently	-2113
sim	-2114
▁ways	-2115
▁seem	-2116
▁isn	-2117
ek	-2118
▁potential	-2119
lim	-2120
▁relationship	-2121
▁held	-2122
verage	-2123
mr	-2124
▁quite	-2125
▁running	-2126
▁ensure	-2127
ples	-2128
▁couple	-2129
life	-2130
war	-2131
click	-2132
▁sle	-2133
▁road	-2134
▁insp	-2135
ively	-2136
▁previous	-2137
▁favorite	-2138
itten	-2139
▁regular	-2140
▁nice	-2141
gress	-2142
▁hol	-2143
mb	-2144
▁paper	-2145
▁song	-2146
▁common	-2147
clus	-2148
▁issue	-2149
▁options	-2150
▁veh	-2151
ground	-2152
▁financial	-2153
▁throughout	-2154
▁cup	-2155
▁users	-2156
▁natural	-2157
design	-2158
wind	-2159
law	-2160
▁bott	-2161
▁period	-2162
cas	-2163
▁flow	-2164
aby	-2165
▁clients	-2166
▁engine	-2167
▁init	-2168
coun	-2169
know	-2170
▁choose	-2171
cons	-2172
ees	-2173
▁morning	-2174
aced	-2175
▁created	-2176
▁jour	-2177
.)	-2178
▁sales	-2179
▁version	-2180
ada	-2181
ung	-2182
▁else	-2183
▁takes	-2184
▁extra	-2185
▁players	-2186
▁inde	-2187
▁behind	-2188
▁cool	-2189
▁download	-2190
bi	-2191
aging	-2192
▁er	-2193
▁reading	-2194
ishing	-2195
▁lab	-2196
sen	-2197
san	-2198
▁recent	-2199
▁writing	-2200
band	-2201
▁click	-2202
▁consum	-2203
▁fresh	-2204
uge	-2205
▁probably	-2206
mich	-2207
▁stri	-2208
ecut	-2209
cil	-2210
▁role	-2211
▁war	-2212
▁tit	-2213
loc	-2214
▁asked	-2215
ober	-2216
sa	-2217
▁problems	-2218
▁received	-2219
ague	-2220
▁represent	-2221
also	-2222
ipping	-2223
inks	-2224
class	-2225
▁walk	-2226
▁wonder	-2227
▁leave	-2228
anced	-2229
angu	-2230
lar	-2231
▁sun	-2232
icles	-2233
▁deter	-2234
road	-2235
▁security	-2236
▁ele	-2237
overed	-2238
ken	-2239
▁party	-2240
▁education	-2241
▁article	-2242
ades	-2243
rew	-2244
star	-2245
▁shows	-2246
istrict	-2247
list	-2248
gener	-2249
▁collect	-2250
rodu	-2251
tues	-2252
cap	-2253
aving	-2254
august	-2255
wel	-2256
▁simply	-2257
▁increase	-2258
▁impact	-2259
▁books	-2260
▁hy	-2261
▁action	-2262
▁anyone	-2263
eth	-2264
mark	-2265
ev	-2266
artment	-2267
hib	-2268
▁etc	-2269
states	-2270
thurs	-2271
▁release	-2272
▁original	-2273
ony	-2274
▁ful	-2275
october	-2276
gree	-2277
ror	-2278
istration	-2279
▁self	-2280
▁model	-2281
olutions	-2282
▁knowledge	-2283
atform	-2284
▁customer	-2285
▁hit	-2286
▁fast	-2287
ffic	-2288
▁coun	-2289
▁medical	-2290
chen	-2291
mod	-2292
▁mix	-2293
january	-2294
▁table	-2295
▁outside	-2296
▁exam	-2297
▁changes	-2298
▁however	-2299
▁skills	-2300
associ	-2301
▁likely	-2302
september	-2303
▁difficult	-2304
▁method	-2305
▁accept	-2306
oid	-2307
ooking	-2308
▁inside	-2309
box	-2310
▁pan	-2311
bel	-2312
--	-2313
tod	-2314
oogle	-2315
▁abs	-2316
▁goal	-2317
cing	-2318
▁ple	-2319
▁board	-2320
hen	-2321
ification	-2322
wednes	-2323
idge	-2324
▁ground	-2325
▁programs	-2326
▁police	-2327
▁career	-2328
▁town	-2329
▁match	-2330
tuesday	-2331
▁signific	-2332
facebook	-2333
bit	-2334
▁activities	-2335
adem	-2336
▁learning	-2337
▁systems	-2338
▁weekend	-2339
▁manufact	-2340
▁ball	-2341
▁meeting	-2342
america	-2343
▁looks	-2344
aker	-2345
check	-2346
▁private	-2347
▁contract	-2348
▁position	-2349
iple	-2350
▁continu	-2351
▁cir	-2352
▁recogn	-2353
thursday	-2354
▁matter	-2355
▁screen	-2356
▁words	-2357
▁necess	-2358
▁nothing	-2359
▁application	-2360
▁lives	-2361
▁contribut	-2362
▁ri	-2363
best	-2364
ules	-2365
oly	-2366
adu	-2367
nal	-2368
ville	-2369
▁fail	-2370
▁hair	-2371
cover	-2372
rem	-2373
▁anim	-2374
▁photos	-2375
irth	-2376
austral	-2377
▁mat	-2378
▁included	-2379
▁lay	-2380
wednesday	-2381
▁projects	-2382
▁sat	-2383
water	-2384
friend	-2385
hold	-2386
▁worth	-2387
ening	-2388
field	-2389
▁round	-2390
▁longer	-2391
service	-2392
ops	-2393
ude	-2394
▁stor	-2395
business	-2396
ellow	-2397
▁practice	-2398
▁exist	-2399
▁additional	-2400
market	-2401
iqu	-2402
ought	-2403
▁located	-2404
▁similar	-2405
pal	-2406
arter	-2407
phot	-2408
date	-2409
nove	-2410
▁former	-2411
iter	-2412
tim	-2413
street	-2414
▁treatment	-2415
found	-2416
▁amazing	-2417
department	-2418
ights	-2419
▁total	-2420
▁fig	-2421
thanks	-2422
▁suggest	-2423
iol	-2424
▁playing	-2425
aign	-2426
miss	-2427
ls	-2428
▁risk	-2429
arget	-2430
win	-2431
▁associ	-2432
▁kit	-2433
▁communic	-2434
action	-2435
▁send	-2436
▁drive	-2437
▁repl	-2438
▁worked	-2439
dom	-2440
real	-2441
bon	-2442
wal	-2443
soft	-2444
▁variety	-2445
▁seems	-2446
▁choice	-2447
del	-2448
▁rather	-2449
▁infl	-2450
ipment	-2451
izing	-2452
▁death	-2453
mag	-2454
▁saf	-2455
example	-2456
unt	-2457
▁touch	-2458
▁providing	-2459
google	-2460
airs	-2461
▁purchase	-2462
▁true	-2463
▁autom	-2464
▁growth	-2465
about	-2466
▁comment	-2467
▁plans	-2468
▁student	-2469
▁loss	-2470
▁draw	-2471
ba	-2472
▁polit	-2473
▁general	-2474
good	-2475
ga	-2476
trans	-2477
▁chance	-2478
rect	-2479
▁production	-2480
▁significant	-2481
▁international	-2482
great	-2483
bal	-2484
hot	-2485
▁late	-2486
ipe	-2487
lier	-2488
ercial	-2489
group	-2490
mission	-2491
▁cook	-2492
empt	-2493
▁teac	-2494
▁character	-2495
▁function	-2496
bt	-2497
▁arri	-2498
calif	-2499
power	-2500
▁leading	-2501
▁court	-2502
▁file	-2503
▁allows	-2504
▁bud	-2505
international	-2506
ef	-2507
iff	-2508
ivery	-2509
opping	-2510
why	-2511
▁image	-2512
hood	-2513
▁network	-2514
▁cell	-2515
ession	-2516
▁wel	-2517
ha	-2518
▁sn	-2519
▁challeng	-2520
▁leaders	-2521
▁national	-2522
mp	-2523
green	-2524
▁ideas	-2525
▁wall	-2526
▁built	-2527
▁cand	-2528
▁remain	-2529
▁boy	-2530
iddle	-2531
▁encour	-2532
▁collection	-2533
▁sil	-2534
eds	-2535
hel	-2536
▁movie	-2537
november	-2538
▁investig	-2539
sl	-2540
labor	-2541
imum	-2542
▁mach	-2543
▁moment	-2544
gen	-2545
ondon	-2546
▁platform	-2547
ached	-2548
rich	-2549
▁decided	-2550
bert	-2551
▁quickly	-2552
▁rad	-2553
web	-2554
imin	-2555
white	-2556
▁exact	-2557
▁tick	-2558
▁piece	-2559
call	-2560
▁easily	-2561
cret	-2562
▁usually	-2563
▁bag	-2564
under	-2565
▁prevent	-2566
▁stat	-2567
▁estab	-2568
▁excell	-2569
▁wood	-2570
▁display	-2571
▁bal	-2572
▁prior	-2573
sch	-2574
london	-2575
▁cause	-2576
cup	-2577
▁regard	-2578
▁credit	-2579
even	-2580
▁decision	-2581
sur	-2582
ederal	-2583
east	-2584
▁computer	-2585
▁location	-2586
▁clos	-2587
▁higher	-2588
mm	-2589
▁lost	-2590
dece	-2591
idents	-2592
icks	-2593
▁depend	-2594
aste	-2595
itut	-2596
▁cannot	-2597
▁ill	-2598
super	-2599
▁http	-2600
▁sche	-2601
▁apply	-2602
▁feature	-2603
▁introdu	-2604
amed	-2605
▁daily	-2606
using	-2607
▁safety	-2608
▁commit	-2609
▁expected	-2610
bec	-2611
oud	-2612
techn	-2613
jack	-2614
▁rep	-2615
zy	-2616
▁heav	-2617
step	-2618
today	-2619
december	-2620
▁hor	-2621
▁mass	-2622
ospital	-2623
▁involved	-2624
pped	-2625
▁respect	-2626
sam	-2627
▁myself	-2628
▁weight	-2629
fam	-2630
▁user	-2631
david	-2632
reng	-2633
▁base	-2634
ky	-2635
▁released	-2636
aves	-2637
▁photo	-2638
▁parents	-2639
▁goes	-2640
▁serious	-2641
▁integr	-2642
mac	-2643
▁rate	-2644
▁note	-2645
oes	-2646
find	-2647
▁enter	-2648
arden	-2649
ruary	-2650
▁floor	-2651
english	-2652
▁green	-2653
▁cy	-2654
▁vict	-2655
ibrary	-2656
order	-2657
roups	-2658
illing	-2659
▁mother	-2660
▁reported	-2661
iding	-2662
▁saw	-2663
attle	-2664
▁rights	-2665
▁stra	-2666
▁woman	-2667
february	-2668
mem	-2669
ester	-2670
▁deep	-2671
works	-2672
erg	-2673
wide	-2674
▁smo	-2675
though	-2676
child	-2677
oring	-2678
▁dress	-2679
ead	-2680
▁hands	-2681
▁word	-2682
▁expert	-2683
bum	-2684
▁dom	-2685
▁squ	-2686
big	-2687
▁benefits	-2688
▁feed	-2689
▁gen	-2690
▁marketing	-2691
ban	-2692
iction	-2693
▁digital	-2694
night	-2695
▁center	-2696
▁af	-2697
thern	-2698
program	-2699
iant	-2700
ructure	-2701
▁hear	-2702
▁campaign	-2703
www	-2704
twitter	-2705
mary	-2706
▁tools	-2707
californ	-2708
ength	-2709
college	-2710
once	-2711
since	-2712
▁related	-2713
▁langu	-2714
▁surpr	-2715
men	-2716
▁save	-2717
body	-2718
umb	-2719
bscri	-2720
▁effic	-2721
▁costs	-2722
▁helps	-2723
▁door	-2724
▁gives	-2725
▁ep	-2726
▁roll	-2727
▁request	-2728
▁announced	-2729
hall	-2730
point	-2731
▁source	-2732
▁partners	-2733
afr	-2734
▁immed	-2735
▁huge	-2736
atives	-2737
services	-2738
▁wed	-2739
▁ut	-2740
make	-2741
▁ability	-2742
▁complet	-2743
▁stock	-2744
▁global	-2745
▁mobile	-2746
▁code	-2747
▁gets	-2748
change	-2749
iring	-2750
lex	-2751
arant	-2752
love	-2753
asons	-2754
enge	-2755
izes	-2756
▁modern	-2757
dri	-2758
▁earn	-2759
▁agre	-2760
force	-2761
▁materials	-2762
erc	-2763
▁arch	-2764
iation	-2765
da	-2766
vol	-2767
reme	-2768
▁giving	-2769
▁trust	-2770
akers	-2771
▁standard	-2772
pay	-2773
brit	-2774
according	-2775
▁sale	-2776
cure	-2777
▁option	-2778
▁attack	-2779
▁restaur	-2780
california	-2781
tex	-2782
▁award	-2783
di	-2784
▁write	-2785
▁published	-2786
▁admin	-2787
roy	-2788
plement	-2789
▁played	-2790
▁patients	-2791
▁ones	-2792
▁dest	-2793
ocol	-2794
▁gar	-2795
christmas	-2796
▁warm	-2797
▁parts	-2798
dem	-2799
fil	-2800
ida	-2801
▁ded	-2802
▁eye	-2803
▁maintain	-2804
cu	-2805
pose	-2806
have	-2807
▁fine	-2808
ael	-2809
▁written	-2810
ivity	-2811
▁organization	-2812
▁sus	-2813
▁interested	-2814
▁fab	-2815
vey	-2816
india	-2817
▁copy	-2818
▁sold	-2819
▁planning	-2820
ault	-2821
develop	-2822
▁dry	-2823
▁instead	-2824
▁images	-2825
▁target	-2826
hist	-2827
▁legal	-2828
irit	-2829
open	-2830
tri	-2831
rown	-2832
▁innov	-2833
erve	-2834
erous	-2835
▁highly	-2836
plan	-2837
thank	-2838
each	-2839
ned	-2840
▁sense	-2841
paul	-2842
▁join	-2843
zz	-2844
▁remember	-2845
phil	-2846
▁attention	-2847
bay	-2848
▁inj	-2849
▁rout	-2850
▁mid	-2851
▁heat	-2852
ashion	-2853
▁interesting	-2854
▁sens	-2855
▁picture	-2856
▁levels	-2857
▁bi	-2858
▁ur	-2859
who	-2860
orge	-2861
▁appe	-2862
hand	-2863
▁starting	-2864
▁star	-2865
▁policy	-2866
washing	-2867
▁average	-2868
▁interview	-2869
acing	-2870
▁answer	-2871
▁lic	-2872
ography	-2873
▁themselves	-2874
▁stuff	-2875
uel	-2876
acking	-2877
▁consult	-2878
▁president	-2879
▁conditions	-2880
▁item	-2881
▁depart	-2882
▁document	-2883
▁dream	-2884
▁equipment	-2885
▁cases	-2886
▁positive	-2887
hi	-2888
▁gift	-2889
▁healthy	-2890
▁families	-2891
apan	-2892
▁dead	-2893
▁lower	-2894
▁contain	-2895
▁deliver	-2896
▁player	-2897
▁qual	-2898
angel	-2899
▁sou	-2900
ipped	-2901
fire	-2902
long	-2903
mart	-2904
▁businesses	-2905
build	-2906
▁firm	-2907
▁gold	-2908
▁dise	-2909
▁streng	-2910
▁lif	-2911
two	-2912
aches	-2913
▁completely	-2914
ben	-2915
▁bur	-2916
▁effective	-2917
iny	-2918
nds	-2919
apple	-2920
▁pull	-2921
▁solution	-2922
ension	-2923
▁approach	-2924
▁wasn	-2925
▁upon	-2926
▁achieve	-2927
atory	-2928
▁fully	-2929
▁prices	-2930
▁multiple	-2931
▁condition	-2932
ado	-2933
▁groups	-2934
rought	-2935
inary	-2936
system	-2937
▁baby	-2938
gre	-2939
▁slow	-2940
▁shoot	-2941
review	-2942
▁prim	-2943
wa	-2944
▁began	-2945
istic	-2946
▁trip	-2947
▁stories	-2948
▁directly	-2949
▁www	-2950
▁express	-2951
▁resources	-2952
▁wrong	-2953
lt	-2954
▁sett	-2955
▁cat	-2956
office	-2957
▁message	-2958
▁fight	-2959
uses	-2960
▁reports	-2961
▁neigh	-2962
▁reach	-2963
▁hour	-2964
ffee	-2965
take	-2966
▁pers	-2967
▁sites	-2968
▁insurance	-2969
note	-2970
▁wal	-2971
ctions	-2972
▁band	-2973
isl	-2974
▁opportunities	-2975
olf	-2976
anch	-2977
educ	-2978
▁neg	-2979
▁subject	-2980
dy	-2981
▁camer	-2982
▁comments	-2983
vest	-2984
▁prem	-2985
dan	-2986
▁broad	-2987
produ	-2988
▁aim	-2989
▁fans	-2990
enty	-2991
▁defe	-2992
▁advice	-2993
ties	-2994
gold	-2995
▁types	-2996
ysis	-2997
▁except	-2998
▁attract	-2999
washington	-3000
erved	-3001
▁successful	-3002
▁wait	-3003
▁plant	-3004
tom	-3005
▁dru	-3006
aughter	-3007
▁attempt	-3008
japan	-3009
▁adult	-3010
rock	-3011
▁offe	-3012
▁stru	-3013
▁viol	-3014
▁suit	-3015
▁affect	-3016
▁cert	-3017
▁sen	-3018
ruit	-3019
▁thinking	-3020
▁implement	-3021
itation	-3022
▁opp	-3023
team	-3024
▁reve	-3025
▁solutions	-3026
▁employees	-3027
fast	-3028
itely	-3029
vision	-3030
▁fix	-3031
▁fair	-3032
comes	-3033
▁birth	-3034
▁hop	-3035
▁obs	-3036
cert	-3037
▁ir	-3038
▁teams	-3039
▁traditional	-3040
▁propos	-3041
▁pictures	-3042
▁excellent	-3043
▁creating	-3044
china	-3045
▁led	-3046
rob	-3047
▁mount	-3048
onse	-3049
▁tur	-3050
inner	-3051
▁capt	-3052
wom	-3053
▁feeling	-3054
people	-3055
▁separ	-3056
▁necessary	-3057
sum	-3058
▁saying	-3059
▁commercial	-3060
▁goals	-3061
▁execut	-3062
bet	-3063
▁gave	-3064
show	-3065
▁dark	-3066
▁countries	-3067
▁promot	-3068
iable	-3069
▁carry	-3070
mail	-3071
▁itself	-3072
person	-3073
william	-3074
director	-3075
iced	-3076
▁vot	-3077
▁extreme	-3078
▁sleep	-3079
▁wish	-3080
tee	-3081
▁tele	-3082
▁div	-3083
▁essential	-3084
ffects	-3085
company	-3086
▁section	-3087
ores	-3088
vide	-3089
det	-3090
▁serve	-3091
▁places	-3092
▁glass	-3093
flor	-3094
▁sometimes	-3095
arts	-3096
itute	-3097
sun	-3098
association	-3099
▁ble	-3100
▁club	-3101
▁har	-3102
▁imm	-3103
pan	-3104
aught	-3105
vin	-3106
”.	-3107
ancy	-3108
▁blood	-3109
unte	-3110
▁wonderful	-3111
cs	-3112
mil	-3113
▁budget	-3114
uth	-3115
cher	-3116
▁growing	-3117
▁schools	-3118
ibly	-3119
▁applications	-3120
istry	-3121
▁cancer	-3122
▁felt	-3123
▁vehicle	-3124
▁cross	-3125
▁sweet	-3126
▁aware	-3127
yond	-3128
court	-3129
▁spent	-3130
▁complex	-3131
▁limited	-3132
▁delivery	-3133
▁organiz	-3134
club	-3135
bra	-3136
▁eat	-3137
▁distribut	-3138
▁album	-3139
door	-3140
boo	-3141
▁impress	-3142
▁dro	-3143
texas	-3144
fun	-3145
although	-3146
▁loved	-3147
▁progress	-3148
hest	-3149
ta	-3150
ads	-3151
haps	-3152
ils	-3153
▁kn	-3154
pite	-3155
michael	-3156
run	-3157
aries	-3158
▁region	-3159
▁director	-3160
contact	-3161
▁correct	-3162
▁aff	-3163
▁son	-3164
▁terms	-3165
corpor	-3166
▁smart	-3167
council	-3168
▁grand	-3169
camp	-3170
live	-3171
▁speed	-3172
▁requirements	-3173
▁block	-3174
canada	-3175
▁physical	-3176
bing	-3177
▁apart	-3178
▁temper	-3179
▁respond	-3180
oll	-3181
▁mention	-3182
▁spend	-3183
▁weather	-3184
▁profession	-3185
▁blue	-3186
▁developed	-3187
rang	-3188
▁shop	-3189
▁towards	-3190
▁occur	-3191
▁individuals	-3192
▁nut	-3193
rote	-3194
opt	-3195
cell	-3196
mitted	-3197
▁conduct	-3198
▁straight	-3199
▁heard	-3200
▁situation	-3201
▁cold	-3202
▁finish	-3203
chan	-3204
ustr	-3205
▁sort	-3206
sol	-3207
research	-3208
fa	-3209
pack	-3210
sign	-3211
▁exerc	-3212
▁wants	-3213
▁jud	-3214
itary	-3215
aint	-3216
windows	-3217
asy	-3218
▁eyes	-3219
▁nature	-3220
▁quarter	-3221
online	-3222
▁moving	-3223
indian	-3224
▁finally	-3225
▁difference	-3226
lu	-3227
pc	-3228
▁statement	-3229
▁mark	-3230
▁race	-3231
▁device	-3232
ceed	-3233
▁dog	-3234
▁offering	-3235
made	-3236
james	-3237
▁shot	-3238
aks	-3239
wise	-3240
custom	-3241
▁pattern	-3242
ady	-3243
▁ing	-3244
▁ver	-3245
sub	-3246
▁construction	-3247
ox	-3248
▁enh	-3249
▁avoid	-3250
▁became	-3251
▁brought	-3252
▁college	-3253
▁sty	-3254
▁feet	-3255
ka	-3256
▁convers	-3257
▁apprec	-3258
rench	-3259
main	-3260
hum	-3261
hop	-3262
oon	-3263
food	-3264
tor	-3265
▁stage	-3266
▁charge	-3267
▁ru	-3268
▁pet	-3269
▁nation	-3270
ube	-3271
▁spot	-3272
▁title	-3273
internet	-3274
ological	-3275
iment	-3276
▁wedding	-3277
▁advant	-3278
keep	-3279
▁ord	-3280
▁annual	-3281
oke	-3282
test	-3283
▁kitchen	-3284
aling	-3285
lead	-3286
):	-3287
rad	-3288
iber	-3289
color	-3290
card	-3291
only	-3292
▁wear	-3293
▁seven	-3294
european	-3295
game	-3296
▁girls	-3297
▁tried	-3298
▁turned	-3299
aled	-3300
olute	-3301
▁homes	-3302
▁hotel	-3303
▁je	-3304
oms	-3305
▁owners	-3306
".	-3307
▁imag	-3308
▁uses	-3309
rences	-3310
jun	-3311
dule	-3312
▁stress	-3313
▁language	-3314
▁investment	-3315
▁guarant	-3316
urt	-3317
▁cas	-3318
ker	-3319
fall	-3320
▁hous	-3321
▁guide	-3322
▁helping	-3323
oves	-3324
▁ten	-3325
sey	-3326
▁ge	-3327
because	-3328
▁retail	-3329
▁mic	-3330
mount	-3331
▁rent	-3332
▁internet	-3333
▁exactly	-3334
rant	-3335
▁wrote	-3336
▁consist	-3337
blue	-3338
▁medic	-3339
plus	-3340
▁bath	-3341
▁nearly	-3342
usa	-3343
bc	-3344
▁pow	-3345
wall	-3346
▁partner	-3347
mine	-3348
special	-3349
information	-3350
cks	-3351
▁entertain	-3352
▁term	-3353
▁categ	-3354
▁brow	-3355
▁influ	-3356
community	-3357
cul	-3358
▁maybe	-3359
general	-3360
▁offered	-3361
iance	-3362
▁active	-3363
▁client	-3364
ancing	-3365
▁strateg	-3366
▁beginning	-3367
micro	-3368
▁double	-3369
ares	-3370
▁max	-3371
▁concept	-3372
music	-3373
▁wife	-3374
▁challenge	-3375
elect	-3376
ocr	-3377
ios	-3378
icking	-3379
idered	-3380
▁posted	-3381
:||	-3382
▁bow	-3383
▁overall	-3384
ses	-3385
town	-3386
dig	-3387
mad	-3388
▁path	-3389
hill	-3390
conne	-3391
ustain	-3392
▁pages	-3393
▁definitely	-3394
mont	-3395
iately	-3396
league	-3397
▁pieces	-3398
▁activity	-3399
log	-3400
los	-3401
ocks	-3402
ounds	-3403
▁lots	-3404
▁ahead	-3405
▁billion	-3406
estival	-3407
▁bottom	-3408
never	-3409
opped	-3410
church	-3411
▁thous	-3412
week	-3413
▁altern	-3414
mot	-3415
▁appoint	-3416
▁decl	-3417
▁expand	-3418
▁independ	-3419
illa	-3420
wr	-3421
iles	-3422
▁inform	-3423
▁reduce	-3424
which	-3425
active	-3426
mel	-3427
▁acqu	-3428
▁finished	-3429
craft	-3430
▁benefit	-3431
roud	-3432
▁gas	-3433
icious	-3434
agn	-3435
ican	-3436
▁paid	-3437
▁devices	-3438
▁surround	-3439
▁fat	-3440
cam	-3441
▁thank	-3442
ago	-3443
▁hus	-3444
▁farm	-3445
police	-3446
lee	-3447
▁sports	-3448
sou	-3449
antly	-3450
▁collabor	-3451
cong	-3452
▁miles	-3453
▁extend	-3454
▁response	-3455
▁excited	-3456
smith	-3457
▁decor	-3458
look	-3459
▁emot	-3460
▁length	-3461
management	-3462
follow	-3463
▁exhib	-3464
▁advert	-3465
▁earlier	-3466
▁comfortable	-3467
ml	-3468
bell	-3469
▁easier	-3470
inte	-3471
page	-3472
watch	-3473
▁adjust	-3474
▁corpor	-3475
▁po	-3476
atever	-3477
island	-3478
anta	-3479
writ	-3480
▁largest	-3481
▁conference	-3482
amin	-3483
▁eight	-3484
▁dating	-3485
▁mer	-3486
▁assess	-3487
florida	-3488
▁transport	-3489
boy	-3490
vant	-3491
▁states	-3492
▁opening	-3493
▁belie	-3494
▁demand	-3495
rd	-3496
van	-3497
▁served	-3498
▁storage	-3499
▁flav	-3500
isions	-3501
▁damage	-3502
▁estate	-3503
start	-3504
▁analy	-3505
gal	-3506
exper	-3507
▁candid	-3508
lake	-3509
▁bank	-3510
▁jobs	-3511
▁tips	-3512
quest	-3513
▁thanks	-3514
oper	-3515
oving	-3516
▁coffee	-3517
jer	-3518
▁lik	-3519
during	-3520
▁culture	-3521
▁named	-3522
▁pen	-3523
▁sem	-3524
▁pred	-3525
▁numbers	-3526
▁completed	-3527
print	-3528
▁background	-3529
arc	-3530
▁rates	-3531
russ	-3532
fit	-3533
▁histor	-3534
australia	-3535
▁rock	-3536
▁understanding	-3537
ivil	-3538
▁cash	-3539
▁immediately	-3540
▁driving	-3541
bank	-3542
working	-3543
▁responsible	-3544
▁plus	-3545
▁considered	-3546
▁creative	-3547
lying	-3548
▁mis	-3549
organ	-3550
undred	-3551
▁father	-3552
▁gradu	-3553
▁truly	-3554
▁afford	-3555
▁setting	-3556
hens	-3557
media	-3558
cd	-3559
compl	-3560
author	-3561
ails	-3562
za	-3563
▁haven	-3564
▁cards	-3565
▁fashion	-3566
vict	-3567
bul	-3568
▁beyond	-3569
onstr	-3570
▁wine	-3571
ota	-3572
oil	-3573
jes	-3574
sell	-3575
azine	-3576
▁experienced	-3577
nded	-3578
▁knew	-3579
▁analysis	-3580
cel	-3581
family	-3582
▁occas	-3583
▁normal	-3584
download	-3585
icing	-3586
▁button	-3587
education	-3588
ously	-3589
▁accur	-3590
▁owner	-3591
▁reviews	-3592
orial	-3593
▁welcome	-3594
▁purpose	-3595
▁prefer	-3596
▁husband	-3597
aded	-3598
ategy	-3599
thom	-3600
▁cream	-3601
ampions	-3602
central	-3603
rooms	-3604
▁pool	-3605
▁regul	-3606
va	-3607
ald	-3608
ocolate	-3609
▁frame	-3610
▁colors	-3611
▁runs	-3612
▁talking	-3613
▁disease	-3614
▁political	-3615
chic	-3616
▁degree	-3617
publ	-3618
▁guys	-3619
lement	-3620
▁threat	-3621
iar	-3622
▁machine	-3623
republic	-3624
▁shopping	-3625
▁ingred	-3626
▁holiday	-3627
▁born	-3628
text	-3629
cat	-3630
anned	-3631
arily	-3632
▁train	-3633
icken	-3634
sil	-3635
▁satis	-3636
▁initial	-3637
priate	-3638
▁launch	-3639
▁onto	-3640
posted	-3641
brown	-3642
▁park	-3643
▁session	-3644
lou	-3645
▁paint	-3646
▁sugar	-3647
▁changed	-3648
▁guy	-3649
▁files	-3650
jour	-3651
▁looked	-3652
case	-3653
▁slight	-3654
▁evening	-3655
pare	-3656
▁indic	-3657
▁fem	-3658
istered	-3659
▁highest	-3660
▁helped	-3661
grand	-3662
▁shipping	-3663
▁prec	-3664
aud	-3665
▁volunte	-3666
▁surv	-3667
equ	-3668
▁lines	-3669
ences	-3670
▁object	-3671
▁fill	-3672
children	-3673
▁increased	-3674
help	-3675
▁proud	-3676
▁himself	-3677
pd	-3678
▁opin	-3679
weight	-3680
▁proced	-3681
lor	-3682
▁clin	-3683
▁artist	-3684
bow	-3685
▁egg	-3686
oph	-3687
▁spirit	-3688
▁particularly	-3689
fund	-3690
▁drop	-3691
through	-3692
▁camera	-3693
▁winter	-3694
▁federal	-3695
district	-3696
▁fant	-3697
▁mission	-3698
ws	-3699
▁daughter	-3700
itect	-3701
▁strugg	-3702
▁traffic	-3703
▁absolute	-3704
lord	-3705
pass	-3706
product	-3707
▁journey	-3708
▁produce	-3709
ris	-3710
▁craft	-3711
▁rules	-3712
science	-3713
▁pressure	-3714
hu	-3715
offic	-3716
rey	-3717
istics	-3718
▁models	-3719
▁economic	-3720
copy	-3721
▁allowed	-3722
▁selection	-3723
iling	-3724
▁patient	-3725
full	-3726
atl	-3727
lies	-3728
▁spread	-3729
▁highlight	-3730
const	-3731
▁incred	-3732
▁vac	-3733
profess	-3734
div	-3735
thes	-3736
▁efforts	-3737
union	-3738
▁stream	-3739
▁secure	-3740
going	-3741
▁spring	-3742
▁existing	-3743
han	-3744
rapy	-3745
▁bul	-3746
▁increasing	-3747
▁furn	-3748
▁videos	-3749
▁subst	-3750
clusive	-3751
▁letter	-3752
french	-3753
▁peace	-3754
british	-3755
pects	-3756
mes	-3757
▁bill	-3758
tit	-3759
obama	-3760
▁behav	-3761
▁residents	-3762
▁manager	-3763
master	-3764
▁frequ	-3765
▁mail	-3766
▁relax	-3767
▁fan	-3768
hd	-3769
project	-3770
▁measure	-3771
social	-3772
xim	-3773
contin	-3774
▁heavy	-3775
▁trade	-3776
▁couldn	-3777
▁middle	-3778
▁powerful	-3779
▁challenges	-3780
▁beauty	-3781
▁certainly	-3782
icon	-3783
▁basis	-3784
fortun	-3785
ologies	-3786
development	-3787
porary	-3788
▁subscri	-3789
resp	-3790
▁obtain	-3791
▁shared	-3792
▁dedicated	-3793
▁smooth	-3794
▁liter	-3795
unk	-3796
▁update	-3797
▁moved	-3798
▁seeing	-3799
▁multi	-3800
▁gain	-3801
▁wild	-3802
lished	-3803
▁cru	-3804
dec	-3805
mill	-3806
annel	-3807
▁payment	-3808
▁taste	-3809
uce	-3810
acity	-3811
▁links	-3812
support	-3813
▁schedule	-3814
iger	-3815
▁ban	-3816
▁rese	-3817
includ	-3818
▁alone	-3819
▁instruct	-3820
somet	-3821
whether	-3822
▁cars	-3823
▁gone	-3824
encies	-3825
▁science	-3826
▁demonstr	-3827
▁organizations	-3828
imal	-3829
▁whose	-3830
▁transfer	-3831
blog	-3832
pping	-3833
▁refer	-3834
▁hundred	-3835
roid	-3836
▁aren	-3837
▁brother	-3838
term	-3839
oe	-3840
▁supply	-3841
▁effects	-3842
ying	-3843
▁ton	-3844
front	-3845
pared	-3846
▁protection	-3847
▁basic	-3848
▁steps	-3849
rian	-3850
▁characters	-3851
uled	-3852
▁competition	-3853
▁church	-3854
ico	-3855
apter	-3856
▁guests	-3857
river	-3858
standing	-3859
▁communities	-3860
▁passion	-3861
gn	-3862
tre	-3863
fol	-3864
ona	-3865
▁graph	-3866
▁extremely	-3867
oices	-3868
▁butter	-3869
ronic	-3870
▁cast	-3871
▁compon	-3872
▁finding	-3873
western	-3874
apers	-3875
iture	-3876
▁forget	-3877
▁reasons	-3878
times	-3879
foundation	-3880
sequ	-3881
▁strength	-3882
▁unit	-3883
next	-3884
▁posts	-3885
aming	-3886
▁garden	-3887
▁sched	-3888
bour	-3889
ened	-3890
flow	-3891
▁notice	-3892
▁scient	-3893
▁fa	-3894
▁hospital	-3895
ht	-3896
ni	-3897
learn	-3898
anging	-3899
ergency	-3900
commission	-3901
▁guid	-3902
▁ideal	-3903
▁happened	-3904
▁rob	-3905
site	-3906
ston	-3907
asure	-3908
before	-3909
▁shown	-3910
▁voice	-3911
▁manufacture	-3912
▁coach	-3913
▁leader	-3914
▁determin	-3915
bill	-3916
▁breat	-3917
▁remind	-3918
ari	-3919
▁academ	-3920
▁eval	-3921
security	-3922
▁au	-3923
foot	-3924
▁waiting	-3925
both	-3926
osing	-3927
▁batter	-3928
alex	-3929
▁luck	-3930
▁classes	-3931
rief	-3932
▁solid	-3933
stone	-3934
▁beg	-3935
▁pair	-3936
▁biggest	-3937
▁meaning	-3938
▁although	-3939
▁experiences	-3940
▁stick	-3941
tot	-3942
engine	-3943
▁lack	-3944
▁trou	-3945
▁adding	-3946
▁passed	-3947
gers	-3948
▁views	-3949
▁covered	-3950
▁fear	-3951
▁regarding	-3952
num	-3953
▁beat	-3954
another	-3955
berg	-3956
▁snow	-3957
tur	-3958
▁cit	-3959
▁gun	-3960
▁score	-3961
▁senior	-3962
▁surface	-3963
mi	-3964
lied	-3965
ifying	-3966
azon	-3967
itar	-3968
apt	-3969
aven	-3970
rial	-3971
▁contains	-3972
cc	-3973
▁sand	-3974
▁scene	-3975
ams	-3976
fre	-3977
sand	-3978
▁electric	-3979
orm	-3980
irection	-3981
▁compared	-3982
▁standards	-3983
ration	-3984
ya	-3985
zer	-3986
ordin	-3987
lyn	-3988
▁continues	-3989
▁associated	-3990
olar	-3991
▁conven	-3992
▁advantage	-3993
bas	-3994
ags	-3995
video	-3996
▁disapp	-3997
data	-3998
tour	-3999
▁window	-4000
nic	-4001
▁ju	-4002
rick	-4003
orney	-4004
▁den	-4005
enter	-4006
▁starts	-4007
▁classic	-4008
▁package	-4009
grade	-4010
▁minute	-4011
▁calls	-4012
▁names	-4013
iques	-4014
▁throw	-4015
▁continued	-4016
▁died	-4017
▁recipe	-4018
iverse	-4019
▁master	-4020
▁military	-4021
dou	-4022
commod	-4023
▁und	-4024
▁experts	-4025
▁professionals	-4026
▁ice	-4027
mical	-4028
related	-4029
▁dinner	-4030
▁keeping	-4031
▁artists	-4032
england	-4033
ipes	-4034
▁guess	-4035
▁figure	-4036
ara	-4037
▁dang	-4038
▁closed	-4039
▁talent	-4040
▁ran	-4041
▁epis	-4042
▁district	-4043
▁pm	-4044
noon	-4045
store	-4046
▁manage	-4047
institute	-4048
▁wat	-4049
▁cab	-4050
beach	-4051
their	-4052
▁followed	-4053
▁technical	-4054
wis	-4055
▁circ	-4056
▁larger	-4057
▁reflect	-4058
gery	-4059
▁nove	-4060
illage	-4061
valley	-4062
▁connection	-4063
mass	-4064
atures	-4065
▁listed	-4066
▁sustain	-4067
▁football	-4068
▁cra	-4069
▁knows	-4070
▁trail	-4071
cm	-4072
▁critical	-4073
▁awes	-4074
ula	-4075
▁friendly	-4076
▁jump	-4077
▁strategy	-4078
▁laun	-4079
▁fabric	-4080
allery	-4081
▁fish	-4082
▁capital	-4083
mex	-4084
▁shape	-4085
▁officials	-4086
aly	-4087
jim	-4088
▁income	-4089
▁audience	-4090
▁resident	-4091
carol	-4092
▁virt	-4093
▁winning	-4094
fair	-4095
▁medium	-4096
oma	-4097
▁gra	-4098
▁opened	-4099
▁studies	-4100
▁efficient	-4101
bes	-4102
elling	-4103
ette	-4104
▁teaching	-4105
▁sym	-4106
▁facilities	-4107
▁fol	-4108
quality	-4109
▁developing	-4110
▁ship	-4111
▁advent	-4112
▁tim	-4113
▁bright	-4114
hard	-4115
▁motor	-4116
▁doctor	-4117
▁learned	-4118
▁restaurant	-4119
mu	-4120
okes	-4121
▁salt	-4122
connect	-4123
▁arrest	-4124
▁watching	-4125
wing	-4126
season	-4127
▁kept	-4128
▁ingredients	-4129
women	-4130
▁handle	-4131
▁awesome	-4132
ums	-4133
▁placed	-4134
▁thousands	-4135
level	-4136
▁poor	-4137
▁initi	-4138
ements	-4139
▁entry	-4140
▁bought	-4141
▁station	-4142
▁workers	-4143
▁rich	-4144
acement	-4145
▁exciting	-4146
▁leaves	-4147
▁leaving	-4148
▁grant	-4149
▁produced	-4150
▁updated	-4151
▁institut	-4152
conference	-4153
spring	-4154
igation	-4155
edy	-4156
ki	-4157
vi	-4158
scott	-4159
ishes	-4160
▁older	-4161
▁established	-4162
▁greater	-4163
▁appropriate	-4164
ixt	-4165
antic	-4166
▁princ	-4167
▁neighbor	-4168
ech	-4169
▁explore	-4170
franc	-4171
▁plenty	-4172
series	-4173
yer	-4174
cles	-4175
venue	-4176
▁force	-4177
▁spons	-4178
itors	-4179
▁catch	-4180
▁presented	-4181
jul	-4182
chicago	-4183
▁famous	-4184
▁tickets	-4185
▁monitor	-4186
max	-4187
inese	-4188
inger	-4189
brand	-4190
ograp	-4191
▁speak	-4192
▁sharing	-4193
gi	-4194
happ	-4195
type	-4196
▁claims	-4197
▁facility	-4198
bling	-4199
looking	-4200
▁cry	-4201
jesus	-4202
▁rooms	-4203
▁department	-4204
aa	-4205
access	-4206
atically	-4207
▁testing	-4208
size	-4209
award	-4210
▁requires	-4211
▁whatever	-4212
▁announce	-4213
▁sport	-4214
▁remove	-4215
▁mo	-4216
lands	-4217
wil	-4218
party	-4219
▁veget	-4220
academ	-4221
walk	-4222
amazon	-4223
invest	-4224
▁driver	-4225
▁victim	-4226
▁vote	-4227
▁theme	-4228
▁advance	-4229
jud	-4230
pac	-4231
zen	-4232
▁remains	-4233
▁useful	-4234
▁becoming	-4235
ups	-4236
tech	-4237
ooper	-4238
▁shall	-4239
▁buying	-4240
email	-4241
▁prepar	-4242
▁designs	-4243
▁properties	-4244
ctors	-4245
tenance	-4246
▁discover	-4247
▁flat	-4248
▁structure	-4249
▁swe	-4250
▁yester	-4251
rome	-4252
atively	-4253
code	-4254
▁map	-4255
cost	-4256
▁flex	-4257
”,	-4258
prote	-4259
commit	-4260
▁selected	-4261
cin	-4262
▁stores	-4263
report	-4264
▁repair	-4265
▁vision	-4266
berry	-4267
osure	-4268
▁tree	-4269
actions	-4270
▁brings	-4271
▁beach	-4272
▁diagn	-4273
▁tables	-4274
▁happens	-4275
▁valu	-4276
muse	-4277
lastname	-4278
join	-4279
being	-4280
itude	-4281
price	-4282
▁desk	-4283
▁signed	-4284
▁street	-4285
christian	-4286
girl	-4287
agram	-4288
chris	-4289
pective	-4290
origin	-4291
▁serving	-4292
??	-4293
oom	-4294
ifts	-4295
▁balance	-4296
▁bra	-4297
▁alleg	-4298
▁plants	-4299
fortunately	-4300
▁menu	-4301
burg	-4302
books	-4303
▁crow	-4304
▁plastic	-4305
gas	-4306
bles	-4307
▁articles	-4308
vere	-4309
▁yesterday	-4310
days	-4311
uries	-4312
ximately	-4313
▁journal	-4314
atab	-4315
▁rain	-4316
▁chocolate	-4317
iency	-4318
▁perhaps	-4319
outs	-4320
▁memory	-4321
▁primary	-4322
ira	-4323
ped	-4324
▁anti	-4325
▁wouldn	-4326
ec	-4327
▁fee	-4328
mond	-4329
▁scen	-4330
chinese	-4331
▁operations	-4332
▁ul	-4333
▁secret	-4334
▁direction	-4335
cohol	-4336
government	-4337
hotel	-4338
▁pray	-4339
▁prepared	-4340
▁drug	-4341
▁funds	-4342
▁library	-4343
▁spending	-4344
haw	-4345
claim	-4346
society	-4347
▁temperature	-4348
got	-4349
▁actual	-4350
▁corner	-4351
▁economy	-4352
ading	-4353
george	-4354
limited	-4355
▁status	-4356
known	-4357
▁util	-4358
▁movement	-4359
enses	-4360
▁faith	-4361
▁meant	-4362
hab	-4363
sex	-4364
tic	-4365
rael	-4366
▁mist	-4367
▁discount	-4368
wer	-4369
▁mechan	-4370
ceo	-4371
▁cris	-4372
lock	-4373
▁resist	-4374
frank	-4375
▁ride	-4376
copyright	-4377
▁numerous	-4378
▁raised	-4379
",	-4380
chief	-4381
▁busy	-4382
greg	-4383
africa	-4384
▁forms	-4385
medical	-4386
▁orders	-4387
▁changing	-4388
▁syn	-4389
sn	-4390
▁locations	-4391
gra	-4392
dered	-4393
vention	-4394
adv	-4395
▁focused	-4396
▁exercise	-4397
▁communication	-4398
ket	-4399
aper	-4400
▁dep	-4401
▁core	-4402
link	-4403
journal	-4404
▁injury	-4405
agon	-4406
▁eating	-4407
**	-4408
odes	-4409
creat	-4410
abilities	-4411
tem	-4412
mid	-4413
▁youth	-4414
microsoft	-4415
ci	-4416
israel	-4417
▁notes	-4418
▁independent	-4419
sea	-4420
▁listen	-4421
▁survey	-4422
▁showing	-4423
!!!	-4424
riage	-4425
▁favour	-4426
rict	-4427
▁obvious	-4428
share	-4429
▁rare	-4430
lets	-4431
▁advanced	-4432
far	-4433
▁brown	-4434
congress	-4435
essions	-4436
▁afternoon	-4437
▁psy	-4438
lines	-4439
trump	-4440
▁putting	-4441
▁evidence	-4442
▁combination	-4443
technology	-4444
▁worry	-4445
ini	-4446
▁wire	-4447
▁records	-4448
cos	-4449
▁ended	-4450
umin	-4451
▁suff	-4452
source	-4453
▁animals	-4454
▁methods	-4455
▁reality	-4456
▁practices	-4457
pu	-4458
dev	-4459
▁drink	-4460
▁slightly	-4461
pad	-4462
anth	-4463
iences	-4464
want	-4465
second	-4466
ss	-4467
▁micro	-4468
current	-4469
▁enjoyed	-4470
▁caused	-4471
▁missing	-4472
die	-4473
hun	-4474
▁limit	-4475
sports	-4476
kit	-4477
▁determine	-4478
kin	-4479
▁tend	-4480
▁metal	-4481
gb	-4482
maybe	-4483
▁agency	-4484
▁sources	-4485
centre	-4486
▁sector	-4487
▁showed	-4488
ded	-4489
▁cleaning	-4490
▁operating	-4491
fi	-4492
▁inf	-4493
▁environmental	-4494
▁estim	-4495
mike	-4496
▁lux	-4497
indust	-4498
▁joined	-4499
tru	-4500
olic	-4501
▁diet	-4502
▁shel	-4503
▁relig	-4504
bob	-4505
meet	-4506
▁mill	-4507
bud	-4508
▁flu	-4509
▁dance	-4510
▁compre	-4511
▁teachers	-4512
▁shut	-4513
peter	-4514
▁thoughts	-4515
hus	-4516
imp	-4517
estic	-4518
ivered	-4519
▁sch	-4520
ander	-4521
robert	-4522
▁updates	-4523
need	-4524
ript	-4525
▁funding	-4526
▁organis	-4527
sor	-4528
eter	-4529
earth	-4530
▁capacity	-4531
▁dete	-4532
▁lose	-4533
employ	-4534
igan	-4535
isher	-4536
perform	-4537
▁colour	-4538
▁profile	-4539
▁assistance	-4540
▁nar	-4541
▁songs	-4542
rupt	-4543
▁visual	-4544
bridge	-4545
ampionship	-4546
▁appears	-4547
▁accident	-4548
▁visitors	-4549
did	-4550
ownt	-4551
library	-4552
▁previously	-4553
available	-4554
anna	-4555
hope	-4556
scre	-4557
▁repe	-4558
▁steel	-4559
lie	-4560
▁thr	-4561
▁chair	-4562
▁filled	-4563
azz	-4564
hon	-4565
▁du	-4566
those	-4567
▁brain	-4568
▁sea	-4569
▁south	-4570
android	-4571
▁managed	-4572
jeff	-4573
ception	-4574
ales	-4575
▁cart	-4576
▁swim	-4577
▁decide	-4578
▁corporate	-4579
▁coll	-4580
democr	-4581
▁charges	-4582
ili	-4583
ferences	-4584
▁markets	-4585
inch	-4586
▁deb	-4587
istan	-4588
▁https	-4589
▁honest	-4590
▁chat	-4591
▁spl	-4592
▁neck	-4593
▁cheese	-4594
▁allowing	-4595
squ	-4596
▁raise	-4597
▁stret	-4598
building	-4599
wild	-4600
▁rev	-4601
▁extensive	-4602
acks	-4603
▁teacher	-4604
▁accommod	-4605
edom	-4606
global	-4607
▁helpful	-4608
▁ath	-4609
louis	-4610
▁legisl	-4611
▁central	-4612
▁walking	-4613
▁committed	-4614
ett	-4615
away	-4616
▁firstname	-4617
hr	-4618
▁lunch	-4619
hensive	-4620
▁absolutely	-4621
▁fold	-4622
energy	-4623
ervation	-4624
▁documents	-4625
ellig	-4626
manager	-4627
▁asking	-4628
▁coverage	-4629
assist	-4630
▁vehicles	-4631
▁pal	-4632
francis	-4633
iration	-4634
aked	-4635
inn	-4636
pop	-4637
uty	-4638
appro	-4639
welcome	-4640
▁outdoor	-4641
▁smaller	-4642
pract	-4643
▁tast	-4644
▁selling	-4645
▁register	-4646
style	-4647
digital	-4648
gon	-4649
▁milk	-4650
▁inspired	-4651
▁leadership	-4652
parent	-4653
▁promote	-4654
▁decisions	-4655
human	-4656
▁architect	-4657
pot	-4658
rose	-4659
▁north	-4660
▁population	-4661
?”	-4662
pow	-4663
▁earth	-4664
ola	-4665
sky	-4666
tun	-4667
network	-4668
▁reached	-4669
committee	-4670
▁elements	-4671
▁relationships	-4672
▁counter	-4673
▁establish	-4674
▁expensive	-4675
▁partnership	-4676
france	-4677
angeles	-4678
pie	-4679
▁sauce	-4680
medic	-4681
▁parties	-4682
▁delicious	-4683
py	-4684
bac	-4685
dog	-4686
▁becomes	-4687
▁dy	-4688
legal	-4689
▁agree	-4690
chair	-4691
▁lovely	-4692
▁windows	-4693
▁concerns	-4694
▁expertise	-4695
admin	-4696
▁topic	-4697
▁winner	-4698
▁society	-4699
▁van	-4700
inste	-4701
kings	-4702
comple	-4703
▁radio	-4704
four	-4705
▁spect	-4706
▁upcoming	-4707
nut	-4708
icip	-4709
travel	-4710
▁willing	-4711
aser	-4712
photo	-4713
iers	-4714
▁registered	-4715
non	-4716
▁relevant	-4717
saf	-4718
worth	-4719
▁truth	-4720
▁rid	-4721
▁launched	-4722
▁connected	-4723
▁fourth	-4724
▁century	-4725
omb	-4726
▁task	-4727
atin	-4728
suit	-4729
▁sounds	-4730
▁bac	-4731
▁format	-4732
▁techniques	-4733
buy	-4734
▁movies	-4735
▁eth	-4736
▁fees	-4737
ocket	-4738
cook	-4739
▁doll	-4740
▁plays	-4741
pur	-4742
osis	-4743
▁kid	-4744
▁instru	-4745
▁despite	-4746
▁bon	-4747
▁situ	-4748
museum	-4749
rics	-4750
▁enhance	-4751
!)	-4752
asp	-4753
omin	-4754
prise	-4755
▁approximately	-4756
plo	-4757
three	-4758
▁loan	-4759
ym	-4760
rie	-4761
born	-4762
▁joint	-4763
▁defense	-4764
▁anywhere	-4765
ius	-4766
▁citiz	-4767
▁values	-4768
lot	-4769
prov	-4770
▁stre	-4771
thomas	-4772
▁explain	-4773
▁dur	-4774
▁civil	-4775
▁panel	-4776
▁innovative	-4777
▁commitment	-4778
▁discussion	-4779
bled	-4780
▁delivered	-4781
▁operation	-4782
kel	-4783
▁essay	-4784
hom	-4785
virgin	-4786
eless	-4787
▁readers	-4788
▁educational	-4789
hou	-4790
ubs	-4791
kes	-4792
▁nav	-4793
▁separate	-4794
een	-4795
▁maintenance	-4796
▁recommended	-4797
prem	-4798
secut	-4799
▁surgery	-4800
def	-4801
▁meat	-4802
dc	-4803
▁sav	-4804
ita	-4805
oles	-4806
▁feels	-4807
▁waste	-4808
▁tun	-4809
month	-4810
▁generally	-4811
▁assign	-4812
ero	-4813
▁rap	-4814
▁toward	-4815
▁courses	-4816
▁controll	-4817
cov	-4818
▁mental	-4819
mur	-4820
▁cheap	-4821
▁fellow	-4822
sem	-4823
▁parking	-4824
job	-4825
▁identify	-4826
fed	-4827
cean	-4828
idering	-4829
▁encourage	-4830
▁fantastic	-4831
▁presence	-4832
▁optim	-4833
▁killed	-4834
cription	-4835
▁calling	-4836
▁emergency	-4837
ensions	-4838
▁cooking	-4839
cape	-4840
lind	-4841
▁tea	-4842
▁photograph	-4843
does	-4844
▁argu	-4845
elines	-4846
icies	-4847
▁roof	-4848
▁editor	-4849
jon	-4850
icians	-4851
▁sympt	-4852
▁agreement	-4853
nel	-4854
rings	-4855
▁edge	-4856
rid	-4857
▁adults	-4858
▁landsc	-4859
▁feedback	-4860
▁vs	-4861
ipal	-4862
making	-4863
▁charged	-4864
hell	-4865
▁joy	-4866
▁nine	-4867
▁chicken	-4868
▁guest	-4869
archers	-4870
▁arrang	-4871
sar	-4872
games	-4873
▁seat	-4874
▁server	-4875
▁hearing	-4876
▁sitting	-4877
▁processes	-4878
▁sets	-4879
▁fuel	-4880
▁rise	-4881
▁appearance	-4882
▁consumers	-4883
▁mur	-4884
▁mostly	-4885
▁academic	-4886
▁combined	-4887
eed	-4888
hal	-4889
stock	-4890
▁od	-4891
▁accompl	-4892
cred	-4893
▁fruit	-4894
asia	-4895
▁signs	-4896
▁generation	-4897
▁trial	-4898
▁featured	-4899
▁executive	-4900
▁installation	-4901
irmed	-4902
letter	-4903
▁intended	-4904
▁prepare	-4905
▁tight	-4906
chester	-4907
▁transl	-4908
▁teen	-4909
▁furniture	-4910
▁therefore	-4911
ko	-4912
shop	-4913
nament	-4914
▁category	-4915
▁rat	-4916
local	-4917
communic	-4918
wi	-4919
gent	-4920
heart	-4921
▁bowl	-4922
▁push	-4923
little	-4924
▁cities	-4925
▁provider	-4926
xx	-4927
cross	-4928
▁infr	-4929
▁detailed	-4930
ifications	-4931
jac	-4932
▁kick	-4933
▁factors	-4934
▁dogs	-4935
▁alternative	-4936
▁brief	-4937
▁breast	-4938
▁properly	-4939
burn	-4940
▁battle	-4941
▁responsibility	-4942
bost	-4943
iled	-4944
▁seconds	-4945
▁confident	-4946
▁motiv	-4947
johnson	-4948
▁studio	-4949
▁confidence	-4950
clean	-4951
▁brands	-4952
▁info	-4953
martin	-4954
agement	-4955
▁chemical	-4956
span	-4957
ulated	-4958
▁participate	-4959
amb	-4960
drive	-4961
atabase	-4962
▁sister	-4963
▁removed	-4964
unning	-4965
▁exchange	-4966
▁majority	-4967
▁entertainment	-4968
rat	-4969
matt	-4970
happy	-4971
▁mort	-4972
▁holding	-4973
▁bringing	-4974
▁measures	-4975
▁transform	-4976
kn	-4977
kins	-4978
young	-4979
▁approved	-4980
▁kill	-4981
▁meal	-4982
othing	-4983
record	-4984
▁caught	-4985
▁purchased	-4986
ja	-4987
secret	-4988
▁tough	-4989
▁novel	-4990
▁seeking	-4991
▁scheduled	-4992
▁ven	-4993
▁lock	-4994
▁described	-4995
guide	-4996
▁female	-4997
▁occasion	-4998
▁websites	-4999
joe	-5000
festival	-5001
▁participants	-5002
jose	-5003
ulty	-5004
visit	-5005
▁clim	-5006
▁importance	-5007
▁achie	-5008
▁writer	-5009
students	-5010
▁totally	-5011
▁distance	-5012
dro	-5013
priv	-5014
▁stars	-5015
americans	-5016
▁returned	-5017
jones	-5018
applic	-5019
▁psych	-5020
interest	-5021
execut	-5022
▁minor	-5023
ager	-5024
▁rom	-5025
▁opinion	-5026
kar	-5027
icate	-5028
canad	-5029
▁satisf	-5030
▁wearing	-5031
ushed	-5032
econom	-5033
▁guarantee	-5034
anda	-5035
▁ment	-5036
▁sides	-5037
▁thick	-5038
▁familiar	-5039
▁performed	-5040
table	-5041
▁contem	-5042
▁supporting	-5043
dam	-5044
iner	-5045
prene	-5046
mother	-5047
▁centre	-5048
turn	-5049
▁hundreds	-5050
wat	-5051
▁shap	-5052
▁maximum	-5053
▁appeared	-5054
hors	-5055
▁vir	-5056
▁ring	-5057
▁coast	-5058
▁units	-5059
sometimes	-5060
australian	-5061
ols	-5062
paper	-5063
▁seek	-5064
boston	-5065
control	-5066
▁topics	-5067
hospital	-5068
▁restrict	-5069
▁investigation	-5070
asks	-5071
expl	-5072
space	-5073
▁monthly	-5074
▁ourselves	-5075
trust	-5076
▁fell	-5077
ushing	-5078
▁teach	-5079
▁switch	-5080
▁climate	-5081
mony	-5082
ulture	-5083
▁installed	-5084
otton	-5085
host	-5086
kore	-5087
▁doors	-5088
reprene	-5089
▁depending	-5090
inct	-5091
▁comprehensive	-5092
break	-5093
▁trees	-5094
▁magazine	-5095
pdf	-5096
oga	-5097
irds	-5098
▁mentioned	-5099
▁worldwide	-5100
try	-5101
alog	-5102
▁quiet	-5103
▁sizes	-5104
▁sexual	-5105
▁clearly	-5106
hs	-5107
coast	-5108
▁leads	-5109
▁foreign	-5110
▁impl	-5111
▁begins	-5112
▁supported	-5113
guard	-5114
ulous	-5115
▁gather	-5116
▁episode	-5117
▁conversation	-5118
map	-5119
▁lap	-5120
itness	-5121
▁mouth	-5122
▁minimum	-5123
▁advertising	-5124
minister	-5125
sat	-5126
▁hun	-5127
▁competitive	-5128
cir	-5129
ixture	-5130
▁square	-5131
cry	-5132
ighter	-5133
eper	-5134
steve	-5135
▁celebrate	-5136
▁tests	-5137
▁valid	-5138
country	-5139
▁visiting	-5140
bb	-5141
eline	-5142
idden	-5143
▁vary	-5144
▁married	-5145
small	-5146
summer	-5147
ho	-5148
nav	-5149
core	-5150
▁chief	-5151
▁veter	-5152
fox	-5153
sus	-5154
▁pros	-5155
▁apparent	-5156
▁birthday	-5157
german	-5158
ohio	-5159
otic	-5160
enjoy	-5161
▁tail	-5162
academy	-5163
japanese	-5164
▁flowers	-5165
▁otherwise	-5166
▁affordable	-5167
verse	-5168
▁invent	-5169
▁struct	-5170
▁breakfast	-5171
fill	-5172
tube	-5173
▁flo	-5174
▁cells	-5175
▁ticket	-5176
▁bond	-5177
estyle	-5178
victor	-5179
▁species	-5180
▁accounts	-5181
wear	-5182
▁ang	-5183
rights	-5184
▁apps	-5185
abs	-5186
mosp	-5187
▁bike	-5188
rical	-5189
▁reco	-5190
pected	-5191
▁audio	-5192
▁picked	-5193
▁delight	-5194
▁featuring	-5195
arp	-5196
iser	-5197
tered	-5198
▁scored	-5199
rate	-5200
▁boost	-5201
mult	-5202
▁deals	-5203
▁draft	-5204
▁teeth	-5205
▁shooting	-5206
▁truck	-5207
african	-5208
);	-5209
▁vent	-5210
▁bread	-5211
station	-5212
▁animal	-5213
▁policies	-5214
daily	-5215
endar	-5216
▁honor	-5217
▁faster	-5218
fc	-5219
ora	-5220
ailability	-5221
kat	-5222
▁pepper	-5223
dar	-5224
beaut	-5225
number	-5226
▁alcohol	-5227
▁marriage	-5228
▁possibly	-5229
▁introduced	-5230
▁technologies	-5231
prom	-5232
ryan	-5233
▁regularly	-5234
mobile	-5235
▁noted	-5236
▁predict	-5237
kind	-5238
range	-5239
▁battery	-5240
▁confirm	-5241
▁illustr	-5242
▁officer	-5243
gradu	-5244
▁bigger	-5245
ez	-5246
▁boat	-5247
iminal	-5248
▁scale	-5249
area	-5250
chang	-5251
▁spin	-5252
▁label	-5253
instead	-5254
▁administration	-5255
odies	-5256
▁weap	-5257
▁eventually	-5258
umn	-5259
▁icon	-5260
▁cloud	-5261
▁shoes	-5262
▁aid	-5263
▁boys	-5264
random	-5265
▁behavior	-5266
▁remaining	-5267
tick	-5268
▁ris	-5269
▁liqu	-5270
germany	-5271
▁arrived	-5272
▁basket	-5273
▁recovery	-5274
▁cro	-5275
ancer	-5276
usion	-5277
▁dollars	-5278
ali	-5279
atre	-5280
▁pit	-5281
ulate	-5282
section	-5283
▁pu	-5284
abet	-5285
osen	-5286
▁evalu	-5287
federal	-5288
▁unless	-5289
▁reliable	-5290
astructure	-5291
▁der	-5292
▁pump	-5293
lywood	-5294
▁inches	-5295
▁neighborhood	-5296
rier	-5297
▁fly	-5298
▁compar	-5299
▁revealed	-5300
▁discovered	-5301
nas	-5302
georg	-5303
williams	-5304
▁consumer	-5305
wish	-5306
▁manufacturing	-5307
kr	-5308
▁thread	-5309
▁volume	-5310
wy	-5311
morrow	-5312
profit	-5313
▁suitable	-5314
bat	-5315
▁fif	-5316
thent	-5317
training	-5318
select	-5319
history	-5320
▁concent	-5321
▁symptoms	-5322
spec	-5323
▁fro	-5324
grees	-5325
▁campus	-5326
covery	-5327
▁choices	-5328
yard	-5329
▁nurs	-5330
▁doubt	-5331
▁flight	-5332
▁drivers	-5333
ae	-5334
bear	-5335
▁realize	-5336
idays	-5337
▁dynam	-5338
▁reput	-5339
gov	-5340
▁appreciate	-5341
▁mine	-5342
▁agent	-5343
▁broken	-5344
▁incorpor	-5345
▁painting	-5346
▁rub	-5347
friendly	-5348
▁answers	-5349
▁cutting	-5350
words	-5351
▁blow	-5352
▁quot	-5353
▁components	-5354
vd	-5355
mean	-5356
phys	-5357
▁mel	-5358
▁elig	-5359
cking	-5360
speed	-5361
▁poll	-5362
▁planned	-5363
penn	-5364
▁dish	-5365
▁submit	-5366
marketing	-5367
▁restaurants	-5368
oop	-5369
irms	-5370
▁election	-5371
▁appointment	-5372
▁sessions	-5373
▁television	-5374
ura	-5375
▁corn	-5376
▁pregn	-5377
standard	-5378
stat	-5379
▁cabin	-5380
▁compos	-5381
carolina	-5382
▁engineering	-5383
ena	-5384
rus	-5385
▁emer	-5386
▁rule	-5387
▁protected	-5388
mom	-5389
nick	-5390
supp	-5391
poses	-5392
orders	-5393
italian	-5394
members	-5395
natural	-5396
▁profit	-5397
has	-5398
acle	-5399
iamond	-5400
▁reserved	-5401
vit	-5402
give	-5403
▁clo	-5404
▁lived	-5405
owntown	-5406
▁earned	-5407
covid	-5408
▁load	-5409
▁films	-5410
▁twice	-5411
install	-5412
▁paying	-5413
▁warrant	-5414
▁considering	-5415
mir	-5416
▁cultural	-5417
▁perfectly	-5418
mos	-5419
division	-5420
cath	-5421
ician	-5422
still	-5423
▁dates	-5424
▁specifically	-5425
▁athlet	-5426
▁fields	-5427
▁applied	-5428
▁bedroom	-5429
▁ages	-5430
▁contest	-5431
▁agencies	-5432
▁internal	-5433
▁strategies	-5434
▁burn	-5435
ternal	-5436
▁dining	-5437
▁seemed	-5438
▁victory	-5439
▁exclusive	-5440
gage	-5441
▁covers	-5442
▁employee	-5443
▁interior	-5444
iat	-5445
adel	-5446
▁oven	-5447
▁golf	-5448
middle	-5449
▁missed	-5450
▁sad	-5451
story	-5452
▁license	-5453
▁revenue	-5454
ibilities	-5455
poon	-5456
▁forum	-5457
▁loves	-5458
rum	-5459
▁edition	-5460
▁housing	-5461
▁university	-5462
issue	-5463
▁lights	-5464
▁resource	-5465
shire	-5466
▁cere	-5467
▁returns	-5468
executive	-5469
easy	-5470
rance	-5471
father	-5472
▁labor	-5473
▁moist	-5474
▁automatically	-5475
▁mir	-5476
▁keeps	-5477
▁league	-5478
▁tomorrow	-5479
ario	-5480
farm	-5481
tle	-5482
base	-5483
▁oppos	-5484
▁confirmed	-5485
stream	-5486
▁thus	-5487
▁proposed	-5488
▁quant	-5489
▁desire	-5490
fs	-5491
stra	-5492
▁depos	-5493
▁grade	-5494
▁messages	-5495
▁commission	-5496
▁incredible	-5497
▁die	-5498
▁lit	-5499
▁yes	-5500
ospit	-5501
▁issued	-5502
▁ign	-5503
ships	-5504
proper	-5505
▁prison	-5506
▁aspects	-5507
▁extract	-5508
▁attorney	-5509
andy	-5510
mach	-5511
▁surf	-5512
▁chosen	-5513
▁practical	-5514
md	-5515
▁debut	-5516
ication	-5517
richard	-5518
▁supposed	-5519
fection	-5520
mt	-5521
ano	-5522
▁ben	-5523
▁vit	-5524
▁turns	-5525
▁buildings	-5526
▁surrounding	-5527
paris	-5528
▁cute	-5529
▁ends	-5530
account	-5531
▁remote	-5532
▁stretch	-5533
▁purposes	-5534
osh	-5535
rep	-5536
umes	-5537
▁anc	-5538
mexico	-5539
▁shares	-5540
ria	-5541
andrew	-5542
jackson	-5543
▁injuries	-5544
▁actions	-5545
▁improved	-5546
kay	-5547
gment	-5548
▁laws	-5549
▁chain	-5550
iest	-5551
▁cake	-5552
▁error	-5553
xy	-5554
▁spokes	-5555
▁styles	-5556
▁musical	-5557
▁accurate	-5558
▁standing	-5559
kim	-5560
▁wid	-5561
▁tells	-5562
▁circum	-5563
▁negative	-5564
▁industrial	-5565
tax	-5566
▁pod	-5567
▁affected	-5568
rac	-5569
conf	-5570
▁dra	-5571
▁hang	-5572
▁wheel	-5573
instagram	-5574
▁instructions	-5575
mind	-5576
▁pun	-5577
▁apartment	-5578
▁favourite	-5579
▁registration	-5580
▁cop	-5581
should	-5582
▁typically	-5583
bad	-5584
event	-5585
flict	-5586
▁pure	-5587
comput	-5588
▁speech	-5589
▁valuable	-5590
eas	-5591
isa	-5592
orable	-5593
▁island	-5594
▁moments	-5595
▁atmosp	-5596
ltd	-5597
save	-5598
▁rapid	-5599
erce	-5600
▁foods	-5601
▁researchers	-5602
iability	-5603
▁replace	-5604
fac	-5605
dist	-5606
daniel	-5607
isters	-5608
▁holds	-5609
▁county	-5610
▁failed	-5611
cling	-5612
pacific	-5613
▁meetings	-5614
.|	-5615
▁une	-5616
▁route	-5617
▁presentation	-5618
olymp	-5619
michigan	-5620
▁decades	-5621
tes	-5622
▁pleased	-5623
▁greatest	-5624
eler	-5625
▁poly	-5626
having	-5627
ato	-5628
▁debt	-5629
▁usual	-5630
▁influence	-5631
glass	-5632
track	-5633
intage	-5634
▁logo	-5635
▁whom	-5636
▁agreed	-5637
▁stated	-5638
husi	-5639
iors	-5640
▁inn	-5641
donald	-5642
▁element	-5643
▁bound	-5644
▁enable	-5645
▁degrees	-5646
▁recorded	-5647
▁awareness	-5648
due	-5649
stop	-5650
tele	-5651
▁dial	-5652
orough	-5653
tay	-5654
oosing	-5655
nc	-5656
pes	-5657
▁rot	-5658
sher	-5659
stay	-5660
zeal	-5661
▁perman	-5662
▁causes	-5663
▁everyday	-5664
▁processing	-5665
member	-5666
▁photograp	-5667
image	-5668
▁hero	-5669
▁reference	-5670
ache	-5671
hour	-5672
santa	-5673
safety	-5674
▁owned	-5675
▁leather	-5676
▁arm	-5677
▁hall	-5678
beat	-5679
▁plate	-5680
perfect	-5681
▁concerned	-5682
▁jack	-5683
▁mini	-5684
▁tack	-5685
living	-5686
▁emotional	-5687
requ	-5688
▁rough	-5689
▁elimin	-5690
oval	-5691
cular	-5692
▁trend	-5693
model	-5694
plate	-5695
ocking	-5696
vernor	-5697
▁grown	-5698
ulations	-5699
▁officers	-5700
▁supports	-5701
adium	-5702
canadian	-5703
smart	-5704
▁grad	-5705
▁recy	-5706
giving	-5707
▁powder	-5708
ucle	-5709
▁newsp	-5710
▁ongoing	-5711
pod	-5712
heat	-5713
iano	-5714
again	-5715
▁adventure	-5716
mbly	-5717
▁sam	-5718
itage	-5719
sembly	-5720
▁browser	-5721
welry	-5722
▁height	-5723
▁designer	-5724
fficient	-5725
▁stopped	-5726
orgeous	-5727
virginia	-5728
pon	-5729
swe	-5730
▁crazy	-5731
despite	-5732
▁premium	-5733
!”	-5734
cab	-5735
▁rear	-5736
jay	-5737
▁phil	-5738
subscri	-5739
personal	-5740
▁hardware	-5741
scot	-5742
oration	-5743
▁organic	-5744
▁bathroom	-5745
▁database	-5746
▁disappoint	-5747
awards	-5748
▁village	-5749
ipl	-5750
abled	-5751
▁mode	-5752
bag	-5753
irty	-5754
▁gro	-5755
▁tro	-5756
▁supplies	-5757
▁functions	-5758
▁effectively	-5759
▁gear	-5760
credit	-5761
▁crowd	-5762
▁calcul	-5763
▁surprise	-5764
broad	-5765
▁knowing	-5766
teen	-5767
▁crime	-5768
continue	-5769
▁creation	-5770
▁tradition	-5771
▁candidates	-5772
▁inspiration	-5773
dun	-5774
draw	-5775
▁tut	-5776
▁beer	-5777
▁licens	-5778
mountain	-5779
▁intellig	-5780
▁happening	-5781
environment	-5782
inal	-5783
arks	-5784
▁gam	-5785
radio	-5786
spanish	-5787
▁distribution	-5788
lan	-5789
▁aw	-5790
▁funny	-5791
▁receiving	-5792
▁electronic	-5793
▁infrastructure	-5794
upd	-5795
▁mixed	-5796
▁script	-5797
▁improvement	-5798
▁accepted	-5799
▁employment	-5800
▁identified	-5801
fish	-5802
▁tag	-5803
▁talks	-5804
▁weekly	-5805
learning	-5806
financial	-5807
▁facing	-5808
▁mixture	-5809
▁providers	-5810
pict	-5811
advis	-5812
clear	-5813
▁belong	-5814
▁treated	-5815
francisco	-5816
published	-5817
▁violence	-5818
plant	-5819
▁harm	-5820
▁serves	-5821
vy	-5822
mally	-5823
polit	-5824
▁advoc	-5825
russian	-5826
phas	-5827
colorado	-5828
shipping	-5829
?"	-5830
iated	-5831
▁disp	-5832
▁payments	-5833
▁administr	-5834
▁healthcare	-5835
▁fixed	-5836
▁flour	-5837
▁silver	-5838
clusion	-5839
ilit	-5840
▁sky	-5841
▁sheet	-5842
▁scholar	-5843
▁losing	-5844
▁taught	-5845
▁lessons	-5846
lay	-5847
▁forces	-5848
▁freedom	-5849
▁extended	-5850
▁determined	-5851
▁horse	-5852
iveness	-5853
▁forest	-5854
var	-5855
erves	-5856
senior	-5857
▁worse	-5858
▁stands	-5859
▁trouble	-5860
▁incident	-5861
▁accessible	-5862
▁ped	-5863
▁teas	-5864
▁arts	-5865
▁intr	-5866
▁closer	-5867
crete	-5868
graduate	-5869
cra	-5870
ele	-5871
mov	-5872
brid	-5873
gate	-5874
jersey	-5875
▁decre	-5876
cow	-5877
▁symb	-5878
▁kinds	-5879
▁hoping	-5880
▁successfully	-5881
pen	-5882
▁dol	-5883
amber	-5884
▁imagine	-5885
▁mal	-5886
▁coordin	-5887
▁follows	-5888
ref	-5889
▁voc	-5890
▁yellow	-5891
▁alleged	-5892
▁witness	-5893
▁upper	-5894
georgia	-5895
▁papers	-5896
▁patterns	-5897
▁vacation	-5898
▁enthusi	-5899
▁matters	-5900
webs	-5901
etime	-5902
▁telling	-5903
▁significantly	-5904
rors	-5905
screen	-5906
▁turning	-5907
▁lift	-5908
▁native	-5909
▁therapy	-5910
▁convenient	-5911
▁efficiency	-5912
▁impressive	-5913
cro	-5914
▁bat	-5915
▁trading	-5916
hp	-5917
pool	-5918
▁dram	-5919
▁baking	-5920
brow	-5921
would	-5922
kingdom	-5923
▁stunning	-5924
rim	-5925
▁advis	-5926
▁folks	-5927
▁recipes	-5928
phy	-5929
create	-5930
▁drugs	-5931
▁guitar	-5932
forcement	-5933
▁conducted	-5934
▁lifestyle	-5935
dur	-5936
rev	-5937
▁pil	-5938
▁male	-5939
ansion	-5940
▁recognized	-5941
total	-5942
large	-5943
▁grab	-5944
▁simpl	-5945
finally	-5946
▁clothes	-5947
▁explained	-5948
▁description	-5949
▁expectations	-5950
cop	-5951
psy	-5952
cers	-5953
user	-5954
▁spr	-5955
ireland	-5956
▁crisis	-5957
▁dim	-5958
▁entreprene	-5959
illy	-5960
orrow	-5961
▁bless	-5962
▁luxury	-5963
inations	-5964
wan	-5965
corn	-5966
pick	-5967
software	-5968
▁routine	-5969
▁dangerous	-5970
▁tall	-5971
southern	-5972
▁investors	-5973
ansas	-5974
▁houses	-5975
▁trends	-5976
▁chapter	-5977
▁reduced	-5978
▁procedures	-5979
ava	-5980
▁cock	-5981
▁cable	-5982
▁goods	-5983
▁severe	-5984
▁hits	-5985
▁sequ	-5986
ji	-5987
tal	-5988
▁channel	-5989
▁tonight	-5990
▁recording	-5991
rated	-5992
disney	-5993
▁manner	-5994
▁settings	-5995
professional	-5996
▁photography	-5997
▁collaboration	-5998
gun	-5999
sales	-6000
▁thin	-6001
▁random	-6002
▁context	-6003
▁virtual	-6004
▁conflict	-6005
▁contemporary	-6006
▁config	-6007
▁forced	-6008
iversary	-6009
▁reporting	-6010
▁il	-6011
film	-6012
▁accessories	-6013
▁cups	-6014
▁laugh	-6015
▁challenging	-6016
luc	-6017
cuss	-6018
italy	-6019
▁vend	-6020
▁gifts	-6021
student	-6022
▁council	-6023
▁hosting	-6024
▁graduate	-6025
▁likes	-6026
▁noticed	-6027
▁authent	-6028
▁attended	-6029
▁clinical	-6030
▁regional	-6031
▁constantly	-6032
▁perspective	-6033
athe	-6034
avenue	-6035
▁printed	-6036
folio	-6037
▁adds	-6038
think	-6039
▁tiny	-6040
baby	-6041
nger	-6042
▁depth	-6043
▁excess	-6044
mix	-6045
royal	-6046
▁govern	-6047
must	-6048
forest	-6049
▁renew	-6050
▁clothing	-6051
▁foundation	-6052
anne	-6053
kids	-6054
quir	-6055
rition	-6056
further	-6057
writing	-6058
▁involve	-6059
▁domestic	-6060
las	-6061
▁:)	-6062
lete	-6063
utch	-6064
express	-6065
▁flavor	-6066
▁retire	-6067
▁univers	-6068
zil	-6069
amps	-6070
iami	-6071
▁hur	-6072
▁stone	-6073
ultural	-6074
▁prompt	-6075
▁innovation	-6076
▁diverse	-6077
▁searching	-6078
▁bags	-6079
ossible	-6080
jam	-6081
gard	-6082
▁shots	-6083
material	-6084
▁circumst	-6085
asts	-6086
▁glad	-6087
▁guard	-6088
▁walls	-6089
▁massive	-6090
▁outstanding	-6091
▁sustainable	-6092
▁tested	-6093
▁positions	-6094
▁replacement	-6095
lon	-6096
such	-6097
▁wet	-6098
garden	-6099
zealand	-6100
five	-6101
treat	-6102
▁taxes	-6103
▁carried	-6104
rub	-6105
ilst	-6106
▁rose	-6107
▁speaking	-6108
gro	-6109
amic	-6110
enger	-6111
▁candidate	-6112
sle	-6113
▁tou	-6114
miami	-6115
▁arrested	-6116
▁millions	-6117
▁construct	-6118
▁resolution	-6119
arab	-6120
enced	-6121
▁uplo	-6122
▁examples	-6123
dim	-6124
unfortunately	-6125
sav	-6126
ugg	-6127
▁ap	-6128
eric	-6129
▁jun	-6130
▁wash	-6131
update	-6132
respond	-6133
remember	-6134
▁medicine	-6135
jr	-6136
▁garage	-6137
▁figures	-6138
▁carefully	-6139
▁surprised	-6140
▁integrated	-6141
nee	-6142
▁abuse	-6143
▁smile	-6144
▁assets	-6145
▁programme	-6146
stal	-6147
viet	-6148
ament	-6149
▁deploy	-6150
▁unable	-6151
▁procedure	-6152
cuit	-6153
grow	-6154
▁reward	-6155
▁versions	-6156
▁interests	-6157
ampion	-6158
▁cycle	-6159
▁flood	-6160
▁nearby	-6161
▁pounds	-6162
▁failure	-6163
▁festival	-6164
▁committee	-6165
▁authorities	-6166
irts	-6167
asian	-6168
location	-6169
▁command	-6170
▁availability	-6171
dol	-6172
onym	-6173
raid	-6174
comfort	-6175
sd	-6176
▁?	-6177
sit	-6178
▁tap	-6179
aints	-6180
short	-6181
▁grew	-6182
▁muse	-6183
systems	-6184
▁emphas	-6185
▁residential	-6186
pg	-6187
clin	-6188
oral	-6189
iples	-6190
▁iron	-6191
▁prot	-6192
▁criminal	-6193
▁eleg	-6194
russia	-6195
▁bottle	-6196
▁herself	-6197
▁entirely	-6198
▁seriously	-6199
▁lad	-6200
choose	-6201
taylor	-6202
feed	-6203
talk	-6204
▁fitness	-6205
▁offices	-6206
recent	-6207
▁gorgeous	-6208
▁anx	-6209
▁pink	-6210
▁tomat	-6211
▁unlike	-6212
▁household	-6213
syl	-6214
iana	-6215
▁ordered	-6216
▁scientific	-6217
everyone	-6218
▁creates	-6219
▁dropped	-6220
▁mountain	-6221
dden	-6222
▁bab	-6223
▁ham	-6224
▁tech	-6225
common	-6226
▁gre	-6227
▁factor	-6228
▁garlic	-6229
▁eligible	-6230
reek	-6231
brook	-6232
eries	-6233
certain	-6234
process	-6235
▁distinct	-6236
file	-6237
▁acid	-6238
official	-6239
uro	-6240
wik	-6241
bury	-6242
edge	-6243
▁west	-6244
▁layer	-6245
▁occup	-6246
▁concern	-6247
yet	-6248
▁weak	-6249
photos	-6250
▁awards	-6251
▁detect	-6252
▁trained	-6253
▁thorough	-6254
html	-6255
▁shower	-6256
▁atmosphere	-6257
▁transportation	-6258
fly	-6259
zes	-6260
▁cm	-6261
wich	-6262
proof	-6263
▁risks	-6264
▁spaces	-6265
▁lighting	-6266
eve	-6267
▁eggs	-6268
▁shift	-6269
▁sick	-6270
▁guidance	-6271
▁historical	-6272
adam	-6273
▁quote	-6274
▁wealth	-6275
▁improving	-6276
▁prop	-6277
▁equal	-6278
charles	-6279
justice	-6280
▁qualified	-6281
▁transition	-6282
vo	-6283
edia	-6284
anton	-6285
▁)	-6286
phones	-6287
rip	-6288
rug	-6289
insp	-6290
▁ease	-6291
▁liquid	-6292
▁rating	-6293
▁capture	-6294
professor	-6295
kent	-6296
▁san	-6297
cloud	-6298
▁none	-6299
▁citizens	-6300
▁identity	-6301
▁contribute	-6302
cue	-6303
exp	-6304
safe	-6305
comment	-6306
▁invited	-6307
▁certified	-6308
emic	-6309
chall	-6310
estate	-6311
▁negot	-6312
iti	-6313
race	-6314
▁skill	-6315
▁hospit	-6316
▁faculty	-6317
tam	-6318
porter	-6319
return	-6320
presents	-6321
engineering	-6322
▁originally	-6323
hl	-6324
llc	-6325
mrs	-6326
▁believes	-6327
dead	-6328
stan	-6329
inson	-6330
▁soul	-6331
ificate	-6332
▁tournament	-6333
tel	-6334
dale	-6335
▁filed	-6336
▁tasks	-6337
▁joining	-6338
▁singles	-6339
’.	-6340
sured	-6341
▁legs	-6342
▁judge	-6343
▁fishing	-6344
▁developers	-6345
erts	-6346
▁proven	-6347
experience	-6348
vas	-6349
pers	-6350
▁wra	-6351
▁blend	-6352
▁solar	-6353
▁yards	-6354
▁sudden	-6355
▁termin	-6356
▁listing	-6357
athan	-6358
jured	-6359
vs	-6360
eria	-6361
sung	-6362
▁rank	-6363
axy	-6364
adow	-6365
queen	-6366
▁empt	-6367
▁entered	-6368
▁mm	-6369
onto	-6370
▁susp	-6371
▁tear	-6372
player	-6373
tell	-6374
▁tip	-6375
iously	-6376
▁juice	-6377
▁worst	-6378
!"	-6379
pn	-6380
cou	-6381
▁sole	-6382
▁lucky	-6383
release	-6384
▁adapt	-6385
▁broadcast	-6386
▁increases	-6387
bol	-6388
▁||	-6389
bass	-6390
brad	-6391
▁mut	-6392
silver	-6393
complete	-6394
▁founded	-6395
▁calendar	-6396
▁networks	-6397
izza	-6398
agues	-6399
brazil	-6400
senate	-6401
studies	-6402
▁interface	-6403
inar	-6404
gallery	-6405
ariz	-6406
send	-6407
▁frag	-6408
igration	-6409
ographic	-6410
▁interpre	-6411
autom	-6412
▁faces	-6413
▁cooper	-6414
▁engagement	-6415
motor	-6416
▁spots	-6417
▁conver	-6418
▁protein	-6419
▁younger	-6420
aze	-6421
alty	-6422
▁sac	-6423
▁firms	-6424
▁pitch	-6425
▁cotton	-6426
omy	-6427
▁rac	-6428
▁hire	-6429
icial	-6430
▁arms	-6431
▁root	-6432
apping	-6433
▁organized	-6434
▁submitted	-6435
aron	-6436
ooks	-6437
camer	-6438
title	-6439
course	-6440
▁chose	-6441
▁resol	-6442
illiant	-6443
reading	-6444
▁refund	-6445
▁counsel	-6446
mers	-6447
▁fle	-6448
ership	-6449
policy	-6450
▁sample	-6451
▁objects	-6452
rot	-6453
▁carbon	-6454
commerce	-6455
▁streets	-6456
▁fighting	-6457
republican	-6458
▁capabilities	-6459
ikes	-6460
sweet	-6461
▁zone	-6462
▁aside	-6463
▁appeal	-6464
▁dental	-6465
aturally	-6466
▁awarded	-6467
hur	-6468
uling	-6469
▁flag	-6470
▁reputation	-6471
▁implementation	-6472
hire	-6473
▁forever	-6474
▁letters	-6475
▁posting	-6476
▁concert	-6477
▁membership	-6478
hous	-6479
▁cos	-6480
▁vul	-6481
cycle	-6482
▁vital	-6483
hey	-6484
iran	-6485
▁moves	-6486
seattle	-6487
▁instance	-6488
▁volunteers	-6489
ku	-6490
mess	-6491
sound	-6492
▁hole	-6493
▁seed	-6494
consult	-6495
ensation	-6496
together	-6497
▁consequ	-6498
▁drawing	-6499
▁exhibition	-6500
▁institutions	-6501
sche	-6502
uine	-6503
▁hasn	-6504
▁exposure	-6505
▁strategic	-6506
▁monitoring	-6507
uster	-6508
▁bonus	-6509
catholic	-6510
following	-6511
▁downtown	-6512
▁enjoying	-6513
▁situations	-6514
ala	-6515
bible	-6516
thetic	-6517
▁spoke	-6518
▁hosted	-6519
▁output	-6520
▁listening	-6521
▁auto	-6522
without	-6523
▁tracks	-6524
▁airport	-6525
jord	-6526
ennis	-6527
forum	-6528
northern	-6529
▁assessment	-6530
cool	-6531
▁ult	-6532
ateful	-6533
▁sending	-6534
▁choosing	-6535
htt	-6536
nda	-6537
yers	-6538
▁coc	-6539
▁pulled	-6540
customer	-6541
▁privacy	-6542
▁guidelines	-6543
gary	-6544
▁obl	-6545
oured	-6546
annels	-6547
▁hopes	-6548
▁ultimate	-6549
oak	-6550
ults	-6551
▁attached	-6552
aqu	-6553
pin	-6554
tail	-6555
▁sight	-6556
▁frequently	-6557
lif	-6558
say	-6559
izer	-6560
final	-6561
▁flexible	-6562
▁platforms	-6563
▁suggested	-6564
usb	-6565
birth	-6566
▁linked	-6567
▁motion	-6568
▁pleasure	-6569
had	-6570
bang	-6571
▁vibr	-6572
▁suffe	-6573
▁causing	-6574
▁workshop	-6575
ucky	-6576
wire	-6577
▁hat	-6578
▁performing	-6579
▁regulations	-6580
via	-6581
sale	-6582
dream	-6583
▁delay	-6584
atlanta	-6585
therapy	-6586
▁bodies	-6587
▁closely	-6588
bound	-6589
square	-6590
▁phase	-6591
edition	-6592
▁engage	-6593
▁circumstances	-6594
studio	-6595
things	-6596
▁input	-6597
capital	-6598
▁destroy	-6599
hollywood	-6600
▁destination	-6601
fold	-6602
▁inch	-6603
▁warn	-6604
version	-6605
▁matches	-6606
▁portion	-6607
▁visited	-6608
cit	-6609
sole	-6610
chand	-6611
▁dreams	-6612
▁reader	-6613
▁operate	-6614
▁informed	-6615
dark	-6616
inde	-6617
▁bench	-6618
▁trick	-6619
▁terror	-6620
including	-6621
oz	-6622
idi	-6623
liam	-6624
ially	-6625
▁crew	-6626
makers	-6627
▁urban	-6628
▁injured	-6629
▁directed	-6630
▁relatively	-6631
allow	-6632
piece	-6633
nation	-6634
server	-6635
spirit	-6636
▁meets	-6637
▁massage	-6638
▁copyright	-6639
▁spiritual	-6640
comb	-6641
prime	-6642
quick	-6643
▁rice	-6644
▁liked	-6645
houston	-6646
▁loving	-6647
oft	-6648
pak	-6649
▁defend	-6650
▁saving	-6651
fat	-6652
bird	-6653
umps	-6654
▁river	-6655
isation	-6656
▁manual	-6657
▁promise	-6658
insurance	-6659
▁landscape	-6660
.’	-6661
esy	-6662
burgh	-6663
perhaps	-6664
▁anticip	-6665
▁historic	-6666
.'	-6667
rh	-6668
neys	-6669
osop	-6670
▁bird	-6671
▁lege	-6672
▁upgrade	-6673
▁memories	-6674
▁encouraged	-6675
▁treatments	-6676
cru	-6677
doors	-6678
oster	-6679
joseph	-6680
winter	-6681
▁filter	-6682
past	-6683
tics	-6684
ounce	-6685
▁jewelry	-6686
▁holidays	-6687
kevin	-6688
▁hurt	-6689
friends	-6690
▁critic	-6691
auto	-6692
annual	-6693
▁finds	-6694
▁planet	-6695
▁technique	-6696
▁manufacturer	-6697
ien	-6698
brian	-6699
▁butt	-6700
▁tank	-6701
uclear	-6702
medicine	-6703
▁gallery	-6704
him	-6705
obby	-6706
▁tum	-6707
charge	-6708
▁boxes	-6709
holders	-6710
▁scheme	-6711
▁authors	-6712
▁capable	-6713
championship	-6714
▁publication	-6715
▁km	-6716
▁domin	-6717
▁tooth	-6718
era	-6719
six	-6720
army	-6721
fred	-6722
sport	-6723
▁soil	-6724
▁grass	-6725
▁managing	-6726
dall	-6727
prim	-6728
preme	-6729
effect	-6730
▁talked	-6731
▁justice	-6732
▁typical	-6733
▁victims	-6734
collection	-6735
performance	-6736
hay	-6737
pir	-6738
bath	-6739
path	-6740
tony	-6741
asted	-6742
▁attacks	-6743
secretary	-6744
ani	-6745
lers	-6746
▁flash	-6747
▁smell	-6748
iii	-6749
spot	-6750
▁rail	-6751
minnes	-6752
faction	-6753
▁alongside	-6754
▁resort	-6755
aid	-6756
trad	-6757
▁subs	-6758
▁spark	-6759
▁rental	-6760
products	-6761
▁volunteer	-6762
pi	-6763
money	-6764
▁savings	-6765
▁suggestions	-6766
▁($	-6767
ella	-6768
▁magic	-6769
▁split	-6770
samsung	-6771
▁arrive	-6772
▁debate	-6773
▁wireless	-6774
▁lawyer	-6775
▁riding	-6776
▁drinking	-6777
amel	-6778
below	-6779
▁hate	-6780
▁proof	-6781
▁proceed	-6782
ingly	-6783
details	-6784
▁blocks	-6785
▁discipl	-6786
izz	-6787
▁cin	-6788
▁stake	-6789
▁relief	-6790
dvd	-6791
▁fairly	-6792
▁seasons	-6793
igs	-6794
▁row	-6795
▁depress	-6796
▁consistent	-6797
▁incredibly	-6798
cha	-6799
chi	-6800
rible	-6801
▁stir	-6802
classic	-6803
▁domain	-6804
▁passing	-6805
▁collected	-6806
▁continuing	-6807
ule	-6808
▁mas	-6809
▁cuts	-6810
▁gent	-6811
rovers	-6812
private	-6813
minnesota	-6814
▁estimated	-6815
▁initiative	-6816
bru	-6817
urb	-6818
feel	-6819
▁fas	-6820
ingers	-6821
▁prove	-6822
▁anyway	-6823
▁pocket	-6824
▁password	-6825
▁apparently	-6826
dor	-6827
hops	-6828
agency	-6829
▁sharp	-6830
▁shops	-6831
channel	-6832
▁phones	-6833
▁walked	-6834
▁priority	-6835
▁celebration	-6836
▁tape	-6837
columb	-6838
histor	-6839
▁newly	-6840
▁shock	-6841
▁chances	-6842
bn	-6843
davis	-6844
golden	-6845
▁reform	-6846
▁approval	-6847
▁equipped	-6848
▁machines	-6849
▁immediate	-6850
▁solve	-6851
ainless	-6852
▁illness	-6853
meanwhile	-6854
▁external	-6855
▁discussed	-6856
nfl	-6857
linux	-6858
▁adopt	-6859
▁storm	-6860
eastern	-6861
▁border	-6862
magazine	-6863
▁somewhere	-6864
▁represents	-6865
metro	-6866
adelph	-6867
▁crack	-6868
▁forth	-6869
▁mainly	-6870
▁writers	-6871
▁believed	-6872
▁normally	-6873
golf	-6874
iron	-6875
▁exh	-6876
cancer	-6877
▁belief	-6878
▁classroom	-6879
▁permission	-6880
etic	-6881
bring	-6882
urning	-6883
▁casino	-6884
▁murder	-6885
website	-6886
▁muscle	-6887
▁hook	-6888
▁frustr	-6889
▁vulner	-6890
▁legislation	-6891
ext	-6892
years	-6893
▁hell	-6894
missions	-6895
therefore	-6896
song	-6897
steel	-6898
▁decade	-6899
description	-6900
nie	-6901
▁scr	-6902
▁colle	-6903
▁instrument	-6904
editor	-6905
▁prize	-6906
▁venue	-6907
winning	-6908
▁infect	-6909
memorial	-6910
▁covering	-6911
▁realized	-6912
)|	-6913
ema	-6914
▁stim	-6915
▁recover	-6916
▁clicking	-6917
▁swimming	-6918
▁industries	-6919
irish	-6920
stery	-6921
▁banks	-6922
counter	-6923
▁casual	-6924
partners	-6925
▁chopped	-6926
▁finance	-6927
itionally	-6928
▁vegetables	-6929
▁differences	-6930
dra	-6931
icit	-6932
ogue	-6933
among	-6934
apped	-6935
consum	-6936
valent	-6937
▁feelings	-6938
▁possibility	-6939
mah	-6940
shot	-6941
▁tie	-6942
▁east	-6943
jewish	-6944
▁meals	-6945
finance	-6946
▁ending	-6947
▁dynamic	-6948
▁breaking	-6949
▁categories	-6950
tar	-6951
vac	-6952
bits	-6953
hero	-6954
stor	-6955
▁vacc	-6956
▁facts	-6957
▁shell	-6958
content	-6959
▁laptop	-6960
▁permanent	-6961
administration	-6962
▁tab	-6963
cript	-6964
double	-6965
▁theory	-6966
adelphia	-6967
▁shouldn	-6968
▁bes	-6969
ashes	-6970
outer	-6971
▁vari	-6972
arizona	-6973
written	-6974
▁division	-6975
▁handling	-6976
cort	-6977
▁dust	-6978
▁agents	-6979
▁replaced	-6980
▁requests	-6981
si	-6982
▁fra	-6983
▁raw	-6984
▁ancient	-6985
buff	-6986
dave	-6987
spain	-6988
▁bear	-6989
▁enables	-6990
▁facilit	-6991
▁portfolio	-6992
ras	-6993
vard	-6994
▁upgr	-6995
▁broke	-6996
officer	-6997
▁colours	-6998
▁filling	-6999
philadelphia	-7000
▁mile	-7001
▁mood	-7002
▁index	-7003
ione	-7004
ridge	-7005
▁elev	-7006
▁breath	-7007
▁formed	-7008
▁anniversary	-7009
▁dent	-7010
compet	-7011
stephen	-7012
▁drinks	-7013
▁headed	-7014
everything	-7015
▁religious	-7016
▁attractive	-7017
fix	-7018
whel	-7019
asant	-7020
▁lets	-7021
▁magn	-7022
▁fifth	-7023
collect	-7024
▁buyers	-7025
▁slowly	-7026
▁printing	-7027
▁brilliant	-7028
▁fo	-7029
vice	-7030
▁sec	-7031
jason	-7032
arters	-7033
▁giant	-7034
▁enroll	-7035
▁titles	-7036
▁charity	-7037
▁suffered	-7038
ulpt	-7039
shirt	-7040
▁yard	-7041
▁bunch	-7042
▁recall	-7043
▁surprising	-7044
▁architecture	-7045
fab	-7046
▁bare	-7047
ensity	-7048
▁mortgage	-7049
gypt	-7050
▁adop	-7051
▁coat	-7052
miller	-7053
▁hidden	-7054
drop	-7055
▁god	-7056
woman	-7057
▁fest	-7058
single	-7059
▁recognize	-7060
▁traveling	-7061
▁ast	-7062
▁birds	-7063
▁describe	-7064
chel	-7065
block	-7066
vania	-7067
▁noise	-7068
▁aspect	-7069
creative	-7070
delivery	-7071
subscribe	-7072
▁accomplish	-7073
fav	-7074
▁adm	-7075
▁pra	-7076
prior	-7077
galaxy	-7078
register	-7079
▁genuine	-7080
solutions	-7081
▁generate	-7082
▁personally	-7083
▁performances	-7084
agu	-7085
lad	-7086
tree	-7087
▁aims	-7088
closed	-7089
reviews	-7090
▁doctors	-7091
▁ec	-7092
alse	-7093
inton	-7094
dallas	-7095
▁roles	-7096
▁packages	-7097
half	-7098
▁pin	-7099
igate	-7100
trail	-7101
around	-7102
▁empty	-7103
▁compat	-7104
▁defined	-7105
construction	-7106
▁recommendations	-7107
%.	-7108
owa	-7109
roman	-7110
staff	-7111
trade	-7112
▁loans	-7113
amy	-7114
▁acts	-7115
toronto	-7116
transport	-7117
aren	-7118
inos	-7119
swed	-7120
▁scan	-7121
▁moder	-7122
represent	-7123
production	-7124
dj	-7125
dry	-7126
jenn	-7127
mini	-7128
diego	-7129
▁graphics	-7130
hz	-7131
▁bars	-7132
ington	-7133
▁habit	-7134
patrick	-7135
computer	-7136
▁guaranteed	-7137
sec	-7138
▁evol	-7139
▁gard	-7140
▁orange	-7141
▁conclud	-7142
communications	-7143
▁bid	-7144
abeth	-7145
apore	-7146
otted	-7147
poons	-7148
wilson	-7149
▁absor	-7150
▁scenes	-7151
▁assistant	-7152
cart	-7153
fresh	-7154
▁blank	-7155
▁recre	-7156
▁acknow	-7157
▁marked	-7158
▁recognition	-7159
ulf	-7160
.....	-7161
egypt	-7162
orange	-7163
▁heads	-7164
▁inner	-7165
columbia	-7166
▁falling	-7167
▁interactive	-7168
suc	-7169
▁et	-7170
moon	-7171
grant	-7172
▁gall	-7173
▁dishes	-7174
▁presents	-7175
▁producing	-7176
▁specialist	-7177
▁communications	-7178
ati	-7179
lane	-7180
aware	-7181
excell	-7182
▁nights	-7183
▁baseball	-7184
▁channels	-7185
anny	-7186
ista	-7187
wart	-7188
▁trig	-7189
writer	-7190
explore	-7191
▁singer	-7192
▁crucial	-7193
▁explains	-7194
▁expressed	-7195
▁rum	-7196
▁substant	-7197
pton	-7198
▁fits	-7199
ronics	-7200
original	-7201
info	-7202
categ	-7203
shore	-7204
▁ensu	-7205
▁speaker	-7206
▁ceremony	-7207
▁newspaper	-7208
▁pharm	-7209
▁cookies	-7210
bott	-7211
▁gym	-7212
▁rig	-7213
▁formal	-7214
▁founder	-7215
commercial	-7216
▁authority	-7217
kee	-7218
url	-7219
hart	-7220
oker	-7221
▁sor	-7222
modern	-7223
article	-7224
▁compare	-7225
▁proposal	-7226
▁programming	-7227
etry	-7228
tense	-7229
always	-7230
events	-7231
▁pride	-7232
issions	-7233
▁claimed	-7234
gor	-7235
▁ads	-7236
▁alive	-7237
▁stuck	-7238
▁remark	-7239
▁carrying	-7240
▁expansion	-7241
alo	-7242
lady	-7243
marc	-7244
coach	-7245
early	-7246
sorry	-7247
▁vintage	-7248
▁achieved	-7249
▁speakers	-7250
▁whenever	-7251
▁enforcement	-7252
ran	-7253
▁mand	-7254
▁agric	-7255
▁consists	-7256
eliz	-7257
shel	-7258
inois	-7259
▁enem	-7260
abetes	-7261
castle	-7262
▁displ	-7263
closure	-7264
▁dollar	-7265
electric	-7266
▁reducing	-7267
ifies	-7268
sters	-7269
▁vast	-7270
celebr	-7271
lessly	-7272
muslim	-7273
airport	-7274
fashion	-7275
▁centers	-7276
▁percentage	-7277
lah	-7278
yan	-7279
▁conv	-7280
▁saved	-7281
▁limits	-7282
▁engaged	-7283
coll	-7284
wine	-7285
▁fru	-7286
stein	-7287
▁boss	-7288
▁embr	-7289
▁clubs	-7290
manchester	-7291
▁connections	-7292
▁preparation	-7293
nik	-7294
imize	-7295
hallow	-7296
▁seats	-7297
▁hotels	-7298
▁combine	-7299
▁dealing	-7300
▁desired	-7301
▁grateful	-7302
additional	-7303
▁consultation	-7304
▁manufacturers	-7305
ilty	-7306
▁rein	-7307
▁vice	-7308
itable	-7309
▁pricing	-7310
▁designers	-7311
▁extension	-7312
▁impossible	-7313
eman	-7314
gene	-7315
pain	-7316
along	-7317
acious	-7318
▁heating	-7319
▁watched	-7320
▁resulting	-7321
▁improvements	-7322
tro	-7323
fant	-7324
▁attending	-7325
▁basically	-7326
mate	-7327
civil	-7328
▁compr	-7329
▁gender	-7330
▁insight	-7331
▁compliance	-7332
▁purchasing	-7333
gt	-7334
wid	-7335
▁ly	-7336
anger	-7337
youth	-7338
osophy	-7339
regional	-7340
assistant	-7341
singapore	-7342
▁participating	-7343
poly	-7344
strong	-7345
▁crash	-7346
▁carpet	-7347
▁narrow	-7348
▁packed	-7349
illinois	-7350
sylvania	-7351
▁winners	-7352
▁shoulder	-7353
▁enterprise	-7354
▁introduction	-7355
rab	-7356
pitt	-7357
zone	-7358
stick	-7359
engers	-7360
▁liber	-7361
▁marks	-7362
manufact	-7363
▁concrete	-7364
▁contrast	-7365
▁sensitive	-7366
’,	-7367
aka	-7368
nin	-7369
obe	-7370
gift	-7371
▁plot	-7372
brother	-7373
pending	-7374
▁acting	-7375
▁lesson	-7376
▁default	-7377
▁exceptional	-7378
lam	-7379
aska	-7380
hind	-7381
ingu	-7382
▁clar	-7383
▁deck	-7384
▁lady	-7385
▁strike	-7386
planning	-7387
questions	-7388
sir	-7389
impro	-7390
▁consc	-7391
designed	-7392
ications	-7393
too	-7394
harry	-7395
▁assum	-7396
▁aggress	-7397
▁suffering	-7398
mun	-7399
ulum	-7400
jordan	-7401
▁gaming	-7402
▁everywhere	-7403
alt	-7404
moo	-7405
oir	-7406
zing	-7407
▁dad	-7408
orous	-7409
▁opens	-7410
▁acquis	-7411
industry	-7412
▁booking	-7413
▁constant	-7414
▁consumption	-7415
fu	-7416
mend	-7417
creek	-7418
girls	-7419
▁ocean	-7420
▁whilst	-7421
▁succeed	-7422
resources	-7423
bush	-7424
near	-7425
▁legend	-7426
▁healing	-7427
▁opinions	-7428
ila	-7429
alle	-7430
apol	-7431
aund	-7432
built	-7433
close	-7434
study	-7435
▁bills	-7436
▁criteria	-7437
▁overwhel	-7438
▁obviously	-7439
usd	-7440
onna	-7441
▁hel	-7442
arian	-7443
index	-7444
korea	-7445
▁spray	-7446
updated	-7447
▁humans	-7448
▁rising	-7449
▁damaged	-7450
▁heading	-7451
▁functional	-7452
▁resistance	-7453
▁lie	-7454
henry	-7455
▁unus	-7456
length	-7457
theast	-7458
▁actor	-7459
ologist	-7460
features	-7461
▁preferred	-7462
▁networking	-7463
sha	-7464
ghan	-7465
▁mob	-7466
ockey	-7467
▁mold	-7468
terior	-7469
anthony	-7470
itution	-7471
▁driven	-7472
▁gentle	-7473
▁instant	-7474
▁assault	-7475
▁weapons	-7476
▁experiment	-7477
▁announcement	-7478
qual	-7479
mates	-7480
▁fundra	-7481
▁indeed	-7482
▁literally	-7483
pennsylvania	-7484
)||	-7485
▁ens	-7486
dress	-7487
▁lect	-7488
▁mere	-7489
▁pill	-7490
univers	-7491
▁attribut	-7492
▁interact	-7493
▁scientists	-7494
jess	-7495
▁bridge	-7496
▁emails	-7497
iders	-7498
▁managers	-7499
▁retirement	-7500
nat	-7501
▁pic	-7502
analy	-7503
kelly	-7504
▁trim	-7505
kitchen	-7506
▁returning	-7507
corporation	-7508
reach	-7509
▁loose	-7510
▁seeds	-7511
▁anymore	-7512
▁checking	-7513
▁entering	-7514
▁displayed	-7515
▁personality	-7516
cad	-7517
▁tor	-7518
▁beef	-7519
▁wins	-7520
matthe	-7521
novation	-7522
▁podcast	-7523
▁ensuring	-7524
▁suggests	-7525
▁talented	-7526
api	-7527
bab	-7528
iac	-7529
ints	-7530
mann	-7531
onut	-7532
stars	-7533
users	-7534
▁solo	-7535
▁intense	-7536
▁admitted	-7537
▁component	-7538
eye	-7539
▁plain	-7540
▁deposit	-7541
currently	-7542
▁preparing	-7543
▁basketball	-7544
▁interviews	-7545
boys	-7546
cand	-7547
dney	-7548
▁gay	-7549
▁tub	-7550
icity	-7551
intel	-7552
langu	-7553
sarah	-7554
write	-7555
better	-7556
▁franch	-7557
major	-7558
integr	-7559
▁yours	-7560
onymous	-7561
▁string	-7562
▁farmers	-7563
▁association	-7564
itz	-7565
sts	-7566
holy	-7567
liber	-7568
cooper	-7569
images	-7570
▁forgot	-7571
▁removal	-7572
▁visible	-7573
▁introduce	-7574
▁packaging	-7575
▁officially	-7576
hem	-7577
alan	-7578
anti	-7579
iraq	-7580
hills	-7581
vised	-7582
▁boot	-7583
▁trips	-7584
▁accused	-7585
▁matching	-7586
▁politics	-7587
▁wondering	-7588
mw	-7589
hub	-7590
iowa	-7591
activ	-7592
▁rural	-7593
jection	-7594
▁acceler	-7595
amm	-7596
una	-7597
▁hi	-7598
athon	-7599
ilton	-7600
▁chart	-7601
▁lemon	-7602
▁lists	-7603
▁olive	-7604
▁salad	-7605
▁invite	-7606
▁closing	-7607
▁graphic	-7608
▁forecast	-7609
protection	-7610
▁creativity	-7611
▁reasonable	-7612
additionally	-7613
etch	-7614
focus	-7615
former	-7616
▁tired	-7617
▁stable	-7618
▁diseases	-7619
▁lifetime	-7620
▁increasingly	-7621
fan	-7622
▁batt	-7623
▁pace	-7624
aining	-7625
bourne	-7626
▁blind	-7627
ression	-7628
comments	-7629
▁staying	-7630
▁findings	-7631
▁licensed	-7632
▁professor	-7633
▁puts	-7634
acular	-7635
▁focuses	-7636
halloween	-7637
ventional	-7638
value	-7639
taking	-7640
▁recip	-7641
success	-7642
theatre	-7643
▁trailer	-7644
▁viewing	-7645
▁stations	-7646
▁correspond	-7647
eration	-7648
▁afraid	-7649
▁teaspoon	-7650
▁primarily	-7651
▁potentially	-7652
cn	-7653
kh	-7654
hemat	-7655
stage	-7656
▁brush	-7657
▁nomin	-7658
restaur	-7659
▁suspect	-7660
▁tracking	-7661
▁developer	-7662
▁temperatures	-7663
oen	-7664
teac	-7665
defin	-7666
eness	-7667
▁widely	-7668
beck	-7669
ifer	-7670
snow	-7671
onder	-7672
utter	-7673
import	-7674
address	-7675
pection	-7676
▁illegal	-7677
compan	-7678
▁chips	-7679
▁attach	-7680
▁naturally	-7681
anes	-7682
arth	-7683
▁sail	-7684
simply	-7685
▁honey	-7686
liament	-7687
▁racing	-7688
▁precise	-7689
elizabeth	-7690
jen	-7691
ador	-7692
imag	-7693
▁ves	-7694
▁faced	-7695
▁stamp	-7696
property	-7697
blu	-7698
bern	-7699
andre	-7700
icide	-7701
maker	-7702
friger	-7703
▁intent	-7704
▁visits	-7705
▁texture	-7706
▁stronger	-7707
sac	-7708
oked	-7709
skin	-7710
ented	-7711
▁clock	-7712
▁drama	-7713
independ	-7714
▁greatly	-7715
▁expenses	-7716
▁releases	-7717
employment	-7718
▁reduction	-7719
uten	-7720
psych	-7721
▁yoga	-7722
▁ultim	-7723
supreme	-7724
▁harder	-7725
'.	-7726
sq	-7727
oses	-7728
rober	-7729
scale	-7730
steven	-7731
britain	-7732
▁flying	-7733
▁suppor	-7734
tennes	-7735
▁bacter	-7736
▁behalf	-7737
▁conserv	-7738
▁strange	-7739
▁obtained	-7740
▁computers	-7741
zzle	-7742
ureau	-7743
▁plug	-7744
▁unex	-7745
lights	-7746
▁blogs	-7747
pakistan	-7748
▁checked	-7749
▁warning	-7750
rt	-7751
glas	-7752
▁fault	-7753
▁yield	-7754
nob	-7755
kansas	-7756
▁weren	-7757
selling	-7758
▁gained	-7759
▁writes	-7760
advanced	-7761
▁careful	-7762
▁warranty	-7763
▁workshops	-7764
▁delivering	-7765
kong	-7766
tips	-7767
eland	-7768
saint	-7769
▁museum	-7770
▁colleagues	-7771
▁highlights	-7772
gab	-7773
rele	-7774
ashed	-7775
owner	-7776
rency	-7777
oregon	-7778
owners	-7779
rating	-7780
▁param	-7781
nothing	-7782
▁principles	-7783
▁nose	-7784
iliate	-7785
▁desktop	-7786
▁superior	-7787
▁employers	-7788
uct	-7789
unit	-7790
vals	-7791
▁vine	-7792
simple	-7793
andemic	-7794
machine	-7795
▁gotten	-7796
sciences	-7797
▁elegant	-7798
▁raising	-7799
application	-7800
bull	-7801
laure	-7802
▁duty	-7803
▁semi	-7804
▁entit	-7805
village	-7806
▁controls	-7807
▁communicate	-7808
fm	-7809
hello	-7810
▁shapes	-7811
▁struggling	-7812
yl	-7813
hav	-7814
austin	-7815
▁minimal	-7816
▁electrical	-7817
vc	-7818
▁lip	-7819
rants	-7820
▁inventory	-7821
▁promoting	-7822
▁approaches	-7823
barn	-7824
hong	-7825
vegas	-7826
▁sour	-7827
▁wave	-7828
▁strict	-7829
▁hanging	-7830
▁shipped	-7831
▁sponsor	-7832
▁photographs	-7833
aha	-7834
tery	-7835
▁twist	-7836
▁wooden	-7837
▁cameras	-7838
deal	-7839
math	-7840
▁ther	-7841
odge	-7842
sels	-7843
▁cher	-7844
▁laid	-7845
▁align	-7846
▁scores	-7847
victoria	-7848
▁controvers	-7849
▁ultimately	-7850
▁till	-7851
▁divid	-7852
▁anxiety	-7853
▁involves	-7854
▁occurred	-7855
▁signature	-7856
▁participation	-7857
bish	-7858
▁emb	-7859
frame	-7860
princ	-7861
stract	-7862
getting	-7863
▁resume	-7864
▁struck	-7865
▁thinks	-7866
▁cancell	-7867
▁involving	-7868
▁	-7869
e	-7870
t	-7871
a	-7872
o	-7873
i	-7874
n	-7875
s	-7876
r	-7877
h	-7878
l	-7879
d	-7880
c	-7881
u	-7882
m	-7883
p	-7884
f	-7885
g	-7886
y	-7887
w	-7888
b	-7889
.	-7890
v	-7891
,	-7892
k	-7893
-	-7894
0	-7895
1	-7896
x	-7897
2	-7898
j	-7899
’	-7900
'	-7901
:	-7902
z	-7903
q	-7904
)	-7905
3	-7906
(	-7907
5	-7908
4	-7909
"	-7910
9	-7911
6	-7912
8	-7913
!	-7914
|	-7915
7	-7916
/	-7917
?	-7918
“	-7919
”	-7920
–	-7921
;	-7922
&	-7923
$	-7924
%	-7925
—	-7926
*	-7927
