<pad>	0
<s>	0
</s>	0
<unk>	0
	0
	0
	0
	0
	0
<0x00>	0
<0x01>	0
<0x02>	0
<0x03>	0
<0x04>	0
<0x05>	0
<0x06>	0
<0x07>	0
<0x08>	0
<0x09>	0
<0x0A>	0
<0x0B>	0
<0x0C>	0
<0x0D>	0
<0x0E>	0
<0x0F>	0
<0x10>	0
<0x11>	0
<0x12>	0
<0x13>	0
<0x14>	0
<0x15>	0
<0x16>	0
<0x17>	0
<0x18>	0
<0x19>	0
<0x1A>	0
<0x1B>	0
<0x1C>	0
<0x1D>	0
<0x1E>	0
<0x1F>	0
<0x20>	0
<0x21>	0
<0x22>	0
<0x23>	0
<0x24>	0
<0x25>	0
<0x26>	0
<0x27>	0
<0x28>	0
<0x29>	0
<0x2A>	0
<0x2B>	0
<0x2C>	0
<0x2D>	0
<0x2E>	0
<0x2F>	0
<0x30>	0
<0x31>	0
<0x32>	0
<0x33>	0
<0x34>	0
<0x35>	0
<0x36>	0
<0x37>	0
<0x38>	0
<0x39>	0
<0x3A>	0
<0x3B>	0
<0x3C>	0
<0x3D>	0
<0x3E>	0
<0x3F>	0
<0x40>	0
<0x41>	0
<0x42>	0
<0x43>	0
<0x44>	0
<0x45>	0
<0x46>	0
<0x47>	0
<0x48>	0
<0x49>	0
<0x4A>	0
<0x4B>	0
<0x4C>	0
<0x4D>	0
<0x4E>	0
<0x4F>	0
<0x50>	0
<0x51>	0
<0x52>	0
<0x53>	0
<0x54>	0
<0x55>	0
<0x56>	0
<0x57>	0
<0x58>	0
<0x59>	0
<0x5A>	0
<0x5B>	0
<0x5C>	0
<0x5D>	0
<0x5E>	0
<0x5F>	0
<0x60>	0
<0x61>	0
<0x62>	0
<0x63>	0
<0x64>	0
<0x65>	0
<0x66>	0
<0x67>	0
<0x68>	0
<0x69>	0
<0x6A>	0
<0x6B>	0
<0x6C>	0
<0x6D>	0
<0x6E>	0
<0x6F>	0
<0x70>	0
<0x71>	0
<0x72>	0
<0x73>	0
<0x74>	0
<0x75>	0
<0x76>	0
<0x77>	0
<0x78>	0
<0x79>	0
<0x7A>	0
<0x7B>	0
<0x7C>	0
<0x7D>	0
<0x7E>	0
<0x7F>	0
<0x80>	0
<0x81>	0
<0x82>	0
<0x83>	0
<0x84>	0
<0x85>	0
<0x86>	0
<0x87>	0
<0x88>	0
<0x89>	0
<0x8A>	0
<0x8B>	0
<0x8C>	0
<0x8D>	0
<0x8E>	0
<0x8F>	0
<0x90>	0
<0x91>	0
<0x92>	0
<0x93>	0
<0x94>	0
<0x95>	0
<0x96>	0
<0x97>	0
<0x98>	0
<0x99>	0
<0x9A>	0
<0x9B>	0
<0x9C>	0
<0x9D>	0
<0x9E>	0
<0x9F>	0
<0xA0>	0
<0xA1>	0
<0xA2>	0
<0xA3>	0
<0xA4>	0
<0xA5>	0
<0xA6>	0
<0xA7>	0
<0xA8>	0
<0xA9>	0
<0xAA>	0
<0xAB>	0
<0xAC>	0
<0xAD>	0
<0xAE>	0
<0xAF>	0
<0xB0>	0
<0xB1>	0
<0xB2>	0
<0xB3>	0
<0xB4>	0
<0xB5>	0
<0xB6>	0
<0xB7>	0
<0xB8>	0
<0xB9>	0
<0xBA>	0
<0xBB>	0
<0xBC>	0
<0xBD>	0
<0xBE>	0
<0xBF>	0
<0xC0>	0
<0xC1>	0
<0xC2>	0
<0xC3>	0
<0xC4>	0
<0xC5>	0
<0xC6>	0
<0xC7>	0
<0xC8>	0
<0xC9>	0
<0xCA>	0
<0xCB>	0
<0xCC>	0
<0xCD>	0
<0xCE>	0
<0xCF>	0
<0xD0>	0
<0xD1>	0
<0xD2>	0
<0xD3>	0
<0xD4>	0
<0xD5>	0
<0xD6>	0
<0xD7>	0
<0xD8>	0
<0xD9>	0
<0xDA>	0
<0xDB>	0
<0xDC>	0
<0xDD>	0
<0xDE>	0
<0xDF>	0
<0xE0>	0
<0xE1>	0
<0xE2>	0
<0xE3>	0
<0xE4>	0
<0xE5>	0
<0xE6>	0
<0xE7>	0
<0xE8>	0
<0xE9>	0
<0xEA>	0
<0xEB>	0
<0xEC>	0
<0xED>	0
<0xEE>	0
<0xEF>	0
<0xF0>	0
<0xF1>	0
<0xF2>	0
<0xF3>	0
<0xF4>	0
<0xF5>	0
<0xF6>	0
<0xF7>	0
<0xF8>	0
<0xF9>	0
<0xFA>	0
<0xFB>	0
<0xFC>	0
<0xFD>	0
<0xFE>	0
<0xFF>	0
▁t	-0
▁a	-1
in	-2
he	-3
re	-4
on	-5
er	-6
▁the	-7
▁s	-8
▁w	-9
or	-10
at	-11
ou	-12
nd	-13
it	-14
▁c	-15
es	-16
is	-17
▁f	-18
en	-19
ing	-20
▁b	-21
▁p	-22
▁o	-23
an	-24
al	-25
ed	-26
▁to	-27
ar	-28
▁m	-29
▁and	-30
▁in	-31
▁of	-32
le	-33
▁d	-34
ic	-35
as	-36
om	-37
▁h	-38
ion	-39
▁th	-40
il	-41
st	-42
ro	-43
ent	-44
▁l	-45
ve	-46
▁y	-47
▁e	-48
▁re	-49
▁n	-50
ac	-51
▁g	-52
et	-53
▁you	-54
ly	-55
the	-56
id	-57
▁for	-58
▁is	-59
ay	-60
▁on	-61
▁be	-62
am	-63
ow	-64
se	-65
ot	-66
ad	-67
ol	-68
ct	-69
ig	-70
im	-71
ch	-72
▁u	-73
ver	-74
ith	-75
el	-76
▁st	-77
ut	-78
ation	-79
▁with	-80
ir	-81
▁that	-82
th	-83
ur	-84
ce	-85
▁it	-86
▁he	-87
ill	-88
if	-89
ter	-90
▁al	-91
▁an	-92
ul	-93
our	-94
ke	-95
ers	-96
ag	-97
▁pro	-98
▁as	-99
▁are	-100
▁wh	-101
▁we	-102
oo	-103
out	-104
▁ha	-105
un	-106
pp	-107
us	-108
ab	-109
ate	-110
ess	-111
▁con	-112
▁com	-113
▁1	-114
▁at	-115
▁or	-116
ra	-117
▁2	-118
em	-119
est	-120
ore	-121
ri	-122
rom	-123
igh	-124
▁-	-125
op	-126
▁ne	-127
▁your	-128
▁se	-129
qu	-130
and	-131
ist	-132
ld	-133
res	-134
ment	-135
▁ex	-136
▁(	-137
ity	-138
pe	-139
ant	-140
▁v	-141
art	-142
ive	-143
ort	-144
all	-145
ust	-146
▁r	-147
um	-148
▁have	-149
▁was	-150
▁from	-151
▁this	-152
▁de	-153
oc	-154
▁sh	-155
▁can	-156
ain	-157
ies	-158
▁su	-159
os	-160
▁will	-161
▁ch	-162
▁by	-163
ight	-164
nt	-165
ard	-166
ome	-167
te	-168
▁not	-169
ud	-170
red	-171
▁le	-172
we	-173
▁wor	-174
00	-175
ge	-176
ost	-177
▁pl	-178
ie	-179
iv	-180
ide	-181
king	-182
ther	-183
for	-184
▁ab	-185
per	-186
ast	-187
ial	-188
rou	-189
pl	-190
fe	-191
gh	-192
▁all	-193
od	-194
ine	-195
ack	-196
ould	-197
▁j	-198
ell	-199
ice	-200
▁has	-201
act	-202
ure	-203
ind	-204
ear	-205
cl	-206
ne	-207
one	-208
so	-209
▁do	-210
are	-211
▁k	-212
▁us	-213
▁ad	-214
age	-215
pt	-216
ake	-217
ip	-218
ions	-219
ry	-220
▁out	-221
ally	-222
ks	-223
▁but	-224
▁me	-225
▁whe	-226
▁up	-227
com	-228
▁our	-229
able	-230
to	-231
▁comp	-232
▁en	-233
▁more	-234
ail	-235
▁“	-236
og	-237
very	-238
ite	-239
ime	-240
ich	-241
▁their	-242
▁cl	-243
▁so	-244
ood	-245
ber	-246
her	-247
ated	-248
ong	-249
▁20	-250
▁my	-251
ap	-252
▁sa	-253
iz	-254
ame	-255
du	-256
▁ac	-257
ans	-258
▁they	-259
▁te	-260
▁one	-261
ous	-262
ak	-263
ass	-264
ike	-265
▁about	-266
ace	-267
ase	-268
con	-269
ru	-270
▁cont	-271
ia	-272
▁im	-273
ign	-274
ire	-275
ance	-276
▁off	-277
▁fe	-278
ach	-279
▁man	-280
▁who	-281
ree	-282
bl	-283
reat	-284
now	-285
▁new	-286
▁go	-287
▁app	-288
▁3	-289
▁year	-290
ib	-291
ays	-292
▁"	-293
av	-294
ff	-295
au	-296
▁res	-297
..	-298
ick	-299
port	-300
form	-301
▁his	-302
erv	-303
▁qu	-304
ations	-305
ult	-306
ary	-307
ction	-308
this	-309
▁per	-310
vel	-311
▁also	-312
ook	-313
ile	-314
▁which	-315
▁time	-316
▁get	-317
ents	-318
day	-319
ep	-320
ount	-321
ove	-322
ue	-323
▁some	-324
▁like	-325
▁201	-326
ven	-327
▁tr	-328
▁other	-329
▁any	-330
cess	-331
▁sp	-332
ark	-333
ical	-334
ence	-335
che	-336
▁part	-337
▁been	-338
ings	-339
ph	-340
▁dis	-341
pro	-342
ition	-343
▁over	-344
▁un	-345
ress	-346
be	-347
ors	-348
low	-349
wh	-350
▁them	-351
sh	-352
ild	-353
int	-354
▁ar	-355
▁pe	-356
▁ro	-357
▁ag	-358
▁her	-359
ov	-360
ord	-361
▁when	-362
ound	-363
ang	-364
su	-365
ple	-366
ish	-367
▁need	-368
own	-369
irst	-370
ough	-371
ose	-372
▁pre	-373
▁spe	-374
ll	-375
▁just	-376
▁said	-377
ck	-378
ren	-379
ens	-380
▁pr	-381
de	-382
ob	-383
▁work	-384
▁what	-385
gr	-386
▁if	-387
▁there	-388
lp	-389
wn	-390
you	-391
vers	-392
old	-393
▁than	-394
ade	-395
oy	-396
ater	-397
▁know	-398
ning	-399
fter	-400
▁would	-401
▁am	-402
▁sc	-403
▁had	-404
clud	-405
▁comm	-406
▁des	-407
rough	-408
▁were	-409
▁into	-410
▁–	-411
ory	-412
▁rec	-413
▁4	-414
man	-415
ople	-416
▁help	-417
▁how	-418
nder	-419
itt	-420
▁its	-421
▁em	-422
ful	-423
▁add	-424
▁5	-425
▁first	-426
je	-427
ool	-428
ft	-429
▁tw	-430
▁make	-431
but	-432
anc	-433
▁prov	-434
▁includ	-435
ink	-436
▁people	-437
▁serv	-438
ian	-439
▁col	-440
▁no	-441
ex	-442
▁bl	-443
end	-444
rent	-445
▁produ	-446
ict	-447
iew	-448
get	-449
ates	-450
▁she	-451
▁bu	-452
ious	-453
round	-454
tern	-455
▁every	-456
ual	-457
▁bec	-458
aw	-459
▁may	-460
▁through	-461
ices	-462
ating	-463
up	-464
▁only	-465
sp	-466
▁want	-467
ments	-468
▁most	-469
▁back	-470
pport	-471
new	-472
▁ph	-473
▁see	-474
▁use	-475
bs	-476
▁well	-477
ities	-478
▁bet	-479
arch	-480
wor	-481
▁two	-482
cts	-483
co	-484
▁|	-485
ise	-486
iss	-487
iness	-488
les	-489
▁after	-490
ife	-491
row	-492
air	-493
lect	-494
ause	-495
fore	-496
▁&	-497
enc	-498
ily	-499
ty	-500
▁co	-501
oth	-502
▁act	-503
br	-504
▁play	-505
ons	-506
▁exper	-507
xt	-508
▁fl	-509
urn	-510
tr	-511
whe	-512
ting	-513
ond	-514
▁these	-515
▁cons	-516
als	-517
cial	-518
▁years	-519
cent	-520
sel	-521
vent	-522
▁$	-523
▁under	-524
▁bus	-525
fr	-526
alth	-527
cre	-528
▁stud	-529
aking	-530
▁good	-531
▁loc	-532
ased	-533
ts	-534
▁ke	-535
▁now	-536
▁tra	-537
ational	-538
ific	-539
▁19	-540
ubl	-541
▁sm	-542
▁very	-543
▁many	-544
ures	-545
▁reg	-546
hing	-547
its	-548
any	-549
▁6	-550
ange	-551
▁dif	-552
▁way	-553
ience	-554
fect	-555
▁wee	-556
ms	-557
erson	-558
oint	-559
formation	-560
▁ind	-561
▁great	-562
▁fin	-563
▁rel	-564
▁start	-565
uring	-566
▁sy	-567
▁gu	-568
ility	-569
ible	-570
other	-571
read	-572
▁rem	-573
ert	-574
pr	-575
ics	-576
ident	-577
ath	-578
▁could	-579
▁even	-580
▁inv	-581
comm	-582
).	-583
▁day	-584
▁don	-585
velop	-586
▁show	-587
▁own	-588
▁acc	-589
▁where	-590
oss	-591
▁mu	-592
▁find	-593
amp	-594
▁high	-595
hed	-596
line	-597
olog	-598
▁home	-599
ble	-600
▁here	-601
▁should	-602
▁ent	-603
▁best	-604
▁br	-605
▁then	-606
▁down	-607
ward	-608
arn	-609
ular	-610
chool	-611
▁right	-612
me	-613
▁set	-614
ited	-615
ix	-616
ied	-617
▁av	-618
▁ass	-619
▁mon	-620
sc	-621
▁read	-622
▁car	-623
▁min	-624
gan	-625
||	-626
▁design	-627
stem	-628
▁business	-629
▁fam	-630
view	-631
▁take	-632
fl	-633
▁200	-634
pect	-635
▁che	-636
▁inst	-637
eng	-638
io	-639
ener	-640
ax	-641
ock	-642
▁too	-643
▁7	-644
land	-645
min	-646
ys	-647
rest	-648
▁information	-649
ative	-650
way	-651
ull	-652
▁10	-653
▁much	-654
▁long	-655
gram	-656
▁made	-657
app	-658
mon	-659
ps	-660
ins	-661
▁last	-662
az	-663
ollow	-664
med	-665
.”	-666
ject	-667
ason	-668
omet	-669
▁because	-670
arket	-671
▁8	-672
▁call	-673
how	-674
oun	-675
atch	-676
▁before	-677
ash	-678
...	-679
let	-680
▁cre	-681
ient	-682
▁world	-683
uc	-684
▁team	-685
),	-686
there	-687
▁did	-688
20	-689
amer	-690
rit	-691
ave	-692
▁sur	-693
chn	-694
ustom	-695
▁vis	-696
▁art	-697
▁again	-698
ros	-699
▁requ	-700
ner	-701
▁develop	-702
▁diffe	-703
▁person	-704
ality	-705
bo	-706
▁being	-707
▁dec	-708
▁pres	-709
mer	-710
▁inte	-711
▁mem	-712
ower	-713
▁end	-714
▁such	-715
aut	-716
▁gr	-717
unity	-718
not	-719
▁life	-720
▁hand	-721
ving	-722
▁op	-723
ale	-724
ouse	-725
riend	-726
my	-727
▁look	-728
no	-729
▁him	-730
ince	-731
▁med	-732
▁does	-733
▁while	-734
▁those	-735
irect	-736
▁support	-737
▁provid	-738
ank	-739
ement	-740
ced	-741
▁sk	-742
ger	-743
▁sim	-744
ital	-745
ages	-746
akes	-747
ters	-748
ces	-749
▁mod	-750
ton	-751
▁lead	-752
der	-753
▁used	-754
col	-755
ailable	-756
▁free	-757
what	-758
▁around	-759
▁att	-760
rand	-761
▁cur	-762
hip	-763
ives	-764
ier	-765
▁pol	-766
ivers	-767
▁each	-768
ional	-769
▁9	-770
they	-771
▁care	-772
ize	-773
ually	-774
▁follow	-775
▁post	-776
▁det	-777
▁trans	-778
▁love	-779
by	-780
ah	-781
▁bo	-782
▁loo	-783
ublic	-784
ather	-785
▁child	-786
▁char	-787
self	-788
▁eas	-789
und	-790
▁system	-791
▁ret	-792
she	-793
▁ed	-794
▁num	-795
▁ser	-796
ines	-797
do	-798
▁cour	-799
imes	-800
▁really	-801
cur	-802
ets	-803
▁str	-804
▁program	-805
▁custom	-806
▁count	-807
▁inter	-808
ene	-809
▁del	-810
led	-811
ness	-812
ub	-813
▁list	-814
▁found	-815
,”	-816
iel	-817
▁run	-818
iet	-819
000	-820
▁month	-821
▁prof	-822
▁ra	-823
fin	-824
▁available	-825
▁feel	-826
▁ins	-827
▁think	-828
ittle	-829
ten	-830
▁top	-831
ways	-832
with	-833
▁fun	-834
▁going	-835
▁cle	-836
▁sign	-837
cond	-838
ann	-839
jo	-840
ames	-841
arm	-842
▁somet	-843
▁still	-844
olut	-845
▁sub	-846
▁gl	-847
▁market	-848
▁place	-849
▁fr	-850
gg	-851
▁different	-852
cept	-853
ved	-854
▁both	-855
▁few	-856
▁health	-857
que	-858
ired	-859
lic	-860
▁three	-861
▁though	-862
mar	-863
orn	-864
▁pur	-865
ata	-866
ross	-867
▁happ	-868
bers	-869
▁adv	-870
▁techn	-871
▁week	-872
▁lot	-873
▁exp	-874
part	-875
of	-876
▁keep	-877
▁company	-878
ween	-879
lease	-880
when	-881
▁open	-882
▁report	-883
▁lar	-884
ants	-885
ars	-886
atur	-887
lo	-888
▁0	-889
▁friend	-890
less	-891
▁process	-892
▁family	-893
ering	-894
▁using	-895
ology	-896
▁feat	-897
▁say	-898
americ	-899
▁rep	-900
▁school	-901
▁fil	-902
▁i	-903
▁met	-904
▁ev	-905
▁game	-906
▁aut	-907
▁including	-908
▁import	-909
▁little	-910
▁point	-911
▁same	-912
ized	-913
go	-914
alk	-915
▁experience	-916
stand	-917
▁between	-918
iving	-919
▁during	-920
▁state	-921
▁next	-922
thing	-923
▁comple	-924
."	-925
-1	-926
ues	-927
ves	-928
ody	-929
▁service	-930
ever	-931
▁water	-932
▁disc	-933
tra	-934
▁real	-935
ining	-936
▁allow	-937
▁build	-938
▁opt	-939
ished	-940
▁things	-941
▁come	-942
▁dri	-943
pre	-944
gy	-945
▁contin	-946
▁var	-947
ric	-948
roup	-949
search	-950
▁ear	-951
▁tri	-952
ield	-953
▁small	-954
ists	-955
▁cr	-956
▁cent	-957
▁plan	-958
▁form	-959
par	-960
work	-961
▁rece	-962
ik	-963
▁appro	-964
▁organ	-965
att	-966
▁rest	-967
▁main	-968
cer	-969
▁always	-970
▁big	-971
▁sure	-972
els	-973
▁online	-974
uss	-975
▁mus	-976
nor	-977
▁bel	-978
joy	-979
▁win	-980
▁better	-981
car	-982
▁full	-983
▁interest	-984
ffect	-985
▁pat	-986
▁poss	-987
ards	-988
▁put	-989
▁pass	-990
oot	-991
▁pri	-992
▁ty	-993
ware	-994
illion	-995
chr	-996
▁since	-997
▁gener	-998
▁quest	-999
cri	-1000
▁ve	-1001
▁try	-1002
▁result	-1003
that	-1004
▁sl	-1005
fer	-1006
ott	-1007
istr	-1008
reen	-1009
▁stand	-1010
▁days	-1011
iversity	-1012
off	-1013
▁today	-1014
gu	-1015
▁phot	-1016
▁12	-1017
▁direct	-1018
▁class	-1019
▁special	-1020
ploy	-1021
▁ide	-1022
▁partic	-1023
▁mov	-1024
ours	-1025
▁val	-1026
▁services	-1027
ients	-1028
▁perform	-1029
▁provide	-1030
▁head	-1031
▁something	-1032
sw	-1033
▁pay	-1034
ok	-1035
▁manag	-1036
ont	-1037
can	-1038
pa	-1039
,000	-1040
▁second	-1041
▁resp	-1042
sy	-1043
▁ann	-1044
▁got	-1045
▁cor	-1046
▁hard	-1047
ipp	-1048
▁without	-1049
▁vide	-1050
▁let	-1051
▁bro	-1052
vir	-1053
▁number	-1054
vis	-1055
▁another	-1056
oney	-1057
▁int	-1058
▁current	-1059
▁give	-1060
▁must	-1061
▁ter	-1062
ope	-1063
▁wom	-1064
▁access	-1065
ior	-1066
ately	-1067
▁old	-1068
here	-1069
ium	-1070
▁book	-1071
▁able	-1072
ically	-1073
▁webs	-1074
▁‘	-1075
▁important	-1076
gin	-1077
ral	-1078
raph	-1079
▁grow	-1080
▁cost	-1081
▁soc	-1082
▁meet	-1083
▁area	-1084
,"	-1085
dr	-1086
▁invest	-1087
▁—	-1088
cont	-1089
ems	-1090
ruct	-1091
▁fact	-1092
50	-1093
▁light	-1094
ling	-1095
▁bre	-1096
▁working	-1097
▁wr	-1098
ertain	-1099
▁imp	-1100
son	-1101
▁visit	-1102
▁public	-1103
▁unt	-1104
most	-1105
ample	-1106
▁proble	-1107
may	-1108
aj	-1109
vern	-1110
▁incre	-1111
bu	-1112
ww	-1113
ense	-1114
▁proper	-1115
▁looking	-1116
room	-1117
rol	-1118
▁level	-1119
▁suc	-1120
rence	-1121
hes	-1122
▁data	-1123
ley	-1124
▁sal	-1125
▁order	-1126
add	-1127
count	-1128
▁never	-1129
outh	-1130
▁exc	-1131
ember	-1132
book	-1133
▁might	-1134
more	-1135
ency	-1136
just	-1137
ds	-1138
ential	-1139
▁expl	-1140
ute	-1141
▁fac	-1142
fort	-1143
▁students	-1144
gether	-1145
pend	-1146
▁food	-1147
▁event	-1148
▁offer	-1149
▁local	-1150
▁site	-1151
▁profess	-1152
▁enjoy	-1153
play	-1154
▁eng	-1155
▁spec	-1156
▁dr	-1157
ission	-1158
▁four	-1159
comp	-1160
tend	-1161
▁11	-1162
▁children	-1163
▁within	-1164
▁room	-1165
▁view	-1166
▁season	-1167
▁making	-1168
lection	-1169
▁addition	-1170
ording	-1171
▁pos	-1172
come	-1173
▁test	-1174
▁products	-1175
por	-1176
cle	-1177
hor	-1178
▁oper	-1179
▁prom	-1180
▁sing	-1181
▁sit	-1182
▁product	-1183
▁18	-1184
ories	-1185
ids	-1186
30	-1187
▁power	-1188
ently	-1189
▁until	-1190
ney	-1191
▁night	-1192
▁community	-1193
▁'	-1194
ats	-1195
▁pop	-1196
serv	-1197
val	-1198
▁email	-1199
ribut	-1200
ched	-1201
▁quality	-1202
▁el	-1203
ca	-1204
▁supp	-1205
▁ca	-1206
▁less	-1207
ieve	-1208
ases	-1209
your	-1210
year	-1211
ains	-1212
ivid	-1213
ature	-1214
▁against	-1215
▁est	-1216
des	-1217
▁conf	-1218
▁indust	-1219
▁ob	-1220
▁intern	-1221
use	-1222
ator	-1223
ills	-1224
▁website	-1225
▁impro	-1226
ode	-1227
▁job	-1228
ches	-1229
▁prote	-1230
university	-1231
aff	-1232
ste	-1233
ified	-1234
10	-1235
tt	-1236
▁turn	-1237
▁creat	-1238
▁equ	-1239
▁contact	-1240
▁law	-1241
icle	-1242
▁mar	-1243
▁project	-1244
▁past	-1245
ique	-1246
▁away	-1247
ina	-1248
▁together	-1249
ider	-1250
christ	-1251
▁air	-1252
▁learn	-1253
after	-1254
these	-1255
ined	-1256
tw	-1257
inc	-1258
▁eff	-1259
gl	-1260
face	-1261
ability	-1262
pos	-1263
iday	-1264
rap	-1265
▁15	-1266
▁pract	-1267
reg	-1268
▁complete	-1269
ng	-1270
sm	-1271
over	-1272
ared	-1273
▁success	-1274
▁bas	-1275
▁needs	-1276
atter	-1277
▁easy	-1278
▁include	-1279
▁leg	-1280
▁detail	-1281
utes	-1282
▁30	-1283
ries	-1284
ocus	-1285
▁tru	-1286
▁applic	-1287
time	-1288
aster	-1289
▁large	-1290
igin	-1291
iety	-1292
ready	-1293
iver	-1294
cal	-1295
▁course	-1296
cor	-1297
▁.	-1298
yle	-1299
▁beaut	-1300
▁offic	-1301
free	-1302
arent	-1303
pm	-1304
back	-1305
oci	-1306
▁along	-1307
▁change	-1308
ream	-1309
▁dist	-1310
▁employ	-1311
leg	-1312
ump	-1313
▁ask	-1314
ips	-1315
please	-1316
cut	-1317
▁name	-1318
▁present	-1319
ju	-1320
▁chang	-1321
▁check	-1322
▁says	-1323
ury	-1324
▁video	-1325
side	-1326
▁group	-1327
▁pain	-1328
load	-1329
ism	-1330
ised	-1331
▁near	-1332
▁activ	-1333
ring	-1334
opp	-1335
la	-1336
iting	-1337
▁cap	-1338
enef	-1339
▁please	-1340
bar	-1341
▁members	-1342
ird	-1343
une	-1344
▁expect	-1345
▁buy	-1346
cour	-1347
▁money	-1348
▁pa	-1349
▁times	-1350
itions	-1351
hn	-1352
▁fav	-1353
ify	-1354
▁house	-1355
net	-1356
augh	-1357
ift	-1358
uk	-1359
▁perfect	-1360
irl	-1361
bro	-1362
▁ref	-1363
▁opport	-1364
▁beh	-1365
ffe	-1366
ising	-1367
alf	-1368
▁music	-1369
ane	-1370
▁why	-1371
ered	-1372
vernment	-1373
eu	-1374
ote	-1375
!!	-1376
ably	-1377
▁dem	-1378
▁case	-1379
veral	-1380
pecial	-1381
aterial	-1382
▁/	-1383
▁treat	-1384
aring	-1385
▁hist	-1386
▁create	-1387
▁live	-1388
▁below	-1389
mber	-1390
▁following	-1391
oor	-1392
ots	-1393
▁short	-1394
ery	-1395
▁thing	-1396
▁account	-1397
▁hot	-1398
viron	-1399
▁cond	-1400
▁const	-1401
ention	-1402
ball	-1403
▁line	-1404
▁page	-1405
▁side	-1406
▁ce	-1407
▁story	-1408
▁sw	-1409
ived	-1410
ization	-1411
▁understand	-1412
▁having	-1413
nect	-1414
▁review	-1415
pres	-1416
itive	-1417
▁[	-1418
▁million	-1419
▁trad	-1420
dis	-1421
fact	-1422
urs	-1423
▁par	-1424
▁hum	-1425
ored	-1426
▁dev	-1427
state	-1428
ision	-1429
▁makes	-1430
▁la	-1431
while	-1432
▁focus	-1433
▁personal	-1434
▁based	-1435
uck	-1436
▁move	-1437
▁effect	-1438
▁research	-1439
▁works	-1440
don	-1441
▁across	-1442
▁left	-1443
ny	-1444
ma	-1445
ienc	-1446
ford	-1447
▁possible	-1448
▁comes	-1449
▁kind	-1450
ron	-1451
▁camp	-1452
ividual	-1453
▁ever	-1454
▁getting	-1455
▁already	-1456
▁writ	-1457
▁pot	-1458
▁benef	-1459
ances	-1460
osp	-1461
▁soft	-1462
vious	-1463
ush	-1464
uture	-1465
aces	-1466
john	-1467
▁educ	-1468
▁elect	-1469
▁share	-1470
ajor	-1471
▁bit	-1472
▁country	-1473
ister	-1474
raw	-1475
▁done	-1476
iam	-1477
light	-1478
▁become	-1479
▁record	-1480
american	-1481
intern	-1482
ai	-1483
city	-1484
▁several	-1485
▁nor	-1486
▁es	-1487
▁news	-1488
af	-1489
▁often	-1490
oice	-1491
iven	-1492
inst	-1493
pol	-1494
▁enough	-1495
▁minutes	-1496
aim	-1497
ured	-1498
▁social	-1499
unch	-1500
▁issu	-1501
▁quick	-1502
▁tre	-1503
house	-1504
▁mil	-1505
▁:	-1506
▁far	-1507
▁won	-1508
iful	-1509
nov	-1510
▁vers	-1511
▁body	-1512
raft	-1513
olution	-1514
▁bring	-1515
▁women	-1516
▁cut	-1517
▁fund	-1518
▁boo	-1519
▁hours	-1520
▁development	-1521
▁mult	-1522
▁net	-1523
vironment	-1524
▁jo	-1525
▁ext	-1526
▁purch	-1527
jan	-1528
▁tell	-1529
ides	-1530
ze	-1531
mc	-1532
▁cou	-1533
conom	-1534
pri	-1535
▁return	-1536
▁city	-1537
school	-1538
ones	-1539
1.	-1540
▁men	-1541
right	-1542
mal	-1543
ograph	-1544
▁ste	-1545
▁lo	-1546
▁sum	-1547
▁pack	-1548
sk	-1549
▁individual	-1550
▁deal	-1551
lege	-1552
from	-1553
head	-1554
tain	-1555
rec	-1556
ork	-1557
▁material	-1558
▁non	-1559
ateg	-1560
▁clean	-1561
ns	-1562
▁travel	-1563
nes	-1564
ners	-1565
▁pie	-1566
str	-1567
po	-1568
▁started	-1569
however	-1570
▁called	-1571
▁hold	-1572
▁months	-1573
reet	-1574
▁friends	-1575
met	-1576
▁others	-1577
▁industry	-1578
yes	-1579
well	-1580
idd	-1581
▁mom	-1582
▁compet	-1583
ham	-1584
▁100	-1585
post	-1586
ource	-1587
▁land	-1588
-2	-1589
aust	-1590
indow	-1591
ination	-1592
osed	-1593
▁future	-1594
▁didn	-1595
▁space	-1596
some	-1597
▁doing	-1598
▁sol	-1599
lish	-1600
ption	-1601
▁14	-1602
har	-1603
▁rele	-1604
▁16	-1605
god	-1606
▁low	-1607
unic	-1608
▁wa	-1609
▁control	-1610
▁store	-1611
where	-1612
arning	-1613
▁cover	-1614
ser	-1615
▁major	-1616
▁#	-1617
▁*	-1618
na	-1619
▁oc	-1620
▁blog	-1621
▁origin	-1622
acy	-1623
▁offers	-1624
.,	-1625
west	-1626
roll	-1627
▁yet	-1628
▁1.	-1629
ference	-1630
gar	-1631
ster	-1632
anies	-1633
▁brand	-1634
▁key	-1635
▁means	-1636
curity	-1637
cy	-1638
▁mind	-1639
jects	-1640
▁chall	-1641
▁comb	-1642
aug	-1643
▁lim	-1644
▁games	-1645
▁features	-1646
▁pict	-1647
▁doesn	-1648
commend	-1649
▁took	-1650
▁came	-1651
ilities	-1652
▁range	-1653
world	-1654
united	-1655
▁invol	-1656
date	-1657
▁customers	-1658
▁percent	-1659
▁least	-1660
▁specific	-1661
ask	-1662
▁five	-1663
▁strong	-1664
urther	-1665
▁step	-1666
▁price	-1667
2.	-1668
high	-1669
▁heart	-1670
duct	-1671
will	-1672
▁require	-1673
bed	-1674
▁once	-1675
▁fore	-1676
ern	-1677
▁close	-1678
tract	-1679
ither	-1680
ilt	-1681
last	-1682
▁tool	-1683
oose	-1684
mat	-1685
▁24	-1686
ged	-1687
cr	-1688
wood	-1689
hol	-1690
nam	-1691
▁mean	-1692
▁stay	-1693
▁tem	-1694
▁discuss	-1695
▁install	-1696
org	-1697
atural	-1698
dep	-1699
illed	-1700
▁series	-1701
board	-1702
▁x	-1703
▁early	-1704
▁beautiful	-1705
see	-1706
resh	-1707
ources	-1708
ye	-1709
▁tal	-1710
bre	-1711
▁government	-1712
char	-1713
▁hope	-1714
▁hig	-1715
▁priv	-1716
aken	-1717
▁technology	-1718
anks	-1719
▁redu	-1720
▁announ	-1721
oct	-1722
▁charac	-1723
▁thought	-1724
//	-1725
▁questions	-1726
rain	-1727
▁appear	-1728
▁begin	-1729
▁ago	-1730
▁typ	-1731
▁happen	-1732
ancial	-1733
▁went	-1734
down	-1735
gle	-1736
▁13	-1737
▁told	-1738
▁super	-1739
▁anal	-1740
irm	-1741
itor	-1742
stud	-1743
rel	-1744
▁single	-1745
acc	-1746
wards	-1747
south	-1748
like	-1749
://	-1750
▁everything	-1751
lab	-1752
▁content	-1753
▁favor	-1754
bur	-1755
york	-1756
north	-1757
aps	-1758
▁certain	-1759
▁clear	-1760
press	-1761
▁--	-1762
rs	-1763
gs	-1764
▁ens	-1765
▁added	-1766
▁environment	-1767
euro	-1768
▁building	-1769
▁port	-1770
▁25	-1771
apr	-1772
▁field	-1773
▁>	-1774
ians	-1775
▁search	-1776
fully	-1777
national	-1778
cast	-1779
icy	-1780
rop	-1781
▁companies	-1782
▁young	-1783
▁tot	-1784
wed	-1785
ports	-1786
▁known	-1787
vert	-1788
▁media	-1789
▁2.	-1790
▁tax	-1791
▁mess	-1792
▁ener	-1793
▁address	-1794
isk	-1795
▁study	-1796
▁actually	-1797
1,	-1798
▁recommend	-1799
ply	-1800
ief	-1801
hers	-1802
▁girl	-1803
▁press	-1804
ibr	-1805
lebr	-1806
county	-1807
▁improve	-1808
▁taking	-1809
ret	-1810
mit	-1811
center	-1812
▁vol	-1813
▁17	-1814
ural	-1815
hod	-1816
▁training	-1817
▁card	-1818
ama	-1819
unities	-1820
▁sound	-1821
▁contr	-1822
ided	-1823
ests	-1824
hy	-1825
▁professional	-1826
▁later	-1827
▁staff	-1828
pet	-1829
atest	-1830
▁•	-1831
opy	-1832
▁ident	-1833
▁watch	-1834
▁unique	-1835
▁def	-1836
friday	-1837
ensive	-1838
▁official	-1839
▁results	-1840
ocu	-1841
▁problem	-1842
ram	-1843
▁someone	-1844
bus	-1845
▁provides	-1846
▁issues	-1847
▁2013	-1848
name	-1849
▁face	-1850
▁film	-1851
public	-1852
▁host	-1853
ctor	-1854
▁half	-1855
care	-1856
▁everyone	-1857
elf	-1858
uff	-1859
▁seen	-1860
▁sell	-1861
▁bar	-1862
▁due	-1863
prof	-1864
▁web	-1865
▁mot	-1866
▁simple	-1867
health	-1868
201	-1869
eral	-1870
▁199	-1871
coming	-1872
▁dig	-1873
▁50	-1874
▁respons	-1875
ape	-1876
▁oil	-1877
pat	-1878
set	-1879
▁office	-1880
ino	-1881
▁relations	-1882
▁ess	-1883
itted	-1884
gest	-1885
▁miss	-1886
▁(1	-1887
▁mor	-1888
▁particular	-1889
atic	-1890
▁econom	-1891
sue	-1892
park	-1893
▁front	-1894
ibility	-1895
▁management	-1896
▁particip	-1897
phone	-1898
▁aud	-1899
urch	-1900
▁connect	-1901
place	-1902
top	-1903
▁cred	-1904
▁whole	-1905
enn	-1906
iod	-1907
obile	-1908
▁age	-1909
▁areas	-1910
asing	-1911
inter	-1912
▁break	-1913
▁wond	-1914
pecially	-1915
▁performance	-1916
▁repres	-1917
▁bed	-1918
▁fall	-1919
▁tour	-1920
ety	-1921
spe	-1922
ging	-1923
march	-1924
mo	-1925
satur	-1926
ables	-1927
lin	-1928
▁z	-1929
tty	-1930
5.	-1931
tc	-1932
▁color	-1933
▁log	-1934
▁above	-1935
▁author	-1936
▁given	-1937
▁black	-1938
▁size	-1939
imate	-1940
▁designed	-1941
▁details	-1942
ators	-1943
▁events	-1944
▁$1	-1945
▁experienc	-1946
sept	-1947
▁six	-1948
▁reason	-1949
▁htt	-1950
ges	-1951
▁assist	-1952
▁energy	-1953
ica	-1954
based	-1955
▁among	-1956
irt	-1957
▁believe	-1958
ilar	-1959
ogn	-1960
▁select	-1961
ites	-1962
▁publ	-1963
idence	-1964
mor	-1965
ison	-1966
9.	-1967
direct	-1968
used	-1969
▁foot	-1970
▁ant	-1971
june	-1972
li	-1973
oved	-1974
▁sex	-1975
europe	-1976
▁amount	-1977
▁history	-1978
▁includes	-1979
▁further	-1980
ulation	-1981
▁cal	-1982
ee	-1983
aur	-1984
▁mag	-1985
▁property	-1986
key	-1987
manag	-1988
elt	-1989
was	-1990
ruction	-1991
ufact	-1992
▁prob	-1993
obal	-1994
▁effort	-1995
sund	-1996
▁cult	-1997
▁soon	-1998
▁print	-1999
▁continue	-2000
▁parent	-2001
bor	-2002
▁inc	-2003
mas	-2004
his	-2005
then	-2006
aily	-2007
▁latest	-2008
astic	-2009
▁text	-2010
ada	-2011
april	-2012
ledge	-2013
itional	-2014
▁anything	-2015
▁link	-2016
▁compl	-2017
▁coming	-2018
▁value	-2019
▁according	-2020
▁points	-2021
fo	-2022
ille	-2023
ouch	-2024
▁various	-2025
▁question	-2026
ug	-2027
urance	-2028
▁living	-2029
▁fre	-2030
▁phys	-2031
▁type	-2032
every	-2033
nding	-2034
▁phone	-2035
saturday	-2036
▁forward	-2037
▁popular	-2038
ental	-2039
▁white	-2040
weet	-2041
▁defin	-2042
many	-2043
inking	-2044
▁pick	-2045
ands	-2046
uation	-2047
tv	-2048
▁weeks	-2049
first	-2050
ained	-2051
mic	-2052
▁entire	-2053
▁celebr	-2054
icated	-2055
aching	-2056
▁concer	-2057
sal	-2058
itch	-2059
ese	-2060
▁consider	-2061
▁protect	-2062
▁dou	-2063
▁safe	-2064
ops	-2065
▁whether	-2066
▁idea	-2067
▁di	-2068
▁taken	-2069
ming	-2070
▁ready	-2071
▁receive	-2072
4.	-2073
sing	-2074
▁wide	-2075
2,	-2076
news	-2077
ding	-2078
july	-2079
:00	-2080
▁opportunity	-2081
fic	-2082
▁claim	-2083
dav	-2084
ler	-2085
ship	-2086
▁needed	-2087
▁date	-2088
▁track	-2089
word	-2090
▁consum	-2091
▁fire	-2092
black	-2093
▁comput	-2094
▁required	-2095
mr	-2096
▁potential	-2097
selves	-2098
▁skin	-2099
ray	-2100
▁ensure	-2101
▁comfort	-2102
feb	-2103
home	-2104
▁meas	-2105
▁sent	-2106
▁docu	-2107
ana	-2108
▁kids	-2109
▁currently	-2110
▁pretty	-2111
▁talk	-2112
▁items	-2113
ried	-2114
▁sugg	-2115
▁paper	-2116
ises	-2117
kend	-2118
ples	-2119
iate	-2120
▁yourself	-2121
▁financial	-2122
▁ach	-2123
▁bad	-2124
▁relationship	-2125
▁style	-2126
▁natural	-2127
life	-2128
▁flow	-2129
itter	-2130
ival	-2131
▁quite	-2132
▁lab	-2133
▁almost	-2134
▁hom	-2135
▁,	-2136
mb	-2137
▁veh	-2138
ii	-2139
▁options	-2140
▁common	-2141
clus	-2142
monday	-2143
ires	-2144
uary	-2145
▁ways	-2146
▁box	-2147
▁example	-2148
▁human	-2149
▁third	-2150
▁trying	-2151
▁answ	-2152
▁period	-2153
▁fit	-2154
▁especially	-2155
put	-2156
▁road	-2157
▁either	-2158
aging	-2159
▁happy	-2160
▁final	-2161
▁inde	-2162
▁provided	-2163
itting	-2164
▁member	-2165
▁attend	-2166
sunday	-2167
azing	-2168
▁clients	-2169
▁via	-2170
ek	-2171
▁descri	-2172
pper	-2173
▁choose	-2174
soc	-2175
verage	-2176
aged	-2177
▁dam	-2178
ees	-2179
oh	-2180
▁3.	-2181
olutions	-2182
▁summer	-2183
▁users	-2184
▁extra	-2185
ively	-2186
▁jour	-2187
▁engine	-2188
▁held	-2189
▁throughout	-2190
▁crit	-2191
▁hon	-2192
den	-2193
war	-2194
▁2017	-2195
▁famil	-2196
angu	-2197
ted	-2198
▁recent	-2199
ishing	-2200
▁wanted	-2201
sim	-2202
aced	-2203
san	-2204
cas	-2205
sa	-2206
▁recently	-2207
60	-2208
▁created	-2209
design	-2210
ux	-2211
sen	-2212
▁hol	-2213
▁version	-2214
know	-2215
▁download	-2216
mus	-2217
click	-2218
▁bott	-2219
oogle	-2220
▁previous	-2221
8.	-2222
▁impact	-2223
▁issue	-2224
ober	-2225
cons	-2226
▁self	-2227
▁couple	-2228
▁takes	-2229
6.	-2230
gress	-2231
▁sales	-2232
▁tit	-2233
coun	-2234
uge	-2235
▁behind	-2236
ground	-2237
▁red	-2238
ecut	-2239
president	-2240
ume	-2241
▁insp	-2242
▁deter	-2243
▁running	-2244
▁init	-2245
/2	-2246
ole	-2247
▁war	-2248
▁ele	-2249
▁software	-2250
bi	-2251
ficult	-2252
ades	-2253
loc	-2254
▁education	-2255
law	-2256
▁table	-2257
▁seem	-2258
▁method	-2259
▁isn	-2260
▁reading	-2261
▁received	-2262
star	-2263
▁cup	-2264
▁favorite	-2265
▁pan	-2266
▁problems	-2267
itten	-2268
anced	-2269
inks	-2270
▁song	-2271
▁nice	-2272
▁represent	-2273
▁stri	-2274
▁click	-2275
▁shows	-2276
▁er	-2277
▁cool	-2278
rew	-2279
▁role	-2280
atform	-2281
▁walk	-2282
3.	-2283
▁fresh	-2284
▁increase	-2285
▁regular	-2286
ung	-2287
states	-2288
▁customer	-2289
▁collect	-2290
▁security	-2291
▁else	-2292
aby	-2293
october	-2294
▁fast	-2295
mich	-2296
lim	-2297
idge	-2298
ification	-2299
▁sle	-2300
▁skills	-2301
associ	-2302
▁players	-2303
ffic	-2304
▁party	-2305
ken	-2306
▁difficult	-2307
▁action	-2308
ror	-2309
rodu	-2310
▁original	-2311
road	-2312
september	-2313
mod	-2314
icles	-2315
overed	-2316
▁simply	-2317
also	-2318
bit	-2319
▁signific	-2320
▁writing	-2321
oid	-2322
▁likely	-2323
▁outside	-2324
gree	-2325
▁hair	-2326
▁morning	-2327
40	-2328
cil	-2329
▁wonder	-2330
istration	-2331
gener	-2332
band	-2333
artment	-2334
▁article	-2335
aving	-2336
▁inside	-2337
--	-2338
wes	-2339
oll	-2340
▁model	-2341
▁position	-2342
▁probably	-2343
ba	-2344
ev	-2345
austral	-2346
▁necess	-2347
▁learning	-2348
▁manufact	-2349
▁exam	-2350
▁asked	-2351
▁ground	-2352
hen	-2353
facebook	-2354
▁anim	-2355
america	-2356
ague	-2357
chen	-2358
▁ful	-2359
▁leave	-2360
hold	-2361
google	-2362
box	-2363
indows	-2364
ha	-2365
ipping	-2366
▁systems	-2367
bel	-2368
aker	-2369
▁release	-2370
list	-2371
▁sun	-2372
istrict	-2373
iple	-2374
august	-2375
▁hy	-2376
▁mix	-2377
january	-2378
market	-2379
hib	-2380
▁application	-2381
▁located	-2382
mark	-2383
thurs	-2384
25	-2385
▁contribut	-2386
water	-2387
▁ri	-2388
▁knowledge	-2389
▁screen	-2390
▁continu	-2391
▁coun	-2392
iqu	-2393
▁goal	-2394
▁contract	-2395
▁changes	-2396
▁...	-2397
eth	-2398
nal	-2399
▁lives	-2400
cing	-2401
▁projects	-2402
tues	-2403
▁stop	-2404
▁+	-2405
▁hit	-2406
oly	-2407
check	-2408
▁exist	-2409
▁board	-2410
▁medical	-2411
▁etc	-2412
adem	-2413
▁additional	-2414
▁anyone	-2415
▁private	-2416
▁ple	-2417
▁recogn	-2418
ellow	-2419
▁total	-2420
tod	-2421
80	-2422
▁activities	-2423
▁abs	-2424
-0	-2425
▁sat	-2426
pal	-2427
▁town	-2428
business	-2429
▁however	-2430
▁2014	-2431
ooking	-2432
▁cir	-2433
▁saf	-2434
▁treatment	-2435
ipment	-2436
▁communic	-2437
iol	-2438
▁accept	-2439
▁included	-2440
▁risk	-2441
wel	-2442
99	-2443
action	-2444
field	-2445
▁40	-2446
▁career	-2447
iter	-2448
ening	-2449
ules	-2450
miss	-2451
▁autom	-2452
.)	-2453
cover	-2454
▁matter	-2455
▁kit	-2456
best	-2457
izing	-2458
street	-2459
▁fail	-2460
tim	-2461
▁mach	-2462
aign	-2463
arget	-2464
▁former	-2465
about	-2466
trans	-2467
▁growth	-2468
▁looks	-2469
▁books	-2470
▁polit	-2471
class	-2472
ovember	-2473
found	-2474
thursday	-2475
▁meeting	-2476
del	-2477
real	-2478
▁words	-2479
▁variety	-2480
dom	-2481
▁bir	-2482
▁wall	-2483
▁202	-2484
phot	-2485
ony	-2486
ville	-2487
▁drive	-2488
▁longer	-2489
▁lay	-2490
ude	-2491
ercial	-2492
▁match	-2493
november	-2494
▁production	-2495
▁mat	-2496
tuesday	-2497
▁similar	-2498
▁practice	-2499
▁round	-2500
▁stor	-2501
rem	-2502
▁2010	-2503
▁weekend	-2504
▁function	-2505
service	-2506
▁playing	-2507
good	-2508
▁upd	-2509
▁leaders	-2510
▁significant	-2511
ipe	-2512
airs	-2513
example	-2514
▁character	-2515
rect	-2516
win	-2517
adu	-2518
wednes	-2519
▁worth	-2520
▁2012	-2521
mp	-2522
▁ball	-2523
department	-2524
friend	-2525
▁suggest	-2526
international	-2527
▁wel	-2528
arter	-2529
soft	-2530
▁cook	-2531
▁fig	-2532
▁worked	-2533
imum	-2534
▁late	-2535
bt	-2536
▁programs	-2537
erg	-2538
▁purchase	-2539
▁police	-2540
▁platform	-2541
▁amazing	-2542
▁clos	-2543
why	-2544
▁associ	-2545
▁death	-2546
▁infl	-2547
lier	-2548
▁photos	-2549
11	-2550
ought	-2551
▁repl	-2552
▁challeng	-2553
ights	-2554
▁send	-2555
▁allows	-2556
labor	-2557
wal	-2558
itut	-2559
-3	-2560
▁cand	-2561
▁true	-2562
group	-2563
hood	-2564
▁general	-2565
ession	-2566
▁international	-2567
oud	-2568
bon	-2569
▁plans	-2570
▁nothing	-2571
▁built	-2572
wednesday	-2573
mission	-2574
▁chance	-2575
power	-2576
▁rather	-2577
▁arri	-2578
▁student	-2579
dece	-2580
▁leading	-2581
▁image	-2582
▁seems	-2583
▁teac	-2584
▁loss	-2585
bal	-2586
▁providing	-2587
▁quickly	-2588
rie	-2589
6,	-2590
▁estab	-2591
▁regard	-2592
▁usually	-2593
▁credit	-2594
hot	-2595
iddle	-2596
▁comment	-2597
▁rate	-2598
▁safety	-2599
▁touch	-2600
▁stat	-2601
▁collection	-2602
techn	-2603
december	-2604
aining	-2605
opping	-2606
▁ideas	-2607
▁draw	-2608
▁deep	-2609
▁choice	-2610
8,	-2611
under	-2612
▁excell	-2613
calif	-2614
great	-2615
▁network	-2616
cret	-2617
▁apply	-2618
cup	-2619
▁national	-2620
▁higher	-2621
bert	-2622
▁bal	-2623
imin	-2624
ga	-2625
ivery	-2626
hel	-2627
▁easily	-2628
ondon	-2629
▁bud	-2630
▁sil	-2631
▁encour	-2632
empt	-2633
green	-2634
▁prior	-2635
▁£	-2636
▁movie	-2637
▁location	-2638
▁moment	-2639
unt	-2640
eds	-2641
▁integr	-2642
▁reported	-2643
▁marketing	-2644
▁cell	-2645
7.	-2646
mm	-2647
▁decision	-2648
fam	-2649
roy	-2650
▁decided	-2651
▁prevent	-2652
mag	-2653
even	-2654
9,	-2655
▁court	-2656
▁released	-2657
▁dom	-2658
step	-2659
▁base	-2660
▁depend	-2661
▁commit	-2662
▁wood	-2663
▁ill	-2664
sl	-2665
london	-2666
web	-2667
ached	-2668
▁digital	-2669
▁21	-2670
▁sn	-2671
thanks	-2672
▁mass	-2673
▁display	-2674
pped	-2675
▁benefits	-2676
aste	-2677
white	-2678
▁introdu	-2679
english	-2680
▁file	-2681
▁feature	-2682
oring	-2683
▁exact	-2684
call	-2685
▁rad	-2686
bec	-2687
▁cannot	-2688
idents	-2689
▁daily	-2690
reng	-2691
▁cy	-2692
lex	-2693
▁parents	-2694
▁cause	-2695
▁piece	-2696
oes	-2697
rich	-2698
gen	-2699
▁4.	-2700
east	-2701
ban	-2702
iff	-2703
▁heav	-2704
sur	-2705
▁effic	-2706
▁sche	-2707
thern	-2708
▁announced	-2709
▁partners	-2710
change	-2711
arden	-2712
▁user	-2713
▁respect	-2714
▁campaign	-2715
▁lost	-2716
▁expected	-2717
using	-2718
▁center	-2719
ospital	-2720
▁involved	-2721
▁modern	-2722
mary	-2723
today	-2724
ructure	-2725
▁smo	-2726
▁investig	-2727
college	-2728
wide	-2729
sch	-2730
▁hor	-2731
works	-2732
amed	-2733
ederal	-2734
iction	-2735
order	-2736
find	-2737
▁maintain	-2738
zz	-2739
▁langu	-2740
▁standard	-2741
▁vict	-2742
super	-2743
▁ut	-2744
though	-2745
▁expert	-2746
▁dest	-2747
▁green	-2748
▁bag	-2749
▁save	-2750
bscri	-2751
▁related	-2752
ams	-2753
▁saw	-2754
ruary	-2755
ead	-2756
istic	-2757
▁mobile	-2758
▁note	-2759
▁woman	-2760
12	-2761
february	-2762
afr	-2763
▁ability	-2764
▁immed	-2765
▁floor	-2766
jack	-2767
▁boy	-2768
aves	-2769
mac	-2770
▁patients	-2771
:30	-2772
once	-2773
▁option	-2774
▁ded	-2775
▁enter	-2776
3,	-2777
▁restaur	-2778
ivity	-2779
david	-2780
roups	-2781
▁goes	-2782
▁2015	-2783
▁parts	-2784
▁computer	-2785
night	-2786
di	-2787
▁squ	-2788
▁word	-2789
child	-2790
since	-2791
▁http	-2792
ester	-2793
▁code	-2794
services	-2795
iring	-2796
▁stra	-2797
▁af	-2798
70	-2799
acking	-2800
▁inj	-2801
▁helps	-2802
bing	-2803
▁dress	-2804
▁roll	-2805
▁global	-2806
californ	-2807
▁innov	-2808
reme	-2809
▁costs	-2810
▁mother	-2811
▁target	-2812
▁equipment	-2813
▁huge	-2814
men	-2815
open	-2816
▁bi	-2817
cap	-2818
▁weight	-2819
make	-2820
▁rights	-2821
icks	-2822
▁serious	-2823
▁tools	-2824
▁tick	-2825
▁door	-2826
▁ones	-2827
big	-2828
enge	-2829
▁myself	-2830
force	-2831
▁gen	-2832
pose	-2833
▁ep	-2834
▁complet	-2835
develop	-2836
christmas	-2837
▁agre	-2838
illing	-2839
da	-2840
ky	-2841
▁solutions	-2842
brit	-2843
▁feed	-2844
▁gives	-2845
▁legal	-2846
▁sens	-2847
mem	-2848
▁surpr	-2849
rown	-2850
▁arch	-2851
dem	-2852
cure	-2853
body	-2854
program	-2855
asons	-2856
▁request	-2857
▁attention	-2858
▁attack	-2859
▁conditions	-2860
point	-2861
inary	-2862
▁sus	-2863
▁insurance	-2864
15	-2865
▁giving	-2866
iation	-2867
▁admin	-2868
uel	-2869
▁deliver	-2870
▁interested	-2871
california	-2872
▁dry	-2873
▁earn	-2874
▁photo	-2875
▁levels	-2876
▁policy	-2877
▁planning	-2878
dri	-2879
erc	-2880
according	-2881
have	-2882
fil	-2883
▁hands	-2884
▁trust	-2885
iding	-2886
▁hear	-2887
ault	-2888
acing	-2889
▁approach	-2890
▁resources	-2891
vol	-2892
▁appe	-2893
cu	-2894
twitter	-2895
ension	-2896
▁award	-2897
▁highly	-2898
▁businesses	-2899
bum	-2900
ibrary	-2901
pay	-2902
atives	-2903
▁solution	-2904
who	-2905
akers	-2906
▁wed	-2907
iant	-2908
attle	-2909
www	-2910
▁qual	-2911
▁prim	-2912
▁sett	-2913
zy	-2914
vey	-2915
▁condition	-2916
erous	-2917
▁sold	-2918
▁remember	-2919
▁sale	-2920
▁starting	-2921
izes	-2922
ida	-2923
▁warm	-2924
ben	-2925
▁gets	-2926
▁fine	-2927
ned	-2928
ysis	-2929
▁source	-2930
▁instead	-2931
▁lower	-2932
each	-2933
__	-2934
▁materials	-2935
▁write	-2936
▁reach	-2937
ashion	-2938
irit	-2939
▁attract	-2940
india	-2941
ength	-2942
▁multiple	-2943
▁published	-2944
▁bur	-2945
apan	-2946
hall	-2947
▁rout	-2948
▁themselves	-2949
▁sense	-2950
▁images	-2951
▁streng	-2952
▁star	-2953
▁cases	-2954
▁eye	-2955
show	-2956
▁upon	-2957
▁played	-2958
▁express	-2959
▁neg	-2960
▁join	-2961
system	-2962
▁effective	-2963
▁firm	-2964
atory	-2965
▁mid	-2966
arant	-2967
vin	-2968
hand	-2969
build	-2970
▁plant	-2971
▁types	-2972
plement	-2973
▁president	-2974
▁organization	-2975
vision	-2976
phil	-2977
▁consult	-2978
anch	-2979
▁heat	-2980
▁positive	-2981
washing	-2982
erve	-2983
bay	-2984
▁opp	-2985
orge	-2986
▁written	-2987
7,	-2988
ography	-2989
tex	-2990
▁cat	-2991
▁depart	-2992
▁lif	-2993
▁lic	-2994
▁interesting	-2995
▁stock	-2996
▁healthy	-2997
▁dise	-2998
hist	-2999
▁average	-3000
▁item	-3001
aches	-3002
▁picture	-3003
▁slow	-3004
▁fight	-3005
plan	-3006
tri	-3007
▁interview	-3008
office	-3009
educ	-3010
▁camer	-3011
enty	-3012
isl	-3013
▁countries	-3014
▁answer	-3015
▁message	-3016
ael	-3017
▁subject	-3018
rock	-3019
▁gift	-3020
gre	-3021
▁employees	-3022
▁spend	-3023
▁sou	-3024
▁prem	-3025
▁opportunities	-3026
▁wal	-3027
ocol	-3028
love	-3029
▁pers	-3030
hi	-3031
▁dream	-3032
▁trip	-3033
▁viol	-3034
▁sites	-3035
▁directly	-3036
▁copy	-3037
▁completely	-3038
▁ur	-3039
▁document	-3040
ruit	-3041
▁began	-3042
wom	-3043
▁hour	-3044
▁capt	-3045
gold	-3046
wa	-3047
thank	-3048
▁families	-3049
▁achieve	-3050
produ	-3051
▁@	-3052
▁commercial	-3053
▁player	-3054
▁fab	-3055
▁essential	-3056
mart	-3057
▁necessary	-3058
ipped	-3059
▁fans	-3060
iable	-3061
....	-3062
ffee	-3063
uses	-3064
comes	-3065
▁fully	-3066
▁prices	-3067
▁2016	-3068
▁1,	-3069
▁fix	-3070
▁groups	-3071
ffects	-3072
angel	-3073
rought	-3074
▁promot	-3075
tee	-3076
arts	-3077
-4	-3078
▁adult	-3079
▁pull	-3080
▁stories	-3081
▁excellent	-3082
▁60	-3083
▁(2	-3084
▁glass	-3085
itute	-3086
china	-3087
▁reve	-3088
japan	-3089
paul	-3090
▁band	-3091
review	-3092
itely	-3093
olf	-3094
company	-3095
▁offe	-3096
▁successful	-3097
▁creating	-3098
det	-3099
lar	-3100
▁stuff	-3101
fast	-3102
▁dru	-3103
▁growing	-3104
▁comments	-3105
lt	-3106
▁gar	-3107
▁traditional	-3108
▁tele	-3109
long	-3110
▁sen	-3111
▁aim	-3112
▁www	-3113
itation	-3114
▁except	-3115
▁stru	-3116
washington	-3117
apple	-3118
▁2018	-3119
▁div	-3120
▁cert	-3121
▁reports	-3122
ls	-3123
▁itself	-3124
▁separ	-3125
dan	-3126
mil	-3127
▁affect	-3128
▁goals	-3129
erved	-3130
iced	-3131
ancy	-3132
sun	-3133
▁gold	-3134
▁baby	-3135
▁device	-3136
▁led	-3137
ties	-3138
▁mount	-3139
▁broad	-3140
two	-3141
▁2011	-3142
▁shoot	-3143
▁propos	-3144
▁vehicle	-3145
▁neigh	-3146
▁execut	-3147
▁dark	-3148
▁2020	-3149
▁birth	-3150
▁defe	-3151
people	-3152
▁ir	-3153
▁dead	-3154
onse	-3155
bet	-3156
▁suit	-3157
▁wrong	-3158
fire	-3159
pan	-3160
dy	-3161
▁extreme	-3162
person	-3163
▁fair	-3164
▁applications	-3165
boo	-3166
▁terms	-3167
▁saying	-3168
vest	-3169
▁attempt	-3170
ube	-3171
▁hop	-3172
tom	-3173
▁cross	-3174
▁imm	-3175
▁tur	-3176
vide	-3177
director	-3178
▁thinking	-3179
mail	-3180
canada	-3181
▁wasn	-3182
▁pictures	-3183
▁wait	-3184
ado	-3185
▁22	-3186
take	-3187
▁speed	-3188
▁teams	-3189
live	-3190
opt	-3191
sol	-3192
▁section	-3193
iny	-3194
▁bath	-3195
hest	-3196
cert	-3197
▁implement	-3198
aughter	-3199
▁serve	-3200
istry	-3201
▁budget	-3202
▁profession	-3203
▁offering	-3204
▁mention	-3205
▁distribut	-3206
▁wish	-3207
▁blood	-3208
ores	-3209
▁aware	-3210
▁advice	-3211
▁obs	-3212
▁organiz	-3213
yond	-3214
▁director	-3215
association	-3216
▁sweet	-3217
court	-3218
ils	-3219
pite	-3220
club	-3221
▁impress	-3222
▁limited	-3223
▁gave	-3224
”.	-3225
▁occur	-3226
▁mark	-3227
▁carry	-3228
aries	-3229
door	-3230
▁apart	-3231
▁ble	-3232
▁correct	-3233
ctions	-3234
contact	-3235
ological	-3236
corpor	-3237
▁po	-3238
▁delivery	-3239
flor	-3240
▁places	-3241
▁dog	-3242
main	-3243
▁smart	-3244
camp	-3245
▁college	-3246
chan	-3247
▁developed	-3248
▁statement	-3249
▁enh	-3250
nds	-3251
pc	-3252
sum	-3253
indian	-3254
rob	-3255
▁individuals	-3256
arc	-3257
▁avoid	-3258
note	-3259
▁son	-3260
pack	-3261
▁dro	-3262
rench	-3263
▁eat	-3264
aling	-3265
▁requirements	-3266
bc	-3267
▁moving	-3268
▁nation	-3269
ago	-3270
▁progress	-3271
▁construction	-3272
▁ing	-3273
▁spent	-3274
▁became	-3275
▁complex	-3276
▁title	-3277
uth	-3278
▁schools	-3279
▁situation	-3280
▁nut	-3281
bra	-3282
ibly	-3283
ox	-3284
rote	-3285
▁sometimes	-3286
ady	-3287
ads	-3288
ration	-3289
ceed	-3290
aught	-3291
▁shop	-3292
inner	-3293
▁feet	-3294
▁wants	-3295
▁5.	-3296
▁vot	-3297
▁kitchen	-3298
▁pattern	-3299
▁wonderful	-3300
▁shot	-3301
haps	-3302
hop	-3303
▁cas	-3304
umb	-3305
▁physical	-3306
windows	-3307
▁sleep	-3308
▁feeling	-3309
sign	-3310
▁stress	-3311
▁advant	-3312
unte	-3313
▁club	-3314
fall	-3315
▁rent	-3316
online	-3317
only	-3318
▁jud	-3319
wise	-3320
cul	-3321
▁heard	-3322
ancing	-3323
▁path	-3324
made	-3325
▁har	-3326
william	-3327
although	-3328
75	-3329
▁pet	-3330
idered	-3331
▁consist	-3332
▁finish	-3333
▁sty	-3334
▁album	-3335
▁towards	-3336
council	-3337
ses	-3338
▁sort	-3339
▁kn	-3340
fa	-3341
▁owners	-3342
-5	-3343
dule	-3344
micro	-3345
▁conduct	-3346
▁hotel	-3347
▁convers	-3348
tor	-3349
▁loved	-3350
▁annual	-3351
texas	-3352
research	-3353
▁language	-3354
iber	-3355
▁bank	-3356
▁strateg	-3357
ka	-3358
▁mic	-3359
▁billion	-3360
▁spot	-3361
itary	-3362
rang	-3363
▁felt	-3364
ocr	-3365
▁quarter	-3366
▁finally	-3367
▁block	-3368
michael	-3369
card	-3370
▁region	-3371
▁hous	-3372
▁race	-3373
▁inform	-3374
keep	-3375
▁bow	-3376
▁ten	-3377
aks	-3378
run	-3379
▁grand	-3380
▁aff	-3381
cell	-3382
▁respond	-3383
▁temper	-3384
▁stage	-3385
▁pow	-3386
▁eyes	-3387
custom	-3388
▁ver	-3389
▁nature	-3390
▁helping	-3391
bank	-3392
▁straight	-3393
▁weather	-3394
elect	-3395
▁wear	-3396
internet	-3397
▁exerc	-3398
▁max	-3399
▁partner	-3400
▁investment	-3401
▁tried	-3402
test	-3403
general	-3404
▁categ	-3405
ker	-3406
▁brought	-3407
lead	-3408
▁concept	-3409
▁overall	-3410
".	-3411
▁guide	-3412
▁ge	-3413
▁nearly	-3414
hum	-3415
▁client	-3416
craft	-3417
james	-3418
mine	-3419
▁wife	-3420
australia	-3421
sil	-3422
food	-3423
iment	-3424
rad	-3425
▁charge	-3426
color	-3427
▁independ	-3428
fun	-3429
▁largest	-3430
ares	-3431
▁…	-3432
mot	-3433
aint	-3434
▁wedding	-3435
sub	-3436
van	-3437
▁pieces	-3438
▁term	-3439
▁cold	-3440
estival	-3441
week	-3442
▁collabor	-3443
▁wrote	-3444
mitted	-3445
▁activity	-3446
▁gas	-3447
▁sports	-3448
▁23	-3449
▁double	-3450
▁definitely	-3451
roud	-3452
▁demand	-3453
▁appoint	-3454
ta	-3455
▁198	-3456
▁benefit	-3457
asy	-3458
inte	-3459
russ	-3460
rant	-3461
▁homes	-3462
▁advert	-3463
▁offered	-3464
iately	-3465
rences	-3466
▁bottom	-3467
▁reduce	-3468
▁uses	-3469
oon	-3470
▁analy	-3471
▁apprec	-3472
▁acqu	-3473
usa	-3474
▁internet	-3475
management	-3476
▁blue	-3477
▁altern	-3478
▁response	-3479
▁imag	-3480
aled	-3481
look	-3482
start	-3483
sou	-3484
follow	-3485
▁difference	-3486
▁ord	-3487
lu	-3488
▁creative	-3489
▁pred	-3490
▁ahead	-3491
because	-3492
▁turned	-3493
urt	-3494
european	-3495
special	-3496
wall	-3497
▁thous	-3498
▁influ	-3499
vant	-3500
▁candid	-3501
▁miles	-3502
▁considered	-3503
ml	-3504
▁devices	-3505
oves	-3506
▁seven	-3507
▁ru	-3508
▁active	-3509
▁served	-3510
▁exactly	-3511
▁retail	-3512
▁medic	-3513
cks	-3514
▁beginning	-3515
45	-3516
▁earlier	-3517
olute	-3518
ican	-3519
iance	-3520
jun	-3521
watch	-3522
ustain	-3523
oke	-3524
log	-3525
▁challenge	-3526
during	-3527
mount	-3528
sey	-3529
cs	-3530
▁transport	-3531
game	-3532
▁entertain	-3533
dig	-3534
4,	-3535
information	-3536
▁lik	-3537
▁histor	-3538
▁finished	-3539
▁dating	-3540
▁belie	-3541
sam	-3542
bow	-3543
▁doll	-3544
community	-3545
mad	-3546
▁flav	-3547
ios	-3548
▁surround	-3549
▁paid	-3550
icious	-3551
▁understanding	-3552
16	-3553
bell	-3554
sell	-3555
▁lots	-3556
▁extend	-3557
▁regul	-3558
:||	-3559
▁sem	-3560
ategy	-3561
lying	-3562
lee	-3563
oms	-3564
print	-3565
▁2019	-3566
which	-3567
▁cash	-3568
opped	-3569
▁guarant	-3570
▁farm	-3571
▁maybe	-3572
▁rock	-3573
ounds	-3574
▁posted	-3575
antly	-3576
90	-3577
icking	-3578
▁easier	-3579
team	-3580
blue	-3581
▁decl	-3582
▁experienced	-3583
church	-3584
iles	-3585
▁0.	-3586
▁political	-3587
family	-3588
lake	-3589
music	-3590
los	-3591
▁states	-3592
active	-3593
▁pages	-3594
island	-3595
▁culture	-3596
wr	-3597
▁hus	-3598
▁machine	-3599
jes	-3600
exper	-3601
▁eight	-3602
▁exhib	-3603
za	-3604
▁truly	-3605
cel	-3606
▁girls	-3607
13	-3608
ampions	-3609
▁fat	-3610
quest	-3611
▁emot	-3612
▁rates	-3613
▁analysis	-3614
▁immediately	-3615
▁assess	-3616
rd	-3617
pare	-3618
icing	-3619
▁tips	-3620
boy	-3621
onstr	-3622
▁comfortable	-3623
fit	-3624
▁wind	-3625
cong	-3626
▁pen	-3627
▁je	-3628
mont	-3629
▁expand	-3630
ocks	-3631
▁satis	-3632
▁storage	-3633
education	-3634
▁pool	-3635
▁decor	-3636
▁thank	-3637
▁named	-3638
▁pressure	-3639
▁afford	-3640
▁damage	-3641
▁videos	-3642
hill	-3643
never	-3644
▁brow	-3645
▁$2	-3646
▁contain	-3647
ails	-3648
cd	-3649
▁completed	-3650
mel	-3651
▁economic	-3652
orial	-3653
▁degree	-3654
-8	-3655
▁numbers	-3656
▁adjust	-3657
isions	-3658
aud	-3659
▁remain	-3660
cam	-3661
page	-3662
▁wild	-3663
▁mis	-3664
town	-3665
▁father	-3666
▁gradu	-3667
▁corpor	-3668
▁cards	-3669
hens	-3670
league	-3671
undred	-3672
text	-3673
chic	-3674
pass	-3675
▁indic	-3676
oper	-3677
▁mer	-3678
roid	-3679
florida	-3680
icken	-3681
▁launch	-3682
full	-3683
han	-3684
▁behav	-3685
▁ingred	-3686
agn	-3687
equ	-3688
▁purpose	-3689
▁trade	-3690
▁opening	-3691
▁existing	-3692
▁accur	-3693
▁helped	-3694
▁beyond	-3695
▁highest	-3696
▁fashion	-3697
▁camera	-3698
▁craft	-3699
ivil	-3700
▁obtain	-3701
▁subst	-3702
ara	-3703
▁prec	-3704
organ	-3705
through	-3706
▁responsible	-3707
▁spread	-3708
illa	-3709
atever	-3710
▁excited	-3711
plus	-3712
▁coffee	-3713
front	-3714
▁disease	-3715
profess	-3716
othing	-3717
▁cancer	-3718
▁plus	-3719
french	-3720
▁ban	-3721
▁estate	-3722
oving	-3723
▁proud	-3724
▁welcome	-3725
▁fant	-3726
▁furn	-3727
rooms	-3728
▁jobs	-3729
jer	-3730
▁proced	-3731
offic	-3732
▁lines	-3733
download	-3734
▁train	-3735
▁park	-3736
lou	-3737
▁setting	-3738
▁reviews	-3739
priate	-3740
media	-3741
police	-3742
▁threat	-3743
const	-3744
cat	-3745
▁button	-3746
rapy	-3747
▁length	-3748
▁holiday	-3749
▁frame	-3750
▁driving	-3751
cher	-3752
clusive	-3753
▁passion	-3754
weight	-3755
▁thanks	-3756
▁increased	-3757
anta	-3758
▁knew	-3759
arily	-3760
jour	-3761
contin	-3762
grand	-3763
▁object	-3764
▁middle	-3765
vict	-3766
▁prefer	-3767
▁fem	-3768
▁journey	-3769
oil	-3770
▁files	-3771
▁shopping	-3772
author	-3773
republic	-3774
▁conference	-3775
ences	-3776
▁allowed	-3777
iger	-3778
▁relax	-3779
▁normal	-3780
▁increasing	-3781
▁strugg	-3782
▁selection	-3783
aded	-3784
▁initial	-3785
fre	-3786
▁traffic	-3787
▁28	-3788
▁husband	-3789
writ	-3790
▁frequ	-3791
fund	-3792
▁update	-3793
ronic	-3794
▁certainly	-3795
ologies	-3796
▁batter	-3797
19	-3798
▁conne	-3799
science	-3800
▁wine	-3801
▁supply	-3802
ota	-3803
pd	-3804
lord	-3805
▁effects	-3806
▁dedicated	-3807
pects	-3808
central	-3809
imal	-3810
▁subscri	-3811
▁clin	-3812
▁surv	-3813
gn	-3814
anned	-3815
500	-3816
▁incred	-3817
▁himself	-3818
istics	-3819
standing	-3820
thom	-3821
▁cream	-3822
ously	-3823
▁efforts	-3824
▁links	-3825
▁born	-3826
gal	-3827
river	-3828
▁mission	-3829
lished	-3830
▁steps	-3831
▁evening	-3832
engine	-3833
▁background	-3834
thes	-3835
▁bill	-3836
▁secure	-3837
▁spirit	-3838
▁refer	-3839
▁demonstr	-3840
oph	-3841
▁sugar	-3842
ald	-3843
▁protection	-3844
▁highlight	-3845
▁changed	-3846
▁looked	-3847
▁owner	-3848
going	-3849
14	-3850
▁cru	-3851
flow	-3852
▁occas	-3853
lied	-3854
5,	-3855
▁haven	-3856
▁paint	-3857
▁session	-3858
▁manufacture	-3859
social	-3860
▁measure	-3861
▁©	-3862
ona	-3863
▁80	-3864
working	-3865
compl	-3866
nded	-3867
▁fan	-3868
aming	-3869
▁cast	-3870
lement	-3871
porary	-3872
▁egg	-3873
connect	-3874
▁instruct	-3875
pared	-3876
▁spring	-3877
▁produce	-3878
whether	-3879
smith	-3880
18	-3881
support	-3882
tre	-3883
case	-3884
▁vac	-3885
mill	-3886
▁powerful	-3887
unk	-3888
oe	-3889
term	-3890
▁guys	-3891
▁artist	-3892
▁=	-3893
development	-3894
▁challenges	-3895
fortun	-3896
product	-3897
iling	-3898
▁fill	-3899
▁basic	-3900
▁transfer	-3901
itect	-3902
▁meaning	-3903
▁rese	-3904
british	-3905
▁guests	-3906
amin	-3907
iture	-3908
▁science	-3909
▁stream	-3910
-6	-3911
xim	-3912
▁schedule	-3913
▁26	-3914
fol	-3915
▁particularly	-3916
hu	-3917
▁colors	-3918
pping	-3919
▁moved	-3920
▁letter	-3921
▁aren	-3922
▁patient	-3923
▁payment	-3924
▁100%	-3925
▁drop	-3926
azine	-3927
▁talking	-3928
ico	-3929
annel	-3930
▁alone	-3931
▁volunte	-3932
▁winter	-3933
dec	-3934
lor	-3935
▁onto	-3936
):	-3937
▁slight	-3938
▁rules	-3939
children	-3940
tenance	-3941
▁opin	-3942
iques	-3943
▁shared	-3944
▁electric	-3945
▁federal	-3946
▁strength	-3947
▁adding	-3948
▁taste	-3949
ergency	-3950
iar	-3951
▁liter	-3952
▁couldn	-3953
▁biggest	-3954
div	-3955
▁runs	-3956
learn	-3957
icon	-3958
acity	-3959
▁organizations	-3960
uled	-3961
▁multi	-3962
▁unit	-3963
▁conven	-3964
sequ	-3965
itiz	-3966
publ	-3967
▁basis	-3968
▁peace	-3969
umber	-3970
▁leader	-3971
▁whose	-3972
anging	-3973
▁models	-3974
0.	-3975
rief	-3976
ocolate	-3977
▁2009	-3978
rial	-3979
istered	-3980
master	-3981
apter	-3982
brown	-3983
▁absolute	-3984
copy	-3985
▁extremely	-3986
▁views	-3987
▁shown	-3988
va	-3989
help	-3990
▁shipping	-3991
▁manager	-3992
▁residents	-3993
▁communities	-3994
ustr	-3995
▁church	-3996
▁garden	-3997
▁seeing	-3998
▁reasons	-3999
project	-4000
▁ideal	-4001
buy	-4002
ston	-4003
▁capital	-4004
▁surface	-4005
▁competition	-4006
▁sched	-4007
bul	-4008
umn	-4009
resp	-4010
▁compon	-4011
▁hundred	-4012
▁heavy	-4013
tur	-4014
ws	-4015
institute	-4016
fi	-4017
▁und	-4018
district	-4019
alex	-4020
▁trou	-4021
▁daughter	-4022
▁regarding	-4023
quality	-4024
next	-4025
▁coach	-4026
ened	-4027
▁brother	-4028
▁window	-4029
▁guid	-4030
another	-4031
▁gone	-4032
▁characters	-4033
lies	-4034
▁notice	-4035
somet	-4036
▁voice	-4037
▁ton	-4038
rian	-4039
▁followed	-4040
oices	-4041
▁advantage	-4042
▁beauty	-4043
▁cry	-4044
▁determin	-4045
▁scient	-4046
ari	-4047
foot	-4048
▁manage	-4049
▁graph	-4050
▁dy	-4051
▁strategy	-4052
▁snow	-4053
iverse	-4054
bes	-4055
▁standards	-4056
▁classic	-4057
17	-4058
aven	-4059
▁fa	-4060
▁pair	-4061
▁smooth	-4062
azon	-4063
cc	-4064
uce	-4065
ris	-4066
▁happened	-4067
aly	-4068
▁identify	-4069
▁experts	-4070
asure	-4071
▁experiences	-4072
▁breat	-4073
includ	-4074
▁bul	-4075
tit	-4076
max	-4077
before	-4078
▁lack	-4079
bour	-4080
▁mail	-4081
mes	-4082
zer	-4083
both	-4084
▁names	-4085
▁academ	-4086
▁luck	-4087
encies	-4088
▁hospital	-4089
▁virt	-4090
▁trail	-4091
bill	-4092
▁covered	-4093
▁efficient	-4094
▁waiting	-4095
▁27	-4096
▁professionals	-4097
posted	-4098
▁shape	-4099
mi	-4100
▁although	-4101
elling	-4102
commod	-4103
▁90	-4104
▁recipe	-4105
times	-4106
mass	-4107
ette	-4108
▁talent	-4109
security	-4110
▁flex	-4111
▁workers	-4112
▁finding	-4113
apers	-4114
▁dang	-4115
▁senior	-4116
asc	-4117
▁passed	-4118
▁exciting	-4119
gers	-4120
35	-4121
foundation	-4122
▁cab	-4123
orm	-4124
vi	-4125
inese	-4126
▁audience	-4127
▁scene	-4128
▁institut	-4129
▁guy	-4130
england	-4131
▁driver	-4132
inger	-4133
▁score	-4134
ht	-4135
▁sand	-4136
▁remind	-4137
orney	-4138
osing	-4139
▁master	-4140
hd	-4141
apt	-4142
▁beg	-4143
▁circ	-4144
jesus	-4145
▁larger	-4146
▁officials	-4147
commission	-4148
mex	-4149
▁ice	-4150
ya	-4151
ums	-4152
grade	-4153
union	-4154
video	-4155
tour	-4156
tot	-4157
▁posts	-4158
▁fear	-4159
bles	-4160
▁technical	-4161
gas	-4162
acement	-4163
▁district	-4164
▁compared	-4165
▁associated	-4166
▁eval	-4167
▁classes	-4168
their	-4169
▁butter	-4170
▁swe	-4171
site	-4172
data	-4173
▁laun	-4174
▁continues	-4175
▁au	-4176
▁friendly	-4177
▁cars	-4178
▁package	-4179
▁announce	-4180
▁wat	-4181
mical	-4182
beach	-4183
dou	-4184
▁keeping	-4185
atl	-4186
▁restaurant	-4187
cm	-4188
women	-4189
▁greater	-4190
rick	-4191
▁closed	-4192
▁ran	-4193
▁den	-4194
▁rich	-4195
▁minute	-4196
▁solid	-4197
venue	-4198
▁calls	-4199
▁sustain	-4200
▁critical	-4201
noon	-4202
▁listed	-4203
▁forget	-4204
▁advent	-4205
▁station	-4206
gery	-4207
▁developing	-4208
scott	-4209
▁facilities	-4210
atures	-4211
spring	-4212
ipes	-4213
▁epis	-4214
christian	-4215
▁tim	-4216
brand	-4217
▁continued	-4218
▁ingredients	-4219
▁older	-4220
illage	-4221
▁novel	-4222
berg	-4223
▁gun	-4224
▁motor	-4225
▁rooms	-4226
▁ju	-4227
enter	-4228
▁plenty	-4229
bas	-4230
obama	-4231
▁handle	-4232
▁artists	-4233
▁placed	-4234
▁fish	-4235
tech	-4236
fair	-4237
▁remove	-4238
▁explore	-4239
stone	-4240
▁medium	-4241
▁monitor	-4242
ordin	-4243
mu	-4244
ula	-4245
rey	-4246
odes	-4247
party	-4248
chicago	-4249
▁6.	-4250
▁studies	-4251
▁bright	-4252
franc	-4253
▁disapp	-4254
▁1/2	-4255
22	-4256
store	-4257
▁reflect	-4258
▁testing	-4259
agram	-4260
▁connection	-4261
▁appropriate	-4262
▁established	-4263
join	-4264
jud	-4265
▁income	-4266
▁figure	-4267
▁useful	-4268
▁arrest	-4269
being	-4270
itar	-4271
▁football	-4272
▁winning	-4273
antic	-4274
ags	-4275
▁produced	-4276
itors	-4277
▁2008	-4278
▁knows	-4279
commit	-4280
atab	-4281
▁tree	-4282
▁thousands	-4283
gi	-4284
▁learned	-4285
▁beat	-4286
▁salt	-4287
blog	-4288
chinese	-4289
carol	-4290
▁rob	-4291
related	-4292
origin	-4293
▁died	-4294
rael	-4295
▁force	-4296
microsoft	-4297
▁repair	-4298
amazon	-4299
actions	-4300
▁bra	-4301
▁gra	-4302
▁jump	-4303
access	-4304
▁kept	-4305
girl	-4306
ements	-4307
igation	-4308
▁requires	-4309
haw	-4310
▁economy	-4311
lines	-4312
season	-4313
▁military	-4314
hab	-4315
▁evidence	-4316
▁operations	-4317
▁presented	-4318
▁fol	-4319
▁teaching	-4320
▁street	-4321
▁ship	-4322
award	-4323
atically	-4324
books	-4325
oma	-4326
lands	-4327
▁cra	-4328
▁primary	-4329
▁sym	-4330
allery	-4331
type	-4332
happ	-4333
▁pm	-4334
▁serving	-4335
▁sharing	-4336
link	-4337
zen	-4338
▁status	-4339
israel	-4340
▁opened	-4341
▁70	-4342
▁communication	-4343
▁doctor	-4344
lyn	-4345
report	-4346
ech	-4347
▁speak	-4348
▁selected	-4349
level	-4350
▁contains	-4351
▁brings	-4352
▁stick	-4353
▁structure	-4354
▁discover	-4355
kin	-4356
fortunately	-4357
▁discount	-4358
▁shall	-4359
▁starts	-4360
oom	-4361
irection	-4362
▁princ	-4363
cost	-4364
▁throw	-4365
rome	-4366
ceo	-4367
prote	-4368
▁updated	-4369
code	-4370
▁initi	-4371
▁neighbor	-4372
▁injury	-4373
size	-4374
▁util	-4375
▁sport	-4376
valley	-4377
▁dinner	-4378
▁vision	-4379
▁prepared	-4380
mid	-4381
vention	-4382
▁catch	-4383
▁advance	-4384
▁ul	-4385
western	-4386
▁veget	-4387
▁resist	-4388
enses	-4389
▁watching	-4390
idential	-4391
wis	-4392
▁scen	-4393
▁leaves	-4394
pective	-4395
▁guess	-4396
▁prepar	-4397
▁victim	-4398
▁2,	-4399
sand	-4400
uries	-4401
▁beach	-4402
▁valu	-4403
medical	-4404
academ	-4405
ctors	-4406
▁department	-4407
sea	-4408
looking	-4409
▁methods	-4410
nic	-4411
hard	-4412
▁remains	-4413
▁poor	-4414
bling	-4415
iency	-4416
▁agency	-4417
-19	-4418
aked	-4419
▁balance	-4420
/4	-4421
▁buying	-4422
▁pray	-4423
▁suff	-4424
pac	-4425
▁gain	-4426
edy	-4427
ups	-4428
government	-4429
▁funds	-4430
price	-4431
olar	-4432
▁properties	-4433
burg	-4434
▁cleaning	-4435
▁famous	-4436
lastname	-4437
berry	-4438
ading	-4439
series	-4440
▁micro	-4441
itude	-4442
▁designs	-4443
got	-4444
▁mo	-4445
ixt	-4446
atively	-4447
▁psy	-4448
▁movement	-4449
agon	-4450
-7	-4451
invest	-4452
africa	-4453
ifts	-4454
▁secret	-4455
▁flat	-4456
kit	-4457
pad	-4458
wer	-4459
muse	-4460
android	-4461
rupt	-4462
▁entry	-4463
known	-4464
okes	-4465
▁crow	-4466
▁metal	-4467
email	-4468
▁bought	-4469
ooper	-4470
ograp	-4471
abilities	-4472
▁journal	-4473
ec	-4474
claim	-4475
umin	-4476
wing	-4477
▁leaving	-4478
▁showing	-4479
▁map	-4480
▁plants	-4481
sn	-4482
▁sector	-4483
▁spending	-4484
tic	-4485
mond	-4486
pot	-4487
▁facility	-4488
riage	-4489
walk	-4490
▁fabric	-4491
▁becoming	-4492
▁maintenance	-4493
acks	-4494
32	-4495
▁drug	-4496
cles	-4497
▁stores	-4498
essions	-4499
▁spons	-4500
ander	-4501
▁rain	-4502
technology	-4503
employ	-4504
▁brain	-4505
”,	-4506
▁reality	-4507
▁happens	-4508
ishes	-4509
▁alleg	-4510
ellig	-4511
ximately	-4512
▁mechan	-4513
▁fee	-4514
▁determine	-4515
▁https	-4516
▁forms	-4517
jul	-4518
osure	-4519
chris	-4520
▁vote	-4521
95	-4522
creat	-4523
outs	-4524
▁197	-4525
▁independent	-4526
▁advanced	-4527
nut	-4528
ira	-4529
hus	-4530
cov	-4531
george	-4532
inn	-4533
▁cris	-4534
▁wouldn	-4535
▁loan	-4536
jim	-4537
▁visual	-4538
▁signed	-4539
▁perhaps	-4540
chief	-4541
vere	-4542
▁leadership	-4543
▁ride	-4544
▁committed	-4545
▁rare	-4546
▁meant	-4547
ped	-4548
▁exercise	-4549
▁steel	-4550
dered	-4551
▁chair	-4552
journal	-4553
days	-4554
second	-4555
▁yester	-4556
▁relig	-4557
ampionship	-4558
65	-4559
estic	-4560
:0	-4561
gra	-4562
ci	-4563
▁animals	-4564
admin	-4565
▁anti	-4566
▁cheese	-4567
▁awes	-4568
▁compre	-4569
dev	-4570
wil	-4571
▁changing	-4572
▁sources	-4573
▁numerous	-4574
▁tables	-4575
▁focused	-4576
current	-4577
▁mist	-4578
▁accommod	-4579
iers	-4580
▁faith	-4581
igan	-4582
**	-4583
iences	-4584
▁diagn	-4585
▁lux	-4586
▁busy	-4587
▁visitors	-4588
▁elements	-4589
pur	-4590
▁mill	-4591
frank	-4592
▁partnership	-4593
▁menu	-4594
▁whatever	-4595
▁markets	-4596
▁locations	-4597
▁rev	-4598
▁grant	-4599
▁corner	-4600
▁listen	-4601
▁actual	-4602
adv	-4603
▁roof	-4604
virgin	-4605
istan	-4606
▁capacity	-4607
far	-4608
ception	-4609
▁selling	-4610
sex	-4611
▁diet	-4612
▁records	-4613
▁theme	-4614
▁practices	-4615
▁coverage	-4616
▁35	-4617
",	-4618
▁plastic	-4619
▁drink	-4620
▁dete	-4621
mike	-4622
ript	-4623
▁colour	-4624
gon	-4625
ket	-4626
lock	-4627
▁funding	-4628
▁yesterday	-4629
scre	-4630
▁tickets	-4631
▁operating	-4632
▁caused	-4633
▁syn	-4634
squ	-4635
▁memory	-4636
▁joined	-4637
▁establish	-4638
▁obvious	-4639
▁raised	-4640
sports	-4641
limited	-4642
▁allowing	-4643
▁brown	-4644
▁worry	-4645
greg	-4646
▁survey	-4647
appro	-4648
▁songs	-4649
▁favour	-4650
▁wire	-4651
ss	-4652
indust	-4653
▁updates	-4654
committee	-4655
▁limit	-4656
▁afternoon	-4657
▁organis	-4658
▁articles	-4659
ini	-4660
▁awesome	-4661
▁relationships	-4662
▁central	-4663
society	-4664
▁parking	-4665
▁cart	-4666
hotel	-4667
trump	-4668
▁core	-4669
▁techniques	-4670
die	-4671
▁assistance	-4672
33	-4673
▁showed	-4674
bridge	-4675
pu	-4676
▁walking	-4677
▁courses	-4678
▁managed	-4679
▁population	-4680
!!!	-4681
▁sea	-4682
perform	-4683
▁combination	-4684
centre	-4685
robert	-4686
▁thr	-4687
▁7.	-4688
▁decide	-4689
▁temperature	-4690
/201	-4691
uty	-4692
ivered	-4693
tem	-4694
month	-4695
▁29	-4696
:5	-4697
tru	-4698
▁du	-4699
▁estim	-4700
hensive	-4701
▁landsc	-4702
manager	-4703
▁appears	-4704
ferences	-4705
▁claims	-4706
▁previously	-4707
▁lose	-4708
photo	-4709
aper	-4710
democr	-4711
chair	-4712
▁orders	-4713
▁profile	-4714
▁deb	-4715
earth	-4716
omb	-4717
▁shel	-4718
pow	-4719
▁vehicles	-4720
▁thoughts	-4721
hr	-4722
▁parties	-4723
▁spl	-4724
▁society	-4725
share	-4726
network	-4727
pract	-4728
??	-4729
want	-4730
▁dur	-4731
▁teachers	-4732
building	-4733
pop	-4734
gb	-4735
louis	-4736
▁eating	-4737
▁inf	-4738
▁500	-4739
▁nar	-4740
▁firstname	-4741
yer	-4742
▁flu	-4743
▁notes	-4744
▁charges	-4745
congress	-4746
need	-4747
▁accident	-4748
francis	-4749
▁filled	-4750
ded	-4751
imp	-4752
▁counter	-4753
▁enjoyed	-4754
▁documents	-4755
energy	-4756
▁repe	-4757
▁smaller	-4758
bled	-4759
welcome	-4760
pie	-4761
cohol	-4762
sky	-4763
▁ended	-4764
▁swim	-4765
rict	-4766
▁generally	-4767
▁outdoor	-4768
▁launched	-4769
▁dep	-4770
bir	-4771
hou	-4772
sat	-4773
▁optim	-4774
▁kid	-4775
▁task	-4776
copyright	-4777
▁factors	-4778
those	-4779
▁putting	-4780
▁direction	-4781
non	-4782
▁legisl	-4783
▁youth	-4784
▁earth	-4785
▁teacher	-4786
▁installation	-4787
worth	-4788
24	-4789
▁becomes	-4790
cos	-4791
hope	-4792
iration	-4793
▁panel	-4794
▁fold	-4795
▁values	-4796
▁toward	-4797
▁shut	-4798
▁situ	-4799
meet	-4800
eter	-4801
▁argu	-4802
▁transl	-4803
lets	-4804
parent	-4805
▁concerns	-4806
medic	-4807
▁helpful	-4808
▁corporate	-4809
sor	-4810
joe	-4811
▁van	-4812
digital	-4813
▁pal	-4814
▁bac	-4815
▁enhance	-4816
library	-4817
▁slightly	-4818
edom	-4819
▁innovative	-4820
kings	-4821
▁citiz	-4822
▁missing	-4823
▁architect	-4824
▁chocolate	-4825
fox	-4826
▁separate	-4827
▁bon	-4828
comple	-4829
conference	-4830
▁coll	-4831
ownt	-4832
ensions	-4833
▁rap	-4834
▁environmental	-4835
wild	-4836
▁upcoming	-4837
prem	-4838
rics	-4839
aa	-4840
▁honest	-4841
▁library	-4842
bud	-4843
▁assign	-4844
▁commitment	-4845
icip	-4846
py	-4847
▁format	-4848
did	-4849
pen	-4850
prov	-4851
▁century	-4852
four	-4853
three	-4854
▁waste	-4855
▁delicious	-4856
ifying	-4857
▁mort	-4858
bac	-4859
▁relevant	-4860
▁45	-4861
▁tend	-4862
source	-4863
▁south	-4864
▁truth	-4865
bob	-4866
▁hearing	-4867
▁sch	-4868
human	-4869
▁emergency	-4870
ervation	-4871
▁fantastic	-4872
angeles	-4873
▁joint	-4874
▁fuel	-4875
▁inspired	-4876
maybe	-4877
▁expertise	-4878
▁milk	-4879
▁spect	-4880
dog	-4881
▁sounds	-4882
museum	-4883
peter	-4884
las	-4885
▁discussion	-4886
cook	-4887
available	-4888
▁willing	-4889
does	-4890
rical	-4891
▁consumers	-4892
▁asking	-4893
▁dance	-4894
france	-4895
▁vir	-4896
▁sav	-4897
▁furniture	-4898
▁sets	-4899
▁register	-4900
▁raise	-4901
ita	-4902
sar	-4903
hon	-4904
letter	-4905
▁encourage	-4906
ulture	-4907
▁extensive	-4908
stock	-4909
job	-4910
▁decisions	-4911
▁despite	-4912
▁fourth	-4913
plo	-4914
▁chat	-4915
global	-4916
▁ath	-4917
inch	-4918
▁desk	-4919
inste	-4920
▁mental	-4921
▁transform	-4922
anna	-4923
▁promote	-4924
icies	-4925
style	-4926
▁lunch	-4927
▁delivered	-4928
atabase	-4929
ola	-4930
!)	-4931
away	-4932
eless	-4933
▁movies	-4934
▁north	-4935
▁chicken	-4936
▁tast	-4937
▁agreement	-4938
▁executive	-4939
iated	-4940
ales	-4941
saf	-4942
▁absolutely	-4943
▁photograph	-4944
▁eth	-4945
▁adapt	-4946
▁plays	-4947
▁brief	-4948
▁reached	-4949
kel	-4950
anth	-4951
▁trees	-4952
ko	-4953
▁adults	-4954
▁units	-4955
turn	-4956
rose	-4957
-201	-4958
iled	-4959
▁agree	-4960
▁edge	-4961
▁seeking	-4962
xx	-4963
inal	-4964
▁struct	-4965
▁arrang	-4966
▁civil	-4967
▁vs	-4968
▁nav	-4969
olic	-4970
▁psych	-4971
▁sauce	-4972
covid	-4973
legal	-4974
▁generation	-4975
tube	-4976
travel	-4977
space	-4978
cription	-4979
cape	-4980
▁fruit	-4981
▁fees	-4982
▁recommended	-4983
▁approximately	-4984
▁rid	-4985
sem	-4986
icians	-4987
prise	-4988
tes	-4989
▁achie	-4990
ja	-4991
▁presence	-4992
asia	-4993
▁lovely	-4994
▁seconds	-4995
▁expensive	-4996
▁square	-4997
▁combined	-4998
▁centre	-4999
itable	-5000
▁topic	-5001
▁radio	-5002
▁provider	-5003
▁connected	-5004
canad	-5005
ato	-5006
▁lock	-5007
wi	-5008
def	-5009
irmed	-5010
▁info	-5011
ki	-5012
mult	-5013
44	-5014
▁calling	-5015
▁neck	-5016
shop	-5017
▁tea	-5018
▁prepare	-5019
▁distance	-5020
▁bringing	-5021
nel	-5022
cean	-5023
mur	-5024
▁alternative	-5025
▁registered	-5026
ym	-5027
isher	-5028
▁operation	-5029
lind	-5030
▁feels	-5031
▁od	-5032
▁thick	-5033
▁confidence	-5034
tun	-5035
▁mentioned	-5036
▁seek	-5037
secut	-5038
▁controll	-5039
econom	-5040
▁pu	-5041
▁32	-5042
▁cities	-5043
azz	-5044
assist	-5045
▁tight	-5046
host	-5047
jeff	-5048
▁exchange	-5049
▁server	-5050
archers	-5051
▁fellow	-5052
▁minimum	-5053
▁clim	-5054
thomas	-5055
88	-5056
clean	-5057
minister	-5058
?”	-5059
chester	-5060
▁foreign	-5061
heart	-5062
interest	-5063
▁infr	-5064
▁bowl	-5065
▁dogs	-5066
▁category	-5067
▁2007	-5068
▁nine	-5069
▁seat	-5070
secret	-5071
adow	-5072
lat	-5073
control	-5074
present	-5075
▁readers	-5076
osis	-5077
festival	-5078
bb	-5079
▁educational	-5080
▁trial	-5081
hell	-5082
▁brands	-5083
▁surgery	-5084
▁wearing	-5085
jon	-5086
▁kick	-5087
▁stars	-5088
nav	-5089
born	-5090
▁installed	-5091
▁ring	-5092
▁consid	-5093
hun	-5094
hom	-5095
▁processes	-5096
paper	-5097
▁stret	-5098
core	-5099
▁academic	-5100
▁websites	-5101
▁returned	-5102
dam	-5103
▁ven	-5104
een	-5105
▁rat	-5106
elines	-5107
▁sexual	-5108
making	-5109
table	-5110
▁appearance	-5111
▁winner	-5112
ifications	-5113
lot	-5114
▁majority	-5115
local	-5116
▁cooking	-5117
happy	-5118
cross	-5119
▁gather	-5120
▁maximum	-5121
▁responsibility	-5122
▁killed	-5123
▁measures	-5124
▁mostly	-5125
▁tun	-5126
applic	-5127
▁instru	-5128
communic	-5129
▁cloud	-5130
eline	-5131
vd	-5132
fed	-5133
mobile	-5134
execut	-5135
▁female	-5136
estyle	-5137
fy	-5138
johnson	-5139
▁anywhere	-5140
hal	-5141
atre	-5142
agement	-5143
▁approved	-5144
jose	-5145
▁married	-5146
▁battery	-5147
mony	-5148
▁196	-5149
oga	-5150
games	-5151
▁switch	-5152
▁tough	-5153
icate	-5154
germany	-5155
german	-5156
little	-5157
▁impl	-5158
▁pump	-5159
ryan	-5160
oles	-5161
▁8.	-5162
inct	-5163
▁doors	-5164
▁scheduled	-5165
▁guest	-5166
▁sympt	-5167
▁accompl	-5168
▁teen	-5169
▁rom	-5170
▁comprehensive	-5171
▁signs	-5172
▁bike	-5173
gent	-5174
priv	-5175
▁detailed	-5176
▁contem	-5177
▁31	-5178
▁supporting	-5179
▁therefore	-5180
▁feedback	-5181
▁boost	-5182
bost	-5183
▁leads	-5184
asts	-5185
drive	-5186
try	-5187
verse	-5188
▁participants	-5189
▁purchased	-5190
▁featured	-5191
▁chief	-5192
kes	-5193
▁stre	-5194
▁pros	-5195
▁essay	-5196
inations	-5197
expl	-5198
hospital	-5199
ager	-5200
cred	-5201
▁rise	-5202
martin	-5203
▁importance	-5204
▁properly	-5205
▁climate	-5206
▁kill	-5207
▁veter	-5208
ician	-5209
▁affordable	-5210
trust	-5211
mir	-5212
▁worldwide	-5213
▁windows	-5214
hs	-5215
pdf	-5216
ternal	-5217
asks	-5218
young	-5219
▁cheap	-5220
unning	-5221
idden	-5222
cir	-5223
ulty	-5224
▁meal	-5225
rings	-5226
▁animal	-5227
▁audio	-5228
kore	-5229
eed	-5230
▁chemical	-5231
ius	-5232
▁mur	-5233
rat	-5234
jac	-5235
otic	-5236
▁otherwise	-5237
ocket	-5238
▁topics	-5239
▁joy	-5240
▁pregn	-5241
ipal	-5242
daily	-5243
dc	-5244
▁flowers	-5245
▁ourselves	-5246
small	-5247
country	-5248
students	-5249
nament	-5250
ero	-5251
▁$3	-5252
iminal	-5253
▁studio	-5254
▁supported	-5255
▁nom	-5256
osition	-5257
australian	-5258
fs	-5259
▁defense	-5260
visit	-5261
african	-5262
▁clearly	-5263
▁push	-5264
kn	-5265
▁performed	-5266
ae	-5267
orders	-5268
▁apps	-5269
▁featuring	-5270
▁predict	-5271
▁sitting	-5272
▁competitive	-5273
hors	-5274
▁<	-5275
number	-5276
ulated	-5277
ho	-5278
gage	-5279
▁mouth	-5280
▁familiar	-5281
▁applied	-5282
span	-5283
boston	-5284
▁motiv	-5285
pected	-5286
▁advertising	-5287
alog	-5288
▁policies	-5289
▁birthday	-5290
▁vent	-5291
▁technologies	-5292
▁charged	-5293
break	-5294
▁behavior	-5295
anda	-5296
▁minor	-5297
▁sister	-5298
▁removed	-5299
▁participate	-5300
▁totally	-5301
▁actions	-5302
▁bond	-5303
burn	-5304
▁faster	-5305
▁sides	-5306
tle	-5307
dar	-5308
wy	-5309
usion	-5310
▁appeared	-5311
station	-5312
guard	-5313
▁editor	-5314
▁reliable	-5315
▁ang	-5316
▁holding	-5317
▁emer	-5318
lie	-5319
▁battle	-5320
▁revenue	-5321
▁begins	-5322
nas	-5323
enjoy	-5324
▁valid	-5325
▁label	-5326
americans	-5327
▁3,	-5328
23	-5329
give	-5330
erce	-5331
▁inches	-5332
▁entertainment	-5333
▁episode	-5334
▁scale	-5335
▁visiting	-5336
▁writer	-5337
▁ment	-5338
glass	-5339
▁caught	-5340
▁meat	-5341
wind	-5342
ulous	-5343
prene	-5344
▁shap	-5345
▁delight	-5346
▁quiet	-5347
natural	-5348
nc	-5349
kar	-5350
spec	-5351
▁flo	-5352
kins	-5353
victor	-5354
mother	-5355
kind	-5356
21	-5357
▁tail	-5358
▁exclusive	-5359
▁strategies	-5360
▁opinion	-5361
tered	-5362
▁officer	-5363
eper	-5364
▁der	-5365
astructure	-5366
-10	-5367
japanese	-5368
▁incorpor	-5369
▁monthly	-5370
summer	-5371
ushed	-5372
▁restaurants	-5373
▁cutting	-5374
▁teach	-5375
▁restrict	-5376
ols	-5377
jones	-5378
▁cells	-5379
▁depending	-5380
▁wit	-5381
dist	-5382
osen	-5383
▁cake	-5384
▁debut	-5385
▁dynam	-5386
▁deals	-5387
coast	-5388
▁fell	-5389
▁consumer	-5390
morrow	-5391
rid	-5392
▁appointment	-5393
select	-5394
▁hun	-5395
ulate	-5396
▁labor	-5397
▁fif	-5398
academy	-5399
range	-5400
fc	-5401
▁university	-5402
▁species	-5403
▁employee	-5404
▁breakfast	-5405
reprene	-5406
▁confirm	-5407
▁hundreds	-5408
record	-5409
▁vary	-5410
▁intended	-5411
steve	-5412
/0	-5413
▁sessions	-5414
rights	-5415
▁described	-5416
virginia	-5417
▁shoes	-5418
▁television	-5419
▁occasion	-5420
iest	-5421
▁celebrate	-5422
▁internal	-5423
ighter	-5424
italian	-5425
▁300	-5426
▁covers	-5427
▁improved	-5428
▁marriage	-5429
ura	-5430
random	-5431
▁truck	-5432
rus	-5433
cry	-5434
otton	-5435
▁reco	-5436
▁revealed	-5437
▁campus	-5438
▁edition	-5439
▁eventually	-5440
▁mir	-5441
words	-5442
sometimes	-5443
▁conversation	-5444
rate	-5445
▁introduced	-5446
▁ris	-5447
abet	-5448
rum	-5449
▁housing	-5450
wear	-5451
▁cultural	-5452
oop	-5453
-9	-5454
isa	-5455
grees	-5456
▁investigation	-5457
▁planned	-5458
▁flight	-5459
wat	-5460
▁specifically	-5461
amb	-5462
▁dining	-5463
▁unless	-5464
dro	-5465
instead	-5466
▁discovered	-5467
yl	-5468
history	-5469
▁cro	-5470
▁lights	-5471
matt	-5472
▁ign	-5473
▁election	-5474
▁aspects	-5475
rep	-5476
▁neighborhood	-5477
▁volume	-5478
▁(3	-5479
▁fly	-5480
ixture	-5481
▁compar	-5482
area	-5483
ubs	-5484
▁basket	-5485
▁accounts	-5486
26	-5487
▁bread	-5488
▁typically	-5489
200	-5490
cking	-5491
fac	-5492
▁manufacturing	-5493
▁remote	-5494
▁administration	-5495
▁bedroom	-5496
mosp	-5497
▁liqu	-5498
▁resource	-5499
▁practical	-5500
▁bathroom	-5501
guide	-5502
profit	-5503
oted	-5504
▁icon	-5505
georg	-5506
▁incredible	-5507
▁interior	-5508
▁remaining	-5509
instagram	-5510
▁guarantee	-5511
____	-5512
▁teeth	-5513
▁10.	-5514
ano	-5515
beaut	-5516
▁components	-5517
supp	-5518
stream	-5519
map	-5520
mexico	-5521
chang	-5522
▁advis	-5523
prom	-5524
mom	-5525
▁pepper	-5526
▁concent	-5527
▁warrant	-5528
yard	-5529
▁confirmed	-5530
▁cabin	-5531
williams	-5532
100	-5533
▁coast	-5534
smart	-5535
idays	-5536
iner	-5537
▁fields	-5538
carolina	-5539
arp	-5540
tax	-5541
▁blow	-5542
kim	-5543
▁negative	-5544
▁industrial	-5545
▁shooting	-5546
▁suitable	-5547
▁reput	-5548
▁clo	-5549
▁automatically	-5550
▁chain	-5551
▁engineering	-5552
friendly	-5553
abs	-5554
▁burn	-5555
mean	-5556
executive	-5557
▁oven	-5558
iamond	-5559
▁invent	-5560
▁perfectly	-5561
▁debt	-5562
▁cere	-5563
▁tomorrow	-5564
▁scored	-5565
ario	-5566
▁laws	-5567
conf	-5568
thent	-5569
▁recovery	-5570
nick	-5571
fill	-5572
bat	-5573
▁shares	-5574
proper	-5575
federal	-5576
marketing	-5577
ohio	-5578
▁drivers	-5579
▁depos	-5580
▁boys	-5581
▁corn	-5582
▁symptoms	-5583
▁evalu	-5584
canadian	-5585
nex	-5586
ez	-5587
ushing	-5588
ena	-5589
ailability	-5590
odies	-5591
▁ticket	-5592
▁sizes	-5593
itionally	-5594
ltd	-5595
still	-5596
▁golf	-5597
mos	-5598
▁noted	-5599
▁fro	-5600
▁dish	-5601
77	-5602
covery	-5603
rance	-5604
▁alcohol	-5605
paris	-5606
▁chosen	-5607
▁arrived	-5608
▁dollars	-5609
▁cop	-5610
▁boat	-5611
▁choices	-5612
:4	-5613
▁nurs	-5614
ef	-5615
▁forum	-5616
rac	-5617
28	-5618
michigan	-5619
▁buildings	-5620
▁twice	-5621
▁injuries	-5622
story	-5623
poses	-5624
▁seemed	-5625
▁island	-5626
rier	-5627
▁possibly	-5628
▁rapid	-5629
▁honor	-5630
▁trend	-5631
owntown	-5632
▁2021	-5633
should	-5634
▁painting	-5635
▁broken	-5636
install	-5637
▁premium	-5638
having	-5639
▁anc	-5640
kr	-5641
royal	-5642
);	-5643
▁doubt	-5644
scot	-5645
ibilities	-5646
▁commission	-5647
ication	-5648
▁appreciate	-5649
▁presentation	-5650
▁tests	-5651
▁license	-5652
▁thus	-5653
▁desire	-5654
training	-5655
▁organic	-5656
iat	-5657
▁films	-5658
oration	-5659
ilit	-5660
▁aid	-5661
members	-5662
ali	-5663
ria	-5664
▁trading	-5665
▁issued	-5666
▁registration	-5667
▁stated	-5668
▁victory	-5669
stat	-5670
suit	-5671
▁paying	-5672
▁keeps	-5673
▁dates	-5674
▁grade	-5675
iors	-5676
ultural	-5677
▁valuable	-5678
▁picked	-5679
▁contest	-5680
▁database	-5681
daniel	-5682
▁bigger	-5683
▁missed	-5684
▁ends	-5685
▁loves	-5686
▁symb	-5687
▁magazine	-5688
▁answers	-5689
md	-5690
▁replace	-5691
▁considering	-5692
▁county	-5693
olymp	-5694
▁rule	-5695
personal	-5696
▁submit	-5697
▁enable	-5698
▁mode	-5699
▁turns	-5700
ora	-5701
farm	-5702
▁affected	-5703
▁surf	-5704
▁realize	-5705
lywood	-5706
▁attorney	-5707
▁intellig	-5708
stop	-5709
▁2000	-5710
▁mine	-5711
ni	-5712
brid	-5713
wish	-5714
▁elig	-5715
▁therapy	-5716
mt	-5717
fection	-5718
▁regularly	-5719
bad	-5720
account	-5721
▁gear	-5722
ulations	-5723
▁ages	-5724
▁reference	-5725
tick	-5726
easy	-5727
▁circum	-5728
▁settings	-5729
▁foods	-5730
!”	-5731
▁moments	-5732
▁teas	-5733
▁supports	-5734
cath	-5735
has	-5736
richard	-5737
▁instructions	-5738
event	-5739
ache	-5740
santa	-5741
mind	-5742
▁pure	-5743
▁decades	-5744
flict	-5745
▁·	-5746
▁load	-5747
▁agent	-5748
inated	-5749
▁protected	-5750
▁config	-5751
▁surrounding	-5752
▁voc	-5753
▁degrees	-5754
▁rub	-5755
gment	-5756
allow	-5757
orough	-5758
husi	-5759
endar	-5760
▁greatest	-5761
▁poly	-5762
▁accurate	-5763
36	-5764
▁grown	-5765
▁quant	-5766
▁convenient	-5767
poon	-5768
plate	-5769
▁processing	-5770
▁investors	-5771
▁ped	-5772
clusion	-5773
27	-5774
stra	-5775
▁disp	-5776
despite	-5777
▁weap	-5778
grow	-5779
fficient	-5780
▁dial	-5781
middle	-5782
jackson	-5783
ocking	-5784
oosing	-5785
▁holds	-5786
section	-5787
▁earned	-5788
sher	-5789
base	-5790
▁draft	-5791
▁proposed	-5792
penn	-5793
▁sam	-5794
intage	-5795
▁tells	-5796
▁apparent	-5797
▁failed	-5798
▁yes	-5799
financial	-5800
▁atmosp	-5801
▁lived	-5802
▁$5	-5803
▁die	-5804
abled	-5805
▁thread	-5806
phas	-5807
▁agencies	-5808
kat	-5809
▁apartment	-5810
gradu	-5811
▁purposes	-5812
▁athlet	-5813
phys	-5814
acle	-5815
▁recorded	-5816
▁lighting	-5817
▁pit	-5818
father	-5819
division	-5820
continue	-5821
▁surprise	-5822
crete	-5823
▁providers	-5824
tal	-5825
▁beer	-5826
▁poll	-5827
▁dra	-5828
▁researchers	-5829
▁incident	-5830
irms	-5831
▁owned	-5832
▁calcul	-5833
▁virtual	-5834
▁mini	-5835
▁hero	-5836
eler	-5837
russian	-5838
▁candidates	-5839
▁influence	-5840
▁explain	-5841
pes	-5842
▁route	-5843
▁gam	-5844
▁everyday	-5845
asp	-5846
▁goods	-5847
▁efficiency	-5848
▁renew	-5849
shire	-5850
sus	-5851
vit	-5852
▁lit	-5853
ansas	-5854
▁yellow	-5855
▁distribution	-5856
eas	-5857
▁pleased	-5858
requ	-5859
▁jack	-5860
▁elimin	-5861
▁gro	-5862
▁intr	-5863
▁facing	-5864
▁mal	-5865
▁league	-5866
▁officers	-5867
andrew	-5868
▁element	-5869
▁belong	-5870
▁whom	-5871
▁awareness	-5872
▁channel	-5873
▁sequ	-5874
▁pun	-5875
clear	-5876
▁perman	-5877
draw	-5878
var	-5879
▁effectively	-5880
semb	-5881
speed	-5882
▁creation	-5883
standard	-5884
▁moist	-5885
adel	-5886
▁causes	-5887
▁wid	-5888
▁returns	-5889
screen	-5890
model	-5891
cling	-5892
▁interests	-5893
▁receiving	-5894
▁plate	-5895
mally	-5896
pon	-5897
pod	-5898
▁adventure	-5899
▁powder	-5900
▁diverse	-5901
.|	-5902
umes	-5903
issue	-5904
due	-5905
▁messages	-5906
85	-5907
▁forced	-5908
sembly	-5909
orter	-5910
silver	-5911
irty	-5912
▁usual	-5913
amber	-5914
▁flour	-5915
iability	-5916
▁pod	-5917
otes	-5918
▁sad	-5919
▁grad	-5920
fish	-5921
comput	-5922
▁arts	-5923
▁2006	-5924
▁wheel	-5925
▁designer	-5926
▁standing	-5927
pool	-5928
sales	-5929
▁ben	-5930
▁error	-5931
▁tut	-5932
▁ongoing	-5933
▁electronic	-5934
plant	-5935
-20	-5936
▁trouble	-5937
▁occup	-5938
▁violence	-5939
▁silver	-5940
southern	-5941
▁musical	-5942
▁harm	-5943
beat	-5944
▁favourite	-5945
kay	-5946
▁reserved	-5947
▁administr	-5948
polit	-5949
orable	-5950
ipl	-5951
▁infrastructure	-5952
▁cute	-5953
▁closer	-5954
▁licens	-5955
▁advoc	-5956
▁arm	-5957
subscri	-5958
osh	-5959
▁sample	-5960
isters	-5961
▁meetings	-5962
rev	-5963
sts	-5964
hour	-5965
iveness	-5966
▁stopped	-5967
francisco	-5968
amic	-5969
zeal	-5970
▁4,	-5971
▁rough	-5972
learning	-5973
commerce	-5974
mach	-5975
environment	-5976
create	-5977
▁spaces	-5978
ospit	-5979
▁healthcare	-5980
▁logo	-5981
▁spokes	-5982
▁kinds	-5983
▁enthusi	-5984
▁inn	-5985
gro	-5986
safety	-5987
▁supposed	-5988
perfect	-5989
▁photograp	-5990
▁crime	-5991
image	-5992
▁hang	-5993
▁weekly	-5994
▁extract	-5995
senior	-5996
professional	-5997
▁knowing	-5998
ireland	-5999
▁concerned	-6000
▁challenging	-6001
▁affil	-6002
arks	-6003
spanish	-6004
▁disappoint	-6005
teen	-6006
▁simpl	-6007
▁leather	-6008
▁manner	-6009
save	-6010
folio	-6011
▁assets	-6012
▁stone	-6013
▁serves	-6014
tay	-6015
▁bound	-6016
▁govern	-6017
34	-6018
itage	-6019
▁fixed	-6020
▁agreed	-6021
again	-6022
▁rot	-6023
▁reduced	-6024
▁36	-6025
▁crowd	-6026
donald	-6027
awards	-6028
vy	-6029
luc	-6030
▁treated	-6031
lan	-6032
▁follows	-6033
cra	-6034
▁household	-6035
lay	-6036
pacific	-6037
▁script	-6038
▁functions	-6039
▁massive	-6040
▁inspiration	-6041
garden	-6042
▁successfully	-6043
think	-6044
▁tack	-6045
▁styles	-6046
▁ly	-6047
orters	-6048
heat	-6049
▁collaboration	-6050
▁native	-6051
alty	-6052
▁emotional	-6053
▁witness	-6054
track	-6055
ancer	-6056
▁rear	-6057
▁clothes	-6058
▁prison	-6059
gov	-6060
▁innovation	-6061
orrow	-6062
▁luxury	-6063
colorado	-6064
▁forces	-6065
▁matters	-6066
▁lifestyle	-6067
cab	-6068
oral	-6069
▁vacation	-6070
▁prompt	-6071
▁horse	-6072
▁payments	-6073
▁identified	-6074
credit	-6075
bear	-6076
▁extended	-6077
oval	-6078
▁decre	-6079
▁crisis	-6080
▁recipes	-6081
▁cock	-6082
▁conducted	-6083
italy	-6084
stay	-6085
▁phil	-6086
▁»	-6087
▁walls	-6088
brook	-6089
▁recognized	-6090
▁stunning	-6091
▁construct	-6092
short	-6093
▁impressive	-6094
ansion	-6095
▁context	-6096
▁mixture	-6097
▁male	-6098
▁patterns	-6099
▁height	-6100
▁regional	-6101
psy	-6102
▁tag	-6103
▁drugs	-6104
ji	-6105
▁determined	-6106
location	-6107
giving	-6108
cro	-6109
▁grab	-6110
▁gifts	-6111
avenue	-6112
erves	-6113
▁employment	-6114
5%	-6115
▁accepted	-6116
living	-6117
user	-6118
webs	-6119
radio	-6120
▁likes	-6121
▁constantly	-6122
▁negot	-6123
▁dangerous	-6124
▁mixed	-6125
▁resolution	-6126
29	-6127
▁hardware	-6128
rors	-6129
▁happening	-6130
▁newsp	-6131
tele	-6132
▁sky	-6133
▁factor	-6134
member	-6135
▁explained	-6136
▁graduate	-6137
inem	-6138
▁contemporary	-6139
orgeous	-6140
ament	-6141
▁candidate	-6142
▁procedures	-6143
▁accessible	-6144
▁9.	-6145
▁solar	-6146
kingdom	-6147
sav	-6148
etime	-6149
▁auto	-6150
▁tou	-6151
▁freedom	-6152
▁domestic	-6153
igration	-6154
▁aw	-6155
▁bless	-6156
russia	-6157
▁improvement	-6158
▁outstanding	-6159
▁flavor	-6160
systems	-6161
▁stands	-6162
▁imagine	-6163
▁positions	-6164
finally	-6165
▁eleg	-6166
▁speech	-6167
▁coordin	-6168
further	-6169
38	-6170
utch	-6171
▁sustainable	-6172
ref	-6173
▁carried	-6174
andy	-6175
▁illustr	-6176
▁replacement	-6177
▁coc	-6178
ett	-6179
race	-6180
ele	-6181
broad	-6182
▁nearby	-6183
iser	-6184
▁folks	-6185
ucle	-6186
▁programme	-6187
▁awards	-6188
▁supplies	-6189
▁originally	-6190
▁perspective	-6191
▁crazy	-6192
▁worse	-6193
▁stretch	-6194
upd	-6195
▁sheet	-6196
▁village	-6197
▁vit	-6198
▁turning	-6199
▁cable	-6200
▁wet	-6201
▁univers	-6202
▁procedure	-6203
dim	-6204
phones	-6205
▁noticed	-6206
▁upper	-6207
▁examples	-6208
▁fitness	-6209
athe	-6210
37	-6211
▁$10	-6212
▁telling	-6213
▁bottle	-6214
▁browser	-6215
shipping	-6216
▁emphas	-6217
early	-6218
▁alleged	-6219
sit	-6220
▁carefully	-6221
cloud	-6222
▁houses	-6223
swe	-6224
pict	-6225
▁arrested	-6226
remember	-6227
iples	-6228
aser	-6229
▁confident	-6230
▁funny	-6231
▁significantly	-6232
▁random	-6233
▁spr	-6234
▁clinical	-6235
mov	-6236
▁baking	-6237
vernor	-6238
▁talks	-6239
▁dim	-6240
▁involve	-6241
▁il	-6242
▁ap	-6243
▁tro	-6244
▁concern	-6245
▁passeng	-6246
emic	-6247
▁taught	-6248
jay	-6249
▁shots	-6250
gate	-6251
▁pil	-6252
▁conflict	-6253
kids	-6254
osite	-6255
certain	-6256
▁clothing	-6257
▁reporting	-6258
iana	-6259
▁speaking	-6260
▁rose	-6261
▁hosting	-6262
film	-6263
▁hur	-6264
▁excess	-6265
lete	-6266
▁committee	-6267
must	-6268
unfortunately	-6269
▁hall	-6270
jersey	-6271
common	-6272
▁adds	-6273
total	-6274
▁tech	-6275
▁criminal	-6276
▁hoping	-6277
▁retire	-6278
ships	-6279
▁trained	-6280
ikes	-6281
edge	-6282
jam	-6283
▁lift	-6284
enced	-6285
ani	-6286
▁chapter	-6287
▁routine	-6288
▁prot	-6289
▁command	-6290
▁circumst	-6291
▁uplo	-6292
ossible	-6293
iversary	-6294
▁entreprene	-6295
mix	-6296
▁landscape	-6297
published	-6298
corn	-6299
▁expectations	-6300
would	-6301
▁losing	-6302
▁foundation	-6303
disney	-6304
chi	-6305
justice	-6306
cow	-6307
▁reward	-6308
▁wash	-6309
66	-6310
senate	-6311
respond	-6312
▁severe	-6313
▁jun	-6314
▁eggs	-6315
ificate	-6316
professor	-6317
rim	-6318
nger	-6319
arab	-6320
gun	-6321
xy	-6322
uro	-6323
pick	-6324
express	-6325
▁input	-6326
▁muse	-6327
▁authent	-6328
georgia	-6329
engineering	-6330
▁recy	-6331
iami	-6332
▁festival	-6333
ule	-6334
quir	-6335
rub	-6336
student	-6337
mountain	-6338
▁tested	-6339
▁figures	-6340
▁tall	-6341
▁millions	-6342
▁fishing	-6343
five	-6344
▁depth	-6345
▁machines	-6346
▁membership	-6347
▁photography	-6348
▁iron	-6349
▁dram	-6350
zealand	-6351
▁guitar	-6352
▁smile	-6353
▁identity	-6354
▁grew	-6355
square	-6356
▁195	-6357
oster	-6358
▁rank	-6359
▁vibr	-6360
▁48	-6361
illy	-6362
▁integrated	-6363
large	-6364
▁attended	-6365
▁?	-6366
▁tasks	-6367
ership	-6368
apping	-6369
pin	-6370
▁invited	-6371
▁certified	-6372
cru	-6373
dur	-6374
edia	-6375
official	-6376
rated	-6377
choose	-6378
▁qualified	-6379
sured	-6380
mess	-6381
▁san	-6382
▁laugh	-6383
39	-6384
▁airport	-6385
▁ordered	-6386
▁guard	-6387
stan	-6388
iano	-6389
▁mountain	-6390
▁tear	-6391
▁accessories	-6392
forcement	-6393
▁layer	-6394
▁improving	-6395
▁thin	-6396
▁pink	-6397
▁gre	-6398
▁scholar	-6399
▁transportation	-6400
▁vital	-6401
▁residential	-6402
brow	-6403
rition	-6404
▁cycle	-6405
▁abuse	-6406
49	-6407
▁shower	-6408
ava	-6409
raid	-6410
▁soul	-6411
such	-6412
▁bags	-6413
ariz	-6414
bound	-6415
▁tiny	-6416
phy	-6417
jr	-6418
▁breast	-6419
charles	-6420
▁herself	-6421
miami	-6422
▁spin	-6423
▁anx	-6424
▁wealth	-6425
▁skill	-6426
bury	-6427
graduate	-6428
▁authorities	-6429
ampion	-6430
▁atmosphere	-6431
▁historical	-6432
31	-6433
update	-6434
kent	-6435
ugg	-6436
adium	-6437
▁description	-6438
▁council	-6439
▁dental	-6440
treat	-6441
▁dropped	-6442
baby	-6443
si	-6444
▁output	-6445
insurance	-6446
▁cups	-6447
▁printed	-6448
cue	-6449
zil	-6450
onto	-6451
material	-6452
▁detect	-6453
▁~	-6454
▁glad	-6455
experience	-6456
▁thorough	-6457
iti	-6458
▁offices	-6459
▁tonight	-6460
auto	-6461
▁hits	-6462
return	-6463
fly	-6464
▁profit	-6465
▁citizens	-6466
▁medicine	-6467
nee	-6468
hous	-6469
iran	-6470
bol	-6471
bang	-6472
sle	-6473
▁casino	-6474
▁trends	-6475
▁weak	-6476
▁managing	-6477
vas	-6478
pak	-6479
everyone	-6480
syl	-6481
autom	-6482
’.	-6483
safe	-6484
▁taxes	-6485
▁appeal	-6486
▁guidance	-6487
▁sole	-6488
sche	-6489
▁susp	-6490
▁entirely	-6491
▁2005	-6492
▁hire	-6493
pers	-6494
anne	-6495
reek	-6496
▁cm	-6497
clin	-6498
sound	-6499
pi	-6500
chall	-6501
proof	-6502
▁failure	-6503
▁tap	-6504
effect	-6505
▁sec	-6506
▁vend	-6507
tics	-6508
ella	-6509
▁entered	-6510
cers	-6511
▁wra	-6512
▁unable	-6513
eric	-6514
▁frequently	-6515
jured	-6516
▁carbon	-6517
dream	-6518
▁closely	-6519
estate	-6520
amm	-6521
dden	-6522
process	-6523
▁5,	-6524
northern	-6525
html	-6526
eries	-6527
oak	-6528
queen	-6529
yet	-6530
▁versions	-6531
cuss	-6532
▁(4	-6533
recent	-6534
complete	-6535
▁lessons	-6536
writing	-6537
▁searching	-6538
▁scientific	-6539
▁400	-6540
▁flexible	-6541
▁workshop	-6542
agues	-6543
▁juice	-6544
▁assessment	-6545
advis	-6546
▁river	-6547
▁convert	-6548
▁delay	-6549
▁bat	-6550
▁destination	-6551
irts	-6552
comfort	-6553
▁150	-6554
▁transition	-6555
course	-6556
▁cooper	-6557
▁situations	-6558
tel	-6559
▁deploy	-6560
stal	-6561
▁rail	-6562
▁instance	-6563
▁sick	-6564
▁flood	-6565
amps	-6566
eding	-6567
asian	-6568
▁destroy	-6569
anton	-6570
▁shift	-6571
file	-6572
▁resol	-6573
▁founded	-6574
▁protein	-6575
▁external	-6576
bag	-6577
pty	-6578
▁institutions	-6579
▁creates	-6580
ilst	-6581
reading	-6582
▁bonus	-6583
ala	-6584
forest	-6585
sale	-6586
taylor	-6587
▁ease	-6588
▁fle	-6589
wire	-6590
▁equal	-6591
▁alongside	-6592
▁typical	-6593
▁seriously	-6594
▁lad	-6595
▁blend	-6596
edition	-6597
▁flag	-6598
▁km	-6599
tail	-6600
▁termin	-6601
!"	-6602
insp	-6603
▁rating	-6604
▁compens	-6605
▁contribute	-6606
▁awarded	-6607
izza	-6608
▁availability	-6609
coin	-6610
rip	-6611
▁vul	-6612
inde	-6613
▁historic	-6614
▁mel	-6615
▁strategic	-6616
neys	-6617
aze	-6618
▁none	-6619
▁unlike	-6620
▁operate	-6621
▁capture	-6622
▁filed	-6623
▁submitted	-6624
.’	-6625
hur	-6626
gard	-6627
▁judge	-6628
▁crew	-6629
▁distinct	-6630
?"	-6631
cou	-6632
▁:)	-6633
products	-6634
ults	-6635
▁inch	-6636
things	-6637
photos	-6638
▁proven	-6639
▁listening	-6640
▁informed	-6641
exp	-6642
▁prop	-6643
rug	-6644
▁sudden	-6645
▁lucky	-6646
iously	-6647
▁believes	-6648
▁filter	-6649
dark	-6650
▁cos	-6651
without	-6652
welry	-6653
championship	-6654
▁rac	-6655
▁joining	-6656
aturally	-6657
dra	-6658
inos	-6659
▁platforms	-6660
▁faculty	-6661
▁tomat	-6662
▁performing	-6663
▁obl	-6664
▁eligible	-6665
▁papers	-6666
him	-6667
prime	-6668
▁worst	-6669
dale	-6670
▁facilit	-6671
send	-6672
▁choosing	-6673
▁critic	-6674
▁younger	-6675
▁vacc	-6676
▁grass	-6677
▁tip	-6678
▁hasn	-6679
llc	-6680
medicine	-6681
▁rental	-6682
uling	-6683
oured	-6684
▁3-	-6685
▁sac	-6686
lers	-6687
mah	-6688
▁letters	-6689
adam	-6690
▁manufacturer	-6691
zes	-6692
▁networks	-6693
cuit	-6694
▁liquid	-6695
▁terror	-6696
vo	-6697
bible	-6698
path	-6699
▁fighting	-6700
▁gorgeous	-6701
houston	-6702
wan	-6703
▁regulations	-6704
▁quote	-6705
▁meals	-6706
▁engage	-6707
hp	-6708
▁shops	-6709
erts	-6710
▁risks	-6711
▁garage	-6712
sure	-6713
▁adopt	-6714
▁developers	-6715
cool	-6716
thetic	-6717
inar	-6718
▁stir	-6719
▁pounds	-6720
wik	-6721
▁attacks	-6722
▁drawing	-6723
▁bear	-6724
▁interpre	-6725
vs	-6726
quar	-6727
▁)	-6728
together	-6729
obby	-6730
▁tracks	-6731
cop	-6732
▁engagement	-6733
▁liked	-6734
▁counsel	-6735
▁hopes	-6736
faction	-6737
▁bab	-6738
▁exhibition	-6739
▁savings	-6740
brad	-6741
▁dent	-6742
▁$4	-6743
missions	-6744
uine	-6745
▁yards	-6746
gary	-6747
▁anticip	-6748
studio	-6749
dun	-6750
▁recording	-6751
▁loans	-6752
motor	-6753
▁privacy	-6754
▁legs	-6755
▁surprised	-6756
imm	-6757
▁10,	-6758
▁subs	-6759
ographic	-6760
brian	-6761
▁west	-6762
▁1:	-6763
ucky	-6764
kevin	-6765
▁organized	-6766
fab	-6767
following	-6768
content	-6769
software	-6770
.00	-6771
via	-6772
policy	-6773
isation	-6774
▁technique	-6775
78	-6776
▁hurt	-6777
athan	-6778
rot	-6779
▁infect	-6780
▁streets	-6781
▁sight	-6782
▁decade	-6783
▁attached	-6784
▁motion	-6785
▁mut	-6786
▁planet	-6787
fold	-6788
▁capable	-6789
dead	-6790
▁monitoring	-6791
▁relief	-6792
illiant	-6793
▁reputation	-6794
▁immediate	-6795
▁arrive	-6796
▁tank	-6797
▁treatments	-6798
▁religious	-6799
camer	-6800
▁soil	-6801
▁lege	-6802
holders	-6803
▁volunteers	-6804
six	-6805
▁suggested	-6806
▁domain	-6807
▁guidelines	-6808
usb	-6809
pg	-6810
▁portfolio	-6811
▁believed	-6812
liam	-6813
winter	-6814
▁pulled	-6815
▁dust	-6816
era	-6817
▁hate	-6818
▁enjoying	-6819
▁resort	-6820
eve	-6821
▁linked	-6822
▁crucial	-6823
▁belief	-6824
▁interface	-6825
ext	-6826
money	-6827
therapy	-6828
therefore	-6829
▁listing	-6830
consult	-6831
▁broadcast	-6832
piece	-6833
yers	-6834
▁circumstances	-6835
player	-6836
▁aside	-6837
▁proceed	-6838
arizona	-6839
counter	-6840
▁banks	-6841
▁crack	-6842
viet	-6843
▁dreams	-6844
▁warn	-6845
▁equipped	-6846
▁faces	-6847
brazil	-6848
fred	-6849
airport	-6850
friends	-6851
pn	-6852
▁tournament	-6853
aid	-6854
▁agents	-6855
▁injured	-6856
everything	-6857
▁moves	-6858
▁manual	-6859
▁ast	-6860
talk	-6861
55	-6862
▁rice	-6863
oz	-6864
performance	-6865
spot	-6866
)|	-6867
ski	-6868
▁bes	-6869
▁promise	-6870
icial	-6871
▁acid	-6872
ingly	-6873
▁memories	-6874
ati	-6875
ulpt	-6876
ennis	-6877
▁pin	-6878
▁continuing	-6879
bass	-6880
▁newly	-6881
▁consequ	-6882
▁gallery	-6883
▁drinking	-6884
▁hosted	-6885
construction	-6886
nda	-6887
▁vast	-6888
▁frag	-6889
▁6,	-6890
oft	-6891
▁normally	-6892
below	-6893
capital	-6894
customer	-6895
hops	-6896
▁arms	-6897
onym	-6898
▁depress	-6899
▁phase	-6900
▁justice	-6901
army	-6902
iations	-6903
umps	-6904
▁increases	-6905
▁relatively	-6906
aints	-6907
▁dynamic	-6908
▁directed	-6909
▁trig	-6910
drop	-6911
▁exposure	-6912
▁authors	-6913
irish	-6914
dall	-6915
administration	-6916
▁mortgage	-6917
staff	-6918
ooks	-6919
▁objects	-6920
ogue	-6921
dvd	-6922
say	-6923
▁fasc	-6924
▁firms	-6925
bru	-6926
▁mm	-6927
gallery	-6928
▁illness	-6929
▁refund	-6930
agency	-6931
rency	-6932
capt	-6933
ially	-6934
woman	-6935
cycle	-6936
▁consistent	-6937
▁portion	-6938
▁estimated	-6939
▁ads	-6940
toronto	-6941
hero	-6942
▁ult	-6943
icit	-6944
▁index	-6945
▁pleasure	-6946
republican	-6947
▁flash	-6948
htt	-6949
▁forever	-6950
inois	-6951
quick	-6952
release	-6953
▁password	-6954
ensity	-6955
lif	-6956
private	-6957
64	-6958
secretary	-6959
▁hospit	-6960
etic	-6961
▁chose	-6962
▁sending	-6963
▁spiritual	-6964
▁gard	-6965
annual	-6966
▁ensuring	-6967
▁recall	-6968
▁saving	-6969
had	-6970
ounce	-6971
▁ultimate	-6972
tam	-6973
▁colle	-6974
▁collected	-6975
▁passing	-6976
rh	-6977
▁chances	-6978
▁||	-6979
▁finance	-6980
officer	-6981
▁trick	-6982
▁holidays	-6983
shot	-6984
fu	-6985
chand	-6986
▁gent	-6987
▁7,	-6988
▁elev	-6989
doors	-6990
website	-6991
▁smell	-6992
▁lapt	-6993
▁represents	-6994
▁border	-6995
urning	-6996
makers	-6997
▁permanent	-6998
mrs	-6999
▁adop	-7000
▁id	-7001
▁garlic	-7002
▁urban	-7003
▁defend	-7004
▁matches	-7005
▁suggestions	-7006
annels	-7007
apol	-7008
▁proof	-7009
asant	-7010
▁stim	-7011
▁visited	-7012
past	-7013
▁cotton	-7014
forum	-7015
wich	-7016
amsung	-7017
▁hat	-7018
▁vulner	-7019
.'	-7020
burgh	-7021
ku	-7022
spirit	-7023
hollywood	-7024
perhaps	-7025
▁zone	-7026
moon	-7027
trad	-7028
▁approval	-7029
catholic	-7030
-12	-7031
trail	-7032
▁division	-7033
sport	-7034
▁prove	-7035
▁attractive	-7036
800	-7037
apped	-7038
▁mile	-7039
version	-7040
▁fairly	-7041
….	-7042
hire	-7043
▁recommendations	-7044
▁dealing	-7045
▁industries	-7046
▁spoke	-7047
▁rum	-7048
preme	-7049
golden	-7050
▁seed	-7051
▁bird	-7052
▁downtown	-7053
illinois	-7054
ainless	-7055
▁mand	-7056
whel	-7057
▁ceremony	-7058
charge	-7059
jord	-7060
▁butt	-7061
joseph	-7062
▁packages	-7063
▁phones	-7064
▁(5	-7065
▁boxes	-7066
▁discussed	-7067
▁presents	-7068
urb	-7069
cript	-7070
▁spark	-7071
▁roles	-7072
▁concert	-7073
winning	-7074
▁loving	-7075
izer	-7076
▁pharm	-7077
eration	-7078
▁75	-7079
▁pitch	-7080
▁capabilities	-7081
comb	-7082
▁formed	-7083
▁priority	-7084
▁theory	-7085
▁evol	-7086
collection	-7087
esy	-7088
osop	-7089
uclear	-7090
raud	-7091
▁1/4	-7092
▁cookies	-7093
omy	-7094
▁tooth	-7095
iron	-7096
▁acknow	-7097
details	-7098
▁posting	-7099
ione	-7100
final	-7101
▁hidden	-7102
studies	-7103
▁finds	-7104
sd	-7105
sweet	-7106
meanwhile	-7107
▁possibility	-7108
▁celebration	-7109
▁root	-7110
▁legislation	-7111
hey	-7112
including	-7113
ridge	-7114
▁shock	-7115
▁implementation	-7116
categ	-7117
▁ancient	-7118
▁discipl	-7119
▁tradition	-7120
▁bridge	-7121
stery	-7122
single	-7123
▁incredibly	-7124
▁heads	-7125
▁hook	-7126
solutions	-7127
▁lawyer	-7128
title	-7129
prim	-7130
iii	-7131
▁upgrade	-7132
eria	-7133
▁handling	-7134
▁east	-7135
cha	-7136
1)	-7137
itution	-7138
▁34	-7139
lessly	-7140
nfl	-7141
▁reform	-7142
▁stake	-7143
▁permission	-7144
▁tab	-7145
▁ensu	-7146
hart	-7147
▁bars	-7148
▁conv	-7149
▁orange	-7150
▁categories	-7151
▁calendar	-7152
modern	-7153
oses	-7154
rible	-7155
▁reader	-7156
▁recognize	-7157
among	-7158
nation	-7159
golf	-7160
electric	-7161
▁personally	-7162
histor	-7163
fat	-7164
▁($	-7165
▁mainly	-7166
birth	-7167
▁instrument	-7168
▁venue	-7169
▁suffe	-7170
▁facts	-7171
samsung	-7172
▁conclud	-7173
transport	-7174
original	-7175
▁bodies	-7176
additionally	-7177
▁contrast	-7178
aron	-7179
gor	-7180
▁empty	-7181
ien	-7182
▁scheme	-7183
▁printing	-7184
-200	-7185
aren	-7186
seattle	-7187
▁breath	-7188
langu	-7189
inson	-7190
▁pra	-7191
▁singles	-7192
▁hole	-7193
song	-7194
▁copyright	-7195
▁victims	-7196
▁swimming	-7197
oir	-7198
igate	-7199
▁bare	-7200
columb	-7201
oker	-7202
▁communications	-7203
▁debate	-7204
▁buyers	-7205
▁desired	-7206
▁causing	-7207
jen	-7208
▁15,	-7209
▁forth	-7210
▁proposal	-7211
▁realized	-7212
dney	-7213
magazine	-7214
bath	-7215
tell	-7216
memorial	-7217
ras	-7218
▁8,	-7219
cart	-7220
▁chart	-7221
izz	-7222
▁tum	-7223
description	-7224
partners	-7225
▁absor	-7226
consum	-7227
▁purchasing	-7228
iary	-7229
hay	-7230
▁(19	-7231
▁slowly	-7232
▁vegetables	-7233
finance	-7234
trade	-7235
▁magic	-7236
vac	-7237
▁solve	-7238
▁marked	-7239
feel	-7240
eastern	-7241
▁gaming	-7242
▁cuts	-7243
▁row	-7244
▁fifth	-7245
▁volunteer	-7246
▁programming	-7247
▁specialist	-7248
pain	-7249
▁embr	-7250
bring	-7251
▁fest	-7252
▁combine	-7253
▁raw	-7254
collect	-7255
▁bench	-7256
▁saved	-7257
amel	-7258
▁split	-7259
▁murder	-7260
sters	-7261
sole	-7262
▁basketball	-7263
▁initiative	-7264
▁giant	-7265
dallas	-7266
▁somewhere	-7267
vegas	-7268
▁(201	-7269
▁aspect	-7270
▁upgr	-7271
fix	-7272
theatre	-7273
study	-7274
▁drinks	-7275
compet	-7276
▁claimed	-7277
steel	-7278
▁announcement	-7279
▁clar	-7280
▁exceptional	-7281
▁titles	-7282
▁replaced	-7283
spain	-7284
▁magn	-7285
suc	-7286
▁singer	-7287
▁achieved	-7288
ulf	-7289
written	-7290
tree	-7291
▁storm	-7292
aska	-7293
server	-7294
▁walked	-7295
▁compat	-7296
▁publication	-7297
▁meets	-7298
▁habit	-7299
▁substant	-7300
hl	-7301
▁suffering	-7302
▁33	-7303
ran	-7304
▁align	-7305
▁requests	-7306
davis	-7307
▁broke	-7308
▁ultim	-7309
excell	-7310
▁seasons	-7311
▁explains	-7312
▁clicking	-7313
▁tie	-7314
▁ham	-7315
bits	-7316
minnes	-7317
▁lets	-7318
▁manufacturers	-7319
inton	-7320
stor	-7321
swed	-7322
creative	-7323
▁€	-7324
▁concrete	-7325
diego	-7326
▁marks	-7327
stick	-7328
▁hotels	-7329
▁>>	-7330
anger	-7331
▁scr	-7332
▁generate	-7333
lady	-7334
▁pricing	-7335
pakistan	-7336
▁extension	-7337
bn	-7338
▁covering	-7339
▁pic	-7340
▁noise	-7341
▁spots	-7342
▁yard	-7343
▁feelings	-7344
production	-7345
apore	-7346
2)	-7347
commercial	-7348
abetes	-7349
▁stuck	-7350
▁doctors	-7351
▁2004	-7352
pton	-7353
ashed	-7354
around	-7355
▁architecture	-7356
▁consultation	-7357
▁hell	-7358
etry	-7359
ologist	-7360
▁interactive	-7361
strong	-7362
▁insight	-7363
86	-7364
▁sharp	-7365
▁classroom	-7366
▁birds	-7367
tar	-7368
▁describe	-7369
▁encouraged	-7370
currently	-7371
▁11,	-7372
▁packaging	-7373
subscribe	-7374
▁12,	-7375
cort	-7376
alle	-7377
editor	-7378
▁resistance	-7379
uster	-7380
index	-7381
metro	-7382
aware	-7383
hub	-7384
mend	-7385
▁impossible	-7386
▁rig	-7387
▁consists	-7388
coll	-7389
▁pill	-7390
▁pride	-7391
axy	-7392
▁dishes	-7393
▁gall	-7394
▁surprising	-7395
▁fru	-7396
▁talked	-7397
▁expressed	-7398
amy	-7399
▁accomplish	-7400
▁mood	-7401
austin	-7402
▁gym	-7403
block	-7404
impro	-7405
▁spray	-7406
▁gay	-7407
▁constant	-7408
pir	-7409
oregon	-7410
ington	-7411
▁sor	-7412
bott	-7413
▁exh	-7414
▁muscle	-7415
▁enables	-7416
nat	-7417
fied	-7418
castle	-7419
manufact	-7420
gene	-7421
▁seeds	-7422
years	-7423
▁displ	-7424
minnesota	-7425
▁enroll	-7426
▁formal	-7427
ashes	-7428
aka	-7429
▁engaged	-7430
▁ultimately	-7431
fashion	-7432
obe	-7433
▁enterprise	-7434
▁expansion	-7435
▁anyway	-7436
friger	-7437
▁breaking	-7438
poly	-7439
▁reducing	-7440
acious	-7441
▁blocks	-7442
▁massage	-7443
▁pocket	-7444
rovers	-7445
double	-7446
▁default	-7447
▁tub	-7448
fresh	-7449
▁recognition	-7450
▁electrical	-7451
vice	-7452
3)	-7453
gypt	-7454
▁brilliant	-7455
stephen	-7456
▁preparation	-7457
▁genuine	-7458
ateful	-7459
▁scenes	-7460
▁chopped	-7461
taking	-7462
channel	-7463
▁staying	-7464
alse	-7465
▁ec	-7466
▁traveling	-7467
hz	-7468
atlanta	-7469
cn	-7470
▁2:	-7471
▁closing	-7472
▁displayed	-7473
communications	-7474
roman	-7475
▁pace	-7476
ulum	-7477
▁agric	-7478
▁pand	-7479
▁nights	-7480
▁compliance	-7481
▁widely	-7482
▁scan	-7483
nin	-7484
ifies	-7485
minute	-7486
creek	-7487
integr	-7488
dave	-7489
▁overwhel	-7490
bab	-7491
liber	-7492
▁et	-7493
▁blank	-7494
resources	-7495
lad	-7496
▁coat	-7497
▁inner	-7498
▁resulting	-7499
▁anniversary	-7500
▁prize	-7501
ingu	-7502
▁suggests	-7503
vania	-7504
▁compr	-7505
miller	-7506
▁minim	-7507
▁healing	-7508
▁hel	-7509
▁producing	-7510
▁aims	-7511
▁seats	-7512
▁forest	-7513
▁experiment	-7514
▁enem	-7515
▁riding	-7516
▁30,	-7517
explore	-7518
sha	-7519
mini	-7520
onut	-7521
▁packed	-7522
bush	-7523
▁designers	-7524
shirt	-7525
▁acting	-7526
jason	-7527
▁recover	-7528
along	-7529
▁lemon	-7530
▁obtained	-7531
▁reasonable	-7532
classic	-7533
nie	-7534
focus	-7535
▁bunch	-7536
▁wireless	-7537
▁20,	-7538
singapore	-7539
▁cow	-7540
egypt	-7541
▁writers	-7542
▁vintage	-7543
▁introduction	-7544
▁deck	-7545
lon	-7546
tony	-7547
jewish	-7548
▁remark	-7549
itz	-7550
built	-7551
▁graphics	-7552
onna	-7553
▁booking	-7554
orange	-7555
blu	-7556
▁managers	-7557
▁duty	-7558
▁everywhere	-7559
▁2013.	-7560
▁wins	-7561
▁connections	-7562
▁lists	-7563
stein	-7564
lev	-7565
cb	-7566
▁professor	-7567
▁succeed	-7568
▁honey	-7569
▁officially	-7570
▁oz	-7571
columbia	-7572
▁porn	-7573
delivery	-7574
sec	-7575
pending	-7576
sarah	-7577
▁franch	-7578
▁fo	-7579
▁mob	-7580
theast	-7581
▁expenses	-7582
bird	-7583
▁channels	-7584
valent	-7585
▁trailer	-7586
half	-7587
▁actor	-7588
▁basically	-7589
▁charity	-7590
▁legend	-7591
▁mere	-7592
▁shell	-7593
holy	-7594
▁fits	-7595
▁authority	-7596
▁trips	-7597
henry	-7598
comments	-7599
aund	-7600
seo	-7601
ilton	-7602
designed	-7603
patrick	-7604
▁apparently	-7605
fav	-7606
▁guaranteed	-7607
▁performances	-7608
jenn	-7609
anal	-7610
▁precise	-7611
▁driven	-7612
▁talented	-7613
▁increasingly	-7614
%.	-7615
uma	-7616
▁indeed	-7617
▁acts	-7618
nik	-7619
▁differences	-7620
▁founder	-7621
▁involves	-7622
inf	-7623
anti	-7624
▁2012.	-7625
▁gentle	-7626
▁assum	-7627
▁centers	-7628
eliz	-7629
▁55	-7630
▁narrow	-7631
▁colours	-7632
analy	-7633
▁headed	-7634
property	-7635
▁boss	-7636
▁struggle	-7637
▁opens	-7638
owa	-7639
▁38	-7640
ureau	-7641
unit	-7642
▁casual	-7643
ti	-7644
asted	-7645
hemat	-7646
47	-7647
tense	-7648
▁delivering	-7649
kansas	-7650
▁2022	-7651
▁carrying	-7652
eye	-7653
▁$100	-7654
▁defined	-7655
kee	-7656
▁watched	-7657
▁maintaining	-7658
hem	-7659
comment	-7660
address	-7661
hair	-7662
features	-7663
register	-7664
▁acquis	-7665
additional	-7666
▁falling	-7667
▁ending	-7668
▁18,	-7669
▁licensed	-7670
close	-7671
▁whenever	-7672
▁por	-7673
dj	-7674
dor	-7675
icity	-7676
always	-7677
teac	-7678
▁sensitive	-7679
lah	-7680
▁16,	-7681
shore	-7682
wid	-7683
yan	-7684
ression	-7685
▁dad	-7686
▁improvements	-7687
▁unus	-7688
▁interact	-7689
write	-7690
▁vice	-7691
innov	-7692
48	-7693
bean	-7694
cus	-7695
▁hi	-7696
alan	-7697
▁primarily	-7698
▁slot	-7699
▁filling	-7700
▁tired	-7701
▁preparing	-7702
▁suspect	-7703
alt	-7704
anny	-7705
▁crash	-7706
)||	-7707
▁unex	-7708
▁assistant	-7709
ented	-7710
stage	-7711
▁attribut	-7712
vised	-7713
closure	-7714
corporation	-7715
adelph	-7716
closed	-7717
prior	-7718
▁percentage	-7719
▁gender	-7720
arian	-7721
▁fing	-7722
▁highlights	-7723
▁14,	-7724
otted	-7725
▁shouldn	-7726
▁consc	-7727
▁consumption	-7728
too	-7729
hind	-7730
▁tape	-7731
▁recre	-7732
abeth	-7733
▁renov	-7734
hallow	-7735
mann	-7736
▁forecast	-7737
▁alive	-7738
▁heading	-7739
▁podcast	-7740
mate	-7741
outer	-7742
manchester	-7743
events	-7744
owners	-7745
▁adm	-7746
matthe	-7747
agu	-7748
▁resident	-7749
dd	-7750
chel	-7751
moo	-7752
▁olive	-7753
▁ther	-7754
dry	-7755
▁finger	-7756
psych	-7757
lam	-7758
▁plot	-7759
village	-7760
article	-7761
▁functional	-7762
▁$1.	-7763
▁returning	-7764
jection	-7765
▁rein	-7766
dif	-7767
▁suffered	-7768
wilson	-7769
britain	-7770
pection	-7771
▁assault	-7772
…]	-7773
’,	-7774
▁21,	-7775
▁intent	-7776
▁satisfaction	-7777
▁findings	-7778
cla	-7779
▁speaker	-7780
iraq	-7781
bourne	-7782
inating	-7783
----	-7784
▁naturally	-7785
▁2012,	-7786
sylvania	-7787
▁stronger	-7788
ila	-7789
computer	-7790
▁strike	-7791
independ	-7792
maker	-7793
niger	-7794
▁retirement	-7795
bron	-7796
▁aircraft	-7797
▁minimal	-7798
ilty	-7799
▁signing	-7800
employment	-7801
ghan	-7802
harry	-7803
▁politics	-7804
terior	-7805
▁till	-7806
▁attending	-7807
activ	-7808
kelly	-7809
▁personality	-7810
▁component	-7811
▁superior	-7812
sr	-7813
▁involving	-7814
odge	-7815
ronics	-7816
korea	-7817
success	-7818
▁elegant	-7819
ications	-7820
riers	-7821
celebr	-7822
▁winners	-7823
hills	-7824
issions	-7825
zzle	-7826
len	-7827
writer	-7828
▁illegal	-7829
▁instant	-7830
fan	-7831
▁controls	-7832
▁principles	-7833
▁tracking	-7834
civil	-7835
pitt	-7836
defin	-7837
▁participating	-7838
▁bills	-7839
url	-7840
reviews	-7841
▁array	-7842
represent	-7843
▁reduction	-7844
▁colleagues	-7845
onder	-7846
▁lifetime	-7847
snow	-7848
info	-7849
▁opinions	-7850
osophy	-7851
▁obviously	-7852
▁photographs	-7853
▁potentially	-7854
▁creativity	-7855
aza	-7856
aqu	-7857
▁smartphone	-7858
▁scientists	-7859
benef	-7860
application	-7861
advent	-7862
adelphia	-7863
▁trim	-7864
▁stable	-7865
▁correspond	-7866
▁37	-7867
▁communicate	-7868
length	-7869
▁heating	-7870
protection	-7871
▁1/	-7872
▁17,	-7873
▁behalf	-7874
igs	-7875
dress	-7876
grant	-7877
gt	-7878
▁ocean	-7879
▁clubs	-7880
oked	-7881
uten	-7882
import	-7883
▁bid	-7884
▁racing	-7885
▁lesson	-7886
liament	-7887
hello	-7888
major	-7889
▁entering	-7890
regional	-7891
▁13,	-7892
better	-7893
questions	-7894
▁deposit	-7895
tro	-7896
▁rising	-7897
▁baseball	-7898
reach	-7899
▁passionate	-7900
▁newspaper	-7901
former	-7902
▁shoulder	-7903
doctor	-7904
steven	-7905
▁gained	-7906
simply	-7907
jordan	-7908
▁intense	-7909
▁forgot	-7910
▁warranty	-7911
entertain	-7912
bot	-7913
ista	-7914
ador	-7915
▁chips	-7916
industry	-7917
▁flower	-7918
▁checking	-7919
▁jewelry	-7920
▁usage	-7921
updated	-7922
▁;	-7923
sydney	-7924
▁integration	-7925
▁removal	-7926
▁regardless	-7927
▁lect	-7928
anim	-7929
girls	-7930
exchange	-7931
▁22,	-7932
victoria	-7933
rail	-7934
economic	-7935
▁liber	-7936
sir	-7937
tery	-7938
▁anymore	-7939
▁viewing	-7940
▁intelligence	-7941
ints	-7942
zing	-7943
▁string	-7944
▁humans	-7945
▁enforcement	-7946
selling	-7947
▁plug	-7948
▁shirt	-7949
▁compare	-7950
▁focuses	-7951
▁strange	-7952
▁loose	-7953
▁divor	-7954
▁tone	-7955
▁statements	-7956
▁introduce	-7957
inent	-7958
philadelphia	-7959
▁yield	-7960
▁attach	-7961
▁whilst	-7962
▁dollar	-7963
icide	-7964
poons	-7965
awa	-7966
ministry	-7967
ventional	-7968
acular	-7969
▁sculpt	-7970
scale	-7971
ockey	-7972
▁2-	-7973
▁roads	-7974
▁tweet	-7975
qual	-7976
▁exception	-7977
falls	-7978
century	-7979
▁rural	-7980
▁damaged	-7981
▁factory	-7982
▁acceler	-7983
▁#1	-7984
specific	-7985
▁occurred	-7986
▁association	-7987
▁strict	-7988
iro	-7989
▁expression	-7990
▁19,	-7991
hong	-7992
▁flying	-7993
scotland	-7994
planning	-7995
ifer	-7996
nothing	-7997
▁aggress	-7998
method	-7999
▁(200	-8000
▁workshops	-8001
▁pandemic	-8002
kong	-8003
▁yoga	-8004
youth	-8005
▁preferred	-8006
stars	-8007
buc	-8008
▁recip	-8009
etch	-8010
▁developer	-8011
▁twist	-8012
▁flexibility	-8013
pennsylvania	-8014
shel	-8015
▁lip	-8016
▁newsletter	-8017
▁visits	-8018
cand	-8019
▁loy	-8020
▁producer	-8021
▁fault	-8022
▁somewhat	-8023
46	-8024
▁computers	-8025
chapter	-8026
eag	-8027
▁limits	-8028
coach	-8029
▁visible	-8030
▁god	-8031
▁faced	-8032
▁temperatures	-8033
▁9,	-8034
▁emails	-8035
chron	-8036
▁brush	-8037
▁signature	-8038
una	-8039
getting	-8040
univers	-8041
exam	-8042
▁column	-8043
▁drama	-8044
▁setup	-8045
▁moder	-8046
▁diseases	-8047
▁speakers	-8048
▁lie	-8049
▁teaspoon	-8050
deep	-8051
rape	-8052
▁divid	-8053
▁solo	-8054
atile	-8055
hawai	-8056
eland	-8057
▁sail	-8058
▁championship	-8059
brother	-8060
▁accuracy	-8061
etary	-8062
▁golden	-8063
sac	-8064
muslim	-8065
sized	-8066
supreme	-8067
mates	-8068
feat	-8069
▁bold	-8070
vals	-8071
▁250	-8072
▁!	-8073
▁virus	-8074
uminum	-8075
▁invite	-8076
▁25,	-8077
halloween	-8078
▁phr	-8079
▁stations	-8080
lg	-8081
▁referred	-8082
gift	-8083
orship	-8084
riculum	-8085
▁texture	-8086
▁bacter	-8087
mw	-8088
▁careful	-8089
▁[…]	-8090
▁applying	-8091
▁da	-8092
wine	-8093
▁depends	-8094
▁lady	-8095
▁samples	-8096
▁01	-8097
▁boot	-8098
contract	-8099
▁emb	-8100
▁accused	-8101
jess	-8102
certified	-8103
▁amounts	-8104
▁2017.	-8105
kitchen	-8106
cancer	-8107
▁wondering	-8108
▁compete	-8109
mg	-8110
▁focusing	-8111
ias	-8112
rating	-8113
▁era	-8114
▁drawn	-8115
▁electricity	-8116
toy	-8117
▁participation	-8118
▁museum	-8119
lane	-8120
irus	-8121
advanced	-8122
▁insights	-8123
▁graphic	-8124
cash	-8125
iowa	-8126
▁puts	-8127
▁semi	-8128
▁wake	-8129
overall	-8130
princ	-8131
▁persons	-8132
▁engaging	-8133
▁coaching	-8134
urban	-8135
▁minister	-8136
kh	-8137
oda	-8138
mers	-8139
▁interviews	-8140
rants	-8141
wart	-8142
attorney	-8143
language	-8144
▁literally	-8145
sels	-8146
uct	-8147
▁desktop	-8148
bie	-8149
▁mas	-8150
sorry	-8151
boys	-8152
usd	-8153
▁exceed	-8154
helor	-8155
▁seam	-8156
buff	-8157
▁raising	-8158
▁farmers	-8159
fro	-8160
chain	-8161
▁2003	-8162
▁65	-8163
imag	-8164
▁ves	-8165
restaur	-8166
▁sin	-8167
▁shipped	-8168
▁smoke	-8169
▁panels	-8170
▁sees	-8171
deal	-8172
▁cul	-8173
▁convenience	-8174
beck	-8175
▁grateful	-8176
tickets	-8177
▁drag	-8178
▁2014.	-8179
▁entit	-8180
▁symbol	-8181
▁contributions	-8182
powered	-8183
▁oppon	-8184
uration	-8185
frame	-8186
ocean	-8187
▁blind	-8188
conserv	-8189
▁afraid	-8190
assistant	-8191
79	-8192
▁regions	-8193
▁buck	-8194
tips	-8195
▁cameras	-8196
move	-8197
liers	-8198
▁childhood	-8199
▁consideration	-8200
▁warning	-8201
practice	-8202
▁yours	-8203
▁controlled	-8204
▁tsp	-8205
▁rely	-8206
anyone	-8207
▁boards	-8208
▁generated	-8209
elizabeth	-8210
lights	-8211
▁weren	-8212
▁lake	-8213
▁checked	-8214
▁durable	-8215
▁weapons	-8216
otive	-8217
▁necessarily	-8218
atoes	-8219
▁appli	-8220
▁fraud	-8221
▁definition	-8222
philipp	-8223
regular	-8224
▁reveal	-8225
▁param	-8226
▁struggling	-8227
▁vine	-8228
▁(@	-8229
▁24,	-8230
▁tutorial	-8231
users	-8232
▁promotion	-8233
stract	-8234
▁anxiety	-8235
▁promoting	-8236
oa	-8237
▁satisfy	-8238
▁tor	-8239
76	-8240
linux	-8241
results	-8242
▁donation	-8243
ordinary	-8244
▁arrival	-8245
▁structures	-8246
▁ski	-8247
▁wave	-8248
elled	-8249
▁wooden	-8250
▁23,	-8251
▁120	-8252
iac	-8253
nob	-8254
kir	-8255
▁lies	-8256
▁greatly	-8257
nce	-8258
compan	-8259
much	-8260
▁fundra	-8261
▁languages	-8262
saint	-8263
▁wanting	-8264
heim	-8265
▁stages	-8266
▁personnel	-8267
roit	-8268
▁(6	-8269
▁exposed	-8270
▁hanging	-8271
▁signal	-8272
▁sour	-8273
▁asset	-8274
glas	-8275
▁framework	-8276
chant	-8277
▁maxim	-8278
owner	-8279
'.	-8280
▁dough	-8281
▁clip	-8282
sony	-8283
▁28,	-8284
flu	-8285
▁800	-8286
▁subsequ	-8287
vironments	-8288
ij	-8289
▁2013,	-8290
▁subscription	-8291
▁recruit	-8292
forward	-8293
▁compensation	-8294
igu	-8295
▁reaction	-8296
consin	-8297
▁zero	-8298
▁sexy	-8299
intel	-8300
atin	-8301
▁writes	-8302
liter	-8303
▁borrow	-8304
▁carpet	-8305
▁plain	-8306
▁eld	-8307
▁opposite	-8308
▁clock	-8309
▁escape	-8310
seas	-8311
▁entrance	-8312
value	-8313
football	-8314
ppy	-8315
▁12.	-8316
▁commonly	-8317
aga	-8318
corp	-8319
▁exploring	-8320
ooth	-8321
▁toile	-8322
▁fiber	-8323
▁cooked	-8324
bull	-8325
▁vill	-8326
▁repairs	-8327
challenge	-8328
▁controvers	-8329
greek	-8330
▁painted	-8331
nders	-8332
/10	-8333
▁mac	-8334
rele	-8335
▁gotten	-8336
▁champion	-8337
pson	-8338
▁laptop	-8339
▁isol	-8340
▁salad	-8341
barn	-8342
▁harder	-8343
▁comparison	-8344
prince	-8345
true	-8346
third	-8347
ogy	-8348
▁union	-8349
cod	-8350
▁26,	-8351
tan	-8352
arth	-8353
angle	-8354
beautiful	-8355
tu	-8356
▁conserv	-8357
wisconsin	-8358
▁territ	-8359
▁admitted	-8360
allen	-8361
▁organisation	-8362
▁sections	-8363
89	-8364
▁criteria	-8365
mun	-8366
mort	-8367
oen	-8368
math	-8369
floor	-8370
▁hung	-8371
mand	-8372
veter	-8373
▁laid	-8374
▁employers	-8375
fel	-8376
zone	-8377
▁mold	-8378
wick	-8379
▁nuclear	-8380
▁plane	-8381
wars	-8382
touch	-8383
▁safely	-8384
▁tied	-8385
machine	-8386
coc	-8387
▁struck	-8388
▁cher	-8389
▁newest	-8390
▁64	-8391
schools	-8392
future	-8393
▁instruction	-8394
▁27,	-8395
▁bands	-8396
oken	-8397
skin	-8398
phe	-8399
▁functionality	-8400
▁2016.	-8401
▁tradem	-8402
discover	-8403
▁residence	-8404
suite	-8405
▁jail	-8406
▁contribution	-8407
bowl	-8408
▁unknown	-8409
▁remained	-8410
rif	-8411
▁thinks	-8412
athered	-8413
▁outcome	-8414
▁dual	-8415
remove	-8416
lewis	-8417
igue	-8418
▁fis	-8419
▁everybody	-8420
▁matching	-8421
sciences	-8422
ruption	-8423
▁resume	-8424
▁equival	-8425
▁scar	-8426
▁addresses	-8427
match	-8428
▁tow	-8429
sep	-8430
item	-8431
▁codes	-8432
anes	-8433
▁revolution	-8434
▁complicated	-8435
enities	-8436
▁reaching	-8437
entertainment	-8438
▁donations	-8439
600	-8440
▁gap	-8441
ptions	-8442
rab	-8443
▁pul	-8444
graph	-8445
▁lens	-8446
▁reception	-8447
▁batt	-8448
▁11.	-8449
▁networking	-8450
▁scores	-8451
relations	-8452
wee	-8453
▁diversity	-8454
added	-8455
vet	-8456
atlantic	-8457
indiana	-8458
▁releases	-8459
rout	-8460
vp	-8461
,000.	-8462
▁1000	-8463
parents	-8464
▁09	-8465
agen	-8466
▁deeply	-8467
▁obst	-8468
▁completion	-8469
▁4-	-8470
mn	-8471
latin	-8472
▁elected	-8473
▁hopefully	-8474
▁demands	-8475
tag	-8476
mans	-8477
sab	-8478
cad	-8479
▁temporary	-8480
▁waters	-8481
cooper	-8482
▁pets	-8483
death	-8484
inity	-8485
thus	-8486
▁orient	-8487
▁edit	-8488
▁guilty	-8489
▁representative	-8490
▁calm	-8491
iments	-8492
ieties	-8493
▁maintained	-8494
▁diamond	-8495
▁southern	-8496
orous	-8497
▁pursu	-8498
/20	-8499
▁unexpected	-8500
▁romantic	-8501
▁twenty	-8502
audio	-8503
▁concepts	-8504
▁requirement	-8505
▁2015.	-8506
sq	-8507
chat	-8508
▁satisfied	-8509
environmental	-8510
founder	-8511
▁amend	-8512
bright	-8513
cars	-8514
▁supplement	-8515
▁(0	-8516
laure	-8517
ervations	-8518
ili	-8519
http	-8520
▁studying	-8521
▁automatic	-8522
registration	-8523
marine	-8524
▁catalog	-8525
dance	-8526
▁environments	-8527
▁stamp	-8528
▁stylish	-8529
▁chest	-8530
detroit	-8531
alo	-8532
▁08	-8533
▁requested	-8534
▁employer	-8535
▁errors	-8536
bbc	-8537
alab	-8538
▁holes	-8539
▁ensures	-8540
▁transaction	-8541
▁stro	-8542
utter	-8543
▁worn	-8544
altern	-8545
▁evaluation	-8546
aux	-8547
▁pregnancy	-8548
hit	-8549
/1	-8550
▁accommodation	-8551
bern	-8552
cake	-8553
▁approaches	-8554
▁singing	-8555
tx	-8556
yah	-8557
▁repeated	-8558
▁compliment	-8559
▁possess	-8560
andon	-8561
▁haz	-8562
simple	-8563
▁sorry	-8564
300	-8565
▁beef	-8566
aws	-8567
ige	-8568
▁assem	-8569
peace	-8570
ipt	-8571
▁actress	-8572
▁finishing	-8573
▁subjects	-8574
▁transactions	-8575
▁outcomes	-8576
introdu	-8577
marsh	-8578
▁hearts	-8579
▁trusted	-8580
izon	-8581
aine	-8582
▁nose	-8583
▁directions	-8584
kl	-8585
▁cancell	-8586
▁pizza	-8587
▁false	-8588
▁infection	-8589
▁pregnant	-8590
▁scoring	-8591
▁stored	-8592
▁toys	-8593
▁comedy	-8594
▁rapidly	-8595
▁exclus	-8596
▁sought	-8597
docu	-8598
▁strongly	-8599
fig	-8600
▁correctly	-8601
▁collections	-8602
▁certificate	-8603
▁prime	-8604
gab	-8605
orient	-8606
resist	-8607
▁fabulous	-8608
▁initially	-8609
api	-8610
▁42	-8611
▁tissue	-8612
kle	-8613
▁49	-8614
▁blogs	-8615
premier	-8616
▁2018.	-8617
images	-8618
▁ranging	-8619
aret	-8620
▁literature	-8621
▁tox	-8622
feed	-8623
boards	-8624
▁granted	-8625
rod	-8626
etts	-8627
▁unusual	-8628
nature	-8629
aha	-8630
▁2011.	-8631
profile	-8632
urious	-8633
lib	-8634
fers	-8635
hav	-8636
uties	-8637
▁neighb	-8638
▁flights	-8639
▁3:	-8640
fm	-8641
▁$20	-8642
blood	-8643
▁makeup	-8644
▁prosecut	-8645
▁melt	-8646
▁therap	-8647
▁restrictions	-8648
▁tube	-8649
crit	-8650
resort	-8651
ounge	-8652
▁dispos	-8653
uv	-8654
regard	-8655
jane	-8656
galaxy	-8657
▁athletes	-8658
▁ladies	-8659
▁represented	-8660
ificial	-8661
sens	-8662
▁tablet	-8663
▁swing	-8664
▁discussions	-8665
▁investments	-8666
condition	-8667
▁fer	-8668
▁deeper	-8669
▁hiring	-8670
something	-8671
▁globe	-8672
bai	-8673
▁exhaust	-8674
andre	-8675
▁bone	-8676
▁inventory	-8677
kal	-8678
▁frustr	-8679
▁gate	-8680
breaking	-8681
issu	-8682
sym	-8683
mayor	-8684
amental	-8685
▁indoor	-8686
▁personalized	-8687
▁acquired	-8688
▁container	-8689
▁hip	-8690
really	-8691
▁$50	-8692
hat	-8693
▁hitting	-8694
onymous	-8695
▁kil	-8696
▁surge	-8697
▁branch	-8698
▁workplace	-8699
eman	-8700
▁aimed	-8701
gets	-8702
could	-8703
▁finest	-8704
▁franchise	-8705
scient	-8706
until	-8707
several	-8708
pas	-8709
▁29,	-8710
▁cam	-8711
▁terr	-8712
albert	-8713
▁strengthen	-8714
▁tact	-8715
num	-8716
▁voters	-8717
▁initiatives	-8718
fif	-8719
morgan	-8720
▁delivers	-8721
▁prayer	-8722
effective	-8723
metal	-8724
apply	-8725
▁math	-8726
ensus	-8727
democratic	-8728
▁workout	-8729
▁narr	-8730
▁refriger	-8731
henom	-8732
ceeds	-8733
speaking	-8734
▁surve	-8735
▁shr	-8736
▁experiencing	-8737
▁44	-8738
rib	-8739
▁falls	-8740
wait	-8741
▁ft	-8742
anthony	-8743
▁contracts	-8744
ystem	-8745
technical	-8746
▁nursing	-8747
▁outfit	-8748
bin	-8749
▁39	-8750
▁contained	-8751
ey	-8752
▁coal	-8753
▁photographer	-8754
originally	-8755
notes	-8756
▁tons	-8757
pire	-8758
points	-8759
▁thri	-8760
rer	-8761
▁keys	-8762
bris	-8763
gue	-8764
ito	-8765
virt	-8766
▁shapes	-8767
fine	-8768
▁refin	-8769
cub	-8770
inding	-8771
▁containing	-8772
▁grocer	-8773
som	-8774
▁drain	-8775
achus	-8776
viously	-8777
lined	-8778
▁beans	-8779
movie	-8780
▁stability	-8781
located	-8782
bid	-8783
▁layout	-8784
▁aes	-8785
hig	-8786
▁targeted	-8787
▁2011,	-8788
▁powered	-8789
▁ministry	-8790
▁rolling	-8791
wash	-8792
gall	-8793
leave	-8794
tennes	-8795
▁responded	-8796
▁interpret	-8797
▁weigh	-8798
▁(8	-8799
▁50%	-8800
records	-8801
▁stayed	-8802
▁600	-8803
denver	-8804
oul	-8805
orneys	-8806
fant	-8807
rell	-8808
ials	-8809
carl	-8810
kill	-8811
pink	-8812
hours	-8813
▁decent	-8814
▁emerging	-8815
▁certification	-8816
▁emotions	-8817
▁telephone	-8818
purch	-8819
▁floors	-8820
ping	-8821
▁onion	-8822
matthew	-8823
▁editing	-8824
lux	-8825
given	-8826
▁wise	-8827
elle	-8828
rober	-8829
▁neut	-8830
▁expanded	-8831
athon	-8832
keeping	-8833
▁mild	-8834
iso	-8835
urse	-8836
▁nob	-8837
iche	-8838
itis	-8839
▁domin	-8840
berries	-8841
▁mistake	-8842
▁utility	-8843
bish	-8844
▁sentence	-8845
▁twe	-8846
▁cats	-8847
▁pilot	-8848
risk	-8849
▁roots	-8850
km	-8851
▁demonstrate	-8852
meeting	-8853
▁knock	-8854
▁aged	-8855
▁estimate	-8856
jet	-8857
defense	-8858
▁suffer	-8859
incre	-8860
tains	-8861
ockets	-8862
within	-8863
▁breaks	-8864
▁themes	-8865
cular	-8866
▁segment	-8867
▁grace	-8868
▁login	-8869
▁nutrition	-8870
▁skilled	-8871
coln	-8872
▁copies	-8873
nab	-8874
▁sufficient	-8875
▁1.5	-8876
maryland	-8877
▁crypt	-8878
consider	-8879
▁diabetes	-8880
▁formula	-8881
▁accounting	-8882
anderson	-8883
ighth	-8884
dol	-8885
flash	-8886
achusetts	-8887
mile	-8888
easter	-8889
eness	-8890
▁couples	-8891
▁offensive	-8892
▁artwork	-8893
▁weird	-8894
wedding	-8895
parts	-8896
stood	-8897
▁engines	-8898
coffee	-8899
▁hors	-8900
ami	-8901
▁belt	-8902
▁purchases	-8903
▁peak	-8904
aundry	-8905
ontario	-8906
▁recru	-8907
▁31,	-8908
▁buff	-8909
▁largely	-8910
shine	-8911
▁appointed	-8912
igious	-8913
essential	-8914
holiday	-8915
function	-8916
▁indicate	-8917
▁sear	-8918
magic	-8919
▁equally	-8920
weather	-8921
▁explan	-8922
▁admit	-8923
▁voted	-8924
▁viewed	-8925
simon	-8926
salt	-8927
68	-8928
▁drives	-8929
nar	-8930
▁rubber	-8931
clinton	-8932
gil	-8933
▁export	-8934
▁defensive	-8935
▁evil	-8936
million	-8937
ika	-8938
▁attitude	-8939
sold	-8940
▁tours	-8941
doll	-8942
▁07	-8943
bloom	-8944
▁organisations	-8945
protect	-8946
▁hosts	-8947
assion	-8948
stri	-8949
▁conver	-8950
sis	-8951
massachusetts	-8952
▁scre	-8953
fle	-8954
69	-8955
▁5-	-8956
michel	-8957
▁leaf	-8958
▁characteristics	-8959
turkey	-8960
tennessee	-8961
▁operated	-8962
udd	-8963
▁hide	-8964
fellow	-8965
▁inspect	-8966
apolis	-8967
▁tender	-8968
lincoln	-8969
▁’	-8970
justin	-8971
pv	-8972
▁advantages	-8973
assembly	-8974
▁patch	-8975
raine	-8976
▁checks	-8977
▁react	-8978
pil	-8979
bered	-8980
▁assume	-8981
gly	-8982
▁muscles	-8983
▁layers	-8984
rece	-8985
▁laser	-8986
portland	-8987
▁equivalent	-8988
▁comprom	-8989
fem	-8990
▁shadow	-8991
harris	-8992
chap	-8993
▁stainless	-8994
▁2002	-8995
ouver	-8996
iot	-8997
juana	-8998
▁locally	-8999
▁distr	-9000
▁ownership	-9001
mis	-9002
▁babies	-9003
▁reportedly	-9004
▁resid	-9005
▁dess	-9006
▁votes	-9007
ui	-9008
▁reject	-9009
▁sne	-9010
▁killing	-9011
!!!!	-9012
governor	-9013
▁respective	-9014
nels	-9015
▁letting	-9016
▁exercises	-9017
▁importantly	-9018
▁suppliers	-9019
kath	-9020
▁ranked	-9021
▁encounter	-9022
▁uncertain	-9023
▁10-	-9024
claimed	-9025
▁deserve	-9026
ortion	-9027
▁1)	-9028
▁neither	-9029
||$	-9030
▁stood	-9031
wheel	-9032
▁cu	-9033
▁studied	-9034
▁streaming	-9035
▁productivity	-9036
leading	-9037
links	-9038
▁oral	-9039
ogen	-9040
▁suite	-9041
▁ink	-9042
▁loud	-9043
abil	-9044
cards	-9045
▁authentic	-9046
▁spir	-9047
▁entrepreneur	-9048
agre	-9049
nan	-9050
▁delighted	-9051
lace	-9052
▁mirror	-9053
springs	-9054
tai	-9055
gical	-9056
▁fort	-9057
▁cancel	-9058
iatric	-9059
▁360	-9060
▁10%	-9061
▁maps	-9062
▁inspire	-9063
phill	-9064
▁spa	-9065
▁parks	-9066
▁survive	-9067
▁hack	-9068
▁campaigns	-9069
▁worried	-9070
▁pip	-9071
ashing	-9072
▁subsid	-9073
▁complement	-9074
▁implemented	-9075
kg	-9076
▁lowest	-9077
▁auction	-9078
▁inse	-9079
▁acquisition	-9080
cia	-9081
▁aer	-9082
▁institution	-9083
bsp	-9084
cit	-9085
▁respectively	-9086
vanc	-9087
▁objective	-9088
similar	-9089
▁veteran	-9090
target	-9091
particip	-9092
▁2)	-9093
▁adopted	-9094
▁bol	-9095
▁wrap	-9096
▁religion	-9097
▁odd	-9098
wales	-9099
▁ske	-9100
▁vert	-9101
▁banking	-9102
▁handy	-9103
▁equity	-9104
▁displays	-9105
wow	-9106
▁knee	-9107
question	-9108
▁earnings	-9109
▁possibilities	-9110
▁prohib	-9111
iour	-9112
▁refres	-9113
▁enhanced	-9114
pine	-9115
highway	-9116
▁gathering	-9117
onda	-9118
▁depression	-9119
alabama	-9120
▁insert	-9121
attoo	-9122
esh	-9123
degree	-9124
oenix	-9125
incess	-9126
ighters	-9127
▁occurs	-9128
discuss	-9129
▁moisture	-9130
healthy	-9131
tea	-9132
▁190	-9133
▁plum	-9134
chairman	-9135
▁secondary	-9136
▁appreciated	-9137
diamond	-9138
▁shortly	-9139
quarters	-9140
▁sed	-9141
▁intel	-9142
jar	-9143
iki	-9144
▁mig	-9145
▁fib	-9146
▁settle	-9147
▁beneficial	-9148
▁pursue	-9149
▁distributed	-9150
afghan	-9151
leon	-9152
▁vanilla	-9153
▁abilities	-9154
besides	-9155
▁picking	-9156
▁intention	-9157
▁2014,	-9158
▁spectacular	-9159
▁brothers	-9160
gam	-9161
▁attempts	-9162
▁retired	-9163
▁vendors	-9164
▁impressed	-9165
▁consistently	-9166
▁mistakes	-9167
terms	-9168
judge	-9169
fest	-9170
spr	-9171
oklah	-9172
moore	-9173
▁portra	-9174
▁crown	-9175
between	-9176
changes	-9177
▁reb	-9178
repl	-9179
itty	-9180
▁combat	-9181
malays	-9182
voice	-9183
▁mountains	-9184
▁straw	-9185
▁deadline	-9186
analysis	-9187
olympic	-9188
▁junior	-9189
▁sop	-9190
hiv	-9191
▁lawyers	-9192
homes	-9193
▁followers	-9194
▁celebrated	-9195
vancouver	-9196
▁balls	-9197
respons	-9198
▁explos	-9199
eters	-9200
advert	-9201
▁vibrant	-9202
▁overnight	-9203
▁stom	-9204
▁representatives	-9205
▁02	-9206
kate	-9207
encing	-9208
',	-9209
▁retailers	-9210
▁bedrooms	-9211
▁fewer	-9212
ouri	-9213
▁beautifully	-9214
▁cater	-9215
addy	-9216
▁fuck	-9217
▁unif	-9218
▁advertis	-9219
abc	-9220
▁passengers	-9221
67	-9222
▁walks	-9223
▁instantly	-9224
uls	-9225
ppers	-9226
▁salary	-9227
▁expanding	-9228
nowned	-9229
▁iconic	-9230
hann	-9231
▁entitled	-9232
▁graduated	-9233
▁phenom	-9234
navy	-9235
▁coconut	-9236
▁customized	-9237
ellite	-9238
▁reply	-9239
nba	-9240
tical	-9241
▁inspection	-9242
especially	-9243
utah	-9244
▁universities	-9245
arms	-9246
▁span	-9247
leges	-9248
▁transmission	-9249
▁passes	-9250
▁argument	-9251
ulating	-9252
▁statistics	-9253
kers	-9254
▁disaster	-9255
holder	-9256
▁nail	-9257
▁documentation	-9258
▁losses	-9259
▁investing	-9260
pier	-9261
▁dies	-9262
▁boil	-9263
spl	-9264
▁reviewed	-9265
400	-9266
bey	-9267
oust	-9268
▁wes	-9269
▁northern	-9270
▁chronic	-9271
▁democr	-9272
▁curriculum	-9273
▁squad	-9274
affairs	-9275
▁protest	-9276
▁producers	-9277
companies	-9278
▁pollut	-9279
reserved	-9280
▁thousand	-9281
umni	-9282
buck	-9283
▁excit	-9284
dna	-9285
ifting	-9286
clar	-9287
▁bass	-9288
▁tackle	-9289
▁sevent	-9290
▁consequences	-9291
▁coaches	-9292
oklahoma	-9293
▁rhy	-9294
wayne	-9295
▁credits	-9296
cream	-9297
▁answe	-9298
▁pointed	-9299
delhi	-9300
▁empower	-9301
▁privile	-9302
urer	-9303
ustration	-9304
▁wheels	-9305
▁alert	-9306
▁repeat	-9307
▁wis	-9308
depth	-9309
▁servers	-9310
▁celebrating	-9311
stadium	-9312
▁philosophy	-9313
▁venture	-9314
▁answered	-9315
cold	-9316
epis	-9317
▁accommodate	-9318
correct	-9319
clark	-9320
▁1,000	-9321
olen	-9322
▁heavily	-9323
-15	-9324
▁1980	-9325
▁sweat	-9326
offs	-9327
▁2016,	-9328
▁stocks	-9329
liver	-9330
▁captured	-9331
tunes	-9332
▁fruits	-9333
▁rescue	-9334
▁mask	-9335
▁template	-9336
▁upload	-9337
▁concerning	-9338
jean	-9339
mouth	-9340
whatever	-9341
▁wildlife	-9342
▁module	-9343
melbourne	-9344
iameter	-9345
ijuana	-9346
▁gathered	-9347
pic	-9348
▁dramatic	-9349
▁screw	-9350
▁western	-9351
▁happiness	-9352
42	-9353
▁meters	-9354
▁restore	-9355
rc	-9356
mistry	-9357
overty	-9358
chers	-9359
jacob	-9360
▁alter	-9361
▁abandon	-9362
authority	-9363
▁discounts	-9364
▁excellence	-9365
▁compact	-9366
▁compatible	-9367
▁decline	-9368
▁soup	-9369
▁hydro	-9370
chrome	-9371
▁fiction	-9372
▁circle	-9373
continu	-9374
▁amongst	-9375
▁contributed	-9376
scholar	-9377
▁generations	-9378
abling	-9379
luck	-9380
kentucky	-9381
▁evolution	-9382
posts	-9383
xbox	-9384
enger	-9385
▁drum	-9386
▁hunting	-9387
▁lasting	-9388
▁medication	-9389
yellow	-9390
▁potatoes	-9391
▁diagnosis	-9392
▁quotes	-9393
dutch	-9394
ropical	-9395
industrial	-9396
▁applicable	-9397
▁suddenly	-9398
phoenix	-9399
▁overcome	-9400
rection	-9401
▁2.0	-9402
extra	-9403
▁interaction	-9404
▁hyper	-9405
lectual	-9406
pra	-9407
unlike	-9408
▁smoking	-9409
junior	-9410
▁ceiling	-9411
▁indicated	-9412
▁describes	-9413
airy	-9414
▁1990	-9415
owned	-9416
▁fundamental	-9417
/7	-9418
brew	-9419
▁ratio	-9420
▁chemicals	-9421
hend	-9422
▁lun	-9423
athlet	-9424
▁dancing	-9425
▁pour	-9426
▁scratch	-9427
▁sheets	-9428
▁2010,	-9429
lower	-9430
spons	-9431
▁operational	-9432
▁okay	-9433
cord	-9434
▁minds	-9435
▁bug	-9436
▁2010.	-9437
▁targets	-9438
▁processed	-9439
flower	-9440
▁adequ	-9441
▁entries	-9442
▁assigned	-9443
▁spokesman	-9444
▁prints	-9445
jennifer	-9446
▁developments	-9447
▁extent	-9448
▁relaxing	-9449
▁acknowled	-9450
▁heritage	-9451
advant	-9452
bun	-9453
▁abroad	-9454
▁hal	-9455
▁bull	-9456
▁continuous	-9457
▁chairman	-9458
▁impression	-9459
▁frozen	-9460
▁excitement	-9461
▁generous	-9462
▁wound	-9463
spa	-9464
nash	-9465
▁king	-9466
plates	-9467
▁harvest	-9468
thanksgiving	-9469
latest	-9470
▁2001	-9471
▁moon	-9472
▁buttons	-9473
▁extraordinary	-9474
payment	-9475
▁sectors	-9476
▁viewers	-9477
▁wider	-9478
histicated	-9479
▁divorce	-9480
▁amb	-9481
▁alike	-9482
than	-9483
▁representing	-9484
dean	-9485
▁compan	-9486
▁periods	-9487
democrats	-9488
▁observed	-9489
▁processor	-9490
▁withdraw	-9491
▁conversations	-9492
▁engineers	-9493
▁04	-9494
▁rang	-9495
▁thoroughly	-9496
left	-9497
sty	-9498
?!	-9499
aping	-9500
flex	-9501
mental	-9502
inkle	-9503
▁reserve	-9504
▁bub	-9505
▁stops	-9506
wol	-9507
iere	-9508
▁sleeping	-9509
gorith	-9510
▁accord	-9511
▁meaningful	-9512
▁actively	-9513
grad	-9514
ferent	-9515
pages	-9516
▁sponsored	-9517
pharm	-9518
▁2017,	-9519
▁comic	-9520
▁suspend	-9521
uts	-9522
▁amenities	-9523
diy	-9524
▁folder	-9525
▁chip	-9526
▁elections	-9527
hydr	-9528
▁lawn	-9529
▁oils	-9530
organic	-9531
nice	-9532
▁chairs	-9533
premium	-9534
▁ward	-9535
includes	-9536
▁beds	-9537
udes	-9538
▁physician	-9539
bureau	-9540
culture	-9541
▁races	-9542
▁buyer	-9543
▁voting	-9544
▁entertaining	-9545
▁theater	-9546
▁supporters	-9547
campus	-9548
views	-9549
87	-9550
crow	-9551
▁inquir	-9552
▁citizen	-9553
▁robust	-9554
▁relative	-9555
▁subscribe	-9556
barr	-9557
ocation	-9558
photography	-9559
▁listings	-9560
▁rehab	-9561
missouri	-9562
/200	-9563
coal	-9564
usually	-9565
category	-9566
rous	-9567
beauty	-9568
▁03	-9569
lects	-9570
▁rated	-9571
?)	-9572
mall	-9573
▁existence	-9574
later	-9575
rix	-9576
iah	-9577
▁cyber	-9578
brooklyn	-9579
unicipal	-9580
▁rack	-9581
quis	-9582
pitts	-9583
▁vulnerable	-9584
bond	-9585
tool	-9586
▁hub	-9587
▁publishing	-9588
cled	-9589
▁surrounded	-9590
▁mole	-9591
wright	-9592
▁apple	-9593
▁gal	-9594
▁pushing	-9595
generation	-9596
▁nutri	-9597
▁greet	-9598
▁nin	-9599
storage	-9600
▁flavors	-9601
sad	-9602
gged	-9603
attan	-9604
▁designing	-9605
guy	-9606
▁protocol	-9607
%,	-9608
▁precious	-9609
▁objectives	-9610
nurs	-9611
▁gambling	-9612
inside	-9613
▁financing	-9614
▁hospitals	-9615
||1	-9616
recently	-9617
rise	-9618
▁tent	-9619
olly	-9620
ingham	-9621
▁eliminate	-9622
▁hesit	-9623
▁substantial	-9624
▁fired	-9625
▁exterior	-9626
region	-9627
▁cord	-9628
▁spell	-9629
emergency	-9630
▁habits	-9631
▁currency	-9632
▁2015,	-9633
▁protecting	-9634
▁exclusively	-9635
▁latter	-9636
▁scope	-9637
alliance	-9638
ibraries	-9639
▁produces	-9640
element	-9641
▁resulted	-9642
▁ye	-9643
itzer	-9644
▁ware	-9645
▁resolve	-9646
▁dil	-9647
▁cust	-9648
agan	-9649
▁(7	-9650
▁pushed	-9651
▁virtually	-9652
aki	-9653
normal	-9654
▁bottles	-9655
avy	-9656
entry	-9657
veland	-9658
▁completing	-9659
4)	-9660
▁emotion	-9661
▁artistic	-9662
▁dried	-9663
uters	-9664
architect	-9665
zo	-9666
isms	-9667
▁backup	-9668
▁screening	-9669
▁specialists	-9670
41	-9671
korean	-9672
▁acres	-9673
▁rust	-9674
▁guides	-9675
▁soccer	-9676
▁offense	-9677
rist	-9678
▁balanced	-9679
▁responses	-9680
igen	-9681
itches	-9682
thread	-9683
▁assembly	-9684
wolf	-9685
multi	-9686
walker	-9687
▁evaluate	-9688
▁fingers	-9689
gie	-9690
boot	-9691
▁toler	-9692
netic	-9693
erving	-9694
▁bacteria	-9695
▁seal	-9696
▁shade	-9697
oven	-9698
▁prev	-9699
▁conscious	-9700
▁discovery	-9701
grace	-9702
dh	-9703
▁cha	-9704
▁seller	-9705
▁instruments	-9706
begin	-9707
chamber	-9708
▁outdoors	-9709
▁integrity	-9710
starting	-9711
dest	-9712
▁encouraging	-9713
casino	-9714
▁remem	-9715
▁4:	-9716
assess	-9717
▁regulatory	-9718
recommend	-9719
rup	-9720
restaurant	-9721
▁surely	-9722
▁	-9723
e	-9724
t	-9725
a	-9726
o	-9727
i	-9728
n	-9729
s	-9730
r	-9731
h	-9732
l	-9733
d	-9734
c	-9735
u	-9736
m	-9737
p	-9738
f	-9739
g	-9740
y	-9741
w	-9742
b	-9743
.	-9744
v	-9745
,	-9746
k	-9747
-	-9748
0	-9749
1	-9750
x	-9751
2	-9752
j	-9753
’	-9754
'	-9755
:	-9756
z	-9757
q	-9758
)	-9759
(	-9760
3	-9761
5	-9762
4	-9763
"	-9764
9	-9765
8	-9766
6	-9767
!	-9768
|	-9769
7	-9770
/	-9771
“	-9772
?	-9773
”	-9774
–	-9775
;	-9776
&	-9777
$	-9778
%	-9779
—	-9780
…	-9781
*	-9782
‘	-9783
>	-9784
[	-9785
]	-9786
_	-9787
+	-9788
@	-9789
#	-9790
•	-9791
=	-9792
£	-9793
é	-9794
®	-9795
©	-9796
<	-9797
€	-9798
~	-9799
™	-9800
·	-9801
»	-9802
°	-9803
\	-9804
`	-9805
â	-9806
″	-9807
í	-9808
á	-9809
ü	-9810
а	-9811
½	-9812
ó	-9813
о	-9814
ö	-9815
×	-9816
е	-9817
ä	-9818
Â	-9819
и	-9820
è	-9821
^	-9822
🙂	-9823
ñ	-9824
ا	-9825
н	-9826
´	-9827
т	-9828
→	-9829
ç	-9830
р	-9831
с	-9832
в	-9833
ā	-9834
«	-9835
à	-9836
★	-9837
′	-9838
¼	-9839
●	-9840
§	-9841
ل	-9842
к	-9843
л	-9844
️	-9845
п	-9846
ø	-9847
å	-9848
²	-9849
±	-9850
ú	-9851
‚	-9852
м	-9853
ã	-9854
›	-9855
م	-9856
ر	-9857
ô	-9858
у	-9859
ن	-9860
α	-9861
д	-9862
�	-9863
¢	-9864
Ã	-9865
♥	-9866
😉	-9867
 	-9868
ı	-9869
º	-9870
و	-9871
É	-9872
†	-9873
ê	-9874
„	-9875
ي	-9876
ा	-9877
ο	-9878
š	-9879
，	-9880
я	-9881
ت	-9882
ب	-9883
ë	-9884
►	-9885
−	-9886
ی	-9887
❤	-9888
س	-9889
¾	-9890
د	-9891
‐	-9892
œ	-9893
ï	-9894
č	-9895
ه	-9896
з	-9897
ō	-9898
✔	-9899
ы	-9900
г	-9901
⁄	-9902
的	-9903
ь	-9904
μ	-9905
й	-9906
्	-9907
र	-9908
क	-9909
æ	-9910
ī	-9911
：	-9912
µ	-9913
б	-9914
ć	-9915
✓	-9916
ł	-9917
¬	-9918
₹	-9919
Ö	-9920
―	-9921
े	-9922
ß	-9923
τ	-9924
ع	-9925
ş	-9926
。	-9927
і	-9928
ν	-9929
β	-9930
Ø	-9931
ι	-9932
ч	-9933
ﬁ	-9934
ε	-9935
■	-9936
י	-9937
न	-9938
‑	-9939
♦	-9940
ि	-9941
ी	-9942
Á	-9943
ف	-9944
、	-9945
स	-9946
Ü	-9947
😀	-9948
¥	-9949
ð	-9950
ū	-9951
¿	-9952
ś	-9953
î	-9954
ğ	-9955
σ	-9956
↑	-9957
त	-9958
ρ	-9959
म	-9960
ѕ	-9961
Ђ	-9962
ו	-9963
ك	-9964
ž	-9965
☆	-9966
λ	-9967
С	-9968
ă	-9969
π	-9970
】	-9971
【	-9972
ー	-9973
ˈ	-9974
